 #version: 0.2 - Trained by `huggingface/tokenizers`
# #
## ##
#### ####
e n
c h
e r
######## ########
Ġ d
0 0
e i
Ġ s
0 1
i e
Ġ a
Ġ w
Ġ i
n d
Ġ m
s t
Ġ g
i ch
Ġ n
ei n
Ġ u
Ġ 2
e s
00 00
Ġ2 01
Ġ h
## #
Ġ ################
#### ###
######## #######
################ ###############
Ġ################ ###############################
a s
Ġd ie
Ġ b
a n
. .
Ġ v
Ġ201 5
Ã ¼
Ġ k
s ch
l l
Ġa u
Ġu nd
t e
Ġ f
o n
n g
ich t
Ã ¤
Ġ z
Ġ l
Ġ p
Ġ ein
i t
Ġd as
r e
Ġg e
g en
a l
a r
a t
Ġd er
e u
o r
Ġn icht
i r
a u
e m
h r
Ġi n
Ġz u
u ng
Ġs o
Ġ t
t en
e l
i er
Ġs ch
a ch
Ġi st
i n
1 2
Ġ j
m m
i g
b er
Ã ¶
u r
Ġi ch
e t
d en
l ich
Ġd en
b en
d er
Ã¼ r
a nd
Ġ es
Ġv er
e g
Ġw ir
t er
! !
o l
a m
i nd
an n
Ġu n
o ch
i s
Ġ o
Ġm it
Ġau f
d e
.. .
s l
e h
r o
Ġh a
Ġa n
Ġ er
Ġau ch
ei t
i d
s en
a g
t sch
Ġs ie
Ġ201 4
Ġ r
Ġw ie
Ġ Ġ
s e
Ġs t
Ġs ich
Ġv on
Ġd a
1 9
Ġ re
1 8
Ã Ł
id a
Ġb e
en n
eu tsch
2 1
c k
nd er
Ġa ll
eg ida
u t
ch t
Ġw er
i k
e hr
i st
Ġs ind
i sch
Ġ Ċ
2 2
Ġm an
Ġd u
Ġw as
Ġau s
Ġa l
2 0
i on
Ġd eutsch
Ġd em
b e
g e
s er
Ġf Ã¼r
1 5
1 4
Ġj a
Ġi hr
Ġa ber
ein e
u s
Ġp egida
et z
Ġf r
1 3
Ġn ur
w w
o mm
f en
Ġh at
Ġal s
u n
f t
Ġ "
Ġw o
1 7
h t
Ġ eu
ei l
1 6
Ġw enn
1 1
ie l
h l
Ġm al
u nd
.. ..
t t
Ġw ar
2 3
Ġn och
0 7
h n
Ġein e
1 0
er n
l and
Ġha ben
r a
Ã¼ ber
b t
Ġg es
r ei
o m
i ng
u m
i l
Ġwir d
en t
Ġv or
Ġb ei
Ġi sl
Ġisl am
Ġh ier
Ġge gen
Ġo der
Ġd ann
k t
0 6
Ġwer den
ch en
i m
Ġi m
Ġm ehr
: /
ll en
0 9
sch en
:/ /
Ġd och
Ġdas s
Ġp ol
2 5
an z
Ġu m
tt p
Ġh ttp
Ġs p
Ġ Ã¼ber
Ġk ann
Ã¶ n
Ġa b
u l
ð Ł
Ġm ein
0 8
ier en
ĠĠ ĠĠ
Ġg l
Ġsch on
st en
Ġw ei
f a
Ġm en
2 6
Ġn ach
? ?
Ġdeutsch land
st e
e d
r es
ier t
it ik
Ġk omm
o s
Ġso ll
Ġa nder
Ġg r
Ġs ein
Ġun ser
i gen
Ġv iel
ach t
mm er
Ġ (
2 7
0 5
Ġ -
Ġp ro
Ġge h
Ġa r
e ben
s p
2 4
Ġun s
Ġg en
Ġs te
n en
er r
etz t
i en
Ġun ter
eh en
Ġk ein
Ġall e
k en
Ġmen schen
Ġ :
0 4
ww w
Ã¶ r
as s
v er
a z
b l
h eit
ch e
eu te
!! !
i ll
r au
Ġk l
Ġdie se
or t
Ġeu ch
Ġd es
â Ģ
Ġk eine
Ġa ng
ist en
o t
at ion
z u
Ġi mmer
Ġw el
us s
h e
ei gen
Ġm ir
Ġm u
f fen
ung en
Ã¤ t
m en
k e
g er
0 3
h a
Ġg i
2 9
Ġb es
ðŁ ĺ
i mm
isch en
r ie
h re
Ġwie der
Ġ ,
Ġk Ã¶n
3 0
o k
ag e
Ġg anz
i v
Ġgi bt
p p
ach en
a gen
ol k
3 1
Ġj e
Ġd ar
Ġpol itik
Ġf a
Ġ e
Ġm ich
Ġge w
au s
on st
Ġj etzt
al t
Ã¤ nder
w ei
sl im
Ġge ht
Ġb l
Ġein en
0 2
te t
m al
as sen
Ġs el
f f
g es
ig e
Ġre cht
Ġv olk
Ġs ei
Ġsch l
e ll
Ġ c
Ġg ut
Ġw Ã¤
Ġ !
Ġa m
a d
w as
Ġw a
Ġden n
Ġl ie
Ġm Ã¼
Ġb in
an g
b ei
p f
ur ch
Ġl ei
Ġall es
d em
2 8
Ġmu slim
r Ã¼
ar t
c om
Ġl and
Ġdie s
Ġ en
Ġb er
Ġwei ter
t lich
Ġ ...
k omm
Ĉ Ĉ
Ġein f
i z
Ġge l
Ġw Ã¼r
e b
!! !!
Ġ eigen
Ġein er
isch e
Ġd urch
Ġ ch
Ġm o
Ġ et
ier ung
o ll
Ġnicht s
Ġzu m
r u
ei ch
3 5
Ã¤ ng
z en
b st
r an
Ġn az
3 7
Ġl in
3 8
Ġw eil
Ġges ch
4 5
Ġm uss
5 0
hr en
Ġw ur
Ġgl au
3 4
3 9
Ġeinf ach
Ġi hre
5 5
3 6
t i
ung s
4 0
4 9
Ġha be
4 8
g t
Ã¤ u
4 6
it te
5 8
Ã¤ r
Ġsch w
5 7
Ġhttp s
4 4
ĠĠĠĠ ĠĠĠĠ
Ġh in
e gen
4 7
5 6
ag t
5 9
Ġw ill
d lich
3 3
Ġs ehr
Ġl eben
er k
g el
h er
in n
Ġg er
e st
h en
5 4
3 2
l ig
er t
5 3
Ġd am
4 1
Ġso l
5 1
Ġm achen
4 3
Ġals o
il d
5 2
Ġn ie
sch l
Ġl eute
y o
4 2
ll t
a hl
a ft
d ie
Ġ .
r Ã¤
Ġunser e
ĠmÃ¼ s
es en
b r
Ġsoll te
- )
ĠkÃ¶n nen
s a
a at
s o
Ġre lig
Ġ ;
ÃŁ e
Ġviel e
Ġh err
Ġsel bst
bl em
al ten
Ġr icht
Ġh o
Ġd an
Ġwar um
Ġd ir
- -
Ġgen au
ro p
Ġ ?
r i
Ġf l
komm en
ch te
Ġver st
Ġer st
Ġt h
Ġb r
Ġwel t
an t
res den
Ġwo llen
Ġm acht
hn e
Ġpro blem
Ġfr au
l er
Ġge m
r at
res se
Ã¤ ch
Ġein em
Ġk ind
ck en
Ġb itte
ed ien
n er
Ġh er
Ġau sl
Ã¤ nd
and er
ĠwÃ¼r de
k l
Ġf re
Ġwo hl
f l
Ġw en
Ġrelig ion
p t
Ġver b
a b
ÃŁ en
Ġdeutsch en
t eil
Ġi s
Ġb is
Ġo b
Ġf ind
gen d
Ġd ich
Ġk on
r icht
Ġch r
Ġst ra
00 0
f Ã¼r
Ġgeh en
t z
Ġd resden
Ġ ent
Ġdeutsch e
ei d
ðŁĺ Ĥ
Ġdam it
Ġs u
ĠwÃ¤ re
Ã¼r ger
is sen
Ġg ro
g r
Ġt eil
a ll
Ġje der
Ġt un
a de
n e
Ġmein ung
Ġzu r
a f
Ġi hn
Ġst aat
au f
Ġb rau
Ġi r
Ġge f
Ġdie ser
ach e
te l
t re
Ġ âĢ
ut u
lich e
lich en
Ġg ar
yo utu
Ã¶r t
Ġf or
Ġz eit
o g
Ġd ein
Ġm Ã¶
a p
Ġbe st
Ġs agen
ig er
Ġmuslim e
Ġwur de
Ġet was
Ġm edien
ing en
.. ...
q u
Ġfr ie
Ġpolitik er
l in
nder n
el t
b ar
w ie
Ġkomm en
ĠmÃ¼s sen
eh men
Ġh ei
Ġander e
m l
Ġander en
ei cht
k eit
or d
Ġkomm t
imm t
m us
Ġt o
Ġwir k
Ġt err
Ġeu rop
p h
l e
Ġwar en
a h
Ġbe w
Ã¤ m
Ġm eine
Ġn eu
at t
Ġre g
p ol
s y
Ġterr or
Ġt he
ul t
z e
ie ll
Ġver l
sch aft
o ok
i al
Ġan ti
Ġh eute
ht ml
Ġk o
Ġn e
au t
sl em
ðŁ ĳ
Ã¼ gen
s s
Ġsich er
Ġn a
d eutsch
Ġin ter
is mus
ck t
er s
ran ten
ok rat
Ġl assen
Ġ 1
s u
c eb
an ge
ceb ook
or g
Ġgr Ã¼
Ġfr ei
Ġwa hr
_ _
Ġg u
Ġo hne
ei nd
Ġdem onst
Ġkl ar
p egida
mm en
Ġn un
Ġb el
Ġwirk lich
Ġsch ul
youtu be
Ġw eg
j a
at z
as st
Ġha st
Ġz w
f e
ing e
Ġso ndern
Ġk r
Ġang st
ĠkÃ¶n n
Ġmo slem
Ġlei der
Ġbe z
Ġkind er
on t
au fen
n et
at ch
Ġv om
Ġk rie
Ġbes ch
Ã¼ n
g l
Ġb ist
Ġpol iz
cht l
Ġp a
p e
Ġir gend
r en
w atch
el n
Ġh Ã¤t
Ġb Ã¼rger
ĈĈ ĈĈ
Ġ eh
f rei
ch er
Ġgr und
d et
s am
Ġausl Ã¤nder
erk el
Ġlin k
f or
as se
Ġbl ei
Ġgl eich
Ġb eg
Ġda zu
ÃŁ t
?? ?
Ġbes ser
Ġnaz is
Ġsch Ã¶n
w er
sch e
n is
Ġ eben
Ġda fÃ¼r
Ġkomm ent
Ġt Ã¼r
enn en
Ġdem okrat
ig t
Ġricht ig
i c
ut z
is ierung
Ġsch rei
Ġd ort
Ġ !!!
w o
Ġdu mm
d as
Ġ Ã¶
w ir
it ion
p er
Ã¼ chtl
Ġg o
Ġn ein
Ġm a
Ġs eit
es s
ll e
Ã¼ ck
au pt
Ġda bei
Ġb ild
v or
Ġe x
d i
Ġnaz i
Ġf Ã¼
s st
v on
Ġs ehen
iell eicht
Ġp l
Ġihn en
l t
Ġ ....
p l
k er
Ġchr ist
an gen
Ġeigen tlich
Ġdan ke
Ġ; )
m e
Ġs eine
fa cebook
pol itik
h in
Ġs y
Ġin te
Ġt ro
m ann
d u
Ġv ielleicht
ei st
Ġv oll
Ã¶ l
and en
Ġste ht
Ġden en
ter n
Ġw issen
o b
Ġr u
u g
Ġw or
Ġa sy
Ġsei d
ðŁĳ į
Ġk or
h Ã¤ng
i a
eh t
Ġm erkel
Ġein z
u er
Ġdies es
rÃ¼ ck
Ġasy l
Ġglau ben
h al
ĠĠĠĠĠĠĠĠ ĠĠĠĠĠĠĠĠ
o ten
Ġb et
b eit
Ġu ng
Ġl Ã¼gen
Ġsei te
Ġ ro
Ġihr en
Ġgew alt
ik al
Ġdie sen
Ġge st
ÃŁ er
Ġd e
Ġge b
Ġger ade
Ġzu sa
etz en
Ġ: -)
Ġ ðŁĺ
or gen
eg al
Ã¶r en
Ġp ar
w ander
Ġzusa mmen
z w
Ġbe d
Ġn at
Ġfrie dlich
Ġreg ierung
Ã¤ hl
Ķ âĢ
Ġd eine
Ġf al
Ġhin ter
Ġin s
2 01
Ġj u
i ck
Ġg ern
art ei
un kt
Ġdemonst r
ges ch
ol er
f Ã¼
it Ã¤t
Ġha b
a re
Ġpoliz ei
d r
Ã¤nder n
ðŁĺĤ ðŁĺĤ
Ġkein er
eg ung
r it
g lich
Ġsol che
iv e
p resse
Ġpol it
Ġp ass
ge b
f ol
Ġstra ÃŁe
Ġ @
Ġfr age
Ġrecht s
ult ur
Ġgeh Ã¶rt
Ġ: )
Ġje den
Ġdies em
enn t
ch ten
re chen
Ġdar f
Ġb eh
ĶâĢ ĶâĢ
Ġsch ei
Ġw e
Ġwel che
Ġanti fa
s icht
s w
z ial
Ġfor der
Ġj em
ha ha
Ġeu re
o st
d a
Ġ ..
Ġeurop a
eh e
Ġp ers
Ġz ei
Ġw egen
Ġso llen
i de
Ġb und
Ġsoll ten
ffen tlich
m it
Ġkrie g
ff e
e cht
Ġ qu
i x
Ġ; -)
an k
Ġ Ã¼
Ġ 19
Ġt rau
at en
Ġkein en
Ġd i
Ġgem acht
Ġp resse
Ġth em
Ġbe k
Ġmoslem s
Ġja hren
h ei
am e
z eit
v iel
un ter
Ã¼r lich
is k
ion en
ing t
a st
Ġh and
Ġa nd
Ġden ken
Ġj ed
ĠhÃ¤t te
g ar
a ber
Ġs agt
Ġan t
Ġn Ã¤ch
re cht
ann t
eh m
Ġfre und
ben d
och en
ĠâĢ ŀ
Ġm ar
h alten
sch t
Ġs onst
Ġander s
m an
Ġen dlich
Ġl esen
Ġfl Ã¼chtl
âĢ ľ
Ġdemokrat ie
Ġall er
Ġein mal
w ar
h o
fa ll
frei heit
Ġfind e
Ġ egal
am en
z ig
Ġver su
Ġislam isierung
r ag
Ġz ahl
i p
sch ie
wei se
isch er
w ort
Ġnat Ã¼rlich
-- --
Ġar beit
Ġihr er
Ġge d
as ch
o gen
dem onst
Ġr ad
Ġlie ber
Ġl etz
Ã¤ hr
kl Ã¤r
Ġr aus
Ġ te
Ġsch n
en d
Ġge ben
Ġ 3
Ġinte gr
Ġaus s
Ġha bt
ont ag
rie ben
au en
Ġda von
ell e
pp en
Ġd Ã¼r
for m
st em
l am
Ġsie ht
Ġa ch
Ġall en
sch ein
Ġwei ÃŁ
u st
al s
l os
Ġr es
Ġdem o
Ġwur den
Ġk ultur
or en
Ġlin ken
b ild
ĠmÃ¶ chte
sch w
hal b
Ġkl ein
Ġm ontag
l ie
deutsch land
im in
Ġar t
Ġgel d
f r
Ġt ag
Ġunser er
Ġglau be
Ġzu rÃ¼ck
Ġwen ig
w a
u nder
Ġl e
Ġbel eid
Ġber lin
Ġl ange
ra d
org an
Ġja hr
Ġgro ÃŁ
o p
al d
Ã¤ ter
Ġl ang
Ġp os
Ġt oler
an ten
hl en
it z
sp iel
Ġk ir
Ġr ass
Ġmen sch
Ã¤ n
Ġso was
Ġer n
Ġd isk
Ġbe kommen
Ġm ei
ell schaft
Ġz wei
Ġeigen en
st and
Ġkor an
Ġp artei
ad t
st Ã¤nd
Ġste hen
Ġo ffen
Ġge t
Ġf eh
Ġs inn
Ġn ix
o o
ĠkÃ¶nn te
Ġgo tt
b el
rei ch
k o
Ġpa ar
Ã¼ tz
Ġges p
ach sen
g um
Ġlink s
ĠtÃ¼r k
p zig
Ġ !!
m a
Ġk om
Ġd r
ig keit
und en
' s
f er
Ġar bei
Ġe cht
Ġnie m
l au
a te
ĠwÃ¼r den
n icht
sten s
Ġbund es
at er
Ġso gar
Ġges agt
Ġjem and
fa hr
.... ....
am il
er st
ich te
is lam
Ġm ann
h aupt
au m
Ã¼ t
Ã¤ d
Ġislam isten
ra gen
p ft
Ġz ie
Ġsp r
p ro
Ġrad ikal
Ã¶l ker
m ar
Ġh alt
g ehen
n ehmen
Ġunter st
re ck
?? ??
etz e
w or
Ġm us
un ft
Ġa bend
ig ung
Ġt at
tsch aft
eu t
Ġden ke
* *
f te
p fen
Ġsch ein
k te
Ġganz e
c e
Ġmein ungs
Ġw ort
ei chen
Ġsel ber
Ġver m
is s
Ġver t
ste llt
Ġbew egung
ach ten
Ġs e
b ur
Ġn ehmen
Ġar gum
Ġst r
Ġab s
Ġlie be
hÃ¤ng er
Ġs ag
Ġk am
Ġw i
men schen
u e
n ung
Ġja hre
pe kt
Ġh och
g em
Ġgem ein
Ġtro tz
Ġder en
g ang
Ġ: -
s k
f re
ir n
ation en
f eind
ap ier
Ġfal sch
Ġgu te
u ch
Ġgl Ã¼ck
Ġm ig
Ġan schl
res s
Ġgen ug
Ã¼ nd
Ġso zial
Ġgern e
Ġsu per
ge ben
" .
Ġn or
a ck
ro h
Ġre den
organ is
Ġhat te
au er
rit t
a a
o ck
Ġ 5
s inn
ide o
__ __
h m
aus o
Ġviel en
omm en
tre m
Ġres pekt
Ġeh er
Ġda ÃŁ
Ġh el
Ġ =
Ġlei pzig
ĠdÃ¼r fen
ĠÃ¼ber haupt
Ġ Ã¤
Ġer k
Ġgen auso
Ġfrau en
Ġh alten
ste ll
Ġge g
Ġinter ess
Ġblei ben
Ã¤ llt
Ġkomment ar
ĠlÃ¼gen presse
Ġmein en
r y
z ahl
Ġges ellschaft
Ġchr isten
w eil
a k
Ġfr ank
ge gen
Ġverst ehen
Ġein es
al itÃ¤t
Ġen tsch
ein ander
ll ig
ing s
Ġgr Ã¶
Ġ el
Ġsp az
Ġgr u
Ġ 8
a y
Ġb en
Ġst att
Ġc o
a den
s ver
? !
Ġf amil
Ġern st
Ġm orgen
Ġbest immt
gr und
Ġm ut
n ehm
d es
a kt
Ã¤u b
richt en
Ġn amen
Ġm ill
Ġver h
Ġl Ã¤
ge w
Ġk ur
l o
Ġthem a
z ie
Ġ 4
Ġfa ll
Ġpos ition
Ġl os
Ġproblem e
Ġ 9
at h
Ġmei sten
st er
ach mann
Ġb zw
an ken
ĠÃ¼ br
fol g
Ġr ein
ste llen
Ġa kt
n ame
eu ten
pp e
Ġganz en
Ġniem and
g eh
Ġst imm
Ġu sw
n t
pf er
Ġste llen
Ġ 6
Ġber eit
Ġan s
Ġw icht
Ġau gen
Ġwahr heit
Ġho ffe
Ġp r
Ġ ehr
ur teil
) .
Ġn ation
i an
ĠmÃ¶ glich
ind er
Ġpass iert
Ġw eit
Ã¤ lt
w egen
komm t
Ġk n
fa llen
Ġan f
Ġschrei ben
a hn
ĠÃ¶ ffentlich
Ġbei m
demonst ranten
Ġh Ã¶
bur g
n ah
Ġdar an
Ġ !!!!
v Ã¶lker
h alt
Ġhei m
w s
Ġf ol
k rie
Ġ em
Ġj o
lich er
wander ung
Ġkann st
Ġang e
den ken
201 5
ul d
Ġko pf
Ġblei bt
ik el
Ġbrau chen
d o
Ġmein er
r ig
Ġunser en
Ġeigen e
t l
ier ten
re u
Ġlin ke
Ġs ehe
Ġen de
t s
ph p
ĠflÃ¼chtl inge
Ġh il
Ġbez ahl
Ġkr imin
eg t
.... ..
Ġi de
Ã¶ s
Ġz eigen
Ġl egida
f ass
Ġwo ll
Ġst immt
sl and
Ġbei spiel
i f
n ach
Ġbrau cht
Ġschn ell
y p
ĈĈĈĈ ĈĈĈĈ
or den
Ġn ot
Ġpers on
en te
Ġer klÃ¤r
Ġirgend w
Ġein ige
ier te
Ġar m
Ġs or
an st
Ġl asst
Ġh al
Ġall em
Ġletz ten
ðŁĳį ðŁĳį
Ġ yo
Ġge z
Ġu r
Ġa f
Ġdes halb
Ġb achmann
Ġkomment are
Ġver s
Ġwi der
ier e
Ġfre m
Ġges ehen
e x
au ch
Ġb ald
Ġhei ÃŁt
ĠnÃ¤ch sten
Ġfrei heit
au sen
" ,
k ten
Ġju den
Ġr ei
w e
Ġarbei ten
sp apier
Ġnor mal
ĠÃ¼br igen
ich tet
Ġst ar
Ġdar Ã¼ber
hr t
Ġmit tel
Ġtat s
Ġb eit
f o
ei ten
Ġbl Ã¶
Ġbe vÃ¶lker
Ġdeutsch er
Ġzahl en
v o
w eit
ck e
Ġsy stem
Ġdar auf
Ġg ab
Ġt oll
Ġzei gt
Ġau t
Ġn o
Ġang eb
Ġo f
r al
Ġein s
a mm
f il
l en
Ġsp iel
Ù Ħ
el d
ol z
Ġd reck
Ġin form
Ġfa st
f Ã¤
Ġet c
Ġj ung
ie gel
Ġt ut
m in
Ġso f
age gen
Ġschl imm
Ġver k
Ġl Ã¤ndern
Ø §
Ġm ach
Ġ 10
Ġst adt
Ġ 7
Ġa t
Ġl aufen
ĠlÃ¤ sst
Ġst u
Ġgesch rieben
Ġb o
Ġt ot
Ġp asst
Ġgel esen
Ġd agegen
Ġtrotz dem
ig es
Ġsein er
Ġsein en
ha ft
Ġk ar
j e
Ã¤hl t
fall s
Ġ2 0
Ġdan k
Ġmeinungs freiheit
Ġander es
Ġw ann
i o
ol en
Ġm ag
Ġp unkt
an s
Ġwer de
hn ung
Ġf est
s ie
Ġh ass
a ffen
Ġzw ischen
u re
Ġre chte
b Ã¼rger
w enn
Ġw Ã¼n
Ã¼t zen
Ġzu k
Ġk ap
Ġstaat s
der n
ol ut
Ã¤u ft
Ġs ache
Ġr um
Ġwei hn
Ġwir tschaft
Ġa k
Ġihre m
Ġschul d
Ġschl echt
Ġm er
Ġl ern
ĠgrÃ¼ nen
Ġsch m
Ġo h
se x
wo hl
Ġunser em
te st
au se
Ġv Ã¶
Ġsof ort
r ation
Ġtoler anz
at ur
Ġber icht
i mmer
Ġfr agen
Ġfind en
Ġ organis
Ġwie so
Ġschw er
Ġkir che
Ġste uer
ph ot
nehm er
w elt
Ġau ÃŁer
a pp
s se
t y
t p
z eu
Ġf ei
es sen
ie ten
und e
u bl
Ġfa kt
g eg
Ġz iel
Ġan hÃ¤nger
Ġi nd
et t
ĠĠĠĠĠĠĠĠĠĠĠĠĠĠĠĠ ĠĠĠĠĠĠĠĠĠĠĠĠĠĠĠĠ
. "
Ġp er
Ġunterst Ã¼tz
p ag
Ġbe vor
Ġver ges
s el
lich keit
en z
tre ten
Ġbez eich
Ġdemonstr ieren
Ġgegen Ã¼ber
!!!! !!!!
st ra
dem o
g a
ei te
Ġposition spapier
Ġlang sam
is iert
Ġer w
f ern
Ġk enn
Ġeinz el
en den
b es
ĠwÃ¤ ren
ei den
Ġgesch ichte
Ġsei ten
Ġterror isten
Ġl aut
Ġdem os
m o
Ġwen iger
Ġp ost
r ochen
Ġdar um
Ġged anken
Ġmill ionen
Ġb Ã¶
v oll
ist er
Ġex trem
it zen
Ġbr ingen
u f
b ung
Ġfrie den
ĠbevÃ¶lker ung
Ã¶ t
Ġl euten
Ġmu ÃŁ
Ġ #
Ġ1 00
w eg
br acht
re kt
Ġo ben
at iv
Ġh eu
ges etz
Ġzw ar
Ġtrau rig
ar bei
Ġfreund e
Ġver g
Ġi hm
) ,
Ġh aupt
Ġmit t
Ġk ran
schein lich
lau b
Ġheim at
Ġl Ã¤ch
8 9
hn en
z ent
Ġo k
Ġnoch mal
er e
Ġk Ã¤m
Ġso wie
re g
Ġsp d
en s
Ġpers Ã¶n
Ġs al
Ġf asch
Ġre ch
au p
Ġi di
Ã¤t z
ru ck
Ġh e
in e
ind en
Ã¤m lich
Ġfr Ã¼
rei ben
Ġst olz
Ġwa hl
Ġintegr ation
Ġ Ã¤u
Ġpar is
ĶâĢĶâĢ ĶâĢĶâĢ
Ġgut menschen
is ieren
Ġnation al
Ġl Ã¤nder
Ġneu e
r er
Ġd rau
Ġgest ern
m u
fa hren
ty pe
l ei
Ġk aum
Ġ ei
Ġauf ge
Ġl o
in anz
Ġlie gt
Ġgegen demonstranten
Ġu sa
Ġer folg
ĠtÃ¼rk ei
un t
Ġverges sen
Ġdam als
Ġmig ranten
Ġ '
Ġdein er
Ġdemonst ranten
ĠvÃ¶ llig
at ri
f rie
Ġsch ade
Ġm in
der t
ist isch
Ġg eist
Ġl es
ĠhÃ¤t ten
hin ter
Ġd o
Ġv ideo
Ġart ikel
Ġer z
Ġfrank reich
Ġden kt
Ġzuk unft
p d
Ġver d
Ġc du
g ern
w Ã¼r
Ġdes wegen
Ġw est
Ġislam ischen
ĠÃ¼ber l
Ġsol chen
Ġd dr
af ft
and e
Ġer rei
lin e
n te
u ell
Ġo ft
Ġspaz ier
g eht
Ġyo u
re cher
p rÃ¤
Ġaf d
g n
Ġsicher heit
Ġhat ten
Ġk at
Ġw it
Ġt re
ik an
Ġbereit s
c o
s i
Ġs ach
Ġdein en
Ġschw ach
ĠlÃ¤ch er
zu g
ĠkÃ¶nn t
be d
Ġkon t
Ġer war
s sen
---- ----
Ġjed em
c t
Ġ 15
in nen
Ġl u
d ings
Ġso viel
Ġsch au
ĠblÃ¶ d
Ġ on
Ġgegen s
Ġeurop Ã¤
Ġs orgen
e ch
ul ti
Ġver anst
Ġstr asse
Ġsp rechen
rei fen
ann ten
ri f
k r
x t
ll o
gem ein
Ġwo llt
Ġt yp
wei s
Ġbe kommt
Ġbesch im
Ġeu er
ĠÃ¼brigen s
Ġh irn
Ġw under
ehr en
Ġver urteil
Ġmo sche
t h
ie ÃŁen
Ġunter sch
Ġje de
ru ch
rad ikal
f b
k a
Ġauss age
Ġb u
Ġl utz
sp r
ant wort
Ġh Ã¶ren
ze pt
Ġo pfer
Ġwor te
Ġb il
Ġl icht
Ġar sch
Ġmehr heit
z er
Ġl Ã¤uft
Ġp et
ol og
h h
Ġunter schie
g ru
Ġan st
ht tp
âĢ Ŀ
ist ischen
Ġwel ch
Ġerst mal
Ġs au
Ġp o
Ġwel cher
h ig
ĠâĢ ľ
v e
Ġt Ã¶
Ġang es
Ġschul e
ie ÃŁ
ra b
ik t
och e
Ġverst anden
Ġi t
st imm
Ġr us
fl Ã¼chtl
Ġp un
it ler
be w
unkt ion
o nder
Ġa hnung
ĠÃ¼ber all
Ġgew esen
Ġre de
Ġwicht ig
t he
af ten
Ã¤ng er
Ġer l
Ġge k
Ġ &
den t
ehr t
Ġc a
Ġschw ar
Ġgemein sam
Ġwahr scheinlich
Ġsor ry
Ġh am
ri ff
w and
Ġver ein
sp rechen
Ġr eich
Ġna ja
!! !!!
art ic
z t
Ġbeh aup
Ġp eg
Ġargum ent
ie f
Ġkl asse
Ġha llo
eu er
Ġpl atz
hn t
b rau
n al
es se
Ġdi ff
Ġaller dings
o der
Ġver n
etz ung
ten t
Ġsol ange
k el
Ġm on
Ġver schw
Ġwill st
krie g
re d
Ġam er
Ġh Ã¶rt
ĠðŁĺ ī
^ ^
Ġfind et
re t
Ġgef Ã¼
ĠgrÃ¼ ÃŁe
hei m
Ġd eu
mal s
Ġkr it
reu z
Ġz it
ik a
Ġbe sten
Ġf inanz
Ġwe der
Ġglau bt
a bl
Ġ or
alt ung
Ġant wort
Ġ ðŁĺĤ
Ġ Ã¤ndern
m p
Ġh art
Ġversu cht
Ġehr lich
Ġge fahr
Ġet wa
Ġ ???
Ġn en
Ġwor den
Ġung l
artic le
ist ische
Ġab sch
Ġbr ingt
nah me
Ġm inder
Ġall ein
ut zen
Ã¤ch lich
Ġreligion s
ind est
Ġglau b
Ġwoll te
Ġl ik
Ġwa ffen
ĠmÃ¼ n
Ġgen er
Ġ eind
Ġanf ang
Ġst ein
ei che
Ġteil nehmer
Ġb om
Ġt ausen
g ut
Ġs on
ĠĠ Ġ
Ġschei ÃŁ
Ġ Ù
rei ten
ach te
Ġk ennen
Ġf eind
Ã¤ l
Ġ 12
Ġw oche
Ġgeg ner
in st
e llen
ne ws
Ġver fass
ar lie
Ġislam ische
Ġfa cebook
Ġl Ã¶
en de
Ġden k
Ġgu ten
w ick
Ã¤ ge
Ġre st
deutsch e
Ġa g
Ã¤ ft
Ġforder n
Ġer sten
Ġland es
Ġasyl anten
Ġfamil ie
il t
i cken
sch aften
s ehen
Ġhel fen
/ ?
Ġschul en
ĠtÃ¼r ken
Ġh itler
isch es
Ġp atri
rÃ¼ nd
Ġda her
Ġe v
Ġeu ro
schl ag
Ġsal af
Ġd ro
Ġpartei en
Ġbr d
Ġforder ungen
v ie
Ġreligion en
Ã¼n ft
st aat
Ġbeit rag
ĠlÃ¤cher lich
Ġf ern
Ġherr n
Ġverb oten
unter richt
n a
r um
ei gt
Ġeu ren
p ress
Ġstar k
ver b
Ġdrau f
en det
f in
ri ffen
Ġfrem den
stell ung
t v
Ġver antwort
Ġ .....
Ġn Ã¤mlich
Ġsu chen
201 4
i b
Ġst and
Ġabs olut
Ġdisk uss
anz ler
ip ul
sch au
n az
____ ____
ing er
p ost
Ġ )
Ġbe f
g et
ro m
Ġn u
Ġi gn
Ġer m
Ġspr ache
Ġs achsen
al e
ur nal
wor ten
Ġt r
Ġr eicht
Ġl ust
au l
ra ft
Ġ 18
Ġgef Ã¤hr
Ġkrieg s
gew alt
Ġdeu tlich
Ġre chten
Ġwie viel
st ehen
it iv
ar d
Ġmit l
Ġversu chen
d d
Ġirgendw ann
Ġvolk s
Ġmuslim en
Ġm Ã¤n
Ġg ilt
at i
Ġbe ste
Ġthe y
Ġpa ck
ha mm
Ġkur z
k on
Ġl ass
Ġ ðŁĺĤðŁĺĤ
am t
Ġm und
Ġfor m
Ġfol gen
p g
be wer
Ġpolitik ern
au ft
Ġgro ÃŁe
eh n
Ġges etz
ĠmÃ¼ ll
Ġlern en
Ġsp richt
Ġ <
en zen
Ġm iss
t ag
Ã¤ub igen
Ġk a
ist anz
Ġvolk es
Ġw ochen
Ġein ge
ver s
Ġf unktion
Ġges etze
Ġabend land
z us
Ġl a
Ġkir chen
Ġak zept
p o
Ġha haha
Ġ2 5
Ã¼ d
Ġob wohl
e ck
Ġr Ã¼ck
Ġign or
s ache
Ġ2 00
Ġab l
Ġsch wei
d ass
Ġ ðŁĳį
Ġargum ente
i Ã¶
lich es
o ffen
g ida
Ġste llt
, ,
Ġsch aut
ig ungen
Ġwer te
zie hen
us st
Ġl Ã¼
Ġd istanz
m achen
Ġall ah
Ġd inge
Ã¤ng t
Ġem pf
Ġk Ã¶l
Ġwe sten
the ater
Ġver w
ed ia
ĠâĢ ĵ
Ġschein t
Ġver gl
Ġs etzen
bew egung
Ġ 50
ut t
Ġmein em
l ung
gen ommen
Ġsein em
ie s
Ġaus ge
ord nung
Ġdeutschland s
eute t
ĠgrÃ¶ ÃŁ
Ġre gel
ĠmÃ¼s ste
Ġidi oten
in a
Ġu hr
Ġk Ã¶
Ġbild ung
Ġbeleid igen
phot os
wei sen
Ġdisk ut
Ġgeh Ã¶ren
Ġwit h
Ġ Ø
fr age
Ġ /
ĠgrÃ¼ nd
Ġst Ã¤r
nach richten
Ġr Ã¼
utz t
ĠpersÃ¶n lich
e e
Ġp fl
Ġab gesch
Ġa d
Ġk ennt
al ter
Ġk ot
Ġpro fil
ien st
frie den
p a
ra mm
er tel
Ġo st
Ã¤hl en
Ġab ge
Ġb i
ind e
an ce
Ã¼ ch
Ġein wander
hei ten
bewer ber
Ġa rab
st adt
ĠmÃ¼n chen
Ġtot al
ubl ik
et te
k rÃ¤
r ien
Ã¤nder t
Ġfr anz
Ġeinz ige
Ġf ach
Ġho ffentlich
h ol
m edien
Ġbis her
ĠnÃ¤ch ste
Ġn eben
ll igen
d ner
fÃ¼ hr
d ann
Ġpro pag
o w
Ġko sten
p assen
Ġ 30
Ġjed och
Ġsch auen
Ġweihn acht
ĠwÃ¼n sche
ĠÃ¤ hn
Ġt rÃ¤
** **
ter t
Ġpro vo
Ġkenn e
i hr
Ġgef Ã¤llt
j pg
Ġfamil ien
7 7
Ġ >
Ġo ertel
Ġnie der
Ġ *
Ġh ar
Ġletz te
re am
Ġeu rer
Ġm om
Ġh eut
f u
hl e
kt iv
Ġge fallen
d rÃ¼
f ach
i ckt
ik er
ent um
Ġung laub
o ben
Ġn pd
Ġverst ehe
sp iegel
Ġgar nicht
Ġauss agen
v ideo
Ġkon nte
Ġfeh ler
8 8
Ġgew orden
Ġverl oren
am a
Ġd rei
eu rop
Ġre alitÃ¤t
Ġman che
br ingen
Ġso mit
nis se
Ġkl eine
Ġlei d
d urch
w ik
an ti
dem os
Ġmuslim ischen
Ġsag te
itte l
Ġger man
Ġerk ennen
Ġwer det
Ġmuslim s
Ġanschl ag
weil e
Ġso gen
Ġgl eiche
Ġbek annt
on line
Ġman ipul
gl ie
as i
Ġzum indest
Ġschrei bt
Ġst Ã¤nd
ei er
Ġm ord
Ġleben s
Ġanti f
Ġher z
Ġpass ieren
Ġbes onder
Ġgro ÃŁen
Ġkom pl
Ġschwach sinn
l agen
Ġges icht
Ġpolit ische
Ġzie hen
u ÃŁ
ver l
Ġpoliz isten
Ġ ??
Ġh ause
mu slim
Ġschl immer
ber g
Ġo ff
ĠwÃ¤ hlen
p ar
Ġa re
Ġwer t
Ġteil en
Ġh etze
Ġwenig stens
los sen
al en
Ġgrund gesetz
Ġles e
Ġsalaf isten
Ġprovo z
Ã¤ ÃŁ
dem ir
Ã¤ng st
Ġab ges
Ġfa ke
Ġin t
Ġver sch
) :
Ġs age
in ter
Ġjed es
Ġge geben
Ġtats Ã¤chlich
ĠfrÃ¼ her
ol f
k eiten
Ġw em
Ġmom ent
Ġ %
v en
hl t
pf e
rÃ¤ ge
u fen
Ġdein em
Ġjung e
f ert
o d
Ġn immt
Ġent wick
Ġer ste
v olk
.... ...
Ġfa kten
m lich
Ġpun kte
m er
Ġnie mals
Ġein sch
and a
ann te
Ġst Ã¤d
z demir
Ã¤ cht
Ù ħ
Ġo sten
Ġbed eutet
Ġde fin
Ġvor bei
w ill
7 9
ent al
min ister
Ġl iv
Ġdumm e
Ġf Ã¤llt
inn er
Ġauf t
ed ig
Ġperson en
Ġn er
ĠĠ Ċ
Ġbest imm
sicht lich
Ġn ennt
Ġbezahl t
Ġmitt ler
Ġander er
Ġinteress iert
Ġh aus
Ġste lle
ĠglÃ¼ck lich
Ġdiskuss ion
c us
Ġge bracht
Ġzu wanderung
Ġo ber
ro t
Ġher aus
6 6
Ġv o
ĠfÃ¼ hren
Ġdemonstr ation
Ġradikal en
Ġs a
Ã¤nd e
m ehr
Ġaus einander
ĠkÃ¶nn ten
l Ã¼gen
n o
Ġ x
Ġes sen
h at
et ten
Ġvor her
Ġkr itik
Ġstimm en
ch st
Ġg ing
Ġschei ÃŁe
Ġst at
Ġge kommen
Ġwir st
Ã¶r der
wÃ¼r d
ieÃŁ lich
ar ia
rif ft
Ġspazier gang
9 0
Ġ y
Ġpro zent
sa mm
Ġ ort
b il
ach tet
m ut
o sen
ie ben
Ġt ja
Ġvolk sver
Ã¤ng en
n ur
u te
Ġchrist entum
au sch
Ġel tern
Ġdi rekt
ck er
s ich
ĠerklÃ¤r en
icht en
ra el
Ġwei ss
so zial
Ġd ran
Ġre p
Ã¤t ze
Ġkind ern
h il
Ġn ennen
Ġstra ÃŁen
Ġpolit isch
Ġpro test
Ġverst Ã¤nd
Ġrus sland
Ġw Ã¼
an hÃ¤nger
os sen
Ġrechts radikal
er en
Ġk Ã¼
Ġha ha
h and
Ġdan ach
Ġasyl bewerber
f ten
Ġn ich
Ġb rÃ¼
it t
Ġverb ieten
Ġ Ì
Ġs atz
Ġfr ag
roh ung
m ein
Ġirgend wie
Ġste u
Ġkran k
Ġp e
Ġru hig
flÃ¼chtl inge
Ġmein st
hren d
d resden
Ġsp Ã¤ter
hamm ed
e y
m d
Ġfriedlich e
ive au
Ġnach richten
Ġg Ã¤
Ġverg angen
Ġl au
is st
Ġjo urnal
ĠÌ ģ
h Ã¶ren
Ġd Ã¼
Ġinte lligen
Ġwa hren
f ur
ie ht
re ch
Ġunterst Ã¼tzen
Ġangeb lich
Ġer sch
u cht
b et
Ġm assen
rei s
Ġgen ommen
Ġgel Ã¶
u h
Ġheu ch
Ġzu l
Ġneu en
Ġin st
as e
sch ul
Ġglauben s
Ġpr iv
Ġanst att
Ġver treten
k Ã¶
ur en
Ġfeh lt
Ġschw eine
Ġsy rien
feind lich
eu le
Ġunterschie d
8 6
Ġm ass
Ġau st
Ġfriedlich en
Ġg eil
sch utz
Ġbl o
Ġsol ch
Ġrass ismus
Ġan z
est ag
Ġstra ft
sy stem
ult ik
Ġide olog
Ġh Ã¤lt
at te
at ive
Ġgl eichen
Ġfre u
ĠkÃ¤m pfen
Ġnach t
u ten
ind ern
Ġirgendw el
d f
Ġall eine
wie sen
Ġ:- (
i h
Ġh erk
Ġge stellt
Ġr tl
Ġbek Ã¤m
ĠÃ¼ber zeu
sp ol
Ġinter net
Ġzei chen
Ġm ist
Ġf Ã¤
Ġver z
Ġmittler weile
Ġwill kommen
Ġum s
Ġsch affen
m acht
Ġgeh e
ĠÃ¤u ÃŁer
Ġpeg id
! "
en e
Ġausl Ã¤nd
Ġpolit ischen
9 9
Ġbei den
g o
i pp
m erk
re chte
el s
sl os
Ġsinn e
Ġricht ige
ĠfÃ¼ hr
Ġver p
Ġal t
ĠkÃ¶l n
Ġt v
Ġgegen teil
ĠmÃ¤n ner
Ġin ner
Ġe cke
ĠtÃ¶ ten
u u
Ġl achen
Ġj ob
Ġkam pf
Ġbesonder s
Ġd au
ag er
Ġgibt s
ri ft
Ġth at
Ġide e
te m
Ġsch Ã¤
Ġver bl
di ent
Ġver fol
Ġver halten
Ġtro ll
Ġein wanderung
Ġ org
Ġf an
Ġste ll
Ġen g
Ġbesch Ã¤ft
Ġm el
Ġk reuz
Ġd ikt
Ġso weit
Ġverurteil t
o ph
Ġausl and
Ġw ach
Ġverb recher
Ġsicher lich
schie den
Ġgut es
Ġricht ung
Ġle bt
Ġj an
ern t
ĠstÃ¤nd ig
Ġbe fÃ¼r
Ġrelig iÃ¶
Ġvern Ã¼nft
h Ã¶
Ġsteu ern
Ġp ein
Ġun bed
Ġhil fe
w ord
re ten
eist er
Ġvert eid
+ +
r or
Ġb uch
ber t
Ġdes sen
ĠÃ¶ zdemir
Ġma as
k ar
Ġs it
men sch
h st
i i
Ġl og
Ġsp e
Ġd ial
ver t
Ġsollte st
bild ung
Ġwo her
Ġstimm e
s et
anzler in
Ġgeh irn
Ġget an
Ġgru ppe
ati re
vie w
Ġl ach
lÃ¼gen presse
l a
Ġh eil
Ġb em
rau en
Ġradikal e
7 6
Ġwei se
Ġmig ration
Ã¼nd nis
s eite
Ġf roh
Ġz erst
hr in
mm ern
Ġber uf
Ġverl ogen
ges etzt
Ġh ol
krÃ¤ fte
Ġis rael
Ġspaz ieren
Ġgeb oren
l u
on e
Ġbest Ã¤t
m ord
ist an
Ã¼r gern
Ġn Ã¤
eu g
Ġsp iegel
sch auen
et er
Ġer inn
z ul
Ġweiter hin
Ġweihnacht s
p unkt
Ġthem en
Ġklein en
k s
ie t
end ung
j en
Ġis is
Ġintegr ieren
Ġbezeich net
teil en
ĠbÃ¶ se
1 01
Ġauf zu
Ġminder heit
Ġherk unft
word press
Ġpro f
en ten
deutsch en
g ramm
p rochen
Ġaus d
Ġklein er
Ġru he
Ġw u
Ġh etz
Ġl eg
Ġl age
Ġbl ock
Ġman ch
ien en
Ġs itzen
ag ida
Ġte xt
or f
Ġmer kt
Ġoff iz
ĠwÃ¤ hrend
Ġd res
Ġv ater
sch n
Ġal ter
Ġgew Ã¤hlt
tre ter
Ġunglaub lich
Ġver schieden
ist ik
g rÃ¼
ik atur
Ġber ichtet
Ġzeit ung
as chen
Ġar men
mar kt
g i
z um
Ġ 17
Ġein igen
Ġsch ande
Ġan sicht
ch r
Ġt ragen
Ġbeleid igt
sex trem
mp ath
Ġ 14
Ġk u
Ġauf ru
Ġko pft
lo se
i te
Ġerrei cht
Ø§ ÙĦ
Ġg rad
ĠstÃ¤r ker
w issen
Ġw es
Ġschl e
Ġn iveau
Ġfl ag
Ġan schein
Ġkat hrin
Ġ 40
stÃ¤nd e
ĠauÃŁer dem
Ġn ame
Ã¤ re
it en
Ġge be
. )
fÃ¼ hren
Ġhart z
Ġbi bel
b y
Ġt Ã¤ter
eit ig
Ġst o
Ġeben falls
Ġro t
ro ht
Ġdemonstr iert
Ġsp a
Ġkom isch
Ġmus ste
ver stÃ¤nd
Ġang eh
Ġweihn achten
k ra
Ġj auch
Ġwel chen
Ġpl an
Ġg ast
Ġk ath
Ã¤ub ige
an te
ro ffen
Ġricht er
Ġbeschim pft
at ten
Ġver ar
Ġeben so
Ġbund estag
Ġamer ikan
Ġg ra
ber lin
wo hn
ĈĈĈĈĈĈĈĈ ĈĈĈĈĈĈĈĈ
Ġs ter
Ġk und
Ġgu ter
Ġwelch es
Ġd achte
Ġf b
Ġunbed ingt
Ġislam ismus
Ġneu t
Ġmein t
Ġnach denken
Ġbrau n
i ff
ĠfÃ¼ hlen
Ġgeht s
Ġl Ã¶s
Ġlie st
itz t
ĠunterstÃ¼tz t
sch uld
al so
Ġ9 0
s etzen
at oren
ĠwÃ¤ r
Ġrech tsch
Ġfunktion iert
y l
ur s
pol iz
Ġerwar ten
fb id
Ġpatri ot
Ġ Ã¤ng
Ġmo hammed
Ġju st
spr ache
Ġpo sten
ĠgelÃ¶ scht
Ġh as
Ġb Ã¼ndnis
at sch
zie h
Ġan zu
spol itik
Ġm ed
Ġdiskut ieren
Ġneu es
1 07
ter ror
Ġgef unden
Ġdumm heit
Ġqu elle
Ġgott es
a el
Ġprovoz ieren
f asch
r w
ĠÃ¤u ÃŁ
ier ungen
Ġch arlie
Ġchrist lichen
Ġtag es
Ġlust ig
all e
au st
Ġbei de
Ġpropag anda
Ġt Ã¤
Ġauf klÃ¤r
Ġkot zen
Ġanschl Ã¤ge
f uer
Ġt u
Ġinteress ant
Ġveranst altung
Ã¤ ss
al tt
Ġj es
err t
ehr er
Ġerw Ã¤
Ġsowie so
Ġricht igen
arbei ter
7 8
Ġdial og
n ern
Ġentsch uld
m Ã¶
Ġm or
rei tet
Ġschei sse
Ġgemein t
Ġb unt
Ġsie he
Ġbis schen
Ġerrei chen
Ġgegen demo
Ġch ance
Ġmosche en
g ung
Ġlei cht
Ġ â
Ġm Ã¤d
Ġal ten
Ġ ^^
Ġbew usst
Ġs er
. âĢľ
h am
h aus
on nen
Ġver samm
Ġmuslim ische
f eh
y s
Ġs atire
Ġn eg
Ġal te
sp ruch
Ġne e
Ġmer ken
stimm ung
Ġdu mmen
Ġkomm un
an ger
Ġp rÃ¤
f ragen
Ġ Ã¤r
Ġf ot
Ġall gemein
Ġbest eht
u elle
Ġ [
Ġhil ft
p an
u p
ein er
Ġlie ben
Ġwoll ten
Ġb ay
l eben
under t
Ġrass isten
Ġgez eigt
4 18
Ġs icht
Ġl Ã¤ngst
ge st
geb ung
Ġle be
Ġgesp rÃ¤
Ġanschein end
z ogen
Ġsch utz
eg e
we der
Ġweiter e
Ġget Ã¶
Ġmus st
Ġh etzen
ist e
Ġbeleid igungen
ei sch
ge f
re cken
rei bung
Ġsach lich
Ù Ĩ
Ġm ultik
Ġu s
Ġein zu
tlich e
o se
Ġk an
Ġgru ppen
g ress
re f
Ġsch aden
bl og
Ġl ive
Ġaus ser
Ġgew altt
ĠgrÃ¶ ÃŁer
Ġ> >
s h
Ġzu wander
Ġfal sche
! ?
b eg
Ġi ra
Ġb ra
pf l
Ġchrist ian
Ġer halten
war um
rÃ¤ n
Ġer lau
Ġgel ernt
Ġkrimin elle
en der
Ġm il
reg ierung
a ff
Ġp assen
Ġeind eut
i um
au sland
Ġkont ro
Ġh ing
or n
Ġdro gen
Ġw itz
Ġz er
Ġgesp annt
Ġzie mlich
Ġ 0
ar beit
Ġteil weise
phot o
Ġwelt offen
Ġant worten
Ġdres dner
st ag
on n
al ien
Ġver dient
om e
ell er
Ġoffen sichtlich
m b
Ġa s
on ie
re den
Ġzu g
Ġder zeit
att ung
Ġbo den
Ġs h
sen t
Ġsp Ã¤t
Ã¶r ung
Ġfrei e
Ġdiff am
Ġsch Ã¼tzen
Ġfan at
ch s
or y
Ġlie gen
Ġ8 0
Ġer d
id ar
Ġentsch eid
Ġhal te
Ġschwar z
Ġwu ndern
Ġmit glie
Ġr and
6 9
r agt
Ġang el
Ġwa hlen
Ġmosche e
Ġbom ber
i tel
es ser
weg s
b o
Ġer f
rei bt
Ġsp inner
ha ben
Ġfa hne
Ġged acht
Ġverst eht
Ġzw ang
w ur
m ent
Ġ Â
Ġges am
Ã¼tz t
aa aa
s Ã¤tz
v err
on y
in z
Ġgr enzen
Ġho ff
Ġbe komm
Ġfr esse
Ġwa hn
Ġwa hre
jen igen
Ġang eg
Ġliv ing
6 8
Ġbezeich nen
Ã¶t ig
Ġpein lich
o e
sp richt
ult ure
Ġhand eln
Ġspiel en
Ġ ðŁ
on sten
Ġbeg riff
Ġinform ieren
Ġat tent
Ġp ausch
Ġverfass ung
Ġin nen
Ġab zu
Ġab gel
Ġunter richt
Ġdenn och
ip edia
he b
Ġmontag s
Ġvergl eich
ein en
ha d
Ġent gegen
h ang
j u
Ġd re
Ġs achen
Ġsch Ã¤m
Ġfl ie
Ġfal schen
fÃ¼ hrt
Ġentsch eiden
Ġsteuer gel
Ġer fahr
Ġnach bar
iv il
ĠÃ¤ng ste
g h
pp y
Ġschl uss
Ġ ordnung
Ġb ill
eit s
se qu
Ġverb reiten
Ġbet r
s d
Ġp f
Ġgeg angen
Ġbehaup ten
Ġp s
Ġer geb
Ġgesp rochen
p r
z Ã¼
Ġn utzen
haha haha
g ro
Ġkon k
Ġhinter her
Ġschwei z
Ġkath ol
it a
Ġpar olen
er ung
ind et
-------- --------
Ġs ar
Ġm e
at ure
teil t
Ġhaupt sache
Ġheuch ler
b und
Ġre det
Ġkomm e
Ġchrist liche
Ġsy mpath
Ġvergangen heit
m eister
Ġmit bÃ¼rger
Ġauf grund
e f
h eil
Ġb ur
tt o
Ġm erk
al if
rei chen
art ikel
ĠÃ¼ bel
Ġspr ach
Ġlu ft
Ġh ind
Ġver schl
Ġschw eigen
nt ag
Ã ©
eh nt
ge stellt
Ġverh Ã¤lt
Ġhal b
merk sam
Ġstaat en
Ġneut ral
Ġmein ungen
Ġdr Ã¼ber
Ġpr im
ĠerklÃ¤r t
Ġwei ÃŁt
Ġaut o
Ġm asse
al tet
Ġauf merksam
zeit ung
Ġsogen annten
p artei
Ġre ag
Ġbl ind
at or
ad a
Ġda durch
as en
Ġverh indern
Ġmiss brau
an ke
Ġmit einander
kl a
Ġpet ition
Ġungl Ã¤ubigen
Ġk er
ig ten
i had
Ġl i
sex tre
Ġwirtschaft s
Ġfasch isten
Ġtre ffen
st u
dem okrat
geg eben
Ġham burg
Ġsit u
Ġh um
Ġbezahl en
Ġ7 0
Ġbu dd
Ġl ol
Ġha ppy
Ġwen ige
rit ten
Ġand re
erst attung
Ġfall s
107 37
re p
Ġr unter
Ġschl Ã¤
Ġverst eh
Ġent weder
ga be
f an
h err
Ù Ĭ
Ġg au
as yl
Ġb Ã¼
ad et
Ġeurop as
Ġvoll kommen
zw ischen
Ġkap it
m erkel
it ter
Ġsol idar
fe ature
l age
Ġa fr
iel t
10737 418
r t
un sch
ang el
Ġkon sequ
Ġblo ÃŁ
Ġ: (
ĠwÃ¤ hl
schl uss
Ġher zen
for dert
a c
z ert
Ġm dr
es ch
it ze
all el
Ġkopft uch
Ġwo hn
Ġab schie
e v
ei g
pl atz
Ġverfass ungs
Ġwieviel e
k am
Ġb ar
ĠmÃ¼s sten
Ġth om
Ġbild ungs
Ġmut ter
akt ion
Ġpfl icht
Ġmigration s
z i
Ġ 35
Ġwei s
Ġdemonstr ationen
Ġint oler
f ig
anti fa
Ġb au
Ġfa llen
Ġp h
organis ation
fo cus
Ġv Ã¶lker
eu ert
Ġo ss
Ġauf w
i ver
Ġhinter grund
" ?
Ġg g
ðŁĳ ı
Ġzit at
Ġu kra
it ten
Ã¤u fer
Ġstra f
Ġpet er
Ġ Ø§ÙĦ
in fo
ver d
ger t
Ġfeh len
b eh
un ehmen
ges ellschaft
ild et
og ra
Ġans onsten
9 8
Ġsp ahn
inde stens
Ġs k
Ġsch Ã¼
Ġver Ã¶
Ġaus zu
Ġent fern
Ġnu ll
Ġkompl ett
Ġira k
st et
Ġb ahn
Ġin halt
in k
ra kt
Ġson ntag
wei ter
schl agen
Ġniem anden
Ġerk ennt
Ġspa ÃŁ
Ġum ge
politik er
roh ungen
Ġstu d
Ġf uer
Ġz ent
Ġan w
Ġar me
op le
mar sch
Ġpausch al
Ġbe ant
Ġfa hren
Ġzie ht
Ã¤ ten
Ġzu h
and elt
Ġent sprechen
Ġforder t
el e
Ġverl assen
Ġverm ut
nah men
Ġag gress
Ġabendland es
Ġ 13
ert ig
Ġfach krÃ¤fte
Ġmo der
zeit ig
Ġbl ut
Ġgef ragt
s eh
in ken
Ġj eg
Ġan teil
Ġr und
Ġwer e
ĠÃ¤uÃŁ ern
ĠgetÃ¶ tet
m ittel
l ang
Ġm aul
Ġextrem isten
Ġbehaup tet
Ġ che
Ġn etz
ol d
Ġlie s
Ġtausen de
l assen
u ver
Ġn ehm
Ġstat istik
Ġideolog ie
c l
Ġd om
Ġb Ã¼rgern
is se
il de
Ġgegen demos
ĠgefÃ¤hr lich
Ġsch r
Ġtoler ant
Ġinst rum
f eld
Ġto d
Ġpar allel
Ġind em
h ass
eil en
i ent
ber n
og an
Ġbed roht
Ġrass istisch
Ġpriv at
o pp
Ġun ver
Ġre al
Ġwer fen
Ġschl ieÃŁlich
Ġjes us
Ġt ill
olut ion
ĠverstÃ¤nd nis
j o
Ġ ed
au sl
Ġmen ge
iz iert
demonst r
Ĥ ¬
Ġver gewalt
Ġre v
Ġmenschen ver
Ġjeden falls
6 7
Ġw ut
ru kt
f est
Ġ Ã¤ndert
icht s
re lig
Ġun be
Ġste cken
Ġirgend wo
Ġakt iv
Ġm auer
Ġsch afft
Ġvor urteil
Ġjem anden
ĠĠĠĠĠĠĠĠĠĠĠĠĠĠĠĠĠĠĠĠĠĠĠĠĠĠĠĠĠĠĠĠ ĠĠĠĠĠĠĠĠĠĠĠĠĠĠĠĠĠĠĠĠĠĠĠĠĠĠĠĠĠĠĠĠ
Ġpe ople
Ġd auer
Ġn enn
ar f
rÃ¼ che
c d
Ġintegr iert
feind lichkeit
ĠunterstÃ¼tz ung
edig lich
Ġster ben
Ġf rom
Ġgewalt ber
Ġzusammen hang
Ġbericht en
Ã¤ um
........ ........
poliz ei
e kt
ei ÃŁ
Ã¼ ss
Ġf il
Ġer b
Ġhei ÃŁen
ho f
Ġbericht erstattung
z ur
Ġ 11
Ġ!! !!!
hinter grund
Ġspazier g
Ġ< <
Ġeindeut ig
st es
in s
mm t
Ġda hin
un k
ĠstÃ¤d ten
Ġverfol gt
Ġmit te
Ġgeh a
Ġher um
Ġ.... ..
Ġ19 89
Ġ 16
Ġi mm
den ten
ut m
Ġar d
le bt
Ġkrie gen
m t
Ġl ediglich
ĠschÃ¤ men
w ig
Ġver folg
gel n
Ġru fen
Ġziel e
Ġdiff er
Ġbudd h
o te
Ġh Ã¶r
Ġt age
Ġzei ten
ĠbÃ¶ sen
Ġerz Ã¤hlen
Ġbil den
inst ream
drÃ¼ cken
Ġsitu ation
Ġh ut
an schlag
ill e
lo sen
ĠgefÃ¼ hl
Ġjournal isten
s or
Ġf and
ðŁĺ ī
Ġdar aus
Ġbl a
Ġ? !
Ġbr and
ĠschÃ¶n en
Ġqu atsch
Ġwo fÃ¼r
Ġeh em
wir tschaft
t ra
ei ge
Ġw ind
at ik
pp el
Ġnaz ik
e bt
Ġk oll
im e
sp az
akt uell
ch ter
Ġge prÃ¤
ig ranten
Ġsu re
Ġhand elt
fre und
Ġkap utt
st anden
eh me
Ã¼n st
ĠauslÃ¤nder n
Ġans ehen
Ġwider stand
Ġbil der
1 0000
g ie
ide os
ĠeuropÃ¤ ischen
ey er
l ern
Ġz b
Ġp art
Ġr ie
og le
ĠgrÃ¶ÃŁ te
cht ung
Ġpro v
Ġhei sst
Ġschein bar
Ø ±
Ġz ivil
ĠðŁĺĤðŁĺĤ ðŁĺĤ
Ù ĩ
Ġw and
!!!! !!
naz is
Ġeinwander er
Ġh olen
Ġheut igen
1 00
s ind
s etzung
Ġwar ten
Ġ1 000
Ġjahr z
Ġf ort
Ġver ste
ol e
eld ung
arbei tet
Ġverantwort lich
________ ________
Ġwahn sinn
Ġt ief
Ġbez ie
ĠflÃ¼chtl ingen
ĠgrÃ¼nd en
Ġergeb nis
s weise
Ġm Ã¶rder
Ġver da
ab hÃ¤ng
ib an
n Ã¤ch
r imin
Ġs etzt
Ġso uver
Ġkrie ge
s etzt
Ġd oo
Ġjahr h
Ġirgendwel che
c on
t rag
Ġv ier
Ġmich ael
Ġc on
ĠschÃ¶n e
ĠeuropÃ¤ er
z z
Ġmit be
Ġber eich
Ġerwar tet
gru ppen
ĠgrÃ¶ÃŁ ten
ĠaufklÃ¤r ung
a ben
ch arlie
Ġverst and
wohn er
sÃ¤tz lich
n ation
Ġm Ã¤r
st r
Ġf ar
at isch
Ġan passen
Ġth is
Ġernst haft
hil fe
w och
Ġh eb
Ġeure m
d p
s atz
Ġwas ser
Ġdikt atur
gi bt
Ġthom as
! )
Ġ orden
Ġh ans
is er
rad ition
naz i
fur t
Ġinter essen
Ġflag ge
l egida
Ġ 000
Ġh u
Ġauf nehmen
Ġsoll tet
Ġschl ag
tel n
ĠflÃ¼chtl ing
ech net
ĠmÃ¤d chen
Ġhoff nung
b au
Ã¶ tz
Ġstatt f
Ġmanch mal
l ungs
Ġt al
Ġgr Ã¶n
Ã¤t zen
wik i
Ġoffiz iell
b ahn
Ġzu t
Ġgesch afft
Ġger echt
wa hr
Ġorg a
Ġ ðŁĳįðŁĳį
Ġk amen
Ġterror organisation
p en
Ġf uÃŁ
Ġein stellung
Ġgeb rau
Ġwi llen
h anden
Ġs ingen
Ġr eichen
pl an
9 7
Ġ ????
te xt
Ġda vor
Ġch a
hÃ¤ng ern
ĠlÃ¶s ung
Ġm indestens
Ġdie jenigen
Ġdu n
Ġgegens eitig
k ultur
o ff
Ġn et
is e
Ġgel ten
rat en
ĠgrÃ¼ ne
http s
Ġakzept ieren
w ahl
en ken
Ġs am
Ġlei sten
âĢ Ļ
Ġit alien
i ar
Ġt aten
Ġt rifft
Ġste he
ang t
Ġmar sch
fre f
ĠtÃ¤ glich
k n
s achsen
ro g
Ġgesch w
Ġm ache
Ġn rw
rie f
Ġrass ist
Ġfei ert
ĠblÃ¶d sinn
Ġaus ger
Ġglau bst
Ġtats ache
b c
Ġau ÃŁen
Ã¶n er
Ġanf angen
8 7
o h
ind ex
Ġl ob
Ġeigen es
f s
Ġm io
ber echt
Ġst asi
inn t
mar ot
k eine
Ġislam s
ja hr
fÃ¤ lle
kr imin
Ġtill ich
z unehmen
Ġt radition
Ġauf s
Ġste ckt
Ġn Ã¶tig
Ġma ÃŁ
Ġtausen d
ĠtrÃ¤ um
europ a
n eu
Ġl aber
Ġst ad
Ġfr agt
ĠfÃ¼ hrt
Ġinteress ieren
isch t
fl eisch
Ġex ist
Ġx d
Ġnazik eule
l egen
Ġum frage
rif ten
wÃ¼rd ig
Ġbay ern
Ġangeg riffen
ei s
Ġge bl
den n
ind ert
Ġgen Ã¼
Ġgew issen
Ġrecht fert
Ġschw ein
recht s
Ġlik e
a bend
stÃ¤nd ig
Ġlik es
Ġukra ine
Ã¼ lt
Ġein iges
Ġnormal e
Ġdistanz ieren
ll n
Ġl Ã¤nger
it Ã¤r
ig te
rei sen
Ġkrimin ellen
Ġjust iz
Ġs ho
is h
zu frieden
her e
ant eil
Ġsteuer zahl
Ġvo gel
b u
Ø ³
ie ÃŁt
acht ung
ĠmÃ¼s st
ko pf
pag es
ĠÃ¼berl egen
ĠwÃ¼rde st
sw ert
2 00
h Ã¤lt
Ġ youtube
Ġm art
Ġst unden
Ġbe ob
Ġihr es
ĠmÃ¶ chten
Ġmitt woch
mÃ¶ glich
Ġinstrum ental
Ġf und
eu r
Ġzu viel
Ġkl ingt
Ġschl au
es e
art ig
Ġtre ten
si dent
Ġver br
Ã¤ng e
ue llen
Ġsau di
ĠrÃ¼ cken
Ġschle chte
l y
Ġm eist
eit ag
Ġislam ist
Ġen gl
Ġdurch aus
ran t
gel d
schl Ã¤ge
Ġbest ehen
ðŁĺĤðŁĺĤ ðŁĺĤðŁĺĤ
Ġyo ur
zeu g
Ġantif anten
Ġerlau bt
n immt
Ġwunder t
Ġeind ruck
Ġh aut
Ġf ertig
Ġverb reitet
wor tet
Ġkam er
Ġdefin itiv
Ġn imm
ri ffe
Ġfrie d
Ġma instream
app t
b all
s ein
Ġb ut
Ġl eb
Ġsch icken
Ġh aufen
em eyer
Ġvor be
Ġgr ie
Ġf ur
Ġre t
ion al
Ġhin zu
Ġma x
op ul
Ġfern sehen
Ġlie b
Ġteil e
pol it
Ġzent ral
f el
h im
Ġt a
for der
Ġversu ch
Ġrei hen
f angen
Ġh oll
Ġpl Ã¶tz
ĠÃ¤hn lich
zieh ung
m Ã¤ÃŁ
w end
Ġf ir
Ġj ungen
Ġre l
Ġvor handen
komm ent
Ġherr scht
Ġzwei ten
wik ipedia
Ġt ritt
dlich en
Ġmar k
st eht
Ġet abl
wer den
ĠlÃ¼ ge
Ġdiffer enz
i as
Ġa tt
drÃ¼ ckt
chr ist
p et
os ition
Ġsel be
demonst ration
Ġkultur en
Ġorganis ation
k reuz
l Ã¤nder
Ġst Ã¼ck
ĠhÃ¶ re
Ġarm es
ĠbekÃ¤m pfen
Ġtrau en
Ġdr in
Ã¼nd en
Ġbeit rÃ¤ge
Ġhe y
verb ot
sy ch
Ġirgend was
Ġinform iert
Ġk raft
Ġso oo
Ġpol en
Ġsel ten
Ġsel ben
Ġho se
bar en
Ġverl ieren
Ġinter esse
ĠmÃ¶glich keit
Ġmin ister
will ig
b s
v t
Ġm ot
Ġn ord
Ġr aum
Ġsei en
ick er
Ġben utzt
Ġw achsen
Ġislam ic
ĠwÃ¼n schen
. -
l ungen
st rei
Ġh Ã¤u
un ser
Ġho ffen
Ġidi ot
Ġwelch em
Ġrechtsch reibung
Ġzuh ause
Ġw inter
ar ch
Ġzu stÃ¤nde
Ġst ate
ĶâĢĶâĢĶâĢĶâĢ ĶâĢĶâĢĶâĢĶâĢ
Ġgener ation
Ġverteid igen
p z
os s
Ġfa hr
zw ungen
Ġspr ich
ue chtl
stimm en
ĠgÃ¤ be
Ġgeha bt
eh nen
ingen d
Ġschrei bst
j Ã¤hr
er kt
ier se
Ġsch aria
Ġun recht
ent s
Ġgerman y
inz ip
Ġvermut lich
p rop
Ġs itzt
Ġh imm
Ġ6 0
n och
Ġd Ã¶ner
Ġ2 1
Ġb y
it y
ĠÃ¶ffentlich keit
Ġanges prochen
a il
h u
k ot
n ten
Ġt agen
Ġo ur
Ġgesch ehen
Ġintelligen z
verstÃ¤nd lich
Ġnehm t
ĠplÃ¶tz lich
d el
Ġs Ã¼d
Ġun abhÃ¤ng
Ġmehr ere
sp l
Ġherr en
Ġbr ut
ĠÃ¶ ster
Ġkor rekt
Ġregel n
muslim e
Ġmoment an
bund es
e den
l esen
Ġ +
ie tet
Ġh om
Ġk aufen
Ġda hinter
kr itik
Ġreligions unterricht
Ġempf eh
b a
m or
Ġs Ã¼
al te
Ġaus schl
sp d
ges p
Ġbeg rÃ¼nd
Ġansicht en
Ġvorbe stra
Ġd ienst
Ġb a
Ġf en
ier ter
Ġj etz
ind ung
ĠhÃ¶ ch
kÃ¶ lln
" ...
Ġun ten
enn ung
rei ft
Ġkl are
Ġspiel t
Ġausd ruck
m s
t ragen
ar en
Ġzu erst
Ġj Ã¼d
ig ht
Ġunser es
Ġar rog
Ġwelt weit
Ġbrau ch
Ġfrem d
Ġtoll e
g rÃ¼nd
Ġs endung
Ġp apier
w Ã¤r
or ama
Ġges und
rei se
Ġgen annt
Ġam t
Ġmigrations hintergrund
nÃ¤ch st
w ehr
z in
Ġinter p
Ġbeg reifen
fre md
ie b
st ory
ig n
Ġvor aus
Ġpro gramm
Ġc em
dlich e
Ġverb rechen
ĠÙ Ī
b in
id i
Ġeurop e
Ġbeschim pfen
d am
w i
Ġher vor
Ġdumm es
Ġpos itiv
ma ÃŁen
Ġfei ge
Ġheb do
u he
Ġso nder
Ġinter view
Ġtro lle
Ġkommentar en
Ġg a
Ġl ehrer
Ġakt ion
lei pzig
Ġei er
k inder
ei m
Ġin zwischen
Ġan schauen
Ġer de
ran k
Ġto p
Ġakt uell
fÃ¤ llig
k ann
Ġm is
iz ieren
ĠÃ¤ l
ĠÃ¶ffentlich en
Ġgedanken gut
Ġkran ken
Ġgegens atz
ĠgefÃ¼ hrt
Ġhind us
o c
Ġin f
bl att
Ġschrei en
ei tet
Ġi dent
eu ch
Ġver fÃ¼
Ġvor stellen
Ġviel es
Ġfeh l
stra fe
Ġge fl
sen tsch
all es
Ġ organ
Ġm ulti
Ġk anzlerin
Ġst eine
Ġbe kl
Ġal tern
ru g
fass bar
Ġarm ut
iar den
Ġun zufrieden
Ġweiter en
Ġbeleid igung
a fen
l aufen
m ach
Ġh under
Ġun i
Ġverk aufen
Ġtyp en
d ar
Ġs eh
Ġw isst
Ġbed rohung
Ġsozial en
Ġignor ieren
k or
m ed
Ã¤ gen
Ġkon zert
Ġgar ant
ðŁĳ İ
du mm
Ġfreu en
p asst
Ġer lebt
Ã¶r per
Ġte uf
Ġwicht iger
Ġstraft aten
) )
b ald
Ġer g
iz ation
su chen
Ġchrist lich
ĠgroÃŁ teil
islam isierung
Ġabs ol
geg angen
Ġmultik ulti
Ġehem al
Ġprov ok
9 6
m ag
Ġein gesch
Ġauf ger
Ġqu ellen
zahl en
w ert
Ġsie hst
Ġmut ti
Ġehr en
verr Ã¤ter
Ġk onst
Ġc l
Ġwelt krieg
Ġob je
Ġeinzel nen
Ġabges ehen
Ġrep ublik
ei de
on en
Ġt ran
Ġer fahren
ĠðŁĺ Ĭ
geb aut
Ġverm u
ikatur en
u ar
Ġw us
nd e
Ġc an
Ġdan iel
ĠdÃ¼r fte
Ġm y
Ġz df
Ġha ve
ge fÃ¼
Ġform ul
spaz ier
pet ition
Ġd ur
Ġsp itze
Ġth ierse
Ġsu cht
Ġsag st
Ġgru ÃŁ
bes ch
Ġeinwander ungs
Ġw eh
Ġb re
Ġst amm
Ġverb ot
Ġgro ss
ĠbÃ¼rger krieg
ĠschÃ¼ ler
Ġa ha
Ġer schein
Ġste fan
fl uechtl
Ġeinz ig
Ã¤hr t
Ġse x
t um
st at
Ġsp an
wie gen
ob il
Ġrev olution
c du
l d
w en
Ġu p
an w
gel t
br iel
krie gen
Ġp sych
eg er
Ġkl a
oll t
sst aat
lie be
!!!!!!!! !!!!!!!!
. âĢĿ
Ġk ass
Ã¼r en
Ġvor sicht
Ġen d
ander s
Ġna iv
Ġsteuerzahl er
Ġaus b
Ġkein em
Ġmittel alter
c am
w el
ung l
Ġnach dem
Ġgeh Ã¶r
Ġang em
pp ort
ne te
tag es
pan orama
Ġsouver Ã¤n
p ack
z eich
as ser
Ġfre ch
wer fen
Ġgez ogen
Ġreligions freiheit
Ġkapit al
Ġfen ster
b are
Ġh Ã¤l
Ġzu dem
Ġre cher
Ġkomm st
bl ick
Ġbew egen
Ġterror ist
Ġmach st
ĠkÃ¶ pfe
Ġleg it
y t
Ġsch ritt
Ġgeh ol
Ġfa hnen
die se
Ġreg ieren
ĠgroÃŁ es
f rau
ell schaften
Ġam is
stell ungen
Ġschm ei
wand ern
ĠÃ¤l ter
de b
Ġal ex
ge d
Ġgesch lossen
h el
Ġs eht
mo slem
m eier
Ġa ga
Ġa chtung
Ġz e
em ent
Ġbeg riffen
Ġanschl ieÃŁen
Ġamer ika
Ġdoo f
o sten
Ã¤ st
in te
Ġver wir
Ġbe weis
Ġwo hnen
Ġro lle
Ġdi re
Ã¼ch tern
ĠwÃ¤hl er
b om
f amil
Ġ ol
Ġ ord
Ġh or
sch rift
Ã¤ Ã¤
Ġbrau nen
halt ung
6 0
w n
ll er
Ġgeh alten
Ġgut mensch
Ġdemokrat ischen
lie gen
i Ã¶s
as che
Ġk ra
sch ihad
Ġz eu
eit ung
id t
etz ten
ðŁ Ĵ
Ġerst er
Ġwor ten
Ġmitl aufen
Ġk rÃ¤
Ġp rakt
ir gend
Ġun schuld
Ġgleich zeitig
ic e
rep ublik
relig ion
w Ã¤
sch ung
Ġf e
em it
Ġmein te
Ġarbeit sl
ĠtÃ¼rk ischen
ĠtÃ¼rk ische
Ġeng land
' re
h ier
Ġn Ã¶
Ġp al
isch po
ed et
Ġbesser e
Ġoffen bar
Ġerd ogan
Ġin fo
Ġj Ã¤hr
Ġaus gel
Ġwo bei
Ġgel ebt
Ġfl Ã¼
Ġto ten
Ġgewaltt Ã¤t
f ter
Ġan erk
Ġr uss
ĠÃ¶ ff
bur ger
Ġschweine fleisch
e k
t ot
Ġd ruck
Ġzu frieden
wir d
Ġeinz igen
Ġbet eil
Ġsinn voll
Ġerk annt
Ġdau men
Ġzuwander er
Ġf o
Ġst unde
Ġarbeit s
ue ber
Ġneg ativ
Ġw ehren
Ġgef or
9 5
a in
Ġsch adet
Ġges inn
Ġ5 00
ĠÃ¤uÃŁer ungen
Ġmor al
n ot
r in
Ġw ww
Ġp an
ges a
Ġkon vert
Ġbrau ne
Ġdisk rimin
Ġmill iarden
Ġfranz Ã¶s
ĠreligiÃ¶ sen
Ġerinn ert
g lichen
p ort
pro fil
Ġeinzel fall
ech ter
ĠmÃ¼ll er
Ġvolksver h
Ġinterp ret
s oll
Ġb ir
Ġp ut
Ġp rÃ¼
Ġge pl
Ġerz Ã¤hlt
post et
Ġka iser
y m
Ġm i
Ġn ett
Ġz Ã¤hlt
ĠÃ¼ber w
marot zer
Ġstate ment
k rit
t o
Ù Ī
Ġh i
Ġr ente
Ġkon nten
ust rie
Ġben ehmen
Ġkriegs flÃ¼chtlinge
ĠgrÃ¶n emeyer
Ġteuf el
Ø ª
Ġl egen
el det
Ġunter wegs
Ġber echt
Ġru ft
Ġgeb ur
Ġhum an
c c
o ber
ðŁĺ Ħ
Ġmus sten
Ġverk auft
gru ppe
Ġmitl Ã¤ufer
d rÃ¼ck
j etzt
s agen
z el
Ġge postet
ar m
or ben
Ġab sicht
Ġfrei willig
Ã¼n scht
Ġdistanz iert
ĠstÃ¤d te
d s
Ġs Ã¤m
Ġa pp
ein fl
Ġau ge
Ġges etzt
Ġgesp errt
Ġkrimin alitÃ¤t
Ġaust ral
. ,
Ġk auf
alt ungen
Ġbundes k
Ġgru pp
Ġpr inzip
ĠgrÃ¼nd e
gh an
demonstr ationen
k reis
o f
s al
Ġd est
Ġk ulture
Ġwenn s
Ġeinf l
Ġschn au
k ir
Ġs and
Ġein st
Ġver f
rÃ¼ ckt
pro blem
feind liche
Ġrus sen
Ġentwick lung
fasch isten
Ġs amm
ie der
Ġw hat
Ġk amm
sch reiben
kt ion
Ġsp ruch
ill er
Ġgesch lagen
Ġdr ingend
Ġverantwort ung
Ġmel den
Ġb un
Ġb rei
Ġan ony
Ġe chte
gl au
Ġpl ak
Ġsozial e
zus etzen
Ġs an
Ġm Ã¤cht
Ġge p
am ent
Ġper fe
Ġorden tlich
e ten
Ġf euer
Ġein l
Ġsp enden
Ġto te
Ġrad io
pz iger
k ehr
Ã¼r gen
Ġan zahl
Ġvor teil
ack e
Ġco unt
Ġdreck s
ĠkÃ¼ mmern
; )
er z
it Ã¤ten
em ber
den k
ge ber
Ġ- -
Ġar schl
gl eich
Ġstaats bÃ¼rger
Ġerm ord
ĠbestÃ¤t igt
Ġmart in
6 4
p i
Ġm et
Ġun fassbar
om en
Ġrecht sextrem
Ġ1 0000
Ġju gen
Ġtrau er
Ġfrank furt
Ġorganis atoren
ĠbeschÃ¤ft igt
Ġvater land
u chen
Ġv ideos
Ġsch im
Ġuns inn
Ġwen de
Ġru f
gar ten
ĠnÃ¤ch stes
e ber
Ġz ens
Ġex tra
Ġsor ge
ga ben
" !
s es
Ġpro p
ĠðŁĺ Ħ
edig a
Ġsto ppen
con tent
Ġn ehme
Ġb agida
al er
Ġver Ã¼
Ġver Ã¤nder
rei b
Ġimmer hin
Ġforder ung
Ġstimm ung
Ġon line
ĠgesprÃ¤ ch
ind el
eil e
az in
8 3
Ġi ll
sch wei
Ġf inger
och ter
Ġha mmer
Ġen tt
Ġwen igen
Ġkor ru
Ġerl eben
9 4
: -)
Ø ¹
Ġs c
ier st
Ġmittel n
verl ag
Ġgesam te
Ġmehr fach
err en
Ġgel assen
ĠtÃ¼r ke
Ġargument ation
Ġlegit im
deb atte
k ont
Ġs zen
Ġw ho
Ġfr ust
wir k
Ġro th
Ġarm sel
ĠerwÃ¤ hnt
h ot
v ier
Ø ¯
ar k
Ġt isch
ru f
Ġsol d
Ġneu kÃ¶lln
Ġanders denken
Ġschm idt
Ġok ay
Ġnational sozial
ĠauslÃ¤nd ische
ischpo ke
t her
Ġd on
ier er
ser v
Ġschw ier
Ġgro ÃŁer
Ġex tre
Ġvoll er
Ġnot wend
ĠfÃ¼hr er
Ġbra vo
Ġgrie chen
y n
Ä ģ
Ġw h
Ġn em
Ġbe am
ft ig
Ġnach voll
Ġang riff
Ġselbst verstÃ¤ndlich
Ġgra de
h olen
¸ ı
ï ¸ı
Ġr h
: )
k ul
Ġd is
ei r
ie gen
Ġb Ã¤r
Ġver Ã¤ndern
Ġkn app
Ġaf ghan
Ġfranz osen
Ġpegid as
Ġga briel
m Ã¤r
Ġp oten
Ġso bald
etz te
Ġislam isch
Ġteil nehmen
Ġlink er
???? ????
Ġbur ka
m ich
p un
Ġan stÃ¤nd
Ġre gen
Ġ, ,
itte lt
Ġgo ogle
Ġjan uar
Ġoss is
ĠgenÃ¼ gend
s ste
Ġi ran
Ġwo hin
Ġc ar
Ġir re
hal te
Ġdarf st
mÃ¤ÃŁ ig
b uch
Ã¤ te
re gen
us ser
Ġbl ick
ĠâĢ ĶâĢĶâĢĶâĢĶâĢĶâĢĶâĢĶâĢĶâĢ
Ġgegens eite
s ser
w erk
Ġd d
!!!! !!!
eut ung
Ġans atz
Ġkrit isch
Ġauft ritt
o ver
Ġauf genommen
Ġvor gehen
Ġbes atz
Ġna he
Ġbesser es
Ġstu die
Ġdenk st
Ġd Ã¼n
Ġk Ã¶rper
Ġz ig
Ġl etzt
ðŁ ĩ
?? ???
Ġfrei en
ĶâĢ Ķ
ĠauslÃ¤nd ischen
n ein
w unsch
Ġn ase
Ġh etzt
ĠÃ¼ber r
Ġverd re
Ġhas sp
Ġaufw achen
Ġzu ge
in en
in kt
mmer t
Ġfa ir
schul e
Ġmass iv
Ġinner halb
ĠÃ¶ster reich
on az
Ġp ap
Ġsch af
Ġauf nahme
ĠschÃ¶n es
ĠfÃ¼ hlt
Ġzwei te
Ġandre as
p el
Ġvolk sentsch
ĠwÃ¤ chst
Ġho ol
Ġeinzel ne
g b
Ġ ++
je der
Ġstein meier
Ġvorurteil e
Ġverda mmt
Ġb as
or fen
is burg
Ġauf geh
Ġwar st
res sen
Ġlei den
pl o
cd n
it i
Ġschl icht
ĠmÃ¶ gen
Ġbet roffen
Ġange fangen
Ġschnau ze
7 5
Ġd Ã¤mlich
Ġb auen
Ġp ediga
in land
13 6
lle kt
Ġ3 00
Ġtats achen
fÃ¤ h
Ġkenn st
sextre me
9 3
j ung
Ġw acht
st ein
Ġb ein
Ġb us
he ten
Ġmo tto
Ġstaat es
Ġur laub
Ġmon at
**** ****
Ġkontro ll
Ġentfern t
Ġorgan ization
Ġl asse
rie b
Ġir onie
l ass
m et
Ġf Ã¶r
Ġr ent
ĠfÃ¼r s
Ġvor schlag
pf osten
af r
Ġ8 9
Ġfasch ismus
Ġbestimm te
Ġaggress iv
Ġb ru
Ġp u
Ġp Ã¶
au n
Ġsch reck
Ġver sp
Ġdu m
Ġgew ollt
Ġde ppen
Ġtrau t
Ġant id
gem acht
fÃ¼hr ung
x x
Ġh ein
Ġh Ã¼
Ġh ann
Ġb rot
Ġder art
Ġst Ã¶rt
fa z
Ġ- --
Ġkein es
Ġung eb
Ġeins atz
ðŁĳı ðŁĳı
8 4
b i
z ess
Ġk Ã¼nst
Ġan hÃ¤ngern
Ġvor bild
Ġch ar
Ã¤u ÃŁer
Ġmin uten
Ġfot o
Ġstad tt
p u
z eln
Ġh on
Ġh ist
Ġl est
Ġso hn
Ġaus geb
Ġgr aus
Ġpro du
Ġc om
eid et
Ġbew eg
ĠlÃ¶ schen
Ġmanipul iert
Ġs Ã¤
Ġw olf
Ġz eug
ar ab
or ter
Ġt or
Ġislam istischen
fl ag
ĠgrÃ¼ n
Ġpl att
prÃ¤ sent
Ġarab ischen
Ġhimm el
Ä Ł
Ġj en
Ġte am
ma ÃŁ
l Ã¤ndern
ie den
Ġn su
Ġman chen
Ġmein es
Ġe wig
so ur
Ġsu pport
Ġem p
Ġseiten s
Ġa c
Ġn ah
Ġz Ã¤hlen
Ġp red
Ġauf gebaut
Ġr au
Ġmo bil
Ġho hl
ehn ten
fÃ¼hr er
Ġaufru f
Ġwes ent
Ġh mm
Ġf Ã¤ngt
Ġt au
Ġt ra
Ġbe zug
Ġaus gesch
Ġwieder hol
Ġgel aufen
all em
all gemein
Ġtoll er
Ġsk and
sch er
ur m
am ental
Ġauf geben
Ġev ent
Ġabgesch oben
Ġherz lich
Ġerb Ã¤r
st a
Ġst Ã¼r
Ġgl ob
Ġunter kriegen
rÃ¼ cken
Ġho hen
Ġwest lichen
flÃ¼chtl ingen
Ġmon aten
Ġaga inst
Ġu do
Ġge bt
Ġo pf
Ġo hren
Ġan al
Ġauss ehen
Ġangel a
n n
Ġh Ã¤ngt
or gt
am er
Ġant is
Ġfreund en
Ġarbeit slos
Ġmensch heit
ĠglÃ¼ck wunsch
post s
Ġmenschenver achten
b is
r ich
z ut
Ġt on
Ġt ochter
Ã¼r t
... "
Ġre aktion
Ġkinder garten
Ġbeh aupt
bes onder
ĠreligiÃ¶ se
zÃ¼ ge
Ġherr schen
Ġrech nen
ĠtrÃ¤ gt
Ġafr ika
ĠhÃ¤l fte
6 3
Ġj ungs
Ġangeh Ã¶r
Ġentscheid ung
Ġput in
e p
z ern
Ġd ing
Ġg Ã¼
Ġh Ã¤nde
sch rei
Ã¤ llig
Ġj ens
Ġauf hÃ¶ren
Ġab geht
ti f
Ġleben den
Ġungl Ã¤ubige
Ġgefor dert
n etz
o ut
Ġj Ã¼rgen
et ter
Ġhin aus
richt ung
Ġbest raft
Ġfei ern
Ġtyp isch
Ã¶r den
Ġschw eden
Ġzw eck
ĠflÃ¼chtl ings
ĠfrÃ¼ h
t oler
sch m
te am
Ġlei st
Ġwissen schaft
Ġwor um
Ġsau ber
Ġfinanz iert
m obil
â Ĥ¬
en ze
Ġs ed
Ġa h
Ġander em
Ġunter nehmen
ver ein
Ġdar in
qu em
Ġasyl politik
Ġbeh err
ĶâĢĶâĢ ĶâĢĶ
Ġschein en
Ġschein heil
Ġstu denten
Ġerfahr ung
ĠâĢĶâĢĶâĢĶâĢĶâĢĶâĢĶâĢĶâĢĶâĢ ĶâĢĶâĢĶâĢĶ
d re
l i
l eute
Ġsch ubl
bl e
ff er
Ġger edet
est er
Ġbet rifft
oo oo
Ġarbei tet
Ġverbl Ã¶
ĠnÃ¤ he
Ġkund gebung
Ġnachbar n
Ġge Ã¤ndert
ber eit
Ġauf gew
Ġwer bung
Ġwar te
Ġschl afen
Ġdies mal
Ġfind est
Ġvoll pfosten
sver trag
Ġaut os
plo ad
c a
Ġein heit
Ġj ene
ffen tl
Ġth ank
Ġth eir
Ġsinn los
ĠrÃ¼ ckt
t a
Ġb al
Ġbes itzen
wie der
ĠbÃ¼rger meister
ausen de
Ġabges agt
7 3
Ġl auf
Ġp fu
eh nte
Ġland e
Ġgesch ei
Ġfl ug
ĠbevÃ¶lker ungs
Ġaut om
Ġkap iert
Ġmanipul ieren
' t
b auen
ie llen
Ġsch rift
Ġsp rÃ¼che
sa b
Ġben utzen
Ġinform ationen
geg ner
Ġeinsch Ã¼chtern
Ġstell ung
Ġmitbe kommen
k ein
m iss
s ha
u el
Ġ2 000
Ġt ru
Ġfr eitag
ĠÃ¼ber t
Ġschon mal
ver anst
Ġdar unter
Ġlei pziger
Ġstra fe
Ġju gend
Ġbek annten
ko pp
Ġfeind e
Ġsh aria
5 00
a mmen
g ten
Ġn tv
an e
Ġge zwungen
Ġver urs
Ġst ill
Ġbeh andelt
wor ter
Ġmus ik
ock er
Ġangeb lichen
Ġhassp red
s ar
Ġ q
Ġs ack
Ġre prÃ¤sent
Ġman gel
Ġdu isburg
Ġreg iert
k om
r r
s an
Ġa ss
Ġ2 4
Ã¤ sst
el te
... !
.... .....
Ġschl agen
Ġland sl
Ġeinf Ã¼
Ġne onaz
Ġdemokrat ische
Ġro ten
fol ge
Ġvert ritt
ĠhÃ¶ her
Ġerw achsen
Ġverschw Ã¶rung
Ġversamm lungs
Ġident itÃ¤t
h eist
u pload
Ø ¨
Ġs at
Ġb eil
el be
Ġal ko
Ġwo w
Ġab st
Ġhin ten
Ġnat o
Ġkur den
Ġgeist igen
Ġreag ieren
Ġein iger
Ġr atten
anz en
ger icht
stem p
Ġget roffen
Ġvert rauen
Ġdo ppel
Ġuntersch eiden
Ġpun kten
Ġev tl
Ġbekomm e
7 4
l Ã¤nd
m Ã¼
Ġsp Ã¤te
Ġunter drÃ¼ck
ĠwÃ¼r det
Ġzeit ungen
fb cdn
Ġanges ch
him i
s itzen
Ġ2 2
sch aut
Ġlin ie
Ġnormal en
rÃ¤n kt
ĠschÃ¤m e
Ġentt Ã¤u
8 5
y a
te ten
Ġf u
Ġt er
is m
Ġr at
Ġislam ischer
Ġkl aus
âĢľ ,
Ġschwar ze
Ġmon ate
staat en
Ġm esser
ich er
Ġl ager
Ġgr at
Ġger ing
Ġterror ismus
op o
stÃ¤nd en
nehm ern
Ġverd ienen
Ġverar schen
Ġlob by
Ġ tel
ei ert
Ġs en
Ã¼ ng
Ġr al
Ġger icht
ĠkÃ¤m pft
c i
d anke
h photos
k ur
Ġh r
Ġt reiben
Ġsch ieben
ig keiten
Ġverurteil en
Ġgener ell
mb h
Ġbezie hen
Ġwus ste
Ġafghan istan
f rauen
Ġd icht
Ġge kl
Ġin v
ber icht
Ġto des
war ten
lam ent
Ġarbei ter
Ġpatri oten
Ġsogen annte
Ġverschieden en
heb do
Ġli ber
Ġmot iv
Ġprop heten
ig ration
ro ll
sp e
di a
ĠfÃ¼ hle
Ġtrau m
Ġjahr es
Ġret ten
g u
s ol
ei fen
Ġs il
Ġr enten
Ġsp ort
rau m
Ġwes halb
Ġrie sen
Ġvorbestra ft
gefÃ¼ hl
" -
b eln
i re
o hne
u v
ch n
Ġf ein
Ġab geh
ation s
per ten
ĠÃ¼br ig
par is
Ã¤uÃŁer ung
Ġh Ã¤ngen
Ġsein es
Ġho gesa
ab el
Ġkon fl
Ġinte llekt
Ġkrimin ell
Ġfil m
g ien
nd en
Ġfl aschen
frei en
ĠÙ ħ
Ġalko hol
d ung
f unk
k as
z eichen
Ġver ab
de ckt
Ġvor allem
Ġakzept iert
h s
p s
st he
on g
Ã¶ ff
Ġdeutsch es
ges ellschaften
ĠmÃ¼ he
Ġnun mal
ĠauslÃ¤nder feindlich
ogra f
Ġfund amental
te ste
Ġl iban
Ġsch ick
et was
ag es
ik e
ĠÃ¼ber nehmen
ha be
mit glie
pro gramm
Ġat heist
Ġdiskut iert
Ġmed ial
wÃ¤ sche
? "
Ġw ess
Ġh ir
an ter
te te
br ochen
Ġricht en
kl ar
Ġlink sextrem
hei sten
fr ont
Ġlinks radikal
Ġallah s
Ġhetz er
fremd ung
Ġkla ppe
Ġvolksverh etzung
f lich
j ust
ie bt
te sten
Ġe kel
tlich en
Ġfol ge
Ġfol gt
Ġabsch aum
blog sp
Ġgau ck
Ġobje ktiv
b b
h ard
Ġu eber
ten d
Ġun er
Ġwo hnung
Ġang eht
Ġweiter machen
Ġgro sse
Ġbew Ã¤hr
Ġwenig sten
ĠbeschÃ¤ft igen
Ġamerikan er
Ġverfassungs schutz
ausl Ã¤nder
Ġermord et
on s
Ġp i
ne ten
fre m
des sen
ĠvernÃ¼nft ig
d och
f ar
g st
m Ã¤n
o pfer
Ġ2 0000
Ã¶ re
Ġst utt
fa hne
Ġgemein schaft
ĠmÃ¤r chen
Ġsam stag
Ġstamm t
Ġrent ner
k unft
Ġein wohner
or ie
Ġan spruch
Ġer tragen
Ġst art
ste lle
Ġbr Ã¤u
Ġjem als
Ġoffen en
Ġur teil
Ġfern seh
ĠrÃ¼ck sicht
Ġsolidar itÃ¤t
Ġabschie ben
ĠverÃ¶ ffentl
jo urnal
ĠdÃ¼n n
ĠspÃ¤te stens
b itte
p osition
Ġ2 6
sch ei
Ġf ass
Ġproblem en
Ġverl etzt
Ġbeg angen
ĠtÃ¼rk isch
Ġdank bar
sie he
Ġpost s
gut menschen
Ġentwick elt
Ġersch recken
ĠbekÃ¤m pft
Ġversteh st
a ce
en kt
Ġb ast
Ġk ern
de burg
Ġgew innen
Ġschl echter
rÃ¤ um
Ġfre ut
richt ungen
all er
Ġru tsch
Ġbeh alten
Ġrei he
Ġfrieden s
Ġums onst
alif iz
6 5
f ung
Ġv ol
Ġv llt
Ã¶ Ã¶
ol and
Ġbe einfl
Ġaus sch
gel assen
ic al
wa hn
Ġerz Ã¤hl
Ġvergl eichen
Ġrechtsradikal e
Ġerinn ern
g s
m ir
st Ã¤d
Ġk ipp
Ġaus gehen
Ã¤nd en
Ġthe ater
Ġgrund sÃ¤tzlich
Ġung er
Ġversu che
Ġte st
vers agen
Ġverar scht
Ġaufger ufen
Ġfrech heit
Ġpfu i
b ach
er weise
ei en
Ġaus ges
ti p
Ġgrund e
wo llen
Ġbundes regierung
mo us
prÃ¤ sident
Ġjahrh under
Ġgebl ieben
; -)
? )
Ġd ingen
Ġa ra
Ġn ic
Ġb ieten
an schlÃ¤ge
Ġre form
Ġfa himi
Ġgew erk
Ġmeinungs Ã¤uÃŁerung
Ġlern t
pfl icht
Ġmitglie der
demokrat ie
Ġzut un
Ġrechtfert igen
Ġhom o
Ġausschl ieÃŁlich
Ġeinfl uss
m opo
n u
p atri
Ġb ier
Ġk re
Ġl iste
Ġge arbeitet
lei der
g art
l ar
m dr
Ġs ay
ie te
ber ger
Ġwo anders
Ġvor m
ess ion
Ġkar l
Ġdemonstration s
Ġirgendwel chen
ĠnÃ¤ her
Ġbomber s
ĠverÃ¶ ffentlich
plan et
sour ce
Ġb onn
Ġre dner
Ġwo hne
Ġgew ar
Ã¤r en
teil ung
Ġvoll idi
Ġasyl ant
Ġkrieg strei
ðŁĳįðŁĳį ðŁĳįðŁĳį
hh hh
Ġad olf
Ġdre hen
f al
f ot
Ù Ĥ
Ã¤ men
in t
ge bracht
sp ro
Ġgem eind
ss el
Ġschrei b
Ġmar ion
Ġberlin er
Ġgehol fen
Ġge teilt
eh re
Ġst ich
Ġho f
Ġbr ennen
Ġkeiner lei
Ġklein es
Ġverschw inden
blogsp ot
k ehrt
er gie
Ġa ffen
Ġw Ã¶r
Ġb an
Ã¶ sen
den kt
Ġgew isse
fÃ¤ hig
Ġnenn e
fluechtl inge
ĠsÃ¤m tliche
Ġs ender
Ġi den
at schen
Ġt tip
wei st
Ġbesch wer
Ġach so
Ã¼nd et
ay er
Ġben Ã¶t
Ġange z
Ġkrit isiert
ĠðŁĺĤðŁĺĤ ðŁĺĤðŁĺĤ
ĠvernÃ¼nft ige
Ġzerst Ã¶ren
Ġgesinn ung
o hnt
Ġd schihad
Ġh m
Ġf ro
Ġf az
Ġfr ont
Ġbew egt
geb iet
âĢľ .
Ġhaupt stadt
Ġauft rag
Ġmitglie d
Ġsteuergel dern
8 2
k und
p le
r ass
Ġu l
Ġh ell
Ġt itel
Ġer fÃ¼
Ġaus bildung
Ġ- >
ĈĈ Ĉ
ab il
Ġgleich berecht
uer ger
Ġgeb aut
Ġauss ieht
Ġno pegida
ih Äģ
anger e
Ġausser dem
Ġbuddh isten
kot te
Ġaustral ien
ÄŁ ihÄģ
ÄŁihÄģ d
h ar
k al
Ġw il
Ġi q
Ġh assen
Ġf ischer
wie gend
Ġkommen den
Ġat heisten
unser e
Ġkra w
Ġsold aten
k eln
p age
v z
Ġd rohungen
Ġb on
Ġb Ã¶s
re de
Ġun wissen
Ġmit ten
Ġauf treten
ik en
ha fte
Ġlie d
ĠmÃ¼ ÃŁ
Ġgesch ickt
est ream
Ġsol cher
qu elle
ers eits
Ġbed euten
artei en
Ġqu asi
ĠhÃ¤tte st
Ġkn a
Ġignor iert
Ġintoler anz
Ġbeil eid
f kotte
n or
p rÃ¼
u k
Ġder er
us sen
Ġgeh ei
Ġrecht sstaat
Ġc lau
Ġeinfach er
so ndern
Ġrelig iÃ¶s
201 3
akt ionen
Ġlo hn
kam pf
Ġrel ativ
Ġautom atisch
8 0
s agt
Ã¤ h
Ġt ur
Ġsch ief
Ġr ichtet
Ġum gehen
Ġpro ph
ðŁĺ Ĭ
Ġber ichte
fr agt
Ġbeispiel e
Ġeinzel fÃ¤lle
Ġargument ieren
Ġlog ik
l icht
r ige
s b
t w
Ġh inge
Ġk as
re ct
ten s
ber eich
Ġislam unterricht
Ġgew orfen
Ġwelt bild
Ġstra ff
Ġinter nation
Ġgu ck
Ġco ol
zent ral
Ġerfahr ungen
Ġwirtschafts flÃ¼chtlinge
h eben
Ġd Ã¤m
em en
Ġvor ge
Ġc ont
Ġgesch ieht
Ã¤u ser
ĠfÃ¼ t
fer enz
Ġmus el
Ġgeist ig
Ø³ ÙĦ
jung e
k an
Ġ eg
Ġf assen
Ġdu mmer
Ġang en
Ġung e
Ġstr assen
Ġakt ionen
get reten
Ġfunktion ieren
pun kte
k i
Ġd ick
ar s
sp rÃ¼
Ġschl ie
Ġgel egen
Ġgu cken
Ġbet itel
Ġarbeit spl
Ġse ele
Ġzuk Ã¼nft
Ġneben bei
ĠbestÃ¤t igen
Ġaufmerksam keit
Ġiden tif
s um
Ġd ritten
st euer
Ġh als
Ġt Ã¤t
Ġgl Ã¤ubigen
lin ks
Ġdemokrat isch
ĠÃ¼ b
Ġdi ver
Ġanschl Ã¤gen
Ġrespekt ieren
ĠlÃ¼ gt
7 0
z Ã¤hl
Ġm eldung
Ġauf halten
eid ung
Ġverl angt
Ġtro t
Ġro te
sk rie
Ġkont akt
Ġsoviel e
Ġkontro lle
wur f
ilde te
b rief
c en
Ġk al
Ġge fahren
Ġkl appt
Ġgew onnen
Ġger ufen
Ġsu b
Ġpa k
Ġgest alten
Ġbundes republik
Ġkn ast
Ġvolks verrÃ¤ter
Ġverschieden e
opp t
Ġatt ack
Ġszen e
f tet
Ġs hin
an o
Ġver treter
ann en
... ?
Ġges indel
rÃ¼ck e
Ġfrem de
gru ende
ĠflÃ¼ chten
Ġproph et
Ġein gel
Ġsch il
Ġauf gabe
Ġda v
Ġab out
Ġverl angen
Ġzw ingen
politik versagen
?! ?
ativ en
bil der
Ġzerst Ã¶rt
h ann
n ommen
n itten
z iell
ie d
Ġzu vor
un st
Ġvor an
sp ack
Ġgew Ã¤hl
Ġschl ieÃŁen
ĠwÃ¤ hlt
Ġnat ur
Ġlang weil
Ġkar r
Ġextrem ismus
ĠkÃ¶ pfen
mein ung
ĠÃ¼berzeu gt
feh ler
sextre men
Ġstattf inden
. :
z b
Ġein ig
Ġnicht mal
ing ung
ul det
Ġgen ial
Ġdar gestellt
eist et
Ġpresse freiheit
Ġletz ter
reu ze
Ġaufge fallen
co unt
Ġerl ed
Ġbom ben
Ġprofil bild
Ġdau ert
Ġetabl ierten
Ġgarant iert
Ġs us
Ġm eck
Ġn i
Ġl ehr
Ã¶ m
de ten
Ġer hÃ¶
un ken
ðŁĺ ģ
Ġwohl stand
Ġto tsch
esch Ã¶n
Ġverste cken
Ġrecher ch
b achmann
h asser
k Ã¤m
Ġd eb
Ġzu nehmen
id as
Ġbe weisen
Ġent stehen
Ġanders gl
hinter gruende
ĠlÃ¶ sen
Ġev angel
Ġvolksver treter
ĠdÃ¼ mm
go tt
Ġche f
Ġfeiert age
ĠverÃ¶ffentl icht
i at
Ġs im
Ġm orden
land e
Ġgel ogen
Ġfre ue
ĠÃ¤ usser
eld orf
komment are
mag azin
Ġd at
Ġg ramm
Ġst Ã¶ren
Ġkl assen
Ġko stet
ĠbÃ¼rger bewegung
ĠÃ¶ fter
Ġbet t
Ġforder e
Ġlebens weise
Ġstutt gart
b rÃ¼
d ig
n ungs
Ġ och
Ġzu stimmung
Ġal i
Ġvor zu
Ġhin weis
all y
Ġlog isch
Ġze cken
k ennt
o v
o ckt
t os
Ġs auer
Ġn irgend
Ġver allgemein
Ġo pp
Ġgegen einander
tz ut
deutsch er
Ġwor ld
Ġorganis iert
arbei ten
Ġgeist es
pd f
olog ie
ĠkÃ¶l ner
Ġopf ern
m il
Ġh ung
is ierten
Ġum gang
ĠĠĠĠ Ġ
rau t
ĠlÃ¤ ÃŁt
Ġrei se
reg ional
Ġausger echnet
Ġshin tos
tzut age
r acht
t u
Ġb eine
Ġb anken
re chten
is anten
un s
Ġto pf
Ġbed auer
wor fen
Ġverm ein
Ġhel den
Ġerk enn
Ġhal tet
Ġreag iert
Ġhann over
Ġhist or
Ġlandsl eute
v b
Ġs ven
Ġh undert
Ġha ste
Ġan liegen
Ġre da
Ġwer ten
Ġdem nÃ¤chst
pp elt
Ġe chten
fre unde
Ġerfolg reich
Ġbestimm ten
Ġzul auf
dam it
Ġaltern ative
Ġkriegstrei ber
Ġpak istan
Ã ¡
Ġs in
Ġh Ã¤
Ġh au
Ġk en
Ġf Ã¼n
Ġf dp
em m
Ġst ren
Ġja ja
Ġhier zu
Ġunter halten
Ġsy mb
lo hn
Ġfinanz ieren
Ġminder heiten
Ġprof it
Ġbundesk anzlerin
besonder e
i dent
Ġso g
el ei
etz ungen
Ġsp alten
Ġe ver
Ġet hn
bst imm
Ġko p
Ġex isten
Ġheu tzutage
Ġaufge klÃ¤r
Ġuntersch reiben
Ġsteuergel der
Ġkonk ret
Ġjahrz ehnten
ĠrÃ¼ckt ritt
m g
r ieren
Ġm ischpoke
Ġv ie
Ġp Ã¤d
Ġp aul
it ut
Ġzu stand
Ġso zi
Ġbe wiesen
ðŁĺ ħ
Ġgest euert
Ġbek ennen
ĠÃ¼berzeu gen
ogra ph
Ġkoll egen
h ung
k ung
Ġ Ð
Ġw ald
Ġi f
Ġn ag
Ġh und
sch Ã¶n
Ã¶ der
Ġr ennen
Ġwo zu
im es
Ġgo d
Ġpar ad
Ġhinter fragen
Ġdiskuss ionen
Ġrechtsradikal en
ham ed
Ġafr ikan
g liche
t Ã¼r
t sam
Ġp ress
Ġwo von
ok um
ru ckt
Ġeinfach e
Ġbek ann
reck e
Ġschnell er
Ġholl and
Ġperfe kt
Ġgeschei tert
Ġh ieÃŁ
Ġp opul
Ġgeh etzt
Ġsel tsam
Ġbrau chst
Ġbeh Ã¶rden
Ġzwei fel
Ġbeschim pf
10737418 28
Ġgepl ant
Ġill egal
Ġclau dia
Ø Ń
ei der
Ġ201 0
Ġb eur
hr ung
Ġt ier
et s
Ġun mÃ¶glich
Ġteil nehmern
Ġfor tsch
Ġ.... ...
zahl t
ĠÃ¶ffentlich e
Ġmund tot
ĠdÃ¼ ss
Ġbem Ã¼
ĠðŁĳįðŁĳį ðŁĳį
Ġkass el
ĠkÃ¼nst ler
m und
w ald
Ġg re
Ġk Ã¼r
Ġein t
Ġbei des
ger man
Ġje weil
Ġbew a
gl eichen
ĠblÃ¶ de
ĠtÃ¶ tet
Ġor ient
hamm ad
Ġker ze
Ġimm igranten
Ġgerecht igkeit
g ner
m i
Ġ ÄŁihÄģd
Ġs ah
st ern
Ġh en
Ã¼ l
is a
Ġha ft
ĠÃ¼ber fremdung
Ġgr enze
Ã¤ch s
Ġwirklich keit
Ġmar ia
Ġveranst altungen
Ġwunder bar
Ġkrit isieren
Ġanz eige
Ġentschuld igung
Ġdun kel
Ġevent uell
a id
g te
st immt
st ock
Ġg as
Ġn utzt
Ġh unde
ar gum
Ġunter b
bl ei
ges amt
Ġschw ul
lin ke
Ġbild et
Ġhand y
Ġzahl t
Ġprovoz iert
oph il
Ġrand al
Ġjeg liche
Ġparallel gesellschaften
Ġfo cus
" :
l ag
Ġm os
is ser
Ġmit arbeiter
Ġr oland
Ġaus Ã¼
Ġ19 45
Ġange kommen
Ġanges ehen
Ġbeleidigen d
Ġmil itÃ¤r
partei en
b ruch
m orgen
n issen
Ġs ab
Ġi v
hn w
Ġmenschen rechte
Ã¶r igkeit
Ġtoler ieren
Ġ5 000
Ġentsch ieden
Ġfest stellen
Ġorganis ationen
Ġkamer a
Ġwesent lich
k auf
l iv
z it
Ġj ul
Ġr Ã¼ber
Ġfr ance
Ġkl ug
Ġwur zeln
Ġgem Ã¤ÃŁ
hÃ¤ng en
islam isten
pro f
Ġ!!!! !!
ĠerklÃ¤r ung
eld ungen
Ġschwei zer
Ġverw endet
Ġarab ien
Ġgebrau cht
ĠbewÃ¤hr ung
es ien
Ã¼ cher
Ġver kl
Ġha ken
Ġr am
Ġbe weise
ion s
Ġschl eichen
Ġbek annte
ian er
Ġon e
Ġabsch affen
Ġerf unden
Ġglob al
d isk
l es
p ass
s c
Ã¤ che
Ġge treten
Ġj Ã¼ng
Ġum ben
Ġwirk lichen
Ġbew er
Ġverh ar
Ġakt uelle
ĠverstÃ¤nd lich
ĠverhÃ¤lt nis
Ã¼lt ig
l inge
l egt
Ġw unsch
Ġg Ã¼n
Ġp hil
Ġauf h
Ġauf l
Ġr en
im ent
Ġdurch ge
Ġverb indung
Ġkr ass
Ġbeg rÃ¼
Ġbeg innt
pl ayer
Ġins zen
ko sten
Ġ6 00
Ġdre ht
ĠverschwÃ¶rung sthe
Ġs att
Ġg mbh
Ġn ationen
Ġb ock
Ġl egt
och t
ra zin
Ġwird s
Ġvor ber
Ġgrund lage
Ġzusammen leben
Ġrass istische
ĠÃ¤ g
stell er
Ġmissbrau chen
Ġjahrh undert
ungl im
inte gr
Ġmi ÃŁ
9 1
Ġw ehr
Ġg Ã¤n
Ġin iti
Ġwer d
ist s
sp ar
Ġunter drÃ¼ckt
Ġber uh
gr enz
Ġko hle
Ġde ck
Ġeins etzen
Ġcha oten
oc aust
ĠmÃ¤cht ig
Ġschubl ade
. !
m y
m igranten
r ichtet
v ern
Ġ 45
Ġs eb
Ġl g
Ġzu mal
Ġzu recht
Ġt here
Ġmo b
Ġgesch Ã¤ft
Ġent spricht
Ġent standen
Ġschrei be
ĠhÃ¶ lle
ĠpersÃ¶n liche
Ġles er
brau ch
rÃ¼nd et
Ġprotest ieren
Ġâ Ĥ¬
Ġantid eutsch
p eg
z ieren
Ġb ro
Ġk ulti
Ġver unglim
Ġr asse
ra te
Ġvor ne
Ġab warten
ang st
Ġteil t
Ġbrau che
Ġgo od
ak ter
ĠÃ¼berl eben
Ġhomo sex
g eist
k u
o ÃŁen
v ent
Ġl ast
Ġver nicht
Ġwir kt
Ġun n
ul ieren
sa bstimm
Ġho he
Ġneu er
ĠmÃ¶chte st
aa a
Ġkorru p
m ache
w icht
Ġk ol
Ġp k
Ġt Ã¶t
Ġfor um
le v
Ġins gesamt
Ġstatt dessen
Ġkar ikaturen
Ġstaats anw
Ġantif asch
Ġner v
Ġzul assen
kÃ¶ pfe
Ġgesam ten
ĠbÃ¼ hne
Ġinstrumental isieren
Ġpan ik
Ġarmsel ig
arab ien
just iz
Ġtrot tel
n ungen
r igen
Ļ Ī
Ġw ik
Ġge hn
Ġsp ass
Ġviel er
ver br
Ġsu ch
Ġur sache
ĠeuropÃ¤ ische
Ġattent at
Ġumge bracht
mor al
Ġmis sst
ĠverfÃ¼ gung
ðŁĳİ ðŁĳİ
Ġantis emit
ĠunterdrÃ¼ck ung
e cke
Ġd eut
Ġa sozial
Ġr unde
Ġgr iff
Ġe st
Ġgesch affen
Ġirgend ein
Ġde pp
Ġins besondere
Ġ9 9
ian s
Ġstatistik en
Ġleb st
ĠunabhÃ¤ng ig
wi der
Ġg ei
Ġt ri
Ã¶ st
Ġpoliz ist
Ġkomment ieren
Ġgeb ildet
Ġpar lament
Ã¼t tel
gem eine
Ã¤ub ig
Ġakt uellen
Ġwider lich
Ġmag deburg
wand ert
red it
Ġy e
Ġentschuld igen
Ġdiffam ieren
Ġexist ieren
m el
Ġw ien
ik o
im ages
Ġfl ucht
ah men
Ġverl eu
su ed
ĠgrÃ¼ ÃŁen
feind lichen
Ġrep orter
101 5
Ġmissbrau cht
rukt ur
ĠgeprÃ¤ gt
b an
Ġm att
Ġt sche
etz er
ok o
Ġmo nd
Ġfasch ist
Ġfremden feindlichkeit
Ġbestimm en
Ġsa ar
Ġlau ter
---------------- ----------------
Ġbeant worten
netz planet
Ġerschrecken d
g d
h och
s n
ľ Į
Ġs tern
Ġh is
Ġsch eren
Ġsch Ã¼ren
et or
Ġver we
Ġum feld
Ġen den
Ġth ese
teil nehmer
eist ungen
Ġget r
ĠbrÃ¼ der
Ġfur cht
Ġzeu gen
w Ã¤hl
enn er
Ġislam istische
imm en
Ġto llen
Ġeh re
Ġblei b
Ġ19 33
Ġmei stens
Ġfremden feindlich
Ġkan ada
Ġattent Ã¤ter
ita et
toler anz
t r
u cken
Ã¤ chen
Ġsch ickt
Ġo hn
Ġauf regen
Ġr Ã¤um
Ġhier her
bl ock
pf lich
Ġfl eiÃŁ
hal ed
Ġbed eutung
Ã¼nd igt
geh alten
Ġdro hen
Ġbekomm st
spazier gang
Ġunger echt
f inden
f rank
v ik
Ġd ienen
Ġa chten
Ġg n
Ġg reifen
Ġein schl
eu ro
ann e
Ġr a
Ġkann ste
Ġet h
gesch ichte
Ġbeh and
Ġte x
Ġsach liche
Ġabgesch afft
ĠwÃ¼ sste
ĠgÃ¤ ste
Ġallgemein en
b re
g anz
Ġd et
Ġs kla
ein fach
at zen
in o
un n
Ġgeh st
ges etze
Ġverh indert
Ġunschuld ige
m is
p art
u ÃŁt
ei fe
sch te
it ive
gen au
Ġdu l
Ġvor der
Ġvolk sabstimm
Ġnie dr
Ġgenau er
Ġbesch eid
Ġbundes wehr
Ġur s
Ġangeb liche
Ġkran ke
sich er
Ġbill ig
Ġschaf e
Ġneonaz is
n ie
Ġs Ã¤chs
Ġg old
Ġn iger
sch iss
Ġt ipp
ĠfÃ¼r chten
um p
Ġste h
wei ge
Ġdan eben
ĠschÃ¶n er
Ġgewalt ig
Ġmar kt
Ġschlecht es
ĠÃ¼berl egt
Ġveranst alter
Ġmarsch ieren
Ġgesund heit
Ġgrupp ierungen
Ø³ÙĦ Ùħ
d ach
g Ã¤nger
j an
ig ans
Ġum so
Ġwei st
Ġang rei
Ġc ia
Ġch in
Ġbez Ã¼
fol gen
Ġgek auft
Ġfinanz iell
schul en
Ġeng ag
ĈĈĈĈĈĈĈĈĈĈĈĈĈĈĈĈ ĈĈĈĈĈĈĈĈĈĈĈĈĈĈĈĈ
ĠbÃ¼ cher
Ġdire kte
ĠangehÃ¶r igen
Ġhasspred iger
> >
f inanz
Ġd orf
Ġt ie
Ġt om
Ġt reibt
Ġst rom
pp t
gr enzen
ob ie
ĠÙ Ĭ
Ġhahaha ha
Ġps eu
Ġextre me
b Ã¼rgern
f alt
k ind
m uss
w p
z iert
er o
Ġso wohl
ind ustrie
Ġauf passen
Ġst anden
Ġgen ehm
ver standen
che f
ad r
Ġkon serv
Ġteil nahme
ĠfÃ¼ ÃŁen
ĠðŁĺ ģ
Ġnation alitÃ¤t
Ġverlogen e
ĠÃ¤r ger
Ġkonk re
famil ien
Ġgriechen land
Ġaufgew achsen
Ġvol ke
a ker
s mann
en ch
Ã¤ mm
Ġt aschen
et tel
Ġver teilt
Ġmich el
Ġgesch ichts
gend es
viel e
Ġdreck spack
heim er
Ġausd rÃ¼ck
Ġhing egen
Ġabgel ehnt
Ġgau land
Ġschr eit
Ġgraus am
Ġara ber
b uerger
d pp
g ust
Ġm as
Ġm ur
Ġg ingen
Ġ201 3
Ã¼ sse
Ġl ocker
Ġzu stimmen
Ġt sch
ĠÃ¼ber wiegend
ang eh
Ġhalt ung
Ġabend s
Ġlo hnt
get ragen
kon ferenz
zus p
Ġverfol gen
schn itt
grÃ¼ n
Ġaufru fen
Ġfanat iker
ĠschÃ¤m t
Ġbetr achtet
Ġabschie bung
Ġinf os
ĠanstÃ¤nd igen
c ial
g reifen
n at
p ers
s eiten
Ġb ank
Ġl ache
Ġmit menschen
Ġan n
Ġst eigen
Ġwei sst
ste ckt
Ġviel mehr
ru cken
Ġbr eit
Ġhei ko
Ġgrund rechte
Ġkor re
Ġschein st
Ġgez ielt
Ġrede st
Ġstraft at
Ġheil igen
ĠfuÃŁ ball
Ġuni vers
ĠerbÃ¤r mlich
e chte
Ġun ru
Ġo tto
Ġges amt
Ġgen annten
ha ftet
Ġwieder um
Ġber ufen
ja ehr
wer te
Ġpl us
Ġargum enten
fern sehen
Ġheimat land
Ġgehirn wÃ¤sche
Ġanw esen
Ġnachvoll ziehen
Ġthank s
Ġkipp ing
j em
k raft
u d
Ġi ng
Ġi mmern
as h
Ġb rief
Ã¶ hne
eit igen
Ġmehr eren
Ġum f
Ġang er
Ġbes uchen
Ġkrie gt
gesch lagen
ingt on
Ġkn ow
Ġvers agt
ĠÃ¤hn liches
Ġersch ossen
Ġprim a
forder ung
Ġabsol ute
ĠÃ¶ff nen
uv dpp
uvdpp sa
sch Ã¤m
re che
em okrat
Ġab w
ĠwÃ¼r d
Ġerst es
Ġverb o
Ġbew ir
kir che
ĠverÃ¼ bt
Ġtest ament
Ġgleichberecht igung
ĠdÃ¼ss eldorf
Ġimmern och
b n
d k
ie ssen
Ġp reis
ir onie
rei che
um pf
kl asse
all ah
Ġverl iert
Ġbel egen
ren z
Ġbed arf
201 2
Ġschei ss
pro test
Ġschwar zen
Ġfremden hass
Ġner vt
Ġhol ocaust
up s
Ġumge kehrt
Ġschr Ã¶der
Ġtradition en
Ġmissst Ã¤nde
' '
d an
l Ã¤ss
Ġ ÙĦ
at ze
Ġzu sch
Ġden un
Ġver pflich
is en
sl osen
Ġr eine
Ġkl u
zu stellen
Ġrecht sextreme
br ingt
Ġfriedlich es
Ġarbei te
Ġgeg nern
aff ung
ĠverhÃ¤lt nisse
Ġkonsequ enzen
Ġempfeh le
Ġba ha
w est
en tsch
Ġd rohung
mm te
ro lle
Ġfr essen
Ġlie der
Ġto ur
fr ist
ma ck
Ġdr um
Ġrechtsch reib
Ġarschl och
b elt
nd on
Ġb eu
Ġl en
Ġt iere
sen der
ge kommen
Ġab len
Ġschl af
-- -
Ġpolit ischer
........ ..
Ã¤ub iger
Ġwit zig
Ġliv estream
chs eln
ĠschlÃ¤ gt
Ġzentral rat
1 14
b ieten
l ing
s r
s v
ch sel
Ġs ig
an schau
Ġver wei
ĠĠ ĠĊ
Ġbe denken
Ġwo hnt
Ġab zul
Ġviel eicht
ðŁĺ ¡
Ġth ink
Ġbr ing
Ġbr ennt
ĠâĢ Ķ
frei e
Ġbeg eg
Ġbet reiben
Ġel ite
Ġ15 0
no pegida
Ġdifferenz ieren
mach er
ĠbÃ¤r gida
Ġdum pf
o hn
Ġ Ĉ
Ġs i
sch on
Ã¤ tern
Ġsch uhe
Ġver raten
Ġab schl
Ġnach zu
Ġc su
Ġen kel
Ġger eg
Ġstaat lich
Ġbez ieht
Ġarbeit geber
Ġ3 0000
Ġ3 000
schw angere
Ġjo sch
Ġtr ennung
Ġkriegs flÃ¼chtlingen
Ġbre men
tages schau
Ġnotwend ig
Ġkraw all
ĠbÃ¶s es
h i
Ġd aten
Ġein gehen
Ġin tens
... /
ag anda
Ġst inkt
Ġal tp
ĠÃ¼ber fl
pp ich
ab schluss
Ġwirk liche
Ġfreund in
zie ht
yp ten
Ġschlimm e
Ġabsch n
Ġgener al
feh l
Ġinnen minister
7 1
l achtet
w eb
Ġd rÃ¼cken
Ġf aul
or m
Ġzu hÃ¶ren
Ġr ahmen
Ġvor n
ha ften
Ġc or
Ġfreund lich
pro du
Ġbeispiel sweise
ĠunterstÃ¼tz er
Ġwest liche
volk s
ĠbrÃ¼ ssel
Ġcha os
Ġexist iert
Ġbeweg ungen
nor mal
ĠfÃ¼n f
k m
s Ã¤chlich
u b
Ġt im
ier re
Ġo per
Ġst urm
ik te
ra tet
Ġum fragen
Ġnach richt
ver schw
Ġschl ieÃŁt
Ġausl eben
mit tl
ast ian
Ġle er
ate am
ĠhÃ¶ he
ĠbefÃ¼r worter
Ġjahrz ehnte
Ġlaber n
Ġfro he
f Ã¤llt
g au
sch marotzer
Ġein heim
ig st
Ġver rÃ¤
Ġmit machen
se hr
Ġwar s
ðŁĺ Ģ
oll e
Ġgef Ã¤ng
Ġbez wei
gesch rieben
lie fer
Ã¤l te
ĠfÃ¤ llen
Ġverbl endet
grÃ¼ nen
Ġpatriot ismus
Ġempfeh len
Ġmet ho
Ġrh etor
stemp elt
k Ã¶n
r iert
Ġf uss
em a
Ġzu fall
Ġso mmer
Ġsch o
he k
Ġth esen
Ã¶l k
fass ung
Ġlik en
Ġgener ationen
ĠfÃ¼hr ung
Ġbetr achten
position spapier
Ġerled igt
Ġverpflich tet
o ret
ĺ º
ch ange
Ġs ehn
Ġa bt
sch icht
Ġer ziehung
ÃŁ ert
be kommen
Ġab hÃ¤ng
Ġnach ts
Ġunter einander
ha b
rie s
Ġrecht es
Ġlei b
Ġneu jahr
sk y
Ġbezahl te
Ã¤tz t
Ġabl ehnen
eug nen
Ġser iÃ¶
Ġdiffam iert
sor ten
Ġehemal igen
Ġschwier ig
Ġn ette
Ġl eit
Ġp ur
re a
Ġt Ã¤u
in al
Ġsie g
Ġaus weisen
Ġgr enz
Ġunter gang
Ġmo re
Ġne w
ast rop
Ġaut on
sel bst
Ġverantwort lichen
Ġmord d
Ġeinwanderung spolitik
Ġhol t
ĠÂ ·
Ġmark us
Ġgramm atik
Ġmatt h
v a
Ġt akt
Ġver wand
Ġbe ten
ist ischer
Ġgi b
Ġwa ffe
pf ung
Ġgesch weige
Ġex perten
Ġgest orben
Ġabs ur
Ġjahre lang
nah m
Ġignor anz
ĠlÃ¼ gner
Ġpropag and
ĠwÃ¼ tend
ĠÃ¼berzeu gung
Ġberuf s
verd ienst
Ġjeg licher
i llen
au ern
Ġan y
Ġwar tet
Ġsp ren
Ġ- .-
Ġbes itzt
Ġlie f
Ġgel aber
Ġverb esser
uer ken
Ġarbeit sk
Ġsieht s
Ġbundes lÃ¤ndern
Ã¼t teln
ĠmÃ¶glich keiten
stra ÃŁe
Ġrech ter
Ġkont ra
Ġfreu de
Ġverz ichten
Ġweihnachts markt
Ġzwang s
Ġmax im
Ġdest o
vier tel
ĠfÃ¼t tern
Ġaltp arteien
2 18
x e
y er
Ġb all
it er
Ġer stens
anz eige
Ġgel eistet
ti al
tre ue
Ġna hen
Ġbel gien
Ġsy m
Ġmut ig
Ġkn all
weis ung
Ġarab ische
ĠdÃ¼ mmer
Ġsprich st
wen ig
Ġbeam ten
bereit schaft
veranst altung
Ġausges prochen
b f
i us
Ã¤ glich
Ġl aden
Ġver tre
Ġan stand
ge fahr
ĠÃ¼ber g
br d
Ġeinz iges
ĠnÃ¤chsten liebe
Ġtr inken
Ġeinge stellt
Ġzul etzt
Ġbahn hof
Ġdav id
: "
m ill
m eldung
Ġf angen
Ġzu geh
Ġan hÃ¶ren
Ġab stimmung
Ġpro zess
Ġbes uch
Ġgew Ã¼nscht
Ġdurch setzen
Ġdam al
ne w
af d
Ġgef ol
Ġterror anschlag
ma as
Ġschau e
Ġgek auf
Ġhar z
Ġentsprechen d
Ġspazierg Ã¤nger
Ġspan ien
e de
h aufen
Ã Ń
Ġw uer
Ġh asse
Ġf at
re ens
Ã¶ hn
ag d
Ġaus geht
im a
Ġgeh Ã¶re
bl ieben
Ġbes org
Ġbl att
Ġam i
Ġmensch lichkeit
Ġlinks faschisten
Ġnor wegen
Ġbo ot
Ġkap ieren
zeu gen
Ġlo ndon
Ġkat rin
hh h
hand el
Ġflie gen
Ġoss i
Ġdom in
Ġandersdenken de
mich ael
ðŁĩ ª
© ðŁĩª
Ġn ar
Ġzu sÃ¤tzlich
ig ungs
Ġgegen w
Ġdass elbe
ieren d
Ġganz es
Ġdar stellen
rÃ¤ ger
Ġteil s
ord nen
Ġasyl suchen
Ã¼nd e
lo ser
Ġposition en
Ġjo hann
Ġletzten dlich
ittel n
Ġsho w
Ġseb astian
ĠausdrÃ¼ck lich
d ienst
m eine
n f
Ġb aut
Ġk ehren
Ġp hr
Ġal di
Ġja pan
Ġsoll st
ot ten
Ġlie ÃŁ
Ã¤u ÃŁert
Ġhin ein
Ġgem erkt
Ġkon sorten
Ġweg e
ĠhÃ¤t tet
ho w
fahr t
Ġse e
Ġschlimm sten
Ġtausen den
grÃ¼nd e
Ġzens ur
Ġchar akter
Ġeth ik
1 12
i den
v ielleicht
Ġ Ã¤nder
ie g
sch riften
Ġau gust
Ġes el
Ġman cher
Ġdeutsch em
sp recher
wei hn
Ġch ina
Ġho sen
Ġkon front
Ġent lar
Ġsu che
ĠðŁĺ Ģ
Ġdi ent
Ġfalsch es
Ġend g
wel che
Ġcount ry
reens hot
c su
h etze
o ge
t un
Ġ :/
ch tet
Ġs uren
Ġ2 3
Ġl ag
Ġl egal
au cht
Ġt rag
Ġsch rieb
ol a
land es
ðŁĺ ĥ
Ġgesch m
rÃ¤ gen
Ġex pl
Ġbet rieben
ĠgroÃŁ stÃ¤d
itz er
Ã¼tz e
Ġ4 00
Ġfol gendes
tem ber
ĠerwÃ¤ hnen
wÃ¤r t
Ġ++ +
ĠenttÃ¤u scht
Ġnag el
- ,
st o
it al
Ġge Ã¤uÃŁert
Ġj ur
Ġaus drÃ¼cken
be vÃ¶lker
rei cher
Ġdam en
Ġfl eisch
ord neten
haha ha
hei me
wa y
Ġdro ht
Ġinner e
Ġblock iert
chr isten
Ġtages schau
Ġgewaltber eite
Ġkonst ru
Ġexisten z
a llen
c y
i ft
w ach
Ġs l
Ġk ok
Ġl t
re c
or ien
rei ÃŁen
Ġgl as
os z
Ġe b
Ġc omm
Ġber nd
rÃ¤ gt
Ġverb unden
Ġstra te
Ġzeit punkt
ĠÃ¶ l
Ġged uldet
Ġwicht ige
Ġsicherheit s
Ġuntersch rieben
Ġgarnicht s
Ġantif as
par olen
uu uu
Ġstattf indet
Ġjustiz minister
Ġfir ma
Ġformul iert
Ġplatt form
sha re
ĠbezÃ¼ glich
l utz
p res
s age
z eiten
nd r
Ġh Ã¤ss
Ġun wort
Ġre gt
pf el
pt ion
Ġbeg innen
Ġbek ennt
ak ama
sver b
Ġur teilen
Ġaut or
Ġintegration s
ĠÃ¤hn liche
ih d
Ġverlogen en
Ġoffiz iellen
Ġweltoffen heit
Ġmenschenver stand
ðŁĴ ©
Ġgewerk schaften
akama ihd
& __
f www
k assen
x en
Ġw ein
Ġb art
em pf
Ġzu nÃ¤chst
kl us
Ġkon text
__ =
Ġeh e
for dern
Ġbeg ehen
dr Ã¤ngt
Ġoffen e
Ġvers agen
Ġat om
Ġorganis ieren
mein ungs
ĠÂ §
Ġprim itiv
ev ents
Ġzweiten s
afr ika
Ġbehaupt ung
Ġbeur teilen
Ġintens iv
verdienst kreuz
c b
f g
l iste
w Ã¶r
Ġsch marotzer
in form
Ġo ut
Ġall tag
Ġaus wandern
Ġvor fahren
Ġunter wandert
Ġdar stellt
Ġe w
Ġrecht sp
Ġc ent
Ġdam e
Ġgleich gesch
Ġbeg inn
Ġregierung s
ischer weise
itz el
ate g
Ġnamen s
ĠkÃ¤m pfer
europ Ã¤
Ġschle chten
ĠprÃ¤ sent
gef Ã¤hr
zeich net
Ġkonvert ieren
ĠverÃ¤nder ungen
ĠdÃ¼nn schiss
m angel
Ġf oll
Ġge ehr
Ġwir ft
Ġer eig
Ġwar t
fa kt
Ġgen utzt
Ġunter drÃ¼cken
die s
Ġbesser en
zw ingen
Ġdenken de
mar k
Ġsozial system
Ġhahaha hahahaha
Ġverp asst
krimin al
Ġhool igans
sued deutsche
f Ã¼gen
an a
an en
Ġk ru
Ġp ublik
eh er
ck el
isch em
Ġfr ench
eil t
Ġgel egt
ant as
Ġsu is
og ida
Ġreg ierungen
Ġel end
Ġner ven
Ġorg ateam
Ġspe ziell
profil e
ĠstÃ¼r zen
Ġbeschwer en
. ?
h eute
i j
i hre
p tember
Ġw ant
Ġst re
Ġges ucht
im g
ĠĠĠĠ ĠĠĠ
Ġang reifen
Ġmo slim
Ġob dach
gr Ã¶
Ġdein es
Ã¤m pft
Ġreg ime
Ġverl ag
pl app
wor te
Ġschm ier
Ġnochmal s
Ġanz eigen
ĠschlÃ¤ ger
ilde ten
Ġlieb sten
wÃ¤r ts
cam pa
d j
f st
m ultik
w j
Ġn utz
Ġh aust
Ã¼ s
Ã¼ re
Ã¼ ge
Ġk i
Ġp ierre
mm el
Ġauf machen
eh em
ra ben
Ġnach weis
Ġth Ã¼r
Ġbr anden
Ġirgend einer
Ġdemokrat en
ffe kt
Ġniemand em
Ġ!!!! !!!
Ġperson al
Ġstar ke
Ġlicht er
ĠØ ¹
Ġhar am
verstÃ¤nd nis
Ġflie hen
Ġsar razin
Ġgewaltber eit
Ġschlag z
Ġfir men
gesp errt
ĠhÃ¶ch stens
ged acht
Ġjugen dliche
Ġschreck lich
journal isten
Ġever y
: :
a cken
k at
o hen
s eit
Ġh an
re m
Ġzu fÃ¤llig
Ġr ande
Ġhin tern
Ġverb ietet
Ġung est
Ġeuropa weit
Ġbereit schaft
Ġverk ehr
ĠØ £
Ġverz wei
Ġarmut s
moslem s
Ġnationalsozial ismus
Ġangen ommen
Ġurs achen
bevÃ¶lker ung
/ #
a e
h ing
m Ã¶rder
p b
t ur
Ġw m
Ġun treue
Ġo br
... )
ht m
kt ionen
igen d
sp ekt
Ġwelt anschau
Ġir ren
ord net
Ġkor rig
Ġju de
spiel en
Ġbundes verdienstkreuz
Ġwirtschaft lichen
Ġsteuer hinter
Ġkennt nis
Ġeinsch alten
ĠkÃ¼ mmert
Ġmor de
Ġfot os
ĠØ§ÙĦ Ùħ
Ġcount ries
ĠstaatsbÃ¼rger schaft
Ġbeeinfl ussen
ĠpÃ¤d ophil
ðŁĺħ ðŁĺħ
ĠverrÃ¤ ter
i y
s onst
Ġw achen
Ġl at
Ġzu geben
Ġver hei
Ġr ies
Ġaus n
Ġgegen demonstrationen
Ġbes etzt
ĠkÃ¶n ig
rÃ¼ ger
ru ft
Ġfl ach
Ġwen den
ĠgrÃ¼ sse
Ġwor auf
Ġte ll
ĠdÃ¼r ft
Ġabs age
sk i
Ġper man
Ġzit iert
Ġla ÃŁt
Ġabge stempelt
Ġvo llen
ĠÃ¤uÃŁer st
Ġbeant wortet
tages spiegel
Ġgebur ten
Ġschim pfen
Ġarbeitslos igkeit
Ġbeherr schen
h ome
m ei
Ù ĥ
ei ger
Ġb ab
an ie
Ġsch recken
Ġun fÃ¤h
ern en
ent wick
rau s
Ġe y
Ġber u
Ġkon sum
Ġgrund recht
Ġeigentlich en
Ġgewalt frei
Ġbeh inder
Ġmar c
uch s
Ġnu mmer
Ġvergangen en
fur ter
Ġhing ehen
ĠgeprÃ¤ gten
med ium
Ġbrei vik
zentral e
Ġniger ia
r eit
Ġw eb
st olz
Ġn ad
Ġh ur
Ã¤ ger
Ġein gesetzt
al es
Ġt asche
Ġsch eu
Ġauf stand
Ġ! ?
Ġbr enn
ĠðŁĺ ĥ
ðŁĺĤðŁĺĤ ðŁĺĤ
man ipul
Ġintegr ierte
Ġtoler iert
Ġhel d
Ġeinge fÃ¼hrt
Ã¼ch ern
Ġstud iert
ĠbegrÃ¼nd ung
famil ie
Ġsamm eln
Ġbas is
flag ge
Ġekel haft
far be
ĠmÃ¼ÃŁ te
okum ent
Ġkonkre te
d reck
g da
z eigt
Ù ģ
Ġs antifa
Ġh Ã¤r
Ġb os
ng e
Ġzu zu
Ġges etzen
Ġislam kritik
Ġhier bei
Ġchr is
Ġma iz
Ġart ik
Ġehr liche
Ġangeb racht
Ġgesetz es
ii ii
Ġitalien er
ain er
patri ot
g ier
Ã ¨
Ø ©
Ġ ðŁĳ
Ġdie ter
Ġk alt
Ġk eller
Ġk unst
sch eu
Ġf ett
Ġver teilen
eh nung
Ġst op
um frage
Ġgew ohnt
Ã¤r t
af el
lin k
Ġko hl
Ġschul den
Ġte ppich
spiel er
Ã¤tz er
spr ach
ĠðŁ Ĵ
Ġverste ckt
Ġbun ten
Ġsc reenshot
dre hen
junge freiheit
grenz ung
Ġverbo hr
h Ã¤user
s m
Ġs ik
Ġw ehrt
st chen
at tent
be am
Ġunter br
Ġmu hammad
Ġgew usst
Ġen ergie
Ġnaz isch
Ġgesch icht
Ã¤u de
Ġher bei
Ġru h
ĠmÃ¶chte gern
Ġgesellschaft lichen
Ġtoll es
ĠÃ¼berl assen
Ġsolch es
Ġerlau ben
sor ry
Ġbeob achten
Ġhunder tt
Ġarbeitsl osen
Ġvollidi oten
Ġmarion etten
Ġsymb ol
wÃ¤hl er
6 1
7 24
h ein
en dlich
Ġb ande
Ġan nehmen
Ġaus reichen
Ġsp erren
sp artei
Ġste ts
so hn
Ġgem eldet
Ġzw eit
Ġbet re
Ġde z
ĠhÃ¶ chst
Ġmag ida
Ġdefin ition
grÃ¼ ne
ĠhÃ¤u fig
Ġdur fte
Ġerschein en
Ġanony mous
ĠpÃ¶ bel
Ġlangweil ig
Ġverhar ml
f unktion
l aut
Ġa ir
Ġg az
Ġb oko
sch Ã¤nder
Ġf Ã¤hrt
Ġsch ach
... !!!
Ġbe endet
Ġum zu
Ġander n
Ġlie bt
Ġen det
Ġweiter es
Ġgesch Ã¼tzt
Ġir r
ord nete
Ġbeg onnen
Ġwor an
Ġdr itte
Ġrei sen
Ġeins eitig
mo sche
Ġor osz
Ġstand ard
Ġerm Ã¶
bet rug
Ġverfolg ten
Ġjetz igen
Ġbru der
Ġinv est
9 2
b ay
h art
z wei
Ġg ang
Ã¼ cht
Ġk anzler
Ġf er
Ġp n
sl ose
ro hen
ing ungen
Ġislam isiert
Ġgegen d
im im
ieren den
Ġje ws
Ġgel ungen
rÃ¤ glich
Ġselbst be
Ġbesch rieben
Ġgo o
Ġung eh
Ġro bert
Ġmar x
Ġ4 0000
ĠauÃŁer halb
ct ion
Ġfeind bild
Ġabl eger
Ġunzufrieden heit
Ġvorsicht ig
sal af
Ġleist ung
Ġsozi all
g ig
i ber
n am
p n
z a
Ġa hm
it u
Ġsch ne
Ġver ant
am p
Ġo p
de te
ro tz
Ġre aktionen
Ġsp recher
Ġfa lle
Ġmo hamed
ru e
Ġbez ogen
wa ffen
ĠmÃ¶glich st
Ġbezahl ten
if ter
Ġkar ikatur
wÃ¼r de
si denten
Ġham as
Ġkrit ische
Ġkonsequ ent
Ġintoler ant
Ġvergewalt igt
Ġverfolg ung
Ã¶ff net
mÃ¤n ner
Ġwik ipedia
a ender
Ġl acht
el ten
Ġauf bauen
Ġr af
ĠĠĠĠ ĠĠ
Ġpro b
iv id
gel esen
gel aufen
for men
Ġqu er
lie ben
Ġwicht igen
Ġschlimm ste
Ġstu fe
bes ser
Ġdrau ÃŁen
âĢĿ ,
Ġor ig
Ġregel mÃ¤ÃŁig
ĠfÃ¤ hig
go ogle
ju den
Ġoffiziell e
ĠjÃ¼d ischen
denk lich
kont roll
Ġansatz weise
Ġbesatz ungs
Ġwiederhol t
Ġangesch aut
Ġidentif izieren
Ġsik hs
m ass
m assen
m edia
s au
s eid
Ġ eid
Ġh y
ur age
eh in
Ġha are
Ġr as
ul ar
sp rÃ¼che
uss ion
Ġch em
ĠâĢ ¢
Ġklar en
Ġte uer
los igkeit
sk r
Ġausge wiesen
Ġkot zt
Ġauseinander setzung
Ġjournal ist
Ġzuwander ungs
Ġ35 000
Ġpal Ã¤st
ðŁĺĦ ðŁĺĦ
Ġsand ra
Ġeingel aden
Ġjosch ka
3 00
Ġg h
as cht
an hÃ¤ngern
Ġsch ock
ol t
Ġre fl
ut ter
Ġaus gang
Ġ" ...
10 9
Ġgl Ã¤ubige
Ġnach lesen
Ġgel ehrt
ru fen
Ġbew aff
Ġse k
Ġfei gl
gemein schaft
ee ee
Ġkathol ische
Ġunver schÃ¤m
mor de
amer ikan
upload s
Ġgewar nt
Ġfoll ow
multik ulti
c f
d l
k ap
l ach
l asst
o u
s z
v om
Ġd ach
Ġm ie
Ġh asst
Ã¤ hren
Ã¤ ne
Ġein verstanden
el tern
den en
Ġun mut
Ġun beg
Ġwar nt
Ġab u
Ġab geben
Ġwei ch
Ġher ab
Ġob ama
Ġent steht
Ġwahr lich
ren zt
Ġerm ittelt
eck er
,, ,
Ġmanipul ation
jÃ¤hr ige
Ġgefl ohen
Ġvolksentsch eide
Ġmatth ias
b ul
Ġp ra
Ġin halte
Ġt ust
Ġsch Ã¤tze
de d
Ġan schau
ik ation
Ġwar nen
10 8
ĠÃ¼ber sch
Ġe ct
Ġwahr es
Ġhab s
je kt
Ã¼ch tet
Ġarab isch
Ġkosten los
Ġversch wiegen
Ġintelligen t
Ġverp iss
________________ ________________
Ġbereich erung
ĠverÃ¤nder ung
ĠgÃ¼n ther
Ġsteuerhinter ziehung
b rechen
g rat
k eule
t rau
Ġw agen
Ġw etter
Ġg rab
Ġp age
Ġr ight
Ġja gen
um s
Ġnach gedacht
Ġgew inn
ĠfÃ¼ hl
Ġeigentlich e
eist ert
Ġzie h
Ġse ptember
Ġei g
Ġgeist ige
Ġpeg ada
Ġbef inden
zus agen
Ġverp rÃ¼
Ġfroh es
wissen schaft
Ġkommun isten
Ġhunder te
ĠeinfÃ¼ hren
Ġtsche ch
" )
p Ã¶
Ġ ********
Ġb Ã¼r
Ġb rechen
Ġk och
Ġund er
Ġver Ã¤ndert
ro tt
Ġer gibt
ra st
Ġges chen
Ġim am
Ġpol em
Ġsp reche
Ġland tag
Ġmo po
Ġherr lich
Ġma hnw
Ġpresse konferenz
Ġjo se
Ġunterschie de
euer te
Ġheut ige
lu b
schn it
Ġmerk st
Ġstadtt eile
san sprache
iat hek
ĠÃ¤g ypten
Ġohn ehin
u do
Ġu k
Ġb ann
Ġb itten
te uf
eu chten
Ġver achten
is ierte
Ġo ther
Ġmit gefÃ¼hl
Ġbe eind
ff ington
Ġwa y
Ġweiter gehen
ĠmÃ¶ ge
Ġirgend jem
Ġradikal er
Ġverm ute
Ġvert rag
Ġverein igung
Ġvern unft
Ġmitl eid
Ġ25 000
Ġentscheid ungen
ĠgÃ¼ te
Ġtel ef
Ġral f
ĠgewÃ¤hl ten
Ġvie h
Ġparad ies
Ġbeschimpf ungen
. [
k ulti
v ideos
Ġm indest
Ġb ack
Ġf Ã¶rder
Ġauf schrei
Ġer heben
Ġsp ann
Ġab gew
Ġviel falt
Ġgen ossen
Ġang aben
Ġwur st
Ã¤u fig
Ġko pp
Ġgu ckt
Ġzw ecke
ĠauslÃ¤nder anteil
Ġma i
Ġte chn
Ġgeg rÃ¼ndet
Ġmill ion
Ġange k
Ġur spr
Ġdo es
Ġdo ppelt
Ġanst ren
Ġkritik er
Ġeinwanderung sland
ĠprÃ¤ sident
gef Ã¤llt
Ġmultik ulture
Ġunbe quem
Ġtal iban
Ġinstrumental isiert
Ġord nungs
Ġgemeind e
Ġeg o
Ġphr asen
- /
z eigen
ei ern
Ġw esen
Ġh uren
Ġb aum
Ġb itter
re v
ier n
ier bar
Ġsp aren
ien e
hre ad
!!!! !!!!!
Ġleben sl
Ġreg ionen
Ġsy r
ĠĠĠĠĠĠĠĠĠĠĠĠĠĠĠĠ ĠĠĠĠĠĠĠĠ
Ġgest Ã¶rt
Ġur sprÃ¼
Ġaufge fordert
Ġbef asst
Ġgra f
Ġentfern en
Ġed die
Ġverwir r
ĠkrÃ¤ fte
Ġbir ne
Ġhi ja
Ġgebur t
Ġplak ate
Ġbekann tlich
, -
er ken
Ġn immer
Ġp ie
ar rer
ir bt
Ġsie h
Ġwer k
ðŁĺ Ĩ
die ses
Ġdir k
Ġstaat lichen
Ġbest and
ess el
Ġmerkel s
Ġpar ano
da y
ĠÃ¼ ben
bel s
fahr er
Ġei s
Ġerz ogen
euer ten
abl a
Ġherz lichen
Ġsar ah
Ġgewaltber eiten
Ã¼ss ig
wirtschaft s
Ġkulture llen
Ġwolf gang
ĠverÃ¶ffentlich en
Ġgelegen heit
o pf
w esen
Ð ¾
Ġg reift
Ġu we
Ġk Ã¤
Ġk Ã¼nd
Ġf au
Ġz eich
Ġsch enken
ach ter
Ġver haftet
de cken
Ġer inner
ck s
err or
Ġma y
ĠðŁĺ ¡
geb ieten
Ġjuden tum
Ġgab s
Ġak bar
Ġ' '
Ġschwar zer
zus ehen
Ġausge drÃ¼ckt
Ġ?? ???
no de
Ġpatriot ische
Ġbra v
Ġhaut farbe
Ġangem eldet
Ġkapital ismus
Ġpap st
Ġzusch auer
d ruck
m igration
t or
an ony
Ġv is
Ġp ort
Ġzu gang
lich keiten
Ġes kal
Ġun kontroll
Ġar zt
Ġang riffe
Ġam ts
Ã¤ng ern
Ġhin weg
Ġwirk ung
ob by
Ġach ja
Ã¤n omen
Ġget rieben
Ġvert rieben
Ġem ot
fass ungs
Ġsor gt
Ġad min
Ġheuch elei
Ġhas ser
ham burg
onn y
stu die
Ġhum or
Ġengl isch
Ġnimm st
jÃ¤hr igen
Ġdiskrimin iert
ĠgefÃ¤ng nis
g g
n amen
o per
t uerken
u al
Ġn on
an schl
Ġp as
al tschaft
Ġt enden
Ã¼r zt
is iko
Ġan sprechen
Ġan hand
Ġr an
Ġst ammen
Ġaus sen
il s
Ġum gesetzt
sp hot
Ġunter m
ver fahren
so fern
tre ffen
Ġpa cken
Ġrass istischen
fil es
stra fen
Ġpost et
Ġgemeinsam e
Ġzit ate
vie ws
Ġka i
Ġpe ace
Ġstraft Ã¤ter
Ġerschein t
Ġjugen dlichen
Ġvolksentsch eid
Ġac count
ĠbenÃ¶t igt
Ġunterbr ingung
sphot os
d w
h Ã¶rt
u i
z c
Ġw ette
Ġb and
Ġf eigen
Ġz Ã¤hl
Ġwir ken
Ġer schie
Ġunter stellen
Ġgel der
Ġerst aun
Ġbr ille
Ġfrei es
Ġkr am
Ġbesch issen
dr ich
man tel
???? ??
Ġmig rant
Ġkn ie
Ġtats Ã¤ch
Ġinform ation
Ġerm or
Ġversch Ã¤r
Ġverbl ende
Ġausgesch lossen
Ġmeck ern
Ġdeb atte
campa ign
d ikt
j agt
v es
Ġ Ã
en chen
Ġn Ã¼tzt
Ġh auen
is ation
Ġauf zunehmen
sen d
Ġwo vor
rei ber
ul iert
Ġwohl e
Ġdi Ã¤ten
ater ial
Ġkur ze
Ġhil fl
ĠmÃ¤n nern
Ġlau tet
Ġsympath isanten
ĠverfÃ¼ g
Ġalex ander
Ġgrupp ierung
b ro
l n
v ater
x el
Ġg Ã¶
Ġg Ã¶t
Ġsch iss
in er
Ġer he
Ġst al
Ġsel b
Ġteil zunehmen
Ġto de
Ġged anke
Ġverk ehrt
Ġkar ten
ĠpersÃ¶n lichen
Ġkat astrop
Ġprof ession
ĠÃ¤uÃŁ ert
asyl bewerber
Ġbildungs fern
Ġletzt es
Ġverbohr ter
b ank
m art
r Ã¶
Ġd or
Ġn Ã¼r
te d
Ġz eilen
Ġp ubl
ar i
eu len
Ġsch atten
and t
Ġun ert
Ġauf stehen
Ġer go
Ġr ene
Ġbe weist
Ġislam isches
ĠÃ¼ber s
Ġpro min
eben e
ver treter
Ġmu st
ad em
ĠmÃ¼ t
Ġet liche
zen s
qu e
Ġbew uÃŁt
ange b
pe ten
geb ungen
schie ben
Ġgesellschaft s
Ġgez Ã¤hlt
vo llen
Ġlo ve
Ġwaffen liefer
Ġtr ennen
ĠstÃ¤r ke
Ġfanat ismus
wahr heit
Ġverbr annt
Ġsooo o
Ġbun te
mÃ¤r kte
Ġtotsch lag
zusp rechen
k urs
r am
w ann
w oll
Ġs itz
Ġm asch
Ġf ans
Ġge steckt
10 20
24 8
Ġgen der
Ġeigen er
Ġher e
Ġher kommen
wander er
Ġno v
Ġbo tschaft
Ġind ivid
Ġheu len
Ġhaupt sÃ¤chlich
Ġverd Ã¤cht
Ġon kel
Ġverein t
Ġglaub wÃ¼rd
Ġbom be
ĠfÃ¤ lle
Ġblock ieren
iff er
Ġkathol ischen
Ġbar bar
Ġspazierg Ã¤nge
Ġschmei ÃŁen
Ġrh ein
Ġlinksextrem isten
Ġgehei md
f ang
f Ã¤nger
k ter
w id
Ġh aup
Ã¤ gt
Ġein ger
... :
eh l
Ġst ress
Ġbe quem
14 3
alt ungs
Ġmuslim ischer
Ġger ichtet
tel smann
qu alifiz
ĠgroÃŁ artig
Ġzwei f
feind e
Ġerwar te
Ġgek Ã¤mpft
Ġstein en
dumm ung
Ġtran spar
ĠsouverÃ¤n itÃ¤t
Ġkarr iere
Ġstren g
Ġdul den
Ġangrei fer
b art
d n
n un
u ter
z s
Ð µ
Ġw ehe
ein s
Ġk reis
Ġk haled
Ġf el
at isiert
el ig
Ġun re
Ġo mg
Ġhat t
Ġsp Ã¼ren
ver st
Ġgew iss
Ġam Ã¼s
Ġdurch lesen
Ġgesch le
Ġgem Ã¼
Ġbis sl
af ia
Ġbet rug
beit rag
Ġung ef
Ġro llen
Ġfreund es
Ġres ult
Ġstr eit
Ġhel mut
Ġhil fs
Ġind ien
Ġind ustrie
Ġspe zial
Ġstud ieren
Ġunbe k
komment ar
ĠfranzÃ¶s ischen
ym ne
Ġversp rochen
Ġpred igen
Ġdick e
ĠzukÃ¼nft ig
ðŁĴ© ðŁĴ©
b ir
b ra
i rekt
l aus
n ieder
Ġb ietet
Ġv Ã¶lk
ll ah
Ã¤ chte
Ġl ib
Ġt ue
Ġun zÃ¤hl
Ġmit bÃ¼rgern
Ġst Ã¶r
ien ste
03 5
ha en
Ġgi bst
Ã¤r kt
gel egt
auf ruf
Ġkr isen
det ail
di um
Ġfreund schaft
Ġkom pro
ĠÃ¤ h
Ġkur s
Ġuntersch riften
Ġabsch affung
rech ern
Ġkreuz zÃ¼ge
Ġplan eten
Ġbau ern
Ġarrog anz
Ġregieren den
ĠÃ¤lter e
ĠtÃ¶t ung
ĠursprÃ¼ ng
s man
Ġs ens
Ġm v
an er
Ġv iv
Ã¶ hnt
et tern
Ġha d
Ġer kl
Ġall gemeine
Ġaus sprechen
Ġges unden
Ġste ph
Ġbl au
art off
Ġgel acht
Ġmoslem ischen
Ġbez ir
Ġlink es
ĠðŁĺ ľ
Ġintegr ierten
ko w
stell te
Ġanf Ã¤ngen
Ġange passt
2015 01
bew usst
Ġinst itut
kar ikatur
Ġangeh Ã¶ren
Ġgast arbeiter
Ġchristian s
Ġengl ish
Ġprovok ation
Ġter min
tu erk
Ġgetr ennt
d ad
h auen
o ert
Ġd Ã¤n
Ġa si
Ġw al
ein wanderung
Ġb auch
Ġein fallen
Ġt agt
Ġsch ie
ut ze
Ġaus nahme
Ġaus fÃ¼hr
14 7
Ġum bringen
acht s
Ġher unter
Ġher bert
Ġbel egt
di rect
Ġmar co
........ ...
ðŁĳįðŁĳį ðŁĳį
ĠwÃ¼n scht
Ġabsch eu
Ġweihnacht sl
Ġmass aker
Ġbrut al
Ġord ner
Ġnachvoll zieh
Ġverleu md
ĠfleiÃŁ ig
Ġpseu do
a w
d y
w enden
z df
Ġs em
Ġb aden
Ġk ev
sch war
Ġz ehn
Ġl ot
Ġp en
Ġge fa
Ġsch Ã¼tzt
eit ige
Ġbis lang
Ġne ws
Ġirgend etwas
sam ad
Ġblei be
ic a
ost et
** *
Ġwort wahl
Ġkrimin eller
Ġhal be
Ġschwer en
Ġnational stolz
Ġteilnehmer zahl
Ġakzept anz
ĠbrÃ¼ llen
Ġbem erken
Ġvier tel
ĠjÃ¼d ische
Ġ10000 0
ĠverblÃ¶ det
Ġopp osition
ĠausÃ¼ ben
Ġdeck mantel
Ġvolksabstimm ung
b ig
k Ã¼r
o tt
z te
Ġv gl
Ġf as
Ġge qu
Ġt anzen
ro gen
Ġan sprache
Ġer o
enn e
ck eln
14 2
Ġvor wurf
com e
Ġschw anz
Ġausl egung
Ġkon zent
lin ken
su ch
Ġsy n
Ġasyl recht
asch a
Ġverm eiden
licher weise
Ġanges ichts
hol t
Ġverteid igt
Ġbraun schwei
Ġextre men
brÃ¼ der
Ġbewa hren
blei ben
Ġbehand eln
ĠnÃ¼r n
l eu
l ol
q a
z lich
z immer
Ð °
Ġd okument
Ġw ol
Ġf ing
Ġl angen
Ġp le
Ã¶ ch
Ġbe c
Ġbe stens
Ġaus wirk
Ġfr an
iz e
Ã¤r ten
Ġger echnet
Ġselbst mord
Ġgef Ã¤l
su re
ĠfÃ¼ ÃŁe
Ġbed Ã¼r
Ġqu alitÃ¤t
ast er
nicht s
stell ten
Ġno w
bil den
Ġanzu passen
Ġker zen
Ġdauer haft
Ã¼ss el
Ġsho uld
Ġarrog ant
ĠgehÃ¶r st
Ġzeu gt
ĠÃ¼berr ascht
Ġschlicht weg
Ġwess i
ľĮ ï¸ı
reit ungen
Ġungef Ã¤hr
a sten
c omm
k Ã¼n
m on
Ġw etten
Ġb itt
Ã¤ nen
Ġl eh
au ert
Ġsch Ã¤d
Ã¶ cher
Ġver teuf
Ġr ath
Ġdem nach
un i
Ġwo uld
Ġislam krit
ul ation
Ġgew Ã¤hr
Ġber g
Ġdurch s
teil e
auf stand
Ġwahr schein
Ġglauben skrie
Ġgerade zu
Ġdisk redit
des halb
Ġkur zer
Ġ15 000
Ġmel anie
Ġherkunft sl
Ġdiffam ierung
Ġentscheid et
seh aut
Ġspazierg Ã¤ngen
iller be
glau ben
Ġhung er
Ġrechtsp opul
Ġkev in
) ...
f icker
h y
s sten
Ġs ingt
Ġs Ã¼nden
Ġz ehnt
at ischen
Ġges ock
Ġsp ont
Ġfa hrt
komm un
Ġent sp
Ġgef Ã¤llig
Ġbel Ã¤st
sam e
Ġgeb iet
Ġget ragen
Ġzie gen
zie her
Ġide en
Ġstar ten
Ġfei er
Ġbezeich nung
voll e
Ã¤tz ung
Ġbu sch
na ja
Ġspe kt
Ġbem erkt
ĠÂ »
herr schaft
Ġinhalt lich
bom ben
Ġbehaupt ungen
Ġjeweil igen
Ġvorber eitet
ĠabhÃ¤ng ig
Ġobr igkeit
g Ã¤nge
h itler
s on
u en
Ġm ath
ein es
Ġk m
Ġk reuze
at scht
Ġt ime
Ġsch i
Ã¶ ÃŁt
ut her
Ġhat s
Ġwo mit
Ġho tel
teil s
Ġdresden er
Ġwahr nehm
mann heimer
Ġstaats schutz
Ġwichtig ste
Ġham ed
Ġfolgen den
Ġverw enden
Ġentwick eln
bet eil
ĠgrÃ¶ÃŁer e
sd ap
Ġfar be
Ġgeschw Ã¤tz
bc r
ĠhÃ¤u ser
ĠÃ¼berw ach
ĠsÃ¤ kul
Ġlobby isten
Ġstraff Ã¤llig
integr ation
lev ant
Ġabsur d
Ġhahahahahahaha hahahaha
! âĢľ
6 00
j Ã¼d
k ing
o ÃŁ
Ġw elle
st re
Ġk rei
or ient
el st
12 8
Ġr aten
Ġgl att
Ġpro teste
Ġber telsmann
Ġstaat svertrag
Ġterror anschlÃ¤ge
Ġne ed
Ġsalaf ist
ĠmÃ¤n n
Ġkompl ette
berlin er
rÃ¤n ken
asyl anten
weiter en
wahl en
ba cken
ĠgewalttÃ¤t ig
ĠfÃ¶r dern
ĠbevÃ¶lkerungs anteil
a be
k aufen
l auf
l aden
p or
p ert
q q
s content
v i
w in
y en
en ter
ei hen
Ġw at
Ġh up
Ġsch ieÃŁen
der s
Ġver un
eh lt
Ġges ungen
ul fkotte
Ã¶r de
Ġgew achsen
bei spiel
Ġch an
Ġstaat liche
Ġkrie chen
Ġbesch euert
Ġru hr
sw ahl
Ġqu alifiz
Ġgeld strafe
Ġ7 5
Ġschwer e
ĠunterstÃ¼tz e
staat s
ĠØ ¨
Ġasylbewerber n
ĠvÃ¶lker mord
................ ................
bahn hof
Ġberecht igt
glau bt
Ġlauf e
miss brauch
ĠaufgeklÃ¤r t
jaehr ige
' m
b em
b un
z burg
Ġ |
Ġs eg
Ġw hen
Ġm ent
Ġb ach
Ġb ul
Ġb sp
Ġk ill
Ġp ed
Ġp enner
at a
Ġsch Ã¤r
Ġo kt
... ,
Ġr ennt
Ġst reiten
kt rin
Ġsp ar
ver folg
Ġc re
Ġlie fern
Ġlei chter
iz ont
ru fe
Ġwill e
Ġth or
Ġkind heit
fl e
Ġsu g
Ġreg ion
Ġinter views
ja hre
Ġzw ingt
Ġbesch Ã¤men
als und
schw eine
Ġsystem s
Ġdank eschÃ¶n
Ġpost ill
Ġ200 7
Ġunglaub wÃ¼rdig
Ġangeh Ã¶rt
terror isten
Ġph Ã¤nomen
prop aganda
Ġkontroll ieren
zern e
Ġlinksradikal en
Ġnic o
Ġtex te
frist ig
f dp
l m
l ein
o ug
ein t
Ã¼ ler
Ġl ok
Ġt az
Ġj ihad
Ġst ream
Ġpegida anhÃ¤nger
anz er
ĠÃ¼ber prÃ¼
Ġab del
Ġ( !)
Ã¶r dert
kl age
Ġverb al
Ġir on
Ġfrie drich
pol en
Ġvoll e
Ġpos itive
Ġverm itteln
sk ultur
Ġhil frei
Ġmach te
bÃ¼rger meister
Ġreich stag
ĠwÃ¼ ste
Ġpf arrer
Ġentsprechen de
ĠsÃ¼ ÃŁ
Ġdienst ag
Ġbetitel t
Ġarbeitspl Ã¤tze
Ġfortsch ritt
frank reich
Ġgoo geln
Ġerstaun lich
k ka
r ein
Ä ±
Ġn eid
Ġl enken
Ġp fer
Ġzu sehen
el m
Ã¶ hnen
den ke
Ġver wer
Ġo ma
Ġr assen
ft igen
Ġnach ge
Ġgr uss
Ġrecht sextremen
Ġschl uÃŁ
Ġc le
ru ppe
Ġhin weisen
fl ug
bar er
Ġne o
Ġbeg riffe
Ġdemokrat isches
di o
Ġsinn lose
ĠkÃ¶nnte st
Ġspr inger
Ġkrimin al
Ġwider spruch
ausen d
Ġwirtschaft liche
Ġag ress
Ġwochen ende
Ġhar ml
ĠbefÃ¼r chte
Ġerkennt nis
cl ans
Ã¤um t
freund lich
Ġgebrau ch
itÃ¤r en
stat istik
Ġverdre ht
Ġverdre hen
ĠÃ¼bert rieben
Ġliban es
ĠwÃ¶r ter
Ġul fkotte
Ġandersgl Ã¤ubige
ĠgÃ¤n sehaut
Ġvernicht en
ĠthÃ¼r ingen
Ġgh ett
, ...
h an
r d
Û Į
Ġs amt
Ġb z
Ġv an
Ġp res
gen er
ig em
and al
Ġun ion
Ġst au
Ġbe achten
sp art
Ġmuslim a
Ġch ange
Ġfl or
Ġbr un
Ġbel ieb
Ġma in
Ġzusammen halt
Ġstr Ã¶m
Ø§ Ø±
mu enchen
Ġbef assen
Ġabl ehnung
fert igt
Ġdun kl
Ġehemal ige
Ġol iver
Ġsan ktionen
ĠkÃ¶rper verl
Ġtodes strafe
Ġabschn eiden
mosche e
b as
Ġs n
Ġs unn
Ġein m
ur l
and ert
de st
sen s
Ġre du
Ġvor hin
Ġvor werfen
Ġab stand
Ġgen ieÃŁen
ien er
Ġkl ass
ha ber
pp s
ran ken
ant wortet
Ġbesch uld
Ġbeg reift
Ġchrist oph
fol ger
Ġtrau rige
ĠzurÃ¼ck ge
ĠÃ¤ hm
Ġnormal er
Ġbef rag
inter view
Ġkreuz berg
verr at
gro ss
Ġbuddh ists
ĠhÃ¶ch ste
Ġungeb ildet
Ġdoppel moral
fot o
Ġoper ation
Ġverant worten
Ġple ase
Ġbec ause
h ungen
u cher
ch ner
ie gt
Ġw g
Ġn Ã¶t
Ġmit nehmen
de ck
Ġman uel
Ġsoll t
err and
Ġunter stellt
ðŁĺ ł
Ġis ses
Ġhei ssen
ah m
Ġklar text
Ġ.... ....
hal s
201 1
Ġzei g
........ ....
Ġverges st
Ġunterschie dlich
Ġrest lichen
Ġfolgen de
Ġinner en
Ġjob s
Ġdau ern
ĠlÃ¶s ungen
mÃ¶ gen
Ġneg ative
Ġsonntag s
Ġrund funk
Ġpoten tial
Ġletzt lich
Ġskand al
rich en
zut reten
Ġfernseh er
Ġtheater platz
spro blem
Ġhierzu lande
ĠØ§ÙĦÙħ Ø³ÙĦÙħ
Ġtelef on
ĠverfÃ¼g bar
Ġwaffenliefer ungen
/ .../
b ad
d om
f ug
l eg
y se
ie hen
Ġm at
Ġn s
es agt
Ġh ome
Ġz ahn
Ġl anger
Ġso me
Ġst eigt
ver urteil
ver kehr
Ġang ehen
Ġher ein
Ġbel eg
ast et
Ġmar ok
Ġern eut
Ġsozial schmarotzer
Ġinform iere
Ġverschw indet
Ġkurz em
Ġpriv aten
Ġversamm lung
Ġrand ale
wur st
Ġinnen stadt
zÃ¼ glich
ĠanschlieÃŁen d
afr ikan
mitglie d
Ġchin esen
Ġtell errand
r us
r tl
u ckt
Ġs s
Ġa xel
ein mal
Ġk auft
au nt
12 6
eh len
ag ten
Ġst il
Ġst irbt
19 9
isch ung
Ġja mmern
rei cht
ĠÃ¼ber nommen
iert es
sp erren
Ġbes itz
Ġgew innt
Ġgesch mack
so cial
Ġherr schaften
Ġfrie de
Ġne ver
org ung
Ġbesch wert
Ġirgend eine
ic ero
fÃ¼ ll
Ġpolit isches
Ġspr achen
Ġabend lÃ¤nd
Ġheim lich
Ġsof ern
Ġpo ste
ĠgefÃ¤hr det
Ġmel det
Ġamerikan ischen
ĠwÃ¤r st
gro ups
Ġwand ern
wahr scheinlich
ĠtrÃ¤um en
kir chen
Ġwess is
Ġaussch reitungen
Ġethn ische
Ġfurcht bar
ĠunverschÃ¤m t
Ġirgendjem and
h Ã¤l
l ive
s etzungen
u se
Ġ 48
Ġm eter
Ġb ogida
Ġk acke
Ġl ehre
em ark
Ġver rat
Ġbe denkt
ft ige
Ġvor sitzen
Ġwei sen
Ġbes ucht
Ġschl acht
richt ig
Ġkinder g
wer fer
Ġnazi frei
ĠdÃ¼r ften
op en
gehen d
Ġabs agen
Ġfalsch er
Ġfrank furter
Ġlern e
Ġargument iert
Ġgrundgesetz es
Ġauseinander setzen
Ġweihnachts fest
ĠØ§ÙĦ Ø
Ġpart y
nation al
Ġbeob achtet
Ġbeteil igen
Ġmenschenverachten d
verein igung
Ġkna llt
Ġhaken kreuz
disk ussion
Ġperman ent
Ġsoziall eistungen
k ol
k illerbe
m w
Ġa men
Ġh ex
Ġz ion
eu ern
Ġt ab
ach er
Ġan stÃ¤ndig
Ġer ho
Ġst ri
wei ÃŁ
Ġschl auer
was ser
Ġweiter er
Ġbest ra
wer ten
Ġeben e
ob wohl
ug ce
Ġbundes weit
Ġkn Ã¼
if est
Ġmittel schicht
Ġrum laufen
Ġrech nung
istisch es
Ġzit ieren
vie h
Ġstand punkt
Ġsit ten
Ġwohn ungen
Ġstraf bar
Ġkonst rukt
Ġandersdenken den
Ġhon ecker
Ġverurs acht
frem den
gau ck
killerbe esagt
r ang
s Ã¤
w Ã¤re
Ġn r
Ġf isch
Ġein gesperrt
Ġzu gleich
Ġzu stÃ¤nden
Ġsch a
is is
Ġer heb
id s
Ġr t
rei f
ĠÃ¼ber fordert
ges ehen
Ã¤ng lich
Ġger Ã¼
Ġent lassen
Ġto b
Ġro sa
demonst rant
Ġkoran s
Ġjemand em
islam ische
fÃ¤ l
frie d
ief ert
Ġverschw eigen
Ġka ffe
volk sver
Ġober fl
ĠgesprÃ¤ che
ĠgesprÃ¤ chs
Ġgehol t
Ġeinl aden
Ġausgeb ildet
nat Ã¼rlich
Ġdez ember
4 00
c s
d is
o z
p al
Â «
Ġf eld
Ġein ander
el en
Ġver rÃ¼ckt
Ġan lass
Ġer ika
Ġfr Ã¶
os se
Ġgeh andelt
Ġschl age
Ġlie bes
Ġgro ssen
Ġdenken den
Ġged uld
schw Ã¤tzer
Ġlinks fasch
fre d
Ġ9 5
Ġstaats angeh
Ġper f
Ġuntersch eidet
Ġson ne
Ġag ieren
hÃ¶ fer
Ġzerst Ã¶rung
Ġbill ige
alif iziert
Ġker l
euch tet
Ġbekl opp
Ġhor izont
Ġwh y
Ġregen wald
Ġnahe zu
Ġmedial e
Ġnirgend s
mittl ungen
ĠseriÃ¶ se
Ġnov ember
Ġerkl Ã¤re
! âĢĿ
= =
a kte
g ute
q z
s f
u ck
Ñ Ĥ
Ġg eiÃŁ
ich en
Ġp at
Ġin sofern
Ġmit reden
Ġauf recht
un sten
Ġmehr mals
Ġ( "
Ġ- ----
bl Ã¶
zu wanderung
iv en
Ġbl oss
Ġlie bl
eb ru
35 9
schl ieÃŁen
Ġho w
Ġverb rei
Ġfrei er
ĠtÃ¼rk ischer
we sten
Ġangeb oten
Ġjung frauen
sel ben
Ġreich lich
Ġmoder ne
Ġarbeitsl ose
Ġaufgeh oben
Ġkeines wegs
Ġdemonstrations recht
Ġdiver se
Ġtakt ik
Ġgaz a
f us
k na
u tsch
Ġ Ã¤m
er ste
Ġn sdap
Ġ201 2
Ġf ight
Ġsch riften
mm ten
ig ern
Ġver rÃ¼ck
am o
Ġo pa
Ġauf zwingen
tsch aften
Ġall i
us w
Ġwieder holen
Ġschl eu
Ġ... "
Ġeigen tum
su cht
Ġgleich er
ob ahn
zw ang
Ġbed ienen
Ġ19 90
Ġant rag
Ġstr alsund
Ġsozial kassen
Ġschwer er
ens ion
Ġteilnehmer zahlen
Ġabgesch lachtet
Ġkrank heit
zum achen
Ġmed iz
Ġmarsch iert
Ġprakt isch
Ġarbeits markt
Ġapp laus
ĠreprÃ¤sent ativ
Ġgrat is
Ġumben annt
Ġkonstru ktiv
Ġnazisch w
ĠbeschÃ¤men d
ebru ar
? ...
c em
f m
n itz
n iveau
n rw
Ġ Ã¶r
Ġs etzten
Ġw atch
Ġm eg
Ġk artoff
Ġein geb
or s
Ġin wie
Ġsch u
... ]
sl o
se k
19 89
Ġvor stellung
Ġgegen demonstration
Ġdurch gelesen
Ġgesch oben
Ġger ichte
Ġklar es
ĠauslÃ¤nder feindlichkeit
Ġbeg ann
Ġde fen
ko tt
Ġkom ischerweise
Ġgez iel
Ġwider sprechen
Ġziel en
Ġon ly
ĠðŁĺĤðŁĺĤ ðŁĺĤðŁĺĤðŁĺĤðŁĺĤ
inter ess
ih i
oph obie
Ġbunt es
grÃ¼nd en
Ġverwir rt
ĠfranzÃ¶s ische
Ġbeam te
Ġhinge stellt
Ġkas per
Ġskla ven
Ġgrenz t
Ġsym pt
) !
l ust
sch ild
Ġf Ã¤l
gen t
Ġsch am
Ġsch uss
Ġauf ent
Ġges amm
Ġsp inn
Ã¤t ter
wei ger
Ġmo de
Ġger aten
Ġger ichts
Ġbeg eistert
mit t
ip s
Ġgesp ielt
Ġarm er
Ġschm utz
Ġreich es
Ġdikt ator
Ġâ ĺº
Ġgewaltt aten
Ġme kka
Ġli fe
rukt uren
Ġhor st
Ġrecherch ieren
Ġnirgend wo
Ġafrikan er
Ġdet ail
klus ive
Ġweihnachtsl ieder
Ġokt ober
- .
7 2
d in
d ing
d schihad
k reuze
q y
u chte
Ġm ind
Ġv lt
Ġl as
Ġver fl
Ġun mittel
Ġman y
us a
Ġgeh eim
Ġste ffen
Ġunter bel
ver fassungs
ĠkÃ¶n ne
wei te
Ġeinf or
Ġeinf achen
Ġgesch aut
Ġbis sel
Ġgrund eis
wir ken
Ġro stock
da ÃŁ
Ġinteress ante
Ġwider spricht
Ġerl Ã¤u
Ġkathol iken
bund estag
sar mut
Ġpk k
Ġmordd rohungen
Ġgleichgesch alte
ĠkÃ¶rperverl etzung
" ....
b ock
f ort
i os
s eits
v ed
v enz
y an
z o
Â Ń
Ġd el
Ġg inge
ich ert
Ġh Ã¤nden
Ġv at
Ġl uther
Ġder maÃŁen
Ġt Ã¶n
Ġsch Ã¤u
ur t
be weg
Ġges orgt
Ġvor schreiben
Ġim port
Ġdes weiteren
Ġsei fe
Ġmuslim isch
Ġselbst ern
Ġis s
tz e
su che
Ġbel Ã¼gen
Ġbesch lossen
Ġgrund legen
Ġlink sextremen
Ġeinz iger
hal tet
Ġzusammen hÃ¤ng
fol gt
mit tag
Ġbek am
oo o
gem Ã¤ÃŁ
?! ?!
ĈĈĈĈĈĈĈĈ ĈĈĈĈ
Ġkar a
Ġanfang s
Ġku sch
Ġcl ans
ðŁĩ ©ðŁĩª
ĠhÃ¼ b
Ġkonfl ikt
Ġnachweis lich
salaf isten
Ġrath aus
ĠgefÃ¤llig st
i am
r p
y kott
Ù ī
st att
Ġk ee
te ll
Ġp ure
Ġge pfl
ir t
Ġt it
Ġsch Ã¤tzen
Ġsch Ã¼tteln
ur an
Ġaus nahmen
ge z
ĠÃ¼ber schrift
Ġunter halt
Ġbl Ã¼
Ġen gel
br and
Ġbew ohn
Ġweg nehmen
Ġchrist us
Ġrechts system
lie b
ĠmÃ¶glich erweise
Ġerw ischt
Ġei sen
ĠlÃ¤cher liche
ĠlÃ¶ scht
Ġmiss ion
ĠwÃ¤r s
str asse
ĠÃ¶ff net
not if
Ġarschl Ã¶cher
schwei z
Ġarbeitspl atz
Ġungerecht igkeit
. (
7 23
b ien
Ġs end
Ġs Ã¤tze
st rom
ein igt
Ġk eule
Ġp re
Ġein kommen
Ġsch Ã¶
Ġsch erz
Ġsch elm
Ġun angen
is ion
Ġmit bringen
Ġauf einander
Ġbe enden
Ġbei r
Ġum gebung
Ġkl atschen
ðŁĺ ľ
Ġschw Ã¤ch
Ġho b
Ġbr icht
ĠlÃ¼gen medien
recht lich
Ġzie he
Ġkar ren
Ġmin ute
Ġgemeinsam en
ĠbefÃ¼r chten
Ġme er
schm ei
ĠeinfÃ¼ hrung
ĠwÃ¶r tlich
ĠerfÃ¼ llt
Ġreda kte
Ġreda ktion
Ġdamal igen
Ġhaust Ã¼r
b z
o ur
Ù İ
st ifter
Ġv al
Ã¼ bt
Ġk os
Ġl eugnen
Ġp c
eu ner
au scht
Ġt w
et a
kt or
Ġmehr zahl
fa st
Ġdeutschland fahne
Ġgeh alt
ger ichte
wei ten
Ġbl og
ges inn
Ġeigen dlich
est ern
qu ote
ja hren
Ġbesch rÃ¤nkt
Ġbeg eben
Ġru fe
Ġkom p
akt iv
Ġschuld ig
reg ung
Ġverd acht
wÃ¼r fe
Ġlu x
th emen
Ġempf inde
Ġsa id
ene ws
ĠvernÃ¼nft igen
jen ige
Ġminister prÃ¤sident
Ġabst amm
Ġverab scheu
Ġstaatsanw altschaft
Ġmetho den
Ġweltanschau ung
Ġverhei ratet
Ġbann er
Ġunert rÃ¤glich
Ġspekt rum
d orf
e c
k es
l og
l etzte
t yp
Ð ¸
er er
Ġs ry
Ġm ama
Ã¼ br
Ġp ir
it h
re da
Ġge denken
Ġge glaubt
Ġzu gelassen
Ġsch arf
Ġo pt
Ġr Ã¶
hn chen
ĠÃ¼ber setzt
Ġab sichtlich
ðŁ ĻĪ
ieren de
Ġ: '
ver w
ill t
ot tet
ha st
Ġc all
Ġweil e
Ġschw ingen
Ġschw immen
ĠmÃ¼s se
Ġjeder zeit
Ġtun esien
Ġbel ogen
Ġbeg l
Ġdort hin
Ġbild zeitung
Ġpolit ical
ate d
Ġsag ten
Ġsozial ismus
Ġweit aus
sie ht
Ġdrau s
Ġverd anken
Ġham eln
samm lung
ĠÃ¤uÃŁer ung
ĠfÃ¼hr ungs
Ġkopft Ã¼cher
Ġneutral e
Ġentsprechen den
Ġfried lieben
kor an
Ġkulture lle
Ġverf asst
Ġbetroffen en
Ġmobil isieren
Ġbedauer licher
tÃ¼r k
Ġunterb inden
bre tt
Ġfuss ball
Ġnachvollzieh bar
Ġaufent halt
Ġkee p
8 1
b anden
d acht
f c
f elt
k anzlerin
l s
n est
n ix
p ng
Ñ ģ
Ġ `
Ġd Ã¶r
Ġw here
ich erung
Ġ2 7
es p
Ġb ig
Ġv s
ll i
Ġf in
Ã¤ her
Ġz immer
Ġge antwortet
Ġt her
Ġan na
Ġre d
Ġall zu
Ġaus weis
Ġab schluss
Ġab artig
Ġnach her
Ġfa hre
Ġbl icken
ges sen
Ġsol i
br it
Ġverl ust
Ġwe chseln
Ġanders wo
spiel t
fahr ung
Ġkur zen
Ã¶s ung
Ġstar ken
Ġeins etzt
Ġfrieden svertrag
Ġaufzu halten
ĠÃ¤lter en
Ġinterpret iert
Ġplak at
Ġwh ich
kur ier
Ġfundamental isten
rÃ¤um en
Ġgewar tet
Ġfaz it
Ġausn utzen
Ġausreichen d
- %
3 39
3 36
6 88
b unt
f d
j c
l ehrer
m asch
n ess
p ap
w agen
z ung
Ġm ade
Ġ2 8
Ġz aun
Ġein richtungen
Ġge ll
au bt
Ġt i
Ġt ugce
Ġo ver
ro llen
se e
13 5
Ġvor stand
Ġwei ÃŁe
Ġsoll e
ff el
ang aben
Ġen orm
egen presse
Ġkon zept
Ġgef eiert
Ġschul ter
Ġbet reibt
Ġbed rohen
da fÃ¼r
Ġvert rau
fÃ¤ llen
Ġerw Ã¼nscht
Ġson nen
Ġpatri ck
Ġla ppen
eug net
Ġbay er
gro ÃŁ
Ġanw alt
krimin elle
Ġlaber t
zeug nis
Ġkranken haus
Ġangem essen
Ġzens iert
Ġkontroll iert
ĠerbÃ¤r m
Ġherrschen den
Ġinternation al
Ġinszen iert
Ġberuh igt
Ġeinheim ischen
Ġaugust us
ĠØ¹ ÙĦ
a q
b ru
l ist
p orn
Ġd oll
Ġd gb
Ġa cht
on es
Ġz au
Ġl och
au chen
Ġsch uh
Ġo sman
Ġauf fÃ¤llig
sen dung
ag ogen
Ġman ifest
be ck
ser n
14 20
im il
26 9
ste cken
art igen
Ġber Ã¼
Ã¤u ber
rÃ¤ fte
Ġgest rigen
Ġbed roh
Ġkom ple
Ġel iten
ath y
Ġspiel e
krieg s
Ġnieder lande
muslim ische
Ġy es
Ġjournal ismus
ĠgelÃ¶ st
Ġpriv ate
tem berg
Ġgewaltt Ã¤ter
Ġderzeit igen
ĠðŁ ĻĪ
Ġkonsequ enz
ĠschÃ¼ lern
Ġvergewalt igen
Ġverfolg te
med iathek
Ġpal est
soll te
kennt nisse
argum ent
Ġsig nal
Ġwuer de
Ġangek Ã¼ndigt
dikt atur
Ġbraunschwei g
ĠgeiÃŁ ler
ĠschÃ¤u ble
% .
d z
m ontag
m ischpoke
r alitÃ¤t
Ġd itt
Ġw ild
Ġm ont
Ġm eldungen
Ġg olf
Ġv iet
ll ige
Ġp ig
it ur
re ht
Ġver feh
Ġan kommt
Ġer achten
Ġst a
Ġall m
Ġsp altung
ver antwort
was chen
iz it
Ġdurch zusetzen
Ġhin sicht
Ġgef Ã¶rdert
Ġwahr genommen
Ġma il
ĠðŁĺ Ĩ
war nung
Ġspr ingen
Ġinteress anter
krie ge
Ġaut obahn
Ø§ Ø
Ġrum Ã¤n
Ġheu l
ĠkÃ¤m e
Ġwest deutschen
Ġoft mals
Ġanges agt
Ġbem erk
Ġamerikan ische
Ġsar kas
Ġhalb wegs
Ġkoll ege
ĠgrÃ¶ÃŁten teils
Ġanerk ennung
Ġsus anne
ĠerhÃ¶ ht
Ġkorrup ten
ĠmÃ¼t ter
Ġchan cen
Ġbul gar
Ġhilfrei ch
Ġsarkas mus
4 23
: -
g y
g uten
o x
Ġm aut
st Ã¤t
Ġb ad
Ġk ro
sch alten
sch affen
Ġge brochen
Ġzu gegeben
Ġt ina
Ã¼r k
ind ungen
ag te
Ġwar m
Ġwar nung
Ġkann s
ul ff
fa hnen
Ġkind es
Ġher bst
ap s
Ġkrie ger
for um
Ġpar ole
Ġfriedlich er
ĠgroÃŁ eltern
Ġverk n
je den
Ġfest gestellt
Ġmitt ag
Ġhe ftig
ĠtÃ¶ chter
Ġakzept iere
Ġabl Ã¤uft
,, ,,
Ġad resse
Ġums etzen
Ġverlogen heit
ĠĠĠĠĠĠĠĠĠĠĠĠĠĠĠĠĠĠĠĠĠĠĠĠĠĠĠĠĠĠĠĠĠĠĠĠĠĠĠĠĠĠĠĠĠĠĠĠĠĠĠĠĠĠĠĠĠĠĠĠĠĠĠĠ ĠĠĠĠĠĠĠĠĠĠĠĠĠĠĠĠĠĠĠĠĠĠĠĠĠĠĠĠĠĠĠĠ
Ġtran s
Ġwus sten
Ġdiskrimin ierung
Ġatheist s
Ġangez Ã¼ndet
Ġdschihad isten
Ġunwissen heit
ĠtÃ¤t ig
Ġschil der
Ġasylsuchen de
Ġjohann es
Ġstrate gie
Ġsteph an
Ġgesock s
Ġbz gl
c q
l ike
s how
t az
t op
Ġw ell
Ġg y
ich e
Ġk um
Ġk ack
Ġein stellen
au ff
Ġj Ã¶r
Ġver r
sl age
Ġaus geg
Ġsp rÃ¼
Ġsp recht
ĠÃ¼ber ein
ĠÃ¼ber sehen
ul e
Ġwei b
Ġste hst
Ġlei se
ru ppen
Ġger issen
ander e
Ġent setzt
Ġneu n
Ġko ennen
Ġpa venz
sam en
wer fung
vor sitzen
are t
Ġbeh indert
klÃ¤r t
Ġschn itt
Ġdr Ã¤ngen
Ġkopf sch
Ġsor te
Ġrei ÃŁen
Ġnormal erweise
ĠfrÃ¼ hl
Ġfake profil
Ġlach haft
ĠaufklÃ¤r en
ĠÃ¤r gern
Ġmissbrau ch
Ġfar ben
Ġgebrau chen
arch iv
Ġbeteil igt
Ġberecht igte
Ġanony m
ĠfÃ¶r dert
Ġkonfl ikte
nu mmer
ĠbenÃ¶t igen
ĠÃ¼b lich
Ġunn Ã¶tig
Ġrechtschreib fehler
Ġneujahr sansprache
Ġkonfront iert
Ġentlar vt
Ġselbstbe stimmung
Ġerinner ung
anony mous
Ġstal in
Ġtagt Ã¤glich
Ġment alitÃ¤t
Ġkinderg Ã¤rten
Ġstaatsangeh Ã¶rigkeit
Ġhob by
Ġpavenz inger
8 45
b ass
c ms
l Ã¤ufer
p ra
p apier
t at
t ote
v el
w uchs
Ì ĩ
Ġi ts
Ġg ol
Ġg Ã¼lt
Ġ2 60
Ġdie bst
Ġf ette
em bed
Ġt z
Ġsch ild
Ġer halt
Ġr isk
Ġr onny
Ġst ock
iel en
Ġvor stellungen
Ġab stimmen
Ġnach kommen
Ġnach plapp
Ġgr auen
Ġgeh or
sp ort
az on
tlich er
Ġwur zel
iell e
Ġbesch n
du mmen
Ġschei tern
Ġmar io
Ġle ere
islam ischen
Ġverm Ã¶
Ġhoch achtung
Ġ8 00
Ġvers kla
Ġsystem medien
ĠwÃ¼n sch
Ġerw acht
Ġhaupt bahnhof
gut mensch
ĠrÃ¼ck grat
ĠrealitÃ¤t s
Ġjedes mal
Ġneut ralitÃ¤t
ĠgrÃ¶ÃŁer en
Ġmerk wÃ¼rdig
kam pag
marsch ieren
polit isch
Ġabsol uter
Ġobje kt
Ġkriegstreiber ei
Ġantisemit ismus
Ġstandard s
Ġauswirk ungen
3 22
a er
d eu
f eiert
l w
t n
ei ter
Ġs z
Ġa ct
Ġw ich
Ġm ischen
sch Ã¼ler
Ġl ehren
Ġl vz
Ġsch Ã¼rt
Ġver recke
Ġst d
Ġda y
Ġaus nahm
il o
Ġpro mis
Ġunter nommen
Ġbes inn
Ġgo eb
Ġgest richen
Ġdisk urs
Ġwort es
Ġrespekt iere
Ġfrauen kirche
Ġmag st
zeu gt
Ġaufge zwungen
Ġkont in
mp el
Ġums etzung
Ġherkunft sland
ite d
Ġkund gebungen
Ġattent ate
Ġflie gt
ĠschlÃ¤ gert
Ġarme e
demonstr ieren
Ġorden tliche
cam p
Ġanerk annt
ĠprÃ¼ fen
Ġhmm m
Ġerwachsen e
stemp eln
Ġvollidi ot
Ġgemeind en
ĠbemÃ¼ hen
Ġkol on
Ġbewir ken
ĠÃ¼berfl Ã¼ssig
spekt ive
Ġero bern
ĠnÃ¼rn berg
Ġbitt eschÃ¶n
Ġmediz in
b Ã¶
f euer
k ehren
k rank
m at
m eldungen
v k
w Ã¼n
Ġ 33
Ġv eg
Ġl auft
in ke
Ã¶ pft
is rael
Ġo hr
Ġer ich
Ġst abil
ÃŁ chen
ik ern
Ġaus machen
Ġunter richtet
Ġkl o
Ġkl op
Ġe chter
ad an
ĠmÃ¼ nd
Ġlei ten
ĠwÃ¼r zburg
eb st
Ġgesch ossen
Ġstra fen
Ġhei st
Ġlink sextreme
Ġtro llen
Ġschn eider
Ġtoler anten
pro teste
ster ben
Ġrein hard
Ġ6 8
Ġind irekt
zug reifen
kr ut
Ġungl Ã¼ck
Ġstein zeit
Ġdeutlich er
Ġkot z
Ġost deutschen
Ġdrei st
europ enews
Ġkompl iment
Ġstat us
beg ehren
Ġstud ien
Ġvergewalt igung
forder ungen
Ġformul ieren
Ġrecher che
Ġjahrhunder te
Ġbon zen
Ġbetitel n
Ġschwul e
ĠgroÃŁstÃ¤d ten
ffington post
Ġurspr ung
ĠgefÃ¤l scht
beweg ungen
# !
h ir
h em
l ok
r is
t od
v m
z y
Ġ ________________________________
Ġs ascha
Ġm ad
st aben
Ġk rau
Ã¤ fte
re ckt
al a
ar n
ar tet
at sche
Ġso eben
Ġaus gen
Ġaus halten
Ġmal te
Ġander erseits
Ġgeh ir
Ġc op
Ġdurch schnit
Ġkon f
Ġto den
ĠgrÃ¼ nder
Ġro tz
Ġde f
klÃ¤r ung
Ġmensch lichen
Ġoffen er
sk on
Ġgute m
Ġjo hn
Ġange wiesen
Ġveranst alten
Ġdenk weise
offen er
pa cken
Ġgesicht er
Ġblo nd
Ġheil ige
Ġalter s
Ġaufru ft
Ã¤ss ig
Ġmil ch
Ġangel egen
ĠjÃ¤hr ige
ĠgewalttÃ¤t ige
Ġbundesk anzler
Ġversammlungs freiheit
wahn sinn
Ġdiver sen
ĠverschwÃ¶rungsthe orien
Ġunru hen
mill ionen
Ġpublik um
manipul ation
Ã¨ re
wissenschaft ler
Ġjose f
Ġhilfl os
ĠdÃ¤n emark
Ġwahrschein lichkeit
Ġviet nam
b ande
f rag
h ng
k us
ch lich
st Ã¤mm
st error
Ġn etten
ein satz
Ġ2 50
Ġh inger
Ġf ick
gen ossen
Ġzu kommen
Ġauf forderung
19 45
Ġre ad
15 4
ĠÃ¼ber fallen
acht eil
Ġricht iger
Ġklar er
Ġseit dem
Ġro man
Ġqu al
Ġse chs
Ġbeit ragen
Ġdefin iert
rech nen
kar ikaturen
Ġtu en
ĠmÃ¤d els
Ġsicht bar
beg riff
wur de
Ġverbr eitung
ĠbegrÃ¼nd et
ĠgewalttÃ¤t igen
Ġfass ung
Ġschleichen de
Ġglobal isierung
Ġaufh etzen
Ġest abl
Ġbegeg nen
Ġcor rect
Ġtob ias
Ġabstamm ung
ĠfrÃ¼hl ing
! '
1 000
5 09
f ans
h on
x pa
Ġs aufen
ie be
sch ade
al ismus
au schen
et tet
id o
Ġda zwischen
ge zogen
il y
Ġim age
ĠÃ¼ber setzung
Ġwieder vereinigung
ĠwÃ¤ hle
ad ung
Ġsol ang
Ġho hle
Ġdan ken
Ġerst aunt
richt er
Ġbel ie
Ġkinder porn
Ġkomment iert
Ġdumm schwÃ¤tzer
Ġgeb oten
Ġgeb ildete
Ġju ckt
Ġschei be
Ġle a
stÃ¤nd igen
Ġrespekt iert
Ġschwer in
ĠmuÃŁ te
Ġverg isst
co urage
Ġbil de
Ġvergl eiche
Ġober bÃ¼rgermeister
Ġaust reten
ĠfachkrÃ¤fte mangel
ĠmaÃŁ nahmen
Ġpositiv en
ðŁĴ ª
Ġbrei te
ĠverÃ¼ ben
Ġleist ungen
sab ge
Ġcont ra
ograph ie
argum ente
Ġantideutsch en
Ġnachzu denken
ift ung
ĠhÃ¤r ter
b ie
d v
h Ã¤t
Ġd rÃ¼ckt
Ġs ha
Ġw id
Ġw alter
Ã¼ hren
Ġge br
ir ak
and id
am i
Ġer r
ag ner
Ġr ing
13 7
Ġsp itzen
Ġkl Ã¼
Ġang et
ĠwÃ¤ hre
Ġschw ester
schl acht
ri an
ant ast
Ġneu wahlen
Ġgleich es
Ġhinter grÃ¼nde
Ġverm ittelt
Ġsuper markt
if ft
stra ft
Ġverein bar
zus ammen
Ġ200 5
Ġempf inden
fu ge
rech nung
Ġanz Ã¼nden
Ġsto ppt
Ġbraun es
Ġpassen d
Ġpart ner
Ġcon fus
off iz
Ġbestehen de
Ġsex uelle
ek ut
???????? ????????
Ġhool s
Ġstadtt eil
Ġliban on
tw itter
zit at
ĠgeschÃ¤ft s
Ġmaxim al
Ġerhe bt
Ġhaup tsch
kÃ¼n fte
Ġhex en
ĠzusammenhÃ¤ng e
h ymne
l g
n ik
z Ã¤hlen
z one
Ġs ame
Ġw uÃŁ
Ġi i
st ung
st Ã¼ck
Ġg eis
Ġh im
Ġh eid
Ġk uh
Ġf ig
Ġl am
Ġl ehnen
ar ian
au ÃŁer
Ġver y
Ġun qualifiz
Ġwer ner
be stand
Ġgr us
Ġunter t
Ġkein ster
rau ch
Ġhin stellen
Ġherr sche
Ġverst oÃŁen
Ġbrau ner
ĠkÃ¶nn tet
Ġgest oppt
Ġgeb ets
Ġgeb Ã¤ude
Ġpar k
Ġ19 98
........ .....
Ġradikal isieren
gegen demonstranten
Ġben achteil
Ġmut igen
lo wn
Ġschm erz
Ġind o
voll er
arbei tern
Ġungl Ã¤ubig
ĠgefÃ¤hr liche
Ġempf Ã¤nger
Ġbi ÃŁchen
krÃ¤ ften
ĠreligiÃ¶ ser
chs elt
Ġsteuergel d
neu e
arch ie
Ġinterpret ation
Ġabsicht en
Ġkeines falls
Ġstammt isch
Ġram adan
Ġsl ogan
Ġmarok ko
! ...
5 25
b us
n pd
r n
Â »
Ġd it
Ġm ik
Ġn ik
an bul
Ġf ang
Ġp est
Ġein treten
Ġver fahren
Ġst as
Ġdu den
Ġaus zul
Ġaus reden
Ġdem ent
Ġeu res
Ġhier mit
Ġab gegeben
ien ten
Ġunter kunft
Ġkl ick
ger ade
aus bildung
Ġc ome
Ġgesch issen
Ġzeit ungs
ĠmÃ¶ glichen
Ġhei ÃŁ
ĠÃ¶ z
Ġma ke
Ġro m
ĠtÃ¼rk in
Ġradikal ismus
fre u
Ġmittel me
Ġeins eitige
Ġ7 000
ĠlÃ¤ch eln
Ġaufge passt
gemein schaften
Ġunterschie dliche
Ġbef indet
Ġprofil e
Ġabge ordneten
ĠtrÃ¤ nen
europ e
wÃ¼rd igen
Ġalter sarmut
Ġentschuld ige
Ġentschuld igt
gef unden
Ġvorurteil en
Ġtal ks
polit ischen
ĠhÃ¶ch sten
Ġvermu mmt
Ġweh ret
Ġausgel egt
ĠanstÃ¤nd ige
Ġkorre kte
send ungen
verfolg ung
Ġgy si
Ġconfus ians
3 16
b zw
k ath
l v
u q
v Ã¤ter
Ġ 05
Ġv Ã¤ter
Ġge zahlt
et he
ol ogen
Ġr ate
be k
14 21
Ġja wohl
Ġunter stellungen
Ġang est
zu bringen
ger e
Ġch ap
Ġhin nehmen
rÃ¤ cht
Ġgef angen
ss lich
Ġex ekut
Ġhel fer
Ġmorgen s
Ġ!!!! !!!!!!!!
Ġfreiheit lich
ĠblÃ¶ den
mo hammed
laub nis
Ġschau spieler
Ġhirn losen
Ġmehrheit lich
ĠgefÃ¼ hle
Ġ200 1
Ġtotal er
Ġfach arbeiter
ĠdÃ¼ gida
Ġstell st
Ġ[ ...]
Ġpf eifen
demokrat en
Ġdifferenz iert
Ġjetz ige
Ġerg Ã¤n
Ġerg reifen
ĠmÃ¤cht igen
Ġemp Ã¶rt
Ġratten fÃ¤nger
ĠÃ¤usser n
adr id
Ġtour isten
Ġendg Ã¼ltig
Ġereig nisse
kriminal itaet
Ġorig inal
ĠglaubwÃ¼rd igkeit
haen ger
3 35
4 39
b ist
c lub
f eln
l eist
x z
y y
Ġd id
Ġw essen
Ġb ischen
sch eiÃŁ
it ische
it Ã¤re
ir m
Ġt hen
Ġsch altet
Ġist anbul
Ġun vor
Ġun heil
Ġer ober
Ġda heim
Ġbe fo
un ts
ra gend
Ġab halten
!!! )
ok us
aus sage
ĠwÃ¼r stchen
Ġmo st
Ġverb Ã¤nde
Ġsu ppe
Ġgef asst
su per
Ã¼ck sicht
Ġhinter fragt
Ġbek ehren
Ġant wortet
Ġged rÃ¼ckt
ĠzurÃ¼ck treten
ko rea
ma il
Ġdr ittel
Ġradikal isierung
flÃ¼chtl ing
Ġgerman s
Ġmil it
Ġverschl ieÃŁen
10737418 29
eig net
Ġta ke
Ġfahr lÃ¤ss
schung el
ĠjÃ¤hr lich
ĠjÃ¤hr igen
Ġrechtsextrem isten
Ġhein z
mitglie der
ðŁĺģ ðŁĺģ
sicher heit
Ġtsch Ã¼ss
oret iker
Ġpolem ik
dad gd
Ġditt mer
b on
h w
u hr
en en
er re
Ġw ord
Ġm isst
Ã¼ cken
sch i
ll a
ll os
Ġp anzer
Ġein igkeit
ar nt
Ġzu stÃ¤ndig
Ġan maÃŁen
Ġer s
Ġer geben
Ġst ruktur
Ġbe frei
13 9
ra y
Ġges ellschaften
os oph
bl en
Ġho pe
Ġbrau chte
Ġto o
Ġbesser ung
Ġeinz us
Ġqu e
Ġtrau e
Ġzwei er
haupt stadt
Ġvers orgt
ex trem
Ġper spektive
bed Ã¼r
get eilt
Ġerm orden
Ġober en
Ġintelligen te
Ġerinn ere
wohn ern
Ġkund tun
ĠÂ «
Ġpauschal isieren
ele ak
Ġfort fÃ¼hren
wahr heiten
Ġeingesch rÃ¤nkt
Ġdur ften
Ġbeherr scht
Ġangez eigt
Ġmusel man
Ġzunehmen d
Ġeint ritt
Ġann Ã¤her
Ġgegenw ind
Ġverblende ten
Ġcle ver
ĠstrÃ¶m ungen
ĠfrÃ¶ h
' .
b Ã¼cher
e a
g as
m Ã¼t
n s
t rotz
en ergie
Ġs enden
Ġs mart
Ġk z
sch ten
Ġl y
Ġt reu
in halt
et icker
is hm
Ġr atte
Ġbe denklich
Ġaus gesetzt
Ġwo hng
res pekt
igen s
bl a
ke y
pp eln
Ġen te
Ġeigen em
erk l
gel eitet
Ã¤ch ten
ĠmÃ¶ gliche
Ġschrei ber
Ġchrist licher
Ġchrist liches
Ġzei ge
Ġ5 0000
ĠgrÃ¶ sste
Ġ!!!! !!!!
fil e
Ġbo ah
âĢĿ .
brau cht
Ġverschw unden
ati ver
pa ckt
ĠbefÃ¼r worten
Ġgebe ten
Ġsympath ie
Ġparallel en
Ġtritt in
Ġbekl oppt
Ġsil v
Ġschick sal
Ġlinksradikal e
ĠrÃ¤um en
Ġgn ade
Ġdumpf backen
weihn achts
Ġirr sinn
Ġtschech ien
Ġwahrnehm ung
sek ret
ĠvermÃ¶ gen
% ,
/ /
3 15
r itte
u x
w olf
Ġd yn
Ġn Ã¼tz
es st
Ġb Ã¤um
Ġf angt
Ġge drÃ¤ngt
Ġge jagt
ar sch
eu re
Ġt y
ier s
mm e
ann ter
Ġre krut
Ġaus m
10 5
Ġges unde
Ġbei gebracht
ĠÃ¼ber denken
pp er
aus ser
ges agt
ang riff
Ġdies be
so llen
fl ucht
Ġbeg renz
Ġgeb et
Ġfal se
gesch ehen
Ġhand lungs
Ġzahl e
Ġarbeit nehmer
Ġzwei ter
Ġvert u
Ġben ennen
Ġjo ey
Ġstu dium
Ġkat ja
Ġregel recht
Ġost deutschland
Ã¼ch ter
Ġverp issen
Ġflag gen
idi oten
Ġaltern ativ
Ġspan ier
Ġausb eutung
Ġinterpret ieren
Ġral a
kund gebung
blieben en
Ġschlagz eilen
Ġhundertt ausende
trau rig
Ġsug ger
4 17
6 77
a end
d b
d ort
h Ã¼
p oten
s old
Ñ Ģ
en st
Ġn ed
Ġ2 9
Ġ201 7
Ġb orn
Ġv ok
Ġk Ã¼nft
it as
ar a
em ann
Ġzu gehen
Ġt rÃ¼
in tern
Ġver sen
Ġver sprechen
am in
Ġauf m
Ġauf fassung
Ġan kommen
Ġdem ograf
tt ung
Ġvor wand
Ġgegen zug
Ġum drehen
Ġbl um
Ġlie fen
Ġber Ã¼cksicht
Ġgel ingen
ru p
Ġhin weise
die ser
Ġth an
Ġth ose
Ġbr ig
Ġfind s
Ġreg nen
Ġfrei zeit
Ġwahr heiten
Ġkinder schÃ¤nder
dr Ã¤ngen
Ġzahl reiche
Ġged roht
Ġmensch lich
Ġvert reiben
Ġabs atz
Ġlos gehen
Ġanf Ã¤ngt
ausen den
ÙĦ Ùĩ
mo nd
Ġunterschie dlichen
Ġabgesch lossen
will ige
wÃ¼rd ige
Ġglaubens richtungen
kar te
Ġplan en
fasch ismus
Ġnachbar schaft
Ġed athy
Ġnet ter
polit ische
Ġwachsen den
ba i
Ġeurope an
bom ber
Ġhuman ismus
Ġdest abil
Ġzig euner
Ġsen f
Ġkorrup te
Ġvorder grund
Ġabzul enken
Ġbezwei fle
wach s
empf Ã¤nger
antas ie
Ġbranden burg
Ġbos n
Ġbetre ffen
ĠverprÃ¼ gelt
Ġmv gida
direct upload
Ġindo ktrin
6 2
a ste
d t
d arf
h Ã¤
i Ã¨re
k y
m io
s aus
s recht
u tet
Ġd t
ei mer
Ġm eister
Ġk alif
Ã¤ glichen
Ġge Ã¶ffnet
Ġan schaut
Ġer it
Ġst irn
15 01
um welt
Ġbei hilfe
06 5
ver gewalt
ver mÃ¶gen
ot ing
ger ichtet
wei chen
Ġrecht zeitig
Ġweiter geht
Ġgel ieb
Ġeigen tor
og lu
bar d
Ġverl etzen
aut on
Ġpa ÃŁt
Ġirgend wer
hei ko
Ġsonst igen
Ġbundes lÃ¤nder
Ġabs eits
ak a
Ġmut ige
Ø§ ÙĨ
Ġwirtschaft lich
zeu ge
verb recher
Ġ200 9
Ġaust ausch
Ġweihnachts mann
ĠbegrÃ¼nd en
Ġschmei ÃŁt
Ġruss ische
sta fa
Ġvorge worfen
ĠerhÃ¶ hen
Ġhistor ischen
wicht ig
wider stand
meinungs freiheit
Ġmindest lohn
Ġviv a
ĠsÃ¼nden bock
elst reifen
Ġerachten s
ĠjÃ¶r g
Ġgoeb bels
1 15
7 00
b ten
b rot
g m
h c
h aut
k ass
l anger
n c
z ip
Ġ Ã¤ngst
Ġd m
Ġd schungel
Ġs inken
Ġa tem
Ġw einen
Ġm edia
Ġm fg
Ġm adrid
st irn
Ġh ard
as k
Ġb it
Ġp or
Ġp utz
Ġder jenige
Ġso etwas
Ġt anz
Ġver ank
Ġauf bau
Ġauf gaben
ro te
Ġha ar
Ġsie ger
Ġst ur
Ġaus grenzung
Ġal uh
um pen
Ġvor fall
Ġislam istisch
Ġum stÃ¤nden
Ġab grund
Ġnach wuchs
Ã¶r dern
eute l
eb te
Ġleben d
Ġher kommt
pt isch
Ġsu bst
gl Ã¤ubigen
pe ct
schw ein
geh eim
Ġange p
we cken
Ø§ Øª
Ġbo do
Ġmer ke
Ġnational en
co unts
Ġahnung slosen
ĠgefÃ¼ hlt
Ġhitler s
Ġeinwander ern
Ġmass ive
Ġideolog ien
Ġser iÃ¶s
Ġfanat ischen
Ġzwang sl
mittel n
Ġreal istisch
anw alt
Ġ--- -
Ġscheinheil ig
spe ktiv
gs feld
ĠerfÃ¼ llen
Ġsub je
Ġattack ers
Ġandersgl Ã¤ubigen
zit ate
Ġantifasch isten
Ġanwesen d
Ġgereg elte
Ġmarc el
bay ern
Ġschne e
Ġbildungsfern e
Ġgeschle cht
kow sky
polen um
' ,
, ..
< <
a v
a llt
c ed
h Ã¶r
m Ã¤chte
r and
er geb
Ġm ike
st op
Ġund emokrat
Ġf dj
Ã¤ hn
Ġein reise
al tern
at tet
mm eln
Ġauf fallen
ag eg
Ġst ol
Ġst umpf
Ġaus g
Ġaus geben
Ġaus gew
Ġaus zug
Ġfr aktion
13 37
rei be
il e
Ġwei tem
Ġpro m
Ġmenschen recht
Ġmu ÃŁt
Ġrecht lich
Ġalles amt
ran gert
34 9
Ġger eicht
ant in
ant rag
Ġproblem atik
Ġent deckt
Ġverl etzte
Ġko ffer
Ġbet on
Ġbed auern
Ġsonst ige
schw eigen
Ġspaz iert
Ġ9 8
Ġwahrheit s
Ġschlimm es
Ġak adem
stra f
Ġverg iss
Ġfasch os
Ġfasch istische
kr ise
radikal e
Ġ12 0
Ġhahaha haha
ee e
krÃ¤ ftig
Ġhol ger
ĠbestÃ¤t igung
Ġzuwander ern
Ġmoder nen
Ġkass ieren
Ġschim pf
Ġtra in
Ġass imil
ĠbrÃ¤u che
ĠðŁĺĤðŁĺĤðŁĺĤðŁĺĤ ðŁĺĤ
Ġschil y
Ġvermein tlich
ĠgemÃ¤ÃŁ igten
ĠbegrÃ¼ ÃŁen
Ġverunglim pfen
Ġtie fer
Ġabschl achten
ĠÃ¼berg riffe
Ġgekauf te
Ġmoslim e
Ġarmuts zeugnis
Ġhuren sohn
beteil igung
rus sland
Ġther ap
bass y
6 04
f x
Ø ´
Ġ ~
Ġ 36
er ei
Ġs w
Ġs etze
Ġg ange
Ġn annte
ein genommen
Ġk agida
sch wer
Ġl ars
au ten
Ġden ker
Ġun t
Ġan ziehen
Ġer hÃ¤lt
Ġsie gen
Ġr Ã¶m
Ġst inken
Ġre chen
be fÃ¼r
Ġwo gegen
ĠÃ¼ber heb
fa ir
Ġste t
Ġmenschen leben
Ġmu ster
Ġdar zustellen
Ġbl inde
Ġschl app
art ige
Ġdurch zu
oll egen
Ġschw achen
fl Ã¤che
Ġent zogen
Ġpa st
ic t
Ġmar g
Ġkultur kreis
bel eid
Ã¼t tert
ĠgrÃ¶ ÃŁe
Ġ4 000
Ġem bassy
Ġletzten s
Ġdarauf hin
Ġmin im
ĠÃ¼berl eg
prÃ¤ sidenten
Ġschwach kopf
brau n
Ġvern ichtet
ĠØ ª
Ġhar ry
Ġint o
Ġdefin ieren
Ġprotest iert
ĠauslÃ¤nd ischer
Ġwach st
Ġbuch staben
Ġergeb nisse
Ġkathol isch
kla ppen
Ġweis heit
Ġstraf anzeige
rakt ion
Ġdauer nd
Ġnenn st
lern en
ĠmÃ¤r z
Ġehren mord
Ġprakt iziert
Ġmoral isch
Ġ-- >
Ġrau chen
mobil e
veranst altungen
Ġban anen
Ġprofit ieren
liv eleak
ocht imes
verbr ennen
ĠsÃ¤chs ischen
Ġverleumd ung
Ġdiskredit ieren
Ġzehnt ausende
Ġmath em
Ġhup en
Ġausgen utzt
Ġtoden hÃ¶fer
f ressen
z m
z elt
er mann
Ġi ck
st unde
ein wanderer
Ġh ies
Ġb ah
Ġp fa
Ġt ip
in sen
ig ter
Ġver an
Ġbe fr
ist in
Ġvor schlÃ¤ge
Ġim ag
Ġim pl
Ġab sp
agen tur
Ġfa den
Ġrecht lichen
45 00
gel der
schl imm
Ġherr schaft
Ġfl ei
ial ismus
Ġschul bildung
Ġkinder geld
wir ft
Ġpl eite
Ġpl Ã¤tze
Ġ.... .....
du llah
Ġbet rÃ¼
Ġzusammen halten
Ġanders rum
ĠgrÃ¶ ÃŁen
Ġkur d
Ġ9 2
Ġvers ager
Ġangeb ot
Ġorganis ator
Ġparis er
Ġnational e
innen minister
Ġham burger
Ġreich s
ĠlÃ¶ st
kon zert
Ġkirchen steuer
hand els
ĠÃ¤ng sten
Ġversamm lungen
aaaa aaaa
Ġgg f
spaz ieren
Ġfar b
Ġehren morde
stat us
ĠprÃ¼ gel
Ġpoten t
Ġderart ige
Ġpred igt
ĠdÃ¤m lichen
Ġdurchge fÃ¼hrt
produ ktiv
Ġbekennt nis
Ġgeehr ter
Ġfeigl inge
Ġdoes n
peten z
Ġspont an
Ġkaffe e
Ġtw itter
Ġsmart ph
Ġverank ert
1 16
3 03
a ah
b aum
h or
j auch
r on
t al
Ġs ing
Ġs ke
Ġm imim
st lich
Ġg Ã¶n
Ġb anden
Ġk il
Ġk ant
Ġf icken
Ġp fe
Ġein gang
Ġein bringen
at ische
Ġin klusive
Ġso fa
Ġso zusagen
et ar
Ġes se
Ġver a
Ġver kommen
Ġo ha
Ġan pass
Ġer press
Ġr isiko
Ġst rukturen
Ġsich ern
Ġre fuge
Ġaus st
Ġaus fallen
Ġaus spricht
ser fahrung
17 9
16 7
Ġim per
ĠÃ¼ber zahl
Ġab itur
Ġmu stafa
Ġwa ere
Ġgesch ichten
Ġleben de
fl or
ab gesch
tre tern
ĠâĢ ĺ
Ġbest er
Ġwahr nehmen
ĈĈĈĈ Ĉ
wo bei
sst ra
Ġgest anden
Ġbed ingung
sw ill
hei men
Ġhand lungen
Ġtag ess
Ã¼tz er
Ġnor den
Ġans age
Ġehr lichen
Ġbo ykott
io us
ĠÃ¼berl ege
red ner
ĠÙ ĩ
verb and
Ġdistanz ierung
europ as
muslim en
oph ob
zul esen
verd acht
Ġgerecht fertigt
Ġup s
Ġdire kten
Ġvorteil e
dre ht
Ġbal kon
Ġnad elstreifen
Ġmaiz iÃ¨re
Ġrefl ekt
Ġmahnw ache
rev olution
Ġkatastrop he
Ġpfe ffer
f eier
g ter
h ha
k w
o hlen
t temberg
Ġd ra
Ġa pr
Ġw ix
Ġi bra
Ġm au
Ġg and
Ġg Ã¼nst
Ġb reiten
ng em
Ġp ul
al arm
or k
Ġzu n
Ġt hr
Ġver fehl
Ġun mensch
sl er
Ġan l
Ġer forder
Ġaus w
Ġaus sicht
Ġum er
Ġum geht
Ġsp ucken
Ġkann te
sp rech
Ġuns ach
Ġkl eidung
Ġdar stellung
Ġgew isser
Ġschl am
Ġdurch gesetzt
Ġschw imm
ze llen
Ġgrund ordnung
Ġru in
Ġgest einigt
Ġthem atik
Ġhand el
stÃ¤nd ige
Ġstimm ungs
Ġhil f
if tet
Ġbeit rÃ¤gen
Ġeinzel ner
Ġgek ehrt
ĠmÃ¼n chner
Ġignor ant
ĠmÃ¼sste st
mehr heit
Ġeng stirn
Ġprivat sache
Ġzivil courage
Ġausdruck sweise
Ġgefl Ã¼chtet
Ġnationalsozial isten
ep ochtimes
ĠbrÃ¤u chte
Ġjahrhunder ten
Ġschlie ÃŁe
gott es
Ġzustand e
Ġmos k
Ġgegenw art
Ġgeehr te
Ġgewaltbereit schaft
ĠÃ¼berwach ung
Ġvat ikan
ĠtÃ¶n e
embed ded
Ġzwangsl Ã¤ufig
3 08
5 49
d res
k re
r und
r ennen
u kra
y mp
st ar
Ġb auer
Ã¤ usser
Ġein reisen
eu cht
Ġmit teilen
Ġan spricht
Ġan fÃ¼hrer
Ġbe freien
be ste
15 6
15 66
Ġwo mÃ¶glich
.... ,
ĠÃ¼ber wiegen
Ġab d
Ġwei ÃŁen
ver ei
Ġschl es
Ġch ild
Ġbesch m
Ġbesch Ã¼tzen
vor stellungen
Ġbet reu
Ġde v
Ġand auer
Ġern ten
geh oert
Ġhal al
Ġerw achen
Ġnational itÃ¤ten
Ġbil dern
Ġauft auchen
Ġberuf lich
Ġamerikan isierung
Ġkommun ikation
Ġhing eh
ðŁĺī ðŁĺī
Ġrechtfert igung
Ġhervor ragend
mag az
Ġnegativ en
Ġkonvert iert
Ġscheinheil igkeit
Ġgering sten
Ġgekl appt
Ġliber al
Ġrecherch iert
Ġniedr ig
ĠÙĦ Ø§
Ġ******** **
Ġbeeind rucken
Ġermor deten
Ġverwer flich
Ġflor ian
Ġdiebst ahl
Ġibra him
/ !
g raben
h et
k elt
l ad
n acht
s atire
x w
Ġd j
ei sen
Ġw agner
Ġg ida
Ġn wo
an is
Ġk ragen
sch a
Ġf Ã¤nde
Ã¤ mmer
Ġl et
Ġp az
Ġp ri
it ischen
at Ã¼rk
ir r
Ġt Ã¼
Ġsch er
Ġver geben
Ġun endlich
Ġun fug
Ġauf st
Ġan kl
Ġer den
Ġer wer
Ġer stellt
Ġer furt
Ġer zeugt
Ġst roh
Ġbe te
Ġman fred
Ġaus gegeben
Ġfr is
Ġeu r
om eter
Ġvor wÃ¤rts
Ġvor strafen
09 9
anz e
ðŁ İ
Ġunter gehen
Ġunter lass
ver se
az u
Ġbes eit
Ġe cken
Ġwa ll
36 38
Ġger echte
Ġverb rechern
Ġsu dan
Ġbest es
Ġsicher en
Ġgrund s
Ġgleich heit
sche f
ic s
ĠðŁĺ ³
ĠðŁĺ ħ
Ġbed ingungen
Ġpolizei schutz
Ġpolizei beam
Ġqu atschen
Ġzahl reichen
fr anz
Ġtoler ante
ko eln
Ġmus els
Ġvert rÃ¤ge
Ġ:- /
Ġrespekt los
ry k
if ten
Ġkont o
Ġlu cke
Ġtyp ische
Ġhirn lose
Ġbehaup te
Ġmitl Ã¤uft
ĠkÃ¶ gida
Ġpfl ichten
Ġprof ess
Ġerf indung
Ġkonk ur
Ġverda mmte
abend land
hu ffingtonpost
ĠÃ¶ster reicher
Ġcl an
Ã¤Ã¤ Ã¤Ã¤
Ġprakt izieren
Ġstatement s
Ġantid emokrat
Ġintellekt uell
Ġverab schie
Ġvorzu gehen
Ġrandal ieren
Ġsab ine
Ġphil ipp
Ġbeu gen
Ġlen gsfeld
Ġablen ken
Ġglas haus
sverb ot
ĠermÃ¶ glichen
Ġhija cker
ĠgÃ¶t ter
ĠunzÃ¤hl ige
Ġleh ne
Ġruhr gebiet
Ġiron isch
ishm ent
3 01
4 22
b Ã¼r
j ob
j agd
k ern
n st
s burg
en dern
Ġh olz
Ġb w
Ġb nd
Ã¼ nder
Ġk reisen
Ġz Ã¤
Ġp Ã¤
Ġin no
Ġzu folge
Ġzu wachs
Ġver lin
Ġha te
Ġan ja
Ġr ief
Ġaus maÃŁ
Ġal ger
Ġvor feld
ðŁ Ļ
Ġuns icher
ver k
Ġkl app
Ġmu essen
ha fen
ell t
Ġgel enkt
Ġwur scht
her zig
Ġger ettet
br ut
Ġfl ut
Ġausl Ã¶
Ġstaat sk
ĠâĢ ļ
Ġhei raten
sy mpath
Ġverl ierer
Ġanti pegida
Ġwahr haben
Ġirgend einen
Ġex port
Ġeinz elt
Ġged reht
Ġvert raut
Ġvers iff
Ġverk auf
Ġper spektiv
Ġnational hymne
frie dlichen
Ġwest deutschland
Ġtre ff
Ġwunder schÃ¶n
Ġverschw endet
Ġev en
Ġbef ehl
Ġabl ehnt
Ġabge stimmt
Ġversch affen
Ġverteid igung
Ġspe kul
sd orf
Ġhind u
Ġbeant ragen
Ġbereich ern
Ġleb ten
christ ian
Ġvermu mmte
Ġmotiv iert
ĠdÃ¼mm ste
ĠÃ¶fter s
Ã¼ttel t
Ġye ars
Ġunru he
Ġgekauf ten
wÃ¶r ter
ateg orie
ĠschÃ¤d el
Ġverun sich
hÃ¤l se
reda ktion
Ġapr il
8 38
= -
c re
i ot
k anzler
k indern
m as
p ressen
s zen
x ap
Ú ©
er d
Ġw ettern
Ġm and
Ġb isch
Ġk abel
Ġf erkel
Ġz yn
Ġge lle
ar r
am s
Ġauf gel
Ġauf gesch
Ġauf gegeben
Ġan bieten
Ġer setzt
Ġwie s
Ġst rei
enn y
ck te
Ġab dullah
zu fÃ¼gen
Ġbes offen
Ġc r
Ġdies el
her z
Ġausl eg
Ġob igen
Ġtun es
wie so
ĈĈĈĈ ĈĈ
Ġgest iegen
Ġ19 92
Ġmar cus
Ġgesellschaft liche
denken de
Ġjung er
gesetz ten
Ġgeist iger
Ġlu tsch
red igt
la w
Ġsympath isieren
beh Ã¶rde
Ġbrand stifter
Ġwand el
gesp ielt
ĠÙĪ Ø§ÙĦ
Ġmenschenverachten den
Ġtru ppe
Ġq uran
Ġstich wort
verschw endung
Ġarbeitsk rÃ¤fte
Ġunkontroll ierte
ĠÃ ł
Ġfreundes kreis
Ġbewohn er
ĠrumÃ¤n ien
) ?
4 37
c j
c ra
d dr
w itz
z erst
Ġd rÃ¼ck
Ġa y
Ġw ett
Ġg Ã¶r
Ġu lt
Ã¼ m
Ġz orn
Ġl ook
Ġl emm
Ġp ension
ir l
em in
Ġt ick
Ġsch me
Ġver schen
ter s
am otten
is iere
eh o
Ġan ne
tsch af
eil nehmer
.... "
ed om
eigen tlich
Ġgew Ã¤hren
Ġbl os
Ġschl Ã¼ssel
Ġc enter
eb el
ran ts
Ġger inger
sa ck
Ġerst icken
Ġbr achte
Ã¤nd ler
Ġent ziehen
af e
sam t
Ġhinter lassen
geb ot
geb ildet
Ġversu chten
Ġzahl reich
Ġbundes land
islam ismus
islam ischer
Ġverm uten
Ġverh and
Ġhal ben
Ġaf ter
ubl ic
ĠbÃ¶ ller
Ġ15 00
Ġbom bard
ĠÙ ĥ
Ġfeind lich
Ġschlimmer es
kam er
Ġwahnsinn ig
Ġschmei ssen
of ft
Ġcar men
ðŁĳıðŁĳı ðŁĳıðŁĳı
Ġjen en
Ġsat ir
Ġnic ole
Ġgewerk schaft
Ġwil hel
ĠbemÃ¼ ht
Ġverwe chseln
Ġmas ke
pers on
Ġumf assen
olle ktiv
ĠtÃ¤u schen
pres ident
Ġfel ix
Ġaugustus platz
Ġkum pel
Ġdiesbe zÃ¼glich
" "
3 23
b ane
h d
k k
m c
o pol
q h
v g
v al
Ġ 31
Ġd ien
Ġs ur
Ġs egen
Ġi g
Ġm az
Ġn ei
Ġn ight
Ġh indern
Ġk ul
Ġf iel
Ġz Ã¼ge
Ġl ind
al ition
Ġzu strom
Ġso ph
Ġver se
Ġver weisen
Ġun bel
is ant
Ġmit strei
ro hr
Ġan zusehen
Ġer richten
ag og
22 5
Ġal arm
iel ten
Ġwar scheinlich
land et
im per
Ġsp ir
Ġsp innen
ĠÃ¼ber tragen
Ġab ger
fa kten
Ġkl ische
Ġkl auen
Ġbes orgt
Ġbes eitigen
Ġbl inden
Ġwa h
Ġeinf Ã¤llt
Ġger ede
Ġmoslem ische
Ġbesch Ã¼tzt
Ġbet rie
Ġde klar
ĠðŁĺ ł
Ġqu ad
Ġmann heim
Ġstr Ã¶
sver t
ex perten
ĠeuropÃ¤ ischer
gru ÃŁ
Ġwichtig sten
Ġglaub wÃ¼rdig
verb reiten
Ġ18 000
Ġweihnachts mÃ¤rkte
ĠÃ¤r gert
ac count
Ġaufw acht
Ġjeg lichen
Ġimm igration
Ġinf rast
dar steller
)) ))
ged anken
ĠkrÃ¤ ftig
Ġrechtsextrem ismus
Ġbesatz ung
Ġaggressiv en
Ġschubl aden
ĠbrÃ¤u chten
Ġerkenn e
Ġparlament ar
Ġartik ulieren
Ġthor sten
Ġkalif at
c icero
j j
01 6
Ġv as
Ã¼ ckt
Ġf etten
Ġf ebruar
Ġein haltung
Ġein kaufen
it or
em eier
ig a
ro th
Ġan mel
19 6
Ġal ban
Ġbei fall
Ġab get
Ġsoll s
27 16
Ġpro st
zu cht
he bung
Ġmu ch
ok u
Ġlei chen
Ġgel ik
Ġeiner seits
Ġch i
Ġmo dern
Ġschw estern
Ġfl Ã¤chen
Ġverst Ã¶ÃŁt
Ġent f
qu alifiziert
ĠtÃ¼r en
Ġbet ont
Ġgeb iete
Ġfal k
Ġins el
recht ler
ho gesa
Ġkir ch
Ġzwei mal
Ġoffen sicht
Ġ= )
ĠgrÃ¶ sser
geh olt
ĠerklÃ¤r te
Ġvers ion
Ġ7 2
sprechen d
ief st
ĠlÃ¶ hne
ĠÃ¤hn lichen
rot ten
Ġpegid ageg
uu u
hÃ¶ ch
ĠlÃ¶s ungs
Ġfot ograf
ĠðŁ ĩ
Ġimm ig
Ġmitbe wohner
Ġrechtfert igt
Ġeinwanderungs gesetz
!!!!!!!!!!!!!!!! !!!!!!!!!!!!!!!!
Ġschim pft
Ġbesatz er
Ġbus h
uel er
patri oten
Ġasylant rag
Ġhomosex uelle
Ġdenun zi
ĠÃ¤nder ung
Ġki ffen
Ġbranden burger
Ġschlagz eile
Ġkorrig iert
ĠkÃ¼nd igen
Ġhasser fÃ¼ll
ĠannÃ¤her nd
Ġgand hi
/ -
b j
b rei
b Ã¤r
b Ã¼chern
d eine
g ol
k Ã¶l
r c
t hread
Ġa sk
Ġw eht
Ġg Ã¤ng
ein em
Ġh ehe
ll iger
Ġf unken
Ġnicht wÃ¤hler
Ġsch iebt
in iti
ber gen
eg el
am es
Ġun ein
Ġauf rei
Ġauf kommen
Ġan merk
Ġer t
Ġer zeugen
Ġre press
Ġbe Ã¤ngst
Ġwer fe
Ġdeutsch unterricht
ge fa
un ion
Ġwo lle
.... !
ent lich
Ġum welt
05 6
Ġkl ima
zu stand
Ġgi pfel
Ġbes ucher
pp chen
Ġmich a
Ġbl itz
Ġbl enden
ran ger
Ġgesch rei
Ġleben dig
Ġkon form
qu er
ðŁĳ Ĭ
fe ed
Ġdumm kopf
Ġgo vern
Ġgeb ot
dr Ã¤ng
rit ter
geb iete
Ġtrau ern
ho ffentlich
des wegen
Ġerfolg reichen
ka em
spr ich
Ġvolks bewegung
fu z
Ġgeil e
Ġlog o
Ġbundestag swahl
Ġkommun ismus
Ġsicht weise
gest euert
Ġmontags demos
Ġaggress ive
Ġzut iefst
Ġverbr ennen
Ġhinzu zufÃ¼gen
ĠhÃ¤u f
Ġze cke
Ġunschuld igen
flag gen
Ġaussch alten
vent ion
Ġgn aden
Ġrhetor ik
Ġscheu klappen
patriot ische
Ġerschie ÃŁen
Ġrhein land
Ġlib yen
Ġmeg a
arian te
zip lin
6 34
7 58
d on
h irn
h euch
k g
k asse
k einer
k ollektiv
l as
m and
n y
v iert
z ettel
Ø °
Ġs umpf
Ġw in
Ã¼ bung
Ġk ita
Ġk eim
sch uss
Ġein sicht
Ġge klÃ¤rt
Ġge landet
ar g
et tert
Ġver pflicht
Ġmit schuld
ag ern
ag ra
ag ue
22 07
15 28
un tern
Ġbei getragen
Ġgl ot
Ġdeutschland weit
Ġkl agen
âĢ ŀ
ha bt
Ġschl achten
iz op
ru eck
55 2
Ġwen det
Ġbel asten
Ġlink spartei
Ġsy mp
Ġwor k
war nt
Ġlange weile
Ġsinn losen
feind licher
organis ationen
Ġmut maÃŁ
lo ad
atur en
Ġwahl recht
Ġsach lichen
ief el
heim at
Ã¤l ter
Ġschwei gem
Ġpfl ege
Ġpropag iert
79 5
ĠwÃ¼ ten
Ġintelligen ter
Ġglaubens brÃ¼der
Ġaust ritt
Ġheil ig
Ġblock ade
Ġversamm eln
ĠgetÃ¶ teten
bo den
Ġabgel ehnte
verd Ã¤cht
ĠhÃ¶r te
aktuell es
Ġfir st
Ġvorhanden en
ĠsÃ¼d afrika
kor b
Ġtrauer flor
Ġanal ys
Ġevangel ischen
Ġdat um
Ġvermein tlichen
Ġanschau e
Ġunbequem e
Ġtab u
Ġeinfor dern
Ġmik ro
4 38
8 48
= "
d rei
d azu
e te
f ra
h um
j ed
k Ã¼
k ostet
l Ã¤sst
m isse
n Ã¤
o us
q f
r hein
s ig
x j
Ġ eil
Ġd rÃ¼cke
Ġa ffe
as on
an lagen
an haenger
Ġk unden
Ġf un
Ġp ech
Ġein b
Ġso dass
Ġt ak
Ġsch Ã¤tz
Ġj er
mm elt
Ġha ÃŁ
Ġan net
Ġst recke
ut h
ĠfÃ¼r chte
Ġvor beh
Ġgegen den
Ġsp ieÃŁ
Ġgr imm
04 9
rau ss
Ġkl ing
Ġgi ft
Ġe ffekt
Ġbl u
Ġbl ieb
ru he
Ġger inge
ant ik
af i
elt aten
Ġto day
Ġbesch wicht
Ġbist e
Ġdort mund
Ġex p
uer gen
Ġdi cken
ho do
amen te
Ġach tet
lie gt
Ġverm ehrt
Ġvert rÃ¤gt
Ġstr ich
fre unden
Ġverh ung
ĠhÃ¶ flich
Ġfreiheit sstra
welt offen
Ġfei g
Ġpost ing
Ġnational ismus
Ġverd ienst
Ġkat ze
Ġstein igen
Ġost deutsche
Ġlebens mittel
Ġentwick lungen
Ġersch affen
Ġaufru fe
Ġsolidar isieren
10737418 27
Ġmutter sprache
Ġaufger egt
Ġol af
Ġfe ste
pu ckt
Ġmenschenverachten de
ĠjÃ¼rgen s
sab kommen
Ã¤h lich
ĠdÃ¤m liche
kÃ¤m pfer
Ġgei ste
Ġverwe chselt
ðŁĺ¡ ðŁĺ¡
ĠgroÃŁstÃ¤d te
pn ref
ĠfÃ¼hl st
Ġgeschen kt
ðŁĺĨ ðŁĺĨ
anschl Ã¤gen
ĠursprÃ¼ng lich
Ġasi aten
Ġnachplapp ern
Ġpaz if
5 23
a ct
b it
c ont
g angen
g rad
m esser
r iger
t oe
w ers
Ġ 32
Ġw r
Ġi l
Ġm ul
Ġm aterial
Ġb or
Ġk ult
Ġk erst
Ġp rie
re geln
al i
Ġwir r
Ġun Ã¼ber
Ġer schl
Ġbe fragt
ck elt
ck ers
Ġaus macht
Ġaus gegangen
10 6
um pe
25 4
Ġsp rech
Ã¶n t
Ġkomm a
24 0
ha fter
Ġlei det
Ġgesch adet
Ġschw ert
Ġbr agida
wer ter
Ġvoll stÃ¤ndig
Ġro ll
Ġro hst
Ġgeb ieten
201 0
Ġwe chsel
Ġ19 87
schw eden
Ġkom ische
wor ld
Ġsozial hilfe
Ġben immt
si ff
Ġkrit ischen
ĠgefÃ¤hr licher
kon form
ĠrealitÃ¤t sver
ĠstÃ¤nd ige
Ġmassen medien
Ġzul Ã¤sst
ii i
Ġwitz fig
Ġbar m
Ġbildungs system
ĠØ§ÙĦ ÙĦÙĩ
ĠĠĠĠĠĠĠĠĠĠĠĠĠĠĠĠĠĠĠĠĠĠĠĠĠĠĠĠĠĠĠĠĠĠĠĠĠĠĠĠĠĠĠĠĠĠĠĠĠĠĠĠĠĠĠĠĠĠĠĠĠĠĠĠ ĠĠĠĠĠĠĠĠĠĠĠĠĠĠĠĠĠĠĠĠĠĠĠĠĠĠĠĠĠĠĠĠĠĠĠĠĠĠĠĠĠĠĠĠĠĠĠĠĠĠĠĠĠĠĠĠĠĠĠĠĠĠĠĠ
Ġkamer as
Ġprovok ationen
Ġeinwanderungs gruppen
Ġverf asser
pun kten
fÃ¤h igkeit
Ġbrot her
Ġrau b
Ġkal asch
ĠgewÃ¤hl te
Ġverallgemein ern
Ġverwei gert
Ġzugeh Ã¶r
Ġnar ren
grÃ¶ ÃŁ
Ġunder stand
Ġlebensl ang
Ġsunn iten
Ġzweier lei
befÃ¼r worter
Ġchild ren
. /
3 04
a ida
d ro
f inger
h aup
i bt
m au
v y
x i
Ġ 47
Ġ ndr
en a
Ġm ess
st ritten
ich ern
Ġn est
Ġh h
.. ?
Ã¼ hen
sch ueler
Ġp ot
re gt
ar de
ir d
au b
Ġsch aff
Ġj eh
ter dam
am azon
Ġmit zu
Ġauf stellen
de f
Ġer mittlungen
Ġsie ben
Ġre ally
be vor
be zahl
Ġislam isieren
Ġsp altet
Ġnach mittag
Ġgeh indert
sp itze
ver da
Ġbes onnen
Ġgew Ã¼n
Ġvolk er
oll ah
Ġschw anger
Ġschw Ã¤chen
Ġger aucht
br icht
rat z
Ġwohl wollen
Ġent s
Ġent hÃ¤lt
Ġgro b
deutsch es
Ġbesch reibt
ren d
Ġgo og
Ġru der
ug o
Ġbet rogen
Ġregierung sk
lie st
Ġlang em
ma hnw
Ġbundes bÃ¼rger
Ġanschl iessen
Ġnor men
Ġhel fe
Ġrein er
we chsel
Ġfakt oren
Ġbevor mund
Ġpost ings
ens Ã¶hne
Ġmin us
Ġverurteil e
Ġnieder sachsen
Ġeinsch rÃ¤n
Ġglaubens richtung
ĠfÃ¤ h
hÃ¶ he
ĠerwÃ¤ hn
ref err
Ġdiffam ierungen
Ġme an
marsch iert
Ġzuviel e
christ lich
Ġgesund es
Ġnah m
Ġstellung nahme
rr rr
Ġhinge wiesen
Ġinternation alen
les er
Ġphil osoph
Ġverunglim pft
Ġanger ichtet
Ġspren gen
Ġtenden z
Ġquad rat
a ÃŁ
f ran
g ra
h etzen
h etzer
n l
p y
y stem
z Ã¼gen
z if
â ĺº
Ġs Ã¶hne
Ġw agt
sch icken
Ġt icken
ach im
ol iver
ann ien
de aler
eh le
Ġan k
Ġan weisung
eit icker
18 9
Ġaus zusprechen
be fehl
ser t
un ten
16 9
Ġvor s
Ġgegen wÃ¤rt
Ġgl Ã¤ubig
Ġgr and
Ġunter nimmt
Ã¤u fern
52 0000
Ġwelt herrschaft
Ġdresden s
Ġfor en
Ġbew under
Ġterror s
aut o
ss ig
ss ss
Ġgleich gesinn
Ġex akt
Ġgest artet
Ġschei ÃŁen
Ġqu itt
ĠzurÃ¼ck zu
Ġmensch liche
Ġfeh lern
ue ck
Ġ8 000
gew erk
Ġdreck ige
ĠvÃ¶ gel
si te
bed ingungen
Ġgegens eitigen
abl e
ĠfÃ¼hren den
Ġmassen mÃ¶rder
ĠfÃ¤ hnchen
ĠbeschÃ¤ft ige
kar r
Ġku gel
sh ip
Ġzer schlagen
Ġas ien
Ġderzeit ige
Ġsprach los
Ġmoder ator
Ġdun keln
Ġtritt brett
Ġapp ell
Ġdis ziplin
Ġbus se
Ġflug hafen
Ġverleu m
gd ata
Ġklu ge
Ġkontra produktiv
Ġobdach lose
ĠpalÃ¤st ina
Ð¾ Ð
nieder sachsen
open petition
Ġnazischw eine
Ġkomple x
kampag ne
Ġhinger ichtet
Ġgeis eln
Ġdemograf ischen
Ġrefuge es
kÃ¶l n
2207 520000
izop hren
Ġkerst in
] .
b d
b m
b and
c es
f ft
k ehrer
l ik
m issen
o vo
p eit
r ing
s werte
t ausende
u ser
ĉ ĉ
Ġ ).
Ġs eu
Ġs ad
Ġw Ã¶ch
Ġ201 1
Ġb tw
.. !
Ġv ia
Ġk ne
Ġein kauf
el f
Ġo wn
Ġst reichen
18 7
21 5
Ġpol n
Ġpol t
Ġsp on
Ġsp annen
ĠÃ¼ber fÃ¤llig
Ġar ch
sp re
Ġgen oz
Ġkl Ã¤ren
Ġang ie
ke ten
Ġschl eier
Ġdenn is
Ġlie fert
iz en
Ġmo v
gel ernt
kl agt
ab ular
Ġjeder mann
Ġthe oret
Ġgest euerte
Ġbed anken
Ġthem atisiert
schw itz
ĠgroÃŁ stadt
Ġlos werden
Ġeins ehen
Ġdreck igen
Ġak if
Ġper vers
spr achen
Ġpet ra
abl abla
Ġbeitrag s
Ġfranz ose
minister in
rot tel
la ppen
pr int
Ġpetition en
rep orter
Ġsolidar isch
Ġwohn st
Ġwinter markt
prop egida
ÙĪ ÙĨ
Ġermord ung
Ġbein haltet
Ġjens eits
Ġdicht er
ograf ie
rass ismus
ĠÃ¼b lichen
ograph ischen
german y
Ġvolksabstimm ungen
Ġgenehm igt
Ġberu ft
skr ise
Ġport ug
Ġpostill on
oug h
Ġselbstern annten
Ã¼br igens
lok ales
kath ol
Ġexekut ive
leist ung
Ġinfrast ruktur
c r
g w
h p
j es
m afia
n k
s at
s elt
z iel
â ľ
â Ŀ
Ġn sa
Ġu ser
an al
Ġk asse
Ġk ino
sch aden
on ik
Ġein kl
Ġein gegangen
re ut
Ġge gessen
Ġver teil
Ġver achtung
ol iber
Ġauf bringen
Ġan richten
Ġbe dient
ik as
Ġaus suchen
Ġaus sterben
15 8
Ġvor verurteil
Ġislam is
ĠÃ¼ber bieten
Ġgen annte
Ġunter wandern
Ġgi ve
aus weis
oll er
Ġgesch Ã¤fte
Ġschw ache
Ġschw amm
fl ekt
gend a
all gemeine
bar es
ord et
Ġterr ord
Ġbew orfen
Ġverl eugnen
Ġschul abschluss
Ġpa pp
ic o
Ġma ast
Ġtro cken
Ġgest Ã¼rzt
Ġhand werk
war en
Ġres er
ĠzurÃ¼ck halten
ĠgroÃŁ familien
ate ur
ichte ten
Ġsozial er
Ġentsch lossen
grund lage
Ġem ail
Ġange w
Ġide ale
Ġvers ehen
Ġmittel s
Ġtot ale
Ġfakt isch
Ġind ianer
zent rum
frie dlich
Ġdo wn
Ġwest ern
th ema
Ġag iert
Ġasylanten heim
verl ust
Ġjan a
vert rag
lu egenpresse
poliz eiticker
ĠmÃ¤d el
Ġangeg eben
beh Ã¶rden
Ġbrand anschlÃ¤ge
ĠauÃŁen minister
ðŁĺĤðŁĺĤðŁĺĤðŁĺĤ ðŁĺĤðŁĺĤðŁĺĤðŁĺĤ
Ġfried fert
Ġgrie ch
Ġta pfer
Ġeinzig ste
inte lligen
Ġol ymp
Ġeinl adung
Ġmassiv en
Ġaufgew acht
ĠhÃ¶her en
Ġreform ation
Ġmarion ette
ĠmÃ¼ÃŁ ten
Ġjul i
Ġjul ian
Ġvernicht ung
Ġgereg elt
Ġauton omen
Ġmordd rohung
ĠprÃ¤sent ieren
Ġschock iert
ĠbedÃ¼r f
Ġentsp annt
ĠbelÃ¤st igt
ĠsÃ¤kul ar
por te
Ġerho ben
Ġperf ide
Ġbenachteil igt
Ġeinzus etzen
Ġausw Ã¼ch
eho fer
8 36
e ktiv
f v
h nd
i der
k haled
l an
l vz
o cken
p ern
t roll
u alitÃ¤t
Ġa genda
Ġm ahl
st eh
Ġn Ã¼tzen
Ġu it
Ġh essen
an sprache
Ġv i
Ġk e
Ġk ho
Ġf eine
Ġein g
ar mut
Ġsch ar
in i
Ġver eine
Ġver dummung
sl ager
Ġha ppen
Ġan feind
Ġer setzen
Ġr unden
Ġr ainer
19 14
iel ke
Ġges eg
Ġvor geht
ul es
Ġgl Ã¤ubiger
26 6
sp ru
Ġunter ste
Ġgew Ã¤hrt
pf eifen
Ġgesch Ã¼rt
Ġgesch Ã¤tzt
Ġleben sst
Ġmachen schaften
Ã¤ch ter
Ġher mann
ab bau
Ġkon zerne
Ġir rt
Ġterror istischen
Ġrichtig es
Ġma ik
ess elt
Ġgeb rÃ¼
ehm et
Ġres pect
deutschland funk
Ġmei den
Ġabend spaziergang
Ġerk und
ak zept
Ġide al
Ġinform ations
Ø§ Ùħ
Ġat atÃ¼rk
Ġmag azin
Ġfasch istischen
lei sten
bed arf
Ġhirn los
Ġerl eb
Ġag it
Ġ200 4
Ġdistanz iere
Ġvergl eicht
Ġpfl egen
fÃ¼hr ten
Ġverz ap
Ġpatriot isch
Ġbewusst sein
ĠÃ¤r zte
Ġallgemein heit
heil igen
Ġverschl eier
Ġwirtschafts flÃ¼chtlingen
ÙĬ Ùĩ
Ġbuddh ismus
Ġzivil isation
Ġsinnvoll er
Ġkulture ll
sol che
Ġsin ngem
Ġprofit iert
Ġkop ieren
Ġbekann ter
218 147
Ġgeschm issen
Ġverharml osen
Ġrefl ex
Ġharml os
Ġdunkl e
ĠÃ¤m tern
Ġinwie fern
Ġsympt ome
ĠsprÃ¼ chen
4500 82
Ġdiesel ben
Ġgovern ment
1528 218147
1528218147 450082
3 29
7 48
e ct
h imm
k op
m h
w k
w Ã¼nscht
z elle
Ġ ðŁĳİ
Ļ ¡
ch ern
Ġd ont
Ġs ort
ie sen
ie hlt
Ġa z
Ġm ah
Ġm achten
Ġn ap
Ġb ie
an ic
Ġk ids
sch reibt
Ã¤ ste
Ġein kn
al z
ar te
eu chte
Ġzu spruch
Ġso o
Ġso so
Ġt hread
Ġsch ert
Ġsch ieÃŁt
Ġsch rott
Ġj on
ber ichte
Ġden jenigen
am f
Ġauf wand
Ġer wei
Ġdu ck
Ġaus rede
hn er
Ġbei bringen
Ġim ame
anz ig
Ġsp ott
sp resse
sp arteien
bl Ã¤tter
Ġbl am
ges icht
Ġlie ÃŁen
ĠmÃ¼ ÃŁen
ru pps
35 114
ild eter
Ġgenau e
Ġgro eten
Ġgro sser
gr enze
Ġthe orie
Ġverl etzten
Ġbesch reiben
Ġpa ckt
wer ke
per te
Ġzusammen arbeit
fÃ¼ llt
dr am
unter st
ho ws
Ġposition ieren
Ġ9 3
Ġweit sicht
Ġsystem presse
Ġsystem atisch
Ġlu d
Ġveranst altet
Ġverein en
heim lich
Ġeinge k
Ġausge Ã¼bt
ina v
Ġbestimm ter
Ġdikt atoren
Ġsto pp
bo x
Ġerf Ã¤hrt
Ġpf ei
Ġsprach rohr
Ġfehlen den
100 97
neu kÃ¶lln
Ġengl Ã¤nder
christ lichen
Ġbrut alen
Ġtran sl
fluechtl ing
Ġsinnvoll es
Ġgep rÃ¼
Ġtor sten
Ġjen igen
Ã¶Ã¶ Ã¶Ã¶
Ġkre bs
kennt nis
Ġiniti atoren
Ġverwei gern
ðŁĺĢ ðŁĺĢ
ĠhÃ¤ss liche
Ġew ige
kap ital
ĠtatsÃ¤ch liche
Ġkarten haus
Ġkompro misse
Ġallm Ã¤hlich
Ġdement sprechend
Ġstet ig
ukra ine
1566 35114
Ġschles wig
3638 95
Ġeinzelt Ã¤ter
156635114 363895
9 14
9 08
a bt
b ungen
e chten
f ind
m inder
x f
x is
y e
y pt
Ġd ei
Ġd ritt
ei se
ei gn
Ġa gen
Ġm isch
Ġm oss
st unden
Ġn ick
Ġu i
Ġh eter
Ġk ab
Ġk ochen
Ġk ehrt
Ġf ix
Ġl ab
Ġp rag
Ġp isser
Ġge org
gen der
ar io
at es
eu chtung
au ben
Ġst Ã¶
ut oglu
20 8
be ten
ge k
etz ger
Ġfr isch
Ġfr ien
eil ung
Ġvor geschrieben
anz eiger
Ġkomm is
Ġunter werfung
heit s
Ġgew er
Ġgew Ã¶hnt
Ġschl eim
Ġc eta
Ġleben serfahrung
her um
so was
ri a
Ġteil genommen
Ġbest ial
Ġverl aufen
Ġverl Ã¤sst
Ġbel ehren
wer bung
di rec
Ġgeb ote
are tt
Ġpass ierte
Ġkrieg st
Ġant on
recht lichen
Ġfreund lichen
Ġklein geist
Ġbundes ebene
Ġsozial staat
Ġ8 8
ĠhÃ¶ here
krie ger
Ġfest genommen
ĠkÃ¤m pfe
Ġlo y
Ġgeist er
Ġlicht erk
Ġarsch krie
ati h
auft rag
ĠØ Ń
ĠstÃ¤r ken
ĠstÃ¤nd igen
zul assen
Ġ14 00
Ġeinzu gehen
Ġweltoffen es
Ġpf eife
Ġschweigen de
Ġwut bÃ¼rger
Ġgeschw afel
Ġlaber st
Ġfried mann
Ġruss ischen
Ġdon ner
Ġhein o
Ġtoller anz
ĠangehÃ¶r ige
Ġtru ppen
Ġkna llen
Ġstraff Ã¤
cen ter
Ġren ate
Ġantideutsch e
Ġstaatsanw Ã¤lte
ump els
Ġbewir kt
ĠprÃ¤sent iert
Ġobdach losen
ĠtatsÃ¤ch lichen
Ġherkunftsl Ã¤ndern
Ġbusch kowsky
Ġseg eln
Ġkonstrukt ive
interess ant
ðŁĩ©ðŁĩª ðŁĩ©ðŁĩª
brit annien
Ġdoll ar
Ġzau ber
Ġverfeh lt
Ġkonf ession
Ġestabl ishment
Ġcorrect ness
Ġerr ungen
dres dner
3 34
4 48
8 00
= _
b isch
h q
t es
u um
v in
â ľĮï¸ı
Ġ 34
en ix
ch lw
01 5
Ġw ander
Ġm ehmet
st ab
Ġg al
Ġb ag
Ġk Ã¤lte
sch ande
sch reibung
te df
Ġf aust
Ġp il
al di
al politiker
ar y
Ġzu cker
Ġt um
Ġsch icht
Ġver fÃ¤l
Ġun fÃ¤hig
Ġo d
Ġer haltung
Ġr ache
19 4
13 35
land schaft
Ġvor gegeben
im s
ĠÃ¼ber n
Ġmein ten
sp eich
err ung
Ã¶r ten
ver halten
ver siff
zu kunft
rie ft
ad y
Ġdurch setzung
Ġho her
Ġgem ordet
Ġher gekommen
ander en
Ġfre edom
Ġent halten
Ġverl eihen
Ġbel iebt
Ġru ck
Ġro ma
Ġpar as
Ġzei gte
klÃ¤r en
Ġtag s
Ġgesp alten
gegen demo
Ġel be
Ġernst es
Ġmorgen land
krie gt
Ġfreiheit lichen
Ġarbeiten de
voll es
ĠkÃ¤m pf
zer te
Ġzit iere
Ġla w
muslim ischen
Ġasylbewerber heim
Ġfrag te
fur z
bet rÃ¼ger
++ +
Ġspa cken
Ġâ ľĮï¸ı
arbeit ung
Ġintoler ante
ausl aender
jÃ¤hr iger
ungl Ã¤ubigen
Ġbeteil igung
Ġberecht igten
Ġplak aten
Ġkorru pt
mÃ¤r sche
Ġmobil isiert
ĠÙħ ÙĨ
Ġbast a
Ġengag ieren
Ġmetho de
Ġverbesser n
journalisten watch
entwick lung
Ġspann end
Ġparano id
ĠkÃ¤ se
Ġmasch inen
ĠamÃ¼s ant
ĠvÃ¶lk ern
comm ent
ĠÃ¼berprÃ¼ fen
Ġoberfl Ã¤chlich
Ġkos ovo
Ġgolf staaten
Ġmittelme er
Ġbefr eit
magaz ine
ĠðŁĩ ©ðŁĩª
Ġfeig heit
referr rer
spre direc
tedf rom
spredirec tedfrom
5 13
6 15
d c
e cken
f ir
g ungen
h olz
l ager
m ung
o re
p re
q m
s ing
u mmer
v is
Ø ·
Ġ ðŁĳı
Ġm unter
Ġm iet
st ark
Ġh Ã¼r
as sten
Ã¼ Ã¼
Ġein get
it s
or fer
Ġsch mar
Ġsch marot
Ġj Ã¤mmer
mm a
mm news
ur g
Ġver gehen
Ġver achtet
ol oge
is o
Ġauf richt
Ġauf stock
Ġauf regung
Ġan zugreifen
Ġer fordert
Ġr auf
15 15
Ġhier fÃ¼r
25 2
Ġsp ur
Ġnach geben
Ġgr Ã¶l
Ġ- --------------------------------
ver sammlung
bl er
ort s
zu folge
Ġwel come
ha cken
ðŁĺ Ī
Ġe ck
Ġschl Ã¤ft
Ġc am
Ġland en
Ġber eiten
Ġber eitet
eb elt
34 08
47 8
Ġproblem s
Ã¤ch er
Ġausl aender
fl aschen
Ġverb annt
Ġteil habe
Ġgef ehlt
qu alitÃ¤t
le be
Ġsicher e
Ġfrei heiten
Ġschul z
Ã¼ck e
Ġbet onen
gesch ritten
Ġraus kommt
ma er
Ġbundes prÃ¤sident
Ġverm isse
Ġse elen
Ġben utz
Ġehr lichkeit
Ġkn ei
we en
Ġinform ier
Ġstu p
Ġstu hl
Ġheu lt
reg ime
Ġuntersch rift
Ġminder bem
ĠgefÃ¤hr den
Ġgesetz gebung
Ġ200 8
ĠfÃ¼hr te
ĠvernÃ¼nft iges
la fen
Ġblock parteien
Ġ13 0
str eit
Ġgeschw ungen
ĠtrÃ¤um e
ĠunabhÃ¤ng ige
Ġpositiv es
ĠÃ¼berw acht
Ġtrauer marsch
ĠÃ¼berr aschen
ĠÙħ ØŃ
Ġvermein tliche
Ġerkenn bar
Ġschwul en
Ġbewer ten
Ġunivers itÃ¤ten
kÃ¶n nen
Ġasylsuchen den
Ġverkehr s
Ġmaiz iere
Ġschach zug
Ġahm ed
Ġbeeind ruckt
bewusst sein
tuerk ei
Ġsem per
Ġqualifiz ierte
Ġalli ierten
Ġ________________________________ ________
ĠfahrlÃ¤ss iger
Ġvas allen
! ?!
" ..
1 13
3 37
b ut
c ur
c ent
f i
f ul
f resse
f Ã¤lt
g Ã¤ngen
j s
l ese
l eistungen
r ik
Ġd roh
Ġs he
Ġw Ã¶l
Ġm afia
Ġg dl
Ġh ie
Ġh ihi
Ġf atih
on ne
Ġl eut
re ben
Ġder gleichen
el ite
Ġsch en
Ġsch izophren
Ġj agt
Ġun passen
Ġauf nimmt
Ġer folgen
Ġer folgt
sen z
sen de
Ġal a
Ġwo durch
10 3
Ġvor gesch
Ġvor wÃ¼rfe
Ġunter richten
Ġkl ingen
ation al
Ġbes p
Ġwieder mal
iv al
mal ink
Ġgel iefert
Ġdurch blick
Ġschw angere
ab sicht
wie s
Ġgrund satz
per malink
Ġgo ethe
Ġpl Ã¤ne
ĠðŁĺ ±
ide ologie
bild ungs
deutschland s
Ġkom ent
pro zent
???? ???
Ġabs etzen
Ġ8 5
ĠlÃ¤ st
Ġ6 000
Ġarbeiten den
Ġschm ieren
geg riffen
sel f
Ġextrem istische
Ġheimat stadt
Ġlo sl
Ġpo ur
brau chen
Ġfremden feindliche
kon zern
Ġempf angen
ĠkÃ¶ stlich
will kommen
ĠðŁ İ
Ġheuchler isch
Ġkapit ulieren
Ġparallel gesellschaft
ĠhÃ¶r st
Ġcon new
ĠtrÃ¤um er
eis ser
Ġfried man
Ġetabl ieren
Ġdifferenz ierung
ĠunabhÃ¤ng igen
ĠjÃ¼d isch
Ġpap a
Ġbein g
Ġemp Ã¶rung
Ġtra de
Ġanal yse
sol ange
fot os
Ġjeweil s
liv eticker
Ġberuh igen
Ġsaar land
sn s
Ġkorre kten
Ġlief ers
europÃ¤ ischen
Ġsozialsystem e
Ġverzwei felt
attent Ã¤ter
Ġbewaff net
Ġsek unden
Ġhija ckers
4 14
9 29
d ank
e ckt
g eil
j uergen
l ue
m zw
q o
z ei
z ir
z is
Ġd utzen
Ġs org
ie u
st ad
es er
es ystem
Ġb Ã¤
Ġk Ã¤men
ll y
Ġl ehnt
Ġl ong
Ġein stehen
or o
Ġso wj
el a
Ġsch Ã¼r
Ġo pen
Ġauf n
Ġha ll
Ġha ck
Ġer h
Ġst Ã¤mm
ut ten
Ġaus geh
Ġal ev
Ġal ice
be ll
ĠfÃ¼r chtet
Ġwar n
om as
ed y
Ġbes etzen
Ġganz er
28 5
ru h
ungs klage
schl af
Ġfl asche
Ġbr id
Ġbr inge
Ã¤nd ig
Ġgar ten
Ġterror gefahr
Ġko alition
Ġwahr er
Ġbesch Ã¤d
ĠauslÃ¤nder hass
Ġwissen s
Ġwor Ã¼ber
hÃ¤ng t
Ġro sar
gesch wiegen
geb Ã¤ude
Ġwe cker
Ġjem en
Ġ19 99
Ġand i
Ġant wor
Ġlesen swert
op Ã¤
Ã¼t igen
sk andal
stell st
Ġans ieht
Ġbevor zu
Ġextrem istischen
Ġintegration spolitik
Ġlo cken
Ġpo wer
ende te
Ġ18 0
Ġkriegs gebieten
Ġverw altungs
pa ct
Ġhar te
Ġmittler en
Ġauseinander setzungen
ĠbrÃ¼ llt
Ġalt es
Ġspe ak
Ġgast freund
Ġeinzu sch
ĠðŁ Ļ
Ġbill iger
ĠÃ¼bel ste
Ġkonsequ ente
Ġvermut ung
Ġpart eitag
zz zz
Ġfeiert ag
abend landes
Ġetabl iert
ym edia
problem e
Ġwende hals
Ġausgeb ildete
Ġprodu kt
besonder s
Ġtraum at
Ġjahrhunder ts
Ġdemonstrations freiheit
Ġasylant rÃ¤ge
rass isten
kÃ¤m pfen
Ġafrikan ischen
Ġpanik mache
Ġengag ement
nge waschen
Ġfeigl ing
Ġmahnw achen
Ġgeheimd ienst
wid rig
Ġverteuf eln
Ġglaubenskrie ge
Ġpir aten
1420 63
Ġverkn eifen
Ġdschungel camp
Ġbeseit igt
Ġverabschie det
Ġpegidageg ner
Ġgenoz id
- _
a ction
d ein
h ur
l Ã¼
l ange
l Ã¤uft
p eter
t on
w h
w ess
x m
y g
Ø £
Ġ 55
Ġs etz
nd rom
st Ã¼r
st orm
Ġg unsten
ein zel
Ġb recht
Ġp p
al em
ar ten
Ġin kl
Ġt hre
Ġmit er
de ppen
Ġr ab
Ġaus get
Ġdem zufolge
ge kauf
Ġpegida watch
17 6
Ġges ehn
Ġpol ice
25 39
Ġsp innt
Ġab stempeln
Ġgl atze
Ġkomm i
Ġunter wanderung
Ã¶r er
men gen
ðŁĺ ³
Ġfa ct
Ġdurch halten
Ġdurch einander
45 8
Ġselbst stÃ¤ndig
bar keit
Ġreg imes
Ġfrei handel
Ġbel ege
ĠauslÃ¤nder feindliche
beit rÃ¤ge
Ġro ute
ick el
geb urt
Ġ19 93
Ġant un
Ġaller hÃ¶ch
---- -
ma in
Ġhatte st
Ġ6 0000
Ġkn ien
reu en
Ġnot falls
Ġvers icher
fil m
Ġstu dent
Ġstaats kosten
Ġschm er
Ġpositionspapier s
Ġrech net
wand t
ĠÙ ģ
Ġschwei gt
Ġbisher igen
Ġkosten lose
par lament
Ġort h
Ġlau testen
Ġisrael ischen
lu ege
gest ern
Ġkan al
Ġkonk reten
stu ft
ÙĬ ÙĨ
Ġnetz werk
Ġvergewalt igungen
Ġinstrumental isierung
Ġaltern ativen
Ġaga in
Ġgesinn ungs
Ġsold at
Ġhein rich
Ġjen er
Ġgeschei ter
Ġbekannten kreis
Ġhasspred igern
ĠenttÃ¤u schen
Ġpi llen
Ġbast arde
Ġumgehen d
Ġverallgemein erung
Ġgre at
Ġhaken kreuze
Ġbro der
Ġfaschist o
ĠsÃ¤chs ische
bn w
allah u
Ġeinheim ische
Ġsym ph
Ġkok s
Ġislamkritik er
Ġhy ster
Ġchem nitz
ĠknÃ¼ ppel
vieh zeug
Ġlux us
Ġausgeg renzt
Ġgebr Ã¤u
Ġerit rea
Ġfreiheitsstra fe
, .
4 26
a he
b rÃ¼cke
f eiern
g ing
h as
h te
h ent
i ffen
i que
k ungen
k onst
l eiten
m eist
t Ã¤ter
v at
w c
Ã ł
Ġw ed
Ġw ulff
Ġm c
Ġm ater
Ġm ielke
Ġb ost
Ġv ll
Ġk ie
sch aria
te x
Ġf utter
Ã¤ den
Ġz wie
Ġl Ã¤u
Ġein sperren
ar me
at ol
Ġnicht mehr
au gen
Ġt rop
Ġt ante
Ġsch ichten
ber ichten
ter ung
Ġun beh
Ġmit gehen
Ġha aren
Ġr auch
Ġr ac
21 7
ehr ten
ist a
22 9
Ġaus reisen
ĠfÃ¼r n
us ion
16 4
Ġvor rat
Ġvor haben
Ġsp ast
Ġab z
Ġgl eicht
Ġnach halt
Ġgr Ã¤u
ien tel
Ġunter gebracht
Ġunter sagt
bl endet
Ġfa b
Ġc lown
ĠmÃ¼ llt
Ġdies elbe
komm st
Ġweil s
45 94
55 6
Ġnie dlich
Ġho hlen
Ġausl Ã¶sen
Ġgef il
lin ien
wie se
Ġgrund schule
Ġbeg renzt
Ġkomment atoren
ĠfÃ¼ llen
Ġro ck
Ġpar agra
unter stu
Ġoffen heit
Ġsozial isten
Ġco uch
Ġ6 5
Ġwicht iges
Ġorganis ierte
mo der
ĠbÃ¶ ser
Ġwahl kampf
frie dliche
Ġpet ry
euer ter
red iger
Ġamer ica
Ġor ten
Ġpatri arch
verb Ã¤nde
Ġeinge zahlt
Ġabge st
mut ter
Ġchristentum s
Ġanz unehmen
ĠschÃ¤ fer
Ġverfol ge
Ġlog ische
zul egen
Ġprof is
Ġgast geber
Ġster ne
Ġbill igen
Ġwohn ungs
Ġzent rum
Ġanw enden
ĠðŁĳįðŁĳį ðŁĳįðŁĳį
Ġstad ion
Ġgebl ockt
Ġbestehen den
wend ig
Ġarrog anten
ĠfranzÃ¶s isch
krit ische
Ġstadtt eilen
Ġfreitag s
Ġneonaz i
Ġsat an
Ġeiniger maÃŁen
Ġuner wÃ¼nscht
Ġaufh Ã¶rt
Ġaufl Ã¶sen
Ġbring st
Ġleit medien
Ġverwand ten
ĠunfÃ¤h igen
Ġunbeg rÃ¼ndet
ĠverschÃ¤r fen
Ġherkunftsl Ã¤nder
Ġspinn ern
ĠhÃ¼b sch
Ġunangen ehm
Ġfassung slos
Ġbelie ve
handels blatt
Ġanpass ung
Ġinno v
Ġmitstrei ter
Ġgelik ed
drÃ¤ng ung
Ġbost on
4 09
7 05
b ier
b agida
c al
f raktion
g mbh
m os
u z
v Ã¶
v ok
w oche
w ertig
Ġ 01
Ġa hnen
st ream
st rÃ¤ger
Ġn uss
0000 0000
Ġh einer
Ġb Ã¼nd
Ġl Ã¤ng
Ġp atz
Ġein be
Ġsch Ã¼tze
et h
Ġan stellen
Ġer Ã¶ffnet
id an
Ġsie gt
Ġr ich
Ġst gb
21 6
ge fallen
Ġum stÃ¤nde
Ġsp ende
ĠÃ¼ber nimmt
fa b
Ġpro testen
Ã¶r te
bl u
bl ut
Ġe zb
ges indel
Ġc ol
Ġgut mÃ¼t
bei m
schl achten
Ġricht ungen
Ġho hn
Ġverst Ã¤r
ler weile
kl ein
kl assen
Ġfre e
ab sagen
Ġzur zeit
auf ge
auf nahme
auf gaben
Ġbest reiten
Ġhei den
Ġneu gier
att ack
Ġreg ional
Ġverl egen
Ġkrie ges
Ġbeg eht
Ġdazu geh
Ġpl app
Ġ;) .
Ġung esch
Ġgeb ildeten
Ġbed acht
Ġhinter bliebenen
ĠnÃ¤ch ster
Ġfreund liche
âĢľ [
Ġle on
Ġbeleid igst
Ġlang fristig
Ġmei ste
oo d
Ġdr unter
fahr ten
eut ral
Ã¼nd eten
Ġverh err
Ġwider legen
!!!!!!!! !!
Ġwahl beteiligung
Ġkont akte
Ġamer ic
Ġungl eich
Ġerm ut
Ġ200 3
Ġverw ehrt
Ġverz ei
Ġlach nummer
Ġverschieden er
Ġarmen ier
zum indest
Ġ17 000
Ġwes wegen
sd aten
Ġmerk ste
ĠÃ¼bel s
Ġverschl eiern
demokrat ischen
angel a
Ġaufw achsen
ĠgeprÃ¤ gte
10000 07
ĠgenÃ¼ gt
hÃ¤lt nis
Ġkamer aden
ĠsÃ¼ den
Ġgarant ieren
bom be
Ġprinzip iell
Ġgep redigt
Ġcar sten
ĠpÃ¶ beln
lÃ¤nd ische
Ġgekl aut
ĠaufgeklÃ¤r ten
Ġpress emit
ĠkÃ¼r zlich
blei bt
ĠverschwÃ¶rungsthe oretiker
Ġtri ck
1015 27
Ġmur at
Ġunivers itÃ¤t
Ġexpl izit
ĠØ£ Ùģ
Ġscreenshot s
ĠermÃ¶ gl
sau di
Ġpfer d
Ġlibanes ischen
Ġghett os
Ġsend ungen
Ġwohng eb
ĠbeÃ¤ngst igend
ratz ki
Ġmaast richt
speich erung
Ġaufstock ung
3 07
a ckt
b p
b rÃ¼cken
c n
d ien
d elt
f z
h undert
i bel
i ental
k ennen
m n
m ing
n Ã¼tz
o be
p ublik
q t
r ol
s ingen
z ten
Ä ĩ
Ð ½
Ġm essen
st h
Ġn ob
Ġh yp
Ġh ielt
Ġb iegen
an ien
Ġv w
Ġk redit
Ġk andid
Ġk itas
Ġk umpels
sch ichten
sch irm
Ġp agida
Ġein geh
Ġein wand
ar at
eu m
ir us
in f
Ġj uni
Ġun aus
Ġr itter
Ġst ation
18 0
Ġwar heit
Ġvor bil
kt op
Ġum kehr
Ġab ziehen
Ġab hauen
ed a
ed te
Ġgr as
Ġgr Ã¤
Ġar g
Ġkl amotten
Ġkl ientel
he ad
Ġmu slem
men ge
ger echnet
aus sagen
aus Ã¼bung
28 58
gel eite
Ġgro sst
og ans
ĈĈĈĈ ĈĈĈ
ĠfÃ¼ ssen
pl om
Ġeinz iehen
sw Ã¼r
Ġforder te
Ġged ruckt
Ġraus zu
ĠgroÃŁ familie
Ġlinks auton
ma instream
fre da
Ġhel m
Ġkommentar funktion
ath on
Ġehr licher
Ġwoll test
ex p
Ġnormal bÃ¼rger
Ġsofort ige
ĠpersÃ¶n lichkeit
ka sten
Ġfinanz iellen
inst itut
kon om
Ġallah u
utt on
Ġanschlag s
muslim s
Ġsatz zeichen
Ġintelligen ten
schul abschluss
Ġrot terdam
Ġfehlen de
sor gt
Ġverste ck
Ġvorbestra ften
Ġdaniel a
spazier gÃ¤nger
zeich nung
hel fer
Ġfe sten
arm es
ĠÃ¼berr asch
Ġwiederhol e
Ġanal p
oooo oooo
Ġverurs achen
Ġkonfl ik
skrie g
peg idas
Ġskla verei
Ġchin es
Ġrhetor isch
Ġhan f
ĠpÃ¤dophil en
mei sten
Ġhur ensÃ¶hne
Ġbrenn punkte
mass aker
Ġvieh zeug
schwar z
volksver treter
Ġopt im
montag s
Ġanget an
Ġaluh ut
Ġverfehl te
Ġanmerk ung
. !!!
5 28
? ,
b be
g it
l eiden
m z
m ig
v v
¤ ï¸ı
Ñ ĥ
Ġ 37
Ġ 39
Ġd one
Ġg Ã¼r
Ġh unden
Ġv e
te chn
Ġf it
Ġl ahm
Ġp ranger
Ġein reden
Ġein schlagen
Ġein richtung
re k
at ma
hr ungs
Ġin halten
Ġzu sÃ¤tz
Ġzu nge
Ġzu treffen
Ġt ar
Ġt ha
Ġt ickt
12 7
12 9
Ġj au
Ġj agd
Ã¶ ten
Ã¶ ffentlich
Ġich s
Ġver der
Ġauf lagen
Ġauf reiÃŁen
ro ck
Ġer richtet
Ġst unk
Ġst ratzki
Ġre alen
Ġbe achtet
Ġaus reise
il ian
im i
Ġsp endet
Ġab kommen
ĠĠĠĠ Ċ
Ġ( ...)
sp ray
Ġunter nehmer
Ġunter haltung
Ġunter graben
bl asen
Ġgew icht
Ġc ity
pf ui
Ġen or
Ġber eichen
Ġber eiche
Ġgel ingt
38 9
Ġgesch eh
ungs verbot
fl ei
eid ungen
Ġgar nix
og n
Ġhei ke
mus ik
okrat ie
Ġzw anzig
gesch aut
Ġjeden fall
Ġ19 91
Ġsonst iges
ho ffe
Ġversu chst
Ġte e
schw ache
organ e
Ġmei er
Ġdr am
Ġspr ingt
kte ur
Ġse kte
Ġben annt
des ktop
gew inn
Ġfol ter
Ġende ffekt
Ġbezahl ung
geg nern
89 6
Ġaufge stellt
Ġsach licher
spr ingen
Ġmehrheit s
Ġverein s
Ġstand haft
Ġtr age
Ġgesetz te
vers icherung
Ġabl assen
Ġverw Ã¼
Ġfranz isk
asi atischen
Ġversch oben
inter net
od y
Ġeinsch Ã¤tzung
Ġauseinander zusetzen
mut ti
hand eln
vert eid
punkt net
Ġblock aden
Ġfanat ische
Ġangel egt
Ġabgel aufen
Ġanteil nahme
Ġfil men
Ġgeha ckt
Ġbrand anschlag
Ġzivil isten
trag ung
Ġbereich ert
ĠflÃ¼chtling sst
ĠðŁĳįðŁĳį ðŁĳįðŁĳįðŁĳįðŁĳį
neu es
200 5
kor rekt
Ġanerk ennen
Ġprinzip ien
Ġfrust riert
Ġirre levant
Ġaufgeh etzt
Ġhist ory
Ġskand inav
rÃ¤um e
Ġsay s
Ġirgendein em
jan ich
volks betrug
iter atur
gefÃ¤hr lich
Ġkorrig ieren
Ġorig in
Ġanstren gend
Ġsens ation
Ġinstitut ionen
kommun alpolitiker
ĠschÃ¤r f
Ġpres ident
Ġgesamm elt
Ġkusch el
verw altung
Ġfriedlieben den
Ġcop y
ĠgeschÃ¤fts fÃ¼hrer
Ġgelieb ten
ĠbetrÃ¼ gen
Ġprofess or
Ġverhung ern
ugo sl
fran ce
142063 26
volksbetrug punktnet
f assen
g ast
h ten
h ausen
l uss
l eistet
m az
p ot
u it
w ende
x h
x uq
Ø ¸
Ġ 38
en gl
ch es
Ġd orn
Ġs un
st euern
Ġu ber
Ġh ure
Ġv eh
Ġk eil
Ġk assen
sch land
Ġz ettel
Ġl etzen
Ġein gehalten
at ter
em mt
Ġso mal
el z
et c
Ġver nach
ol egida
Ġmit arbeitern
Ġauf fÃ¤llt
Ġauf zeigen
ro ssen
Ġha ckt
Ġer reich
Ġbe llen
Ġwas chen
Ġaus gabe
Ġmal e
om b
Ġvor schlagen
Ġum denken
Ġab grenzung
08 8
Ġunter lassen
ill y
29 9
Ġnaz iz
ĠĠĠĠĠĠĠĠ Ġ
Ġger hard
Ġgef ressen
sy rien
Ġbesch lie
Ġdort igen
Ġma j
Ġsy rer
Ġgest euerten
Ġde al
Ġpolit ic
Ġhand langer
ho ff
Ġversu chte
Ġallen falls
Ġle cker
Ġco us
gew icht
Ġfrem der
Ġschlimm en
Ġmach ter
Ġkar te
Ġsteuer ung
Ġerw ache
Ġextrem ist
Ġsach lichkeit
Ġopfer rolle
olog ischen
Ġerl assen
abl eger
na llt
Ġfremden feindlichen
Ġnu hr
Ġignor anten
ĠØ ¯
77 5
Ġkompl etten
volk sentsch
79 06
Ġrep res
Ġ14 6
Ġku schen
Ġtages ordnung
Ġneg er
Ġkan ad
Ġhing eht
Ġzer bom
Ġmitglie dern
ju belt
Ġschr itte
Ġrie fen
Ġtal k
Ġgeschw ister
ĠtrÃ¤um t
Ġnord korea
Ġby e
Ġlehrer in
Ġgefl ogen
Ġuni form
Ġvermu tet
Ġcan ada
Ġvaterland s
Ġkorru ption
met ap
Ġausgesch altet
Ġmotiv ation
mitglie dern
Ġtur n
zÃ¤hl ung
Ġverhar ren
Ġhomosex uellen
Ġkonserv ativ
pers onen
Ġabzul ehnen
Ġbegeg net
Ġauton ome
Ġkok ain
hart z
Ġpra xis
angeb lich
035 34
Ġsyn agogen
Ġmode ll
Ġbeir ren
dz q
Ġgoog len
Ġquitt ung
Ġtrittbrett fahrer
Ġfreihandel sabkommen
Ġvernach lÃ¤ss
b or
b eutel
c ar
g ab
h auer
l euten
m Ã¤cht
o zial
p reis
r as
t ut
u ndern
u chten
v l
v w
v org
Ġ 02
en ie
Ġa chte
Ġw on
Ġw ish
Ġi sa
Ġm r
Ġm ischt
Ġg alt
sch ritt
Ġf ickt
Ġf ire
Ġl ade
Ġl adet
it storm
re gel
Ġge eignet
Ġt ry
Ġsch al
in ie
ber e
et wegen
Ġo ster
Ġmit schÃ¼ler
Ġauf sicht
id eutsch
Ġbe an
Ġaus weisung
Ġal bern
20 3
Ġdem ont
kt Ã¼re
Ġab nehmen
Ġnach fragen
Ġsoll n
Ġviel fach
Ġunter werfen
Ġang riffen
zu geh
ger echt
Ġbl ablabla
ell ig
Ġc it
Ġlei chte
ti tel
58 9
Ġger ingen
Ġger echter
Ġverst Ã¤rkt
tel ang
Ġzeit schrift
Ġpolitiker in
Ġwahr haft
Ġkr ist
Ġma inst
Ġpl ur
Ġsy lv
Ġbet rÃ¼ger
Ġgewalt sam
ĠðŁĺ Ī
ĠðŁĺ Ķ
âĢľ -
oren en
Ġoffen bach
........ ......
Ġhel ga
Ġ9 4
Ġjo achim
Ġwider sprÃ¼
ÙĦ Ø§
Ġ7 00
Ġschm un
Ġverurteil ung
th ing
Ġbu d
Ġgek ostet
Ġplatz t
Ġor der
Ġtr ennt
ati bel
Ġbeste ch
medien luege
77 6
Ġvolksver dummung
ĠwÃ¼ ssten
Ġersch Ã¼ttert
zul aufen
poliz isten
Ġjes u
Ġdrogen dealer
Ġzwang sver
Ġmaul korb
Ġinstrum ent
sor ge
kn Ã¼
krimin alitÃ¤t
Ġfund ament
Ġprovok ate
Ġausb euten
Ġbir nen
Ġungeb ildete
Ġungeb ildeten
Ġtau gen
ĠÃ¼bert reiben
mÃ¼ ssen
Ġurteil e
Ġhof ft
Ġsim on
Ġken ia
Ġumben ennen
Ġunn Ã¶t
angeh Ã¶r
Ġumf ang
Ġdenun zieren
Ġgeburten raten
Ġunre flekt
142 1914
ĠgewÃ¤hr leistet
Ġredu zieren
Ġbefrag ten
Ġmat he
Ġkartoff el
Ġgeheim nis
Ġpalest ine
845 03534
bÃ¶ se
Ġangelegen heiten
Ġdyn amo
Ġdra ht
Ġerforder lich
Ġunterlass ungsklage
Ġanmel den
Ġmov ement
Ġtheoret isch
Ġsinngem Ã¤ÃŁ
1421914 688
1 17
5 06
7 26
8 66
d ial
m v
m aul
q g
Ġa spe
Ġm ember
Ġh bf
Ġb Ã¼chern
an kt
Ġk etten
Ġf okus
ar ren
ung laub
in ik
mm mm
Ã¶ pfen
Ġmit gelaufen
Ġauf begehren
de burger
ag oge
Ġst ille
Ġbe en
Ġaus rotten
Ġja woll
us alem
Ġislam ophobie
Ġgegen frage
Ġsp art
Ġgr insen
sp rÃ¤
24 6
Ġuns re
Ġkl Ã¤rt
ff i
ff eln
Ġwa ffel
ĠmÃ¼ de
Ġch urch
34 6
Ġger Ã¤t
42 00
ri c
Ġgem essen
Ġverb Ã¤nden
qu ellen
Ġdemonst rant
ĠbÃ¼rger liche
pl us
ĠðŁĺ İ
Ġqu ita
Ġaller letzte
Ġern Ã¤hren
Ġecht es
Ġspr ing
Ġvert ragen
Ġernst hafte
do c
if ic
Ġkar ne
Ġschuld igen
Ġverg lichen
Ġfrankreich s
gn ost
Ġerwar test
Ġit al
Ġkennen lernen
Ġ200 6
Ġverw undert
ĠØ ¥
ĠgrÃ¼nd et
Ġvo us
ĠbekÃ¤m pfung
slos igkeit
Ġverhalten s
ĠvernÃ¼nft iger
Ġmohammed s
aust ausch
Ġeinzu fÃ¼hren
Ġeindeut ige
69 10097
Ġabgel ehnten
---------------- --------
Ġtreffen d
Ġkoll ektiv
Ġausger ottet
kopf sch
Ġrel eg
Ġvorbestra fte
Ġsonder lich
Ġmis ere
Ġsteine werfer
Ġhunder ten
Ġgross es
Ġruss ia
Ġfrust r
inen ser
Ġac counts
Ġscheinheil igen
Ġbal kan
ĠzukÃ¼nft ige
Ġerled igen
Ġkop iert
okum ente
Ġschleichen den
Ġasozial en
Ġye ah
Ġpseu d
Ġbeu n
kÃ¶n nte
Ġdamal ige
Ġungest raft
Ġries ige
Ġhur ra
Ġfer ng
Ġkonzent rieren
qa ida
Ġverteuf elt
Ġschi iten
utsch t
Ġgehor sam
ĠkÃ¼nft ig
Ġkonkur renz
szen e
Ġsoph ie
ĠÙħØŃ Ùħ
ming ham
7906 6910097
79066910097 1515
- (
3 25
a eu
a ken
b ill
b onn
d rogen
e w
f bar
g ei
j amin
k ult
m asse
m ob
o bt
r asse
r unde
s eine
s werter
t ung
v s
w uer
en g
Ġd rucken
Ġs Ã¼nde
01 8
Ġm onst
Ġn an
Ġb rÃ¼cke
Ġk Ã¶r
Ġz ir
al og
Ġzu sagen
Ġsch alten
Ġj Ã¤ger
ro cken
Ġer be
Ġre ale
ist ent
22 6
Ġaus fÃ¼hren
14 35
Ġ" .
Ġeu ere
im pft
Ġim press
ĠÃ¼ber holt
Ġab grenzen
Ġgl Ã¤n
Ġwei mar
Ġnach hilfe
Ġste hn
ver ar
Ġfa ckeln
ad min
Ġeinf Ã¤lt
Ġgel ebte
37 8
Ġgesch rien
47 9
Ġho od
Ġfl ieÃŁen
Ġwelt fremd
Ã¤ch tet
fl ut
Ġkon fuz
Ġent haup
Ġfor men
ap o
Ġreg ist
Ġko st
Ġschul system
das erste
Ġung em
Ġgest rige
Ġde ckt
Ġju d
gesch Ã¤ft
Ġ19 94
ho p
Ġkultur bereich
pro zess
Ġse ehofer
ock e
ĠgrÃ¶ ssten
Ġbachmann s
Ġstar s
Ġaut hent
Ġverk Ã¼ndet
Ġrum Ã¤nen
lei pziger
Ġsach se
Ġsach ver
ĠlÃ¤cher lichen
Ġbu llen
Ġgek Ã¶pft
Ġmon ika
Ġungl Ã¤ubiger
Ġrest au
Ġbef ind
kon zerne
Ġost ern
Ġtotal en
ĠgÃ¤ sten
Ġmass ak
Ġstell te
Ġisrael is
fasch ist
ĠgesprÃ¤ chen
verr Ã¤tern
Ġentscheiden d
Ġsympath isch
Ġsolidar isiert
Ġph ase
Ġph ys
relig ionen
Ġfort geschritten
mÃ¶glich keiten
Ġkranken hÃ¤user
dar um
Ġvermu mmten
Ġruss isch
ym n
Ġvorgehen sweise
Ġprodu kte
Ġerwachsen en
Ġintellekt uelle
frem det
Ġcont ainer
ĠÃ¤usser ungen
Ġsauer ei
regional es
mi ÃŁ
ĠausÃ¼ bung
morgen schau
Ġglobal isierten
ĠjÃ¼ng sten
ĠgÃ¤n zlich
Ġtsche chen
ĠwÃ¼sste st
ĠhÃ¶he punkt
Ġzugeh Ã¶rt
Ġbesorg te
Ġbesorg ten
ðŁĺĥ ðŁĺĥ
ĠunfÃ¤h igkeit
Ġtechn ik
Ġfau len
ĠgÃ¶ tt
Ġunre al
ĠgewÃ¤hr leisten
bcr ger
afrikan er
Ġbestra fen
ĠerlÃ¤u tern
Ġqual it
sekret Ã¤r
Ġakadem iker
Ġmathem atik
ĠÃ¼berwiegen de
Ġlemm inge
Ġdeklar iert
Ġjer usalem
Ġconnew itz
Ġverder ben
Ġgescheh nisse
Ġmainst re
. ).
3 27
; ;
c u
d ir
f chen
f eller
f utter
i oten
k enn
l obby
n utz
u es
w Ã¼
x b
Ã §
Ġd rÃ¼
Ġd og
Ġd euten
Ġs Ã¤u
Ġw k
Ġw age
Ġm p
Ġh eben
Ġb ern
Ġk ette
Ġf emin
Ġp eit
Ġp op
gen presse
ar is
Ġin cl
Ġj ames
et isch
et ing
Ġver teilung
Ġver dummen
Ġo pport
de pp
Ġan frage
Ġan passt
ag a
Ġsie d
Ġda d
Ġbe ck
Ġbe stellt
Ġbe achte
cht eil
15 35
ern e
land en
Ġvor kommen
Ġislam feindlich
Ġwerden den
im ents
Ġab genommen
Ġnach gehen
ste te
05 9
Ġpro je
Ġ: *
04 6
ill on
he ber
ha mmer
ha cker
Ġgi bs
ðŁĺ İ
mal en
Ġc ann
Ġber ech
Ġgel angen
Ġdurch fÃ¼hren
Ġmo se
49 8
46 9
schl eier
br eit
br eitung
fl icht
tz sch
Ġterror istische
Ġweg zu
frei es
Ġbeg lei
Ġ.... ......
ĠðŁĺ ĺ
Ġpolizei krÃ¤fte
Ġschei ssen
Ġwe stens
Ġqu alif
schw ach
ĠzurÃ¼ck getreten
ĠgroÃŁ britannien
Ġkom ischen
Ġdr Ã¤ngt
ichte te
Ġhel ft
Ġco hn
reu zen
Ġvers orgung
Ġwider liche
Ġfrem des
Ġmittel punkt
vo gel
Ġtot geschwiegen
Ġlu kas
ĠblÃ¶d heit
weis ungen
th or
Ġbil anz
Ġwaffen ex
ĠscheiÃŁ egal
Ġlandes zentrale
Ġtr iller
Ġreicht s
ĠØ µ
Ġabgesch nitten
Ġost asiatischen
Ġabge zogen
anti f
Ġeinsch rÃ¤nken
Ġhaha h
Ġpein liche
Ġberuf lichen
Ġaufzu bauen
Ġmanch es
ĠÃ¤r m
Ġbezeichnen d
Ġabzu halten
Ġbetr acht
Ġandre a
beh alten
Ġaktiv itÃ¤ten
krimin eller
Ġzentral e
kritik er
Ġvermu mm
zeich nen
Ġdire kter
Ġbeteil igten
Ġaustral ia
Ġkauf e
wirk ung
Ġangriff s
Ġbein ahe
Ġprodu ziert
Ġnah men
Ġversammlungs recht
Ġliber ation
ðŁĺĬ ðŁĺĬ
ĠfÃ¼t tert
Ġidentif iziert
Ġopp ermann
tÃ¼r ken
Ġillegal e
liv estream
Ġverkl agen
Ġanwesen heit
Ġauton om
Ã¶hn lich
Ġeb ola
Ġsicherheits grÃ¼nden
wÃ¶r tlich
Ġausgang s
Ġpromin enten
Ġbemerken swert
spart ner
Ġgleichgeschalte ten
ĠwuÃŁ te
erkl Ã¤r
Ġandauer nd
Ġtunes ier
Ġanfeind ungen
Ġsemper oper
Ġveh ement
Ġbean spru
Ġbeun ruh
- "
4 05
7 08
c v
c z
c ateg
g ilt
j g
k ler
k einen
m eter
n w
u sch
v an
x l
Â °
Ġ 42
ei gung
Ġa st
Ġn utze
Ġk ocht
Ġl oo
Ġein lu
at s
Ġin kom
Ġso cken
el and
Ġsch e
Ġsch iene
et her
der ten
Ġver do
Ġun besch
is l
Ġauf regt
... ???
Ġan ordnung
Ġer ic
Ġer wir
Ġer tr
Ġr ay
Ġst ange
Ġst Ã¼tze
Ġwas ch
Ġaus gemacht
Ġaus wendig
Ġdem ost
be wohner
Ġfr atze
16 6
.... ?
23 6
Ġges ichert
um fragen
Ġvor t
Ġvor gesetzten
Ġvor rauss
Ġgr au
Ġunter zahl
Ġunter kÃ¼nfte
Ã¶r ungs
ver stehen
Ġang ed
eigen en
Ġmir ko
ger ei
03 0
ha hn
ðŁĺ ±
Ġe ch
Ġgew undert
ges prÃ¤
Ġdurch schaut
Ã¤u schen
58 7
Ġwill kÃ¼r
Ġwelt klasse
Ġkon zern
tz tz
Ġent m
Ġent gl
Ġent nehmen
ne y
Ġir gen
Ġneu geb
Ġgu mm
Ġzw ingend
Ġkr ise
gl Ã¤ubige
sche fs
Ġma ÃŁe
pl y
pl Ã¤tze
Ġbed ingt
Ġju bel
geb lich
da her
Ġhand voll
ho e
lie ber
Ġern ie
Ġkom ischer
Ġbundes verfassungs
Ġradikal isiert
Ġverm issen
Ġco ul
nach gerichtet
Ġstar ker
fo sten
ĠblÃ¶ der
Ġbo xen
ans onsten
ĠwÃ¼n schte
Ġstaats fernsehen
Ġoh h
Ġorganis ierten
!!!!!!!! !!!
reg ion
ĠlÃ¤cher licher
Ġlu ck
Ġschau n
Ġverurteil ter
th omas
Ġor iental
Ġfern e
ard s
Ġeinge stuft
Ġschwachsinn igen
Ġx en
rech ter
Ġaufzu klÃ¤ren
schn ell
Ġser bien
Ġ>> >
Ġbetr achte
Ġhalb wissen
Ġauszu drÃ¼cken
Ġanw endung
Ġpauschal is
Ġwiderstand s
Ġzivil en
Ġbezie he
Ġfeiert agen
ĠgenÃ¼ ge
Ġislamist ischer
Ġkla ppen
Ġwh ite
Ġbeweg grÃ¼nde
maÃŁ nahmen
Ġwissenschaft ler
Ġverurs acher
Ġass is
ĠerfÃ¼ ll
Ġneuer dings
nie mand
Ġkonserv ative
ettel t
Ġgeneral verdacht
weihn achten
ĠhÃ¤ss lich
Ġzweit es
Ġungeh euer
Ġeid es
Ġgrab schÃ¤nder
pÃ¶ belt
anschl a
Ġgeheimd ienste
Ġpostill ion
Ġeinm ischen
ðŁĺł ðŁĺł
Ġvorsitzen der
Ġunmittel bar
hÃ¤t te
Ġbah Ã¡
ĠzÃ¤ hne
untern ehmen
Ġlud wig
Ġheter ogen
Ġkonfuz ianer
! ,
4 07
5 17
5 39
b ogen
e z
h Ã¤ndler
k z
k ei
k ast
k unde
k reisen
l iban
o er
p ein
p ut
s in
t rottel
u che
u dd
w m
w es
w art
w Ã¤l
z ahn
Ġi nder
Ġm Ã¶rdern
st Ã¶
Ġh orn
Ã¤ ner
Ã¤ gliche
Ġz ack
Ġl ehrt
Ġein wandern
re det
ar re
12 3
Ġj enny
Ġver bergen
Ġun partei
is on
Ġo o
Ġauf marsch
Ġauf rÃ¤umen
Ġan b
Ġer folge
Ġer pressen
Ġr ip
Ġst ap
Ġda fuer
ehr lich
be st
Ġwo men
im age
25 8
Ġsp Ã¼r
ul iere
fa ke
Ġpro gress
ver m
Ġmu e
Ġschl agt
Ġc ulture
ĠwÃ¤ hren
Ġlei stet
rÃ¼ stung
Ġdurch schnitt
Ġgesch wiegen
Ġhin sichtlich
Ġth ilo
Ġsu pp
auf gabe
elt reiber
ph obie
Ġne oliber
ĠgrÃ¼ ÃŁt
Ġbel ange
fe ste
ia e
Ġeinz ul
Ġro se
Ġwe ch
da bei
mit lÃ¤ufer
Ġ19 88
ast ik
Ġmar ine
Ġraus gesch
Ġklein ste
........ .......
Ġabs eh
Ġ8 2
Ġco urage
Ġposition iert
geh Ã¶rt
Ġ!!!! !!!!!
Ġallem al
Ġmittel stand
cke feller
sie g
ĠĠĠĠĠĠĠĠĠĠĠĠĠĠĠĠĠĠĠĠĠĠĠĠĠĠĠĠĠĠĠĠ ĠĠĠĠĠĠĠĠĠĠĠĠĠĠĠĠ
mo re
ĠbÃ¶ hm
ĠmuÃŁ ten
reg or
reg ular
Ġbu en
Ġverein igt
news feed
Ġdeutlich e
kon fl
Ġverw altung
od or
Ġheraus zu
ĠkÃ¼ mmer
Ġlau ten
Ġmel de
Ġwach sam
Ġheil e
Ġmerk mal
Ġmerk eln
Ġmigrations gruppen
Ġjahrz ehn
Ġholl Ã¤nder
Ġwachsen de
Ġhom ogen
Ġident isch
Ġehemal iger
Ġkonst antin
spazier gÃ¤nge
Ġmoral ische
Ġdiskrimin ieren
krit isch
Ġperfe kte
Ġnotwend igkeit
Ġbru chteil
Ġdum pfe
sta edte
Ġzweck s
Ġlandsl euten
gst off
schei ÃŁer
Ġinternation ale
Ġschlie sslich
prof is
ðŁĳİðŁĳİ ðŁĳİðŁĳİ
Ġfinanziell e
Ġarbeitsk ollegen
Ġcomm un
ðŁĺħðŁĺħ ðŁĺħðŁĺħ
iy ah
Ġgeburten rate
ĠðŁĴ ª
ĠÃ¼bersch ritten
Ġbestand teil
Ġeis zeit
ĠzÃ¤hl e
Ġtranspar ente
Ġgequ irl
Ġfeier abend
Ġqualifiz ierten
Ġbeklopp te
Ġgleichgeschalte te
Ġgrundlegen d
Ġbulgar ien
ĠgÃ¼lt igkeit
feiert ag
ĠschlÃ¤gert rupps
Ġtalks hows
Ġergreifen d
ĠanmaÃŁen d
Ġvok abular
Ġkil ometer
Ġerpress ung
Ġstimmungs mache
anis law
Ġaufgel Ã¶st
Ġschme ckt
svert rÃ¤ge
kaem pfer
Ġsymp at
mahnw ache
Ġbevormund ung
ĠfÃ¤h igkeit
Ġseu che
ĠauswÃ¼ch se
eign issen
ĠermÃ¶gl icht
Ġzerbom bt
ĠdrÃ¼ ben
Ġopport un
categ ory
. Ĉ
4 08
5 08
7 03
9 20
c g
c as
d ruckt
g Ã¤ng
h und
h Ã¼l
n us
n ord
o ser
o llen
p os
q l
s ei
s il
w achen
z ehn
Ġm aus
Ġb az
Ġb elt
Ġb uerger
an spruch
sch u
sch Ã¤men
Ġau schwitz
at ina
eu gen
Ġver ga
Ġun wichtig
Ġauf fÃ¼hren
Ġan sp
Ġer fre
Ġer schlagen
Ġer laubnis
Ġer lebe
Ġer eignissen
se d
Ġwer be
Ġaus getreten
Ġja p
13 67
un wort
hl er
Ġmein etwegen
Ġnach frage
Ġpro te
sp un
ver herr
Ġbl abla
ges prochen
Ġam ok
Ġlie ge
ĠmÃ¼ hlen
28 8
36 7
Ġschw Ã¤che
dlich er
schl Ã¤gt
so viel
Ġmacht haber
Ġher de
Ġverb annen
ab schie
mus sten
Ġto il
Ġverl aub
Ġne ee
Ġeben d
pl es
fÃ¼ hrend
Ġschei ter
ost er
Ġdenken der
Ġdemokratie verstÃ¤ndnis
Ġschn u
Ġle cken
Ġgesp on
haupt sache
Ã¤d igung
Ġange fÃ¼hrt
Ġverk Ã¼nden
Ġper so
Ã¶t chen
Ġkran ker
Ġei mer
stimm e
Ġstein igungen
Ġson nst
Ġla ÃŁ
Ġabge ordnete
Ġtotal itÃ¤ren
hol stein
Ġneben einander
Ġfrag wÃ¼rdig
Ġverlogen es
ĠwÃ¤r t
Ġkommun izieren
Ġprim itive
Ġschlau e
Ġhinzu stellen
Ġabsol uten
Ġeinwanderungs gesetze
ĠgehÃ¶r te
Ġschwier iger
Ġbru st
Ġton ne
schm eldung
sar razin
ĠreprÃ¤sent iert
Ġbeeinfl usst
Ġkre aturen
fal schmeldung
Ġkarr ikaturen
Ġsymb ole
morgen post
ĠmiÃŁ stÃ¤nde
Ġabw Ã¤hlen
Ġablen kung
Ġenkel kinder
normal e
Ġgefol tert
Ġtrag bar
pres st
ĠverprÃ¼ geln
Ġverwirr ten
Ġsieh ste
Ġeskal iert
Ġemot ionen
Ġpromin ente
Ġtranspar ent
Ġunbek annt
ðŁĴ©ðŁĴ© ðŁĴ©ðŁĴ©
bir nen
Ġneid isch
Ġghett o
Ġredu ziert
Ġzion isten
Ġliebl ings
Ġobjekt ive
wÃ¼n sche
Ġgehir ngewaschen
Ġbegrenz ung
Ġsmartph one
hum an
Ġkalasch nik
Ġeinkl ang
Ġmoss ad
Ġsowj et
Ġpatz elt
sdaten speicherung
ĠschÃ¤rf ste
Ġmainstre amm
7 25
? ....
h es
k Ã¤
k ran
k ranken
m r
n i
n iger
q v
s ach
t in
v ing
w elle
y ah
z iger
Ø ¬
Ġ Ú©
Ġd il
Ġs we
Ġs ign
Ġs essel
Ġi k
Ġm unde
Ġm etzger
Ġg or
Ġg ot
as min
Ġb mw
Ã¼ b
Ã¼ mer
Ġk reise
Ġl im
Ġl atten
gen auso
eu l
Ġzu flucht
Ġt ast
Ġt afel
et teln
and re
Ġver recken
ter e
Ġo ption
Ġmit geteilt
Ġan p
Ġan nahme
Ġan bet
Ġan schuld
Ġer bl
Ġer satz
Ġr olf
Ġst uss
19 8
Ġwer ft
14 29
Ġfr on
17 8
23 8
Ġges endet
Ġvor herr
ĠÃ¼ber hand
sp flicht
24 9
Ġgen ie
Ġste mmen
Ġmenschen un
ver haftet
Ġang eben
uss i
ha gen
imm ern
rie fe
wei ss
Ġrecht liche
Ġmuslim isches
35 4
37 9
38 8
36 9
59 7
Ġverst orben
Ġausl egen
teil ungen
Ġkon sens
Ġgro es
gr ins
Ġir rit
tel t
Ġhei ÃŁe
Ġsicher er
Ġkinder ficker
ĠbÃ¼rger lichen
Ġpl Ã¤d
du ess
Ġvoll em
Ġbet teln
Ġbet ween
Ġgest Ã¤rkt
Ġgest attet
Ġgeb Ã¼rt
Ġbeh er
Ġqu ark
Ġdi plom
recht sextrem
los es
Ġres sent
Ġtoler anter
Ġoffen bart
Ġget ro
Ġmeinungs Ã¤usser
Ġverm ehren
sk inder
Ġfalsch aussage
organis atoren
Ġfrauen rechte
stell bar
Ġgeg riffen
gegen demos
grund gesetz
Ġverh andelt
Ġkur t
Ġaugen blick
Ġschnell stens
je ktiv
Ġfest stellung
sel ves
ga briel
bes itz
bes uch
Ġhaupt problem
Ġdrau ssen
Ġkat ar
Ġschau st
gemein sam
Ġuntersch icht
Ġrus se
Ġerl ernen
ĠmÃ¼n ster
Ġfacebook seite
na ckt
verb rechen
fin alen
po sten
Ġausge st
Ġhar ten
Ùħ Ø¹
Ġhaus aufgaben
Ġsa ÃŁ
Ġort hodo
Ġideolog isch
Ġpegid ianer
bert as
Ġsto ÃŁen
Ġpatriot ischen
gef asst
Ġausser halb
Ġpassen de
aaaa a
aaaa aaa
zÃ¼ gig
Ġsitu ationen
Ġche freda
Ġbezie hung
Ġbeob achte
Ġleb te
Ġta q
Ġnord afrika
Ġwinter fest
Ġfahr rad
Ġsprich wort
bundes kanzlerin
mach ung
Ġverf Ã¼gen
ĠðŁĺĦ ðŁĺĦðŁĺĦ
wirk lich
wirk sam
amer ika
Ġq m
Ġmangel nde
Ġinv as
Ġsil ber
aller dings
Ġsus an
Ġpopul ismus
Ġfortsch rit
Ġrandal ierer
Ġiniti ative
ĠbrÃ¼der lichkeit
part ner
Ġkonserv ativen
Ġkonfront ation
Ġexpl od
ordnet er
Ġverharml ost
Ġinvest ieren
Ġmie se
Ġemot ional
verst eher
Ġresult at
ĠunzÃ¤hl igen
Ġbeir ut
schmei ÃŁen
Ġverr Ã¤t
vorsitzen der
Ġklop fen
ðŁĴª ðŁĴª
Ġmuselman en
Ġsubst anz
Ġske ptisch
Ġalger ien
Ġbarm herzig
Ġarschkrie cher
ĠÃ¼berrasch ung
metap edia
Ġbuen os
. !!
. ^^
5 10
c ia
d iener
e au
f inde
k ategorie
m id
n r
p x
p ed
w em
z l
Ä Ľ
er hÃ¶
Ġs Ã¤tzen
Ġs mil
Ġa v
Ġm eyer
Ġm asche
st ich
st ungs
st amm
st asi
Ġl ack
re en
ar men
em al
Ġin zucht
Ġzu grund
Ġzu geht
Ġso met
Ġt en
Ġt abl
Ġj ugosl
Ã¶ die
lich em
Ġun heimlich
Ġo je
Ġauf zur
Ġan atol
enn te
Ġaus richten
15 0
14 8
Ġja cke
Ġfr isst
un fassbar
Ġvor geben
Ġvor kommt
Ġvor gegangen
Ġab n
Ġnach lassen
Ġpro pegida
sp ur
24 03
Ġkl age
Ġkl icken
Ġang reift
Ġmu hammed
Ã¤t igen
Ġbes agt
Ġbl asen
Ġc ivil
Ġc ole
art a
Ġland schaften
Ã¤ng ste
Ġgesch ockt
ungs weise
47 6
ri ckt
kl ass
fl iegen
Ġent l
Ġmedien landschaft
Ġto wers
ers on
aufen ster
Ġbesch rÃ¤n
Ġbesch nitten
ren gt
Ġlink sl
Ġdemokrat ischer
Ġro sen
Ġde k
Ġnat Ã¼r
Ġju p
da v
Ġ19 82
hei rat
bend it
ho heit
ogen heiten
Ġschn elle
Ġoffen es
Ġget raut
ma i
Ġbundes amt
sk Ã¤m
Ġsozial amt
Ġben jamin
Ġmut iger
Ġange wandt
Ġwider wÃ¤rt
eld orfer
Ġkar sten
Ġheimat lÃ¤ndern
Ġvideo text
Ġschwach kÃ¶pfe
kr am
Ġson g
post illon
Ġlust iger
ĠgefÃ¤hr der
kon vert
Ġabendland kultur
ow sky
Ġhaus halt
Ġrep ort
86 8
schn eider
Ġverschieden sten
Ġgra be
Ġmed ium
Ġtu mmeln
ham eln
Ġkommun en
ĠprÃ¤ sidenten
Ġerf inden
Ġsar kast
Ġsympath isiert
Ġhalb mond
Ġneutral en
Ġverfassungs feindlich
Ġbahn st
Ġpauschal isierung
Ġche ck
Ġfil me
freund et
ole on
ĠmÃ¤r ty
kn all
neu jahr
Ġsooo oo
oss is
cam ps
Ġangem el
hel fen
Ġbir git
Ġsamm elt
Ġordentlich en
Ġszen ario
Ġabgeh oben
Ġintellekt uellen
Ġliban esen
Ġschick e
Ġsay y
ĠverÃ¶ffentlich ung
Ġtitel bild
ĠzukÃ¼nft igen
Ġeint rÃ¤ge
peg id
Ġgei sel
Ġra keten
Ġdul det
Ġtaschen lam
Ġabw enden
Ġsig mar
Ġgefol gt
Ġdomin ik
Ġew igen
europÃ¤ er
/# !
iy ya
ĠhÃ¤r te
Ġair es
Ġprofession ell
Ġislamkrit ische
jÃ¼d isch
Ġbsp w
Ġsn ip
deck ung
Ġgeziel te
Ġtrans fer
Ġente bbe
Ġbosn ien
Ġpfeffer spray
Ġgrunds Ã¤tze
ĠzugehÃ¶r ig
gewerk schaft
Ġeingek esselt
Ġgefil mt
1000007 4200
Ġbelt way
10000074200 3408
( !)
, "
? .
a j
b igen
f rÃ¼
g ler
h ause
m Ã¤user
u sen
y mpath
y ek
Ġd iss
ei tert
st art
Ġn l
Ġh em
Ġk ri
Ġk alte
Ġund ank
Ġf asse
Ġf elle
Ġf antasie
icht er
Ġein her
ar u
Ġzu verl
Ġt am
Ġt wo
Ġt rug
den e
der en
Ġha lle
Ġan zusprechen
ut te
be cq
Ġja mmer
Ġpegida bewegung
13 66
Ġ" "
Ġgegen argumente
Ġpol e
26 0
Ġnach folger
Ġdeutschland fahnen
Ġander st
27 6
sp h
sp rop
sp inner
Ġuns ich
Ġunter stellung
ver g
âĢ ĺ
Ġfa kes
Ġe kl
Ġgew oll
Ġsel ekt
Ġc d
Ġc lub
Ġlei h
Ġeigen schaften
ru tsch
37 6
Ġgesch ah
45 9
ti cker
48 9
56 6
br aten
so fort
org a
Ġgu ys
ĠbÃ¼rger entsch
vor schlÃ¤ge
Ġpl atzen
Ġasyl heim
Ġbet reten
ĠðŁĺ ¢
Ġhinter m
gesch eitert
Ġwe ste
Ġqu ant
Ġqu oten
zeit geschehen
Ġant rÃ¤ge
Ġmar ke
Ġsonst was
Ġged auert
Ġraus kommen
Ġschn itzel
Ġach ille
ust er
spiel e
Ġget Ã¼r
sk raft
zahl ungen
Ġaugen zeugen
do wn
ĈĈĈĈĈĈĈĈ Ĉ
Ġfreiheit s
Ġrei che
Ġstaats medien
Ġoh je
welt krieg
Ġind ia
Ġheimat lÃ¤nder
Ġfasch istisch
Ġstolz er
Ġlo ben
Ġmin aret
ĠgefÃ¤hr lichen
stehen den
Ġkurz fristig
Ġbesonder e
Ġversch ont
Ġgegeben en
Ġeinsch Ã¼chter
Ġheraus forderung
Ġprozent satz
sich erung
Ġlau ro
Ġmassen einwanderung
Ġwillkommen skultur
Ġverp isst
ĠbefÃ¼r wortet
Ġhol e
Ġku chen
ÙĨ Ø§
ĠgrÃ¶ÃŁer er
Ġhinterher laufen
Ġhind ert
rep ort
verd rossen
Ġpauschal isiert
ĠgeprÃ¤ gter
bahn straÃŁe
97 0
Ã¼lt ige
Ġsinnvoll e
ĠsÃ¤m tlichen
Ġeinfl uÃŁ
ĠfÃ¶r mlich
Ġschreck liche
Ġprodu zieren
li bertas
Ġgrat ulation
frem de
nu ll
Ġkre ativ
fal se
Ġguck st
ĠdÃ¤m licher
ĠtÃ¤t igkeit
Ġzunehmen de
Ġparad ox
ØŃ Ø¨
german iae
ĠgÃ¼n ter
ĠmiÃŁ braucht
block parteien
part eitag
ero bern
entsch uld
Ġlen in
Ġspren gstoff
Ġatom kraft
Ġereig nis
Ġverzwei fel
Ġbehinder ung
waffen gewalt
skr itik
Ġmultikulture lle
Ġverwirr te
Ġtenden zen
bro der
bir ne
Ġbrun o
Ġdunkl en
Ġ:' (
Ġ` `
ĠberÃ¼ hm
ebst l
freu de
ĠfrÃ¶h lich
Ġrechen schaft
Ġimag in
abgesch afft
Ġpri or
Ġlutsch er
Ġnight club
Ġspir it
Ġjeh ov
Ġkho bar
Ġdonner stag
Ġ--------------------------------- --------------------------------
Ġunpassen d
Ġtrop fen
Ġsnip ers
libertas germaniae
! .
4 36
a eter
b Ã¤
b adr
d ich
o de
r ss
s om
s eife
t rue
u fakt
v ol
v oting
w ut
w inter
x g
Ã ³
Ġd achten
Ġs Ã¤t
Ġs ende
01 9
Ġa ve
Ġn atz
es ig
Ġb afi
Ġk apier
sch eisser
Ã¤ tsch
Ġz Ã¼
Ġl enkt
em o
der westen
Ġver drÃ¤ngt
Ġo e
Ġauf get
Ġha ette
Ġst Ã¼tzen
Ġda stehen
18 6
18 8
Ġbe come
enn o
ut ieren
22 8
ge worfen
ser klÃ¤rung
15 44
um bai
Ġvor schriften
ĠÃ¼ber setzen
Ġab sprechen
Ġab zusagen
Ġab bas
26 8
Ġnach denklich
Ġnach zulesen
Ġgr ins
Ġ- ,
Ġunter such
ver such
ðŁĺ ¤
Ġgew a
Ġgew agt
Ġbl ame
Ġgut hei
Ġen er
Ġch or
45 6
Ã¤u scht
57 8
hen ryk
rÃ¤ te
ĠmÃ¼s stet
Ġerst ochen
Ġwelt meister
rat s
pt ly
Ġverb ind
Ġis ol
Ġterror warnung
Ġfrei em
ĠÃ¶ konom
Ġpl ant
Ġung Ã¼ltig
Ġpar ade
Ġpolizei bericht
Ġpolit ker
unter halt
man che
Ġaller meisten
wa ff
Ġle ague
oo te
Ġmann es
Ã¼t ten
Ġmeinungs mache
Ġsag s
Ġhoch schulabschluss
Ġsozial arbeiter
Ġhel p
Ġel sÃ¤
nehm t
anst alten
Ġrei s
Ġmach er
Ġ7 7
Ġrum t
Ġschm eiÃŁ
mo de
Ġnational isten
Ġei sk
Ġwest macht
Ġschwach m
Ġuntersch reibe
Ġgek on
Ġverschw enden
Ġglaub haft
Ġbom bay
Ġ12 000
Ġeuro s
staat es
Ġgesetz lich
vers orgung
Ġverw under
Ġhar m
Ġsogen annter
Ġaust auschen
Ġtroll s
76 7
Ġhetz te
schn eiden
Ġamerikan ern
ĠtÃ¤ glichen
Ġâ Ŀ
uelle becq
Ġweltoffen en
oe zdemir
stu hl
Ġ35 0
Ġzuh Ã¶rt
Ġaggress ionen
cl an
Ġhu sch
Ġeindruck s
Ġangesprochen en
Ġarrog ante
Ġausb aden
Ġfe el
Ġlegitim ation
Ġroth schild
pu ter
Ġantis em
Ġbal ken
Ġgering ste
Ġsil ke
Ġfundamental ismus
Ġbeschwer de
Ġkraw alle
ĠÃ¼b liche
Ġerkenn st
Ã¼l ze
Ġvorber eiten
Ġnerv Ã¶s
Ġsaar brÃ¼cken
>> >>
Ġgeschichts unterricht
jaehr iger
Ġbezwei feln
Ġethik unterricht
ĠÃ¤nder ungen
Ġumzu gehen
itu ation
Ġurspr ungs
Ġfau le
Ġeskal ation
Ġverblende te
Ġpubl iz
Ġonkel z
Ġspezial isten
ĠausfÃ¼hr ungen
aw ien
oug ht
Ġbrun nen
ĠabendlÃ¤nd ischen
ĠunverschÃ¤mt heit
uchte l
Ġrisk ieren
Ġausnahm sweise
Ġkrau se
Ġgrus elig
wolf gang
ĠnÃ¼tz lich
Ġwachst um
Ġpfa ffen
Ġmimim i
Ġbisch of
Ġbetrie be
Ġschweigem in
Ġmean ing
Ġgeseg net
Ġloy alitÃ¤t
Ġfab ian
kopfsch Ã¼ttel
Ġeinlu llen
ĠelsÃ¤ sser
7 39
? ..
b io
d oo
h unde
j h
m itte
m Ã¼n
n eben
o q
s hintergrund
t it
t ran
v q
x fa
z g
Ø º
Û Ĵ
â ľĮ
Ġ Ø§
ch sl
ei mt
01 1
Ġa zz
Ġa prop
Ġa hu
Ġg ier
Ġg ur
Ġg idas
Ġh ig
Ġb ogen
Ġv ill
Ġk au
ll ern
Ġz ers
Ġl ar
Ġl iz
Ġl ash
Ġp fosten
al m
hr a
Ġin fl
ach gut
and ra
Ġver Ã¤r
Ġver passen
ind ymedia
Ġo slo
Ġmit m
Ġmit ge
ro llt
Ġan reisen
Ġer ziehen
Ġer Ã¶ff
Ġst ig
Ġst Ã¤n
Ġst reich
Ġbe absicht
Ġaus richtung
Ġdem ask
be zir
iel e
tt ungs
09 55
Ġum gegangen
?? !!
os keln
Ġunter worfen
ver sprechen
zu halten
Ġwieder ein
Ġwieder auf
Ġfa c
Ġe p
Ġe ffe
28 9
iz ei
Ġet lichen
Ġgesch Ã¤tz
Ã¤u den
Ġschw einer
Ġhin kt
Ġhin fÃ¼hren
inn a
Ġherr scher
Ġgenau en
Ġth ought
Ġwelt weiten
Ġher halten
Ġverb inden
Ġkon n
Ġent steh
qu is
Ġhei me
Ġneu markt
Ġthe odor
Ġnun ja
Ġbesch eiden
Ġpoliz eist
ren te
Ġgo ing
Ġchrist in
hin ein
uer lich
Ġgeb all
Ġbeh Ã¶rde
Ġtrau riger
recht liche
ehm er
Ġmar ch
war tet
ho ut
Ġklein ere
ko v
Ã¤d chen
wor ben
Ġse par
Ġkam el
gem erkt
feind liches
Ġfalsch meldung
Ã¼nd igung
weil er
Ġel em
Ġlos geht
Ġweit gehend
Ġnot hing
Ġhal ber
Ġrei ter
Ġstar tet
ĠblÃ¶ des
Ġverk ra
ĠvÃ¶ lliger
Ġbericht erst
Ġwit ze
zug s
Ġveranst altungs
Ġuntersch reibt
ib a
Ġtr ink
Ġreicht um
Ġabl egen
iÃ¶ se
ĠrÃ¼ stungs
Ġtotal itÃ¤re
Ġnieder lÃ¤nd
Ġantif ant
Ġwert esystem
79 9
Ġjob center
ĠbefÃ¼r chtet
Ġ14 0
Ġgefunden es
Ġtages zeitung
Ġinteressant es
ĠÃ¤r mer
Ġmontags demo
ef eld
Ġverschl ieÃŁt
ĠschlÃ¤ fer
Ġaktiv isten
Ġ???? ??
Ġrassist ischer
zunehmen de
bu den
christ liche
unser er
kot z
Ġnaiv itÃ¤t
glau be
ĠðŁĺĦ ðŁĺĦ
Ġlegitim iert
Ġnotwend ige
Ġaufgeh Ã¶rt
Ġgraus ame
ĠverblÃ¶ dung
Ġversammlungs verbot
Ġdoppel te
mÃ¼ ll
Ġmedial en
Ġdankbar keit
Ġschlie ssen
brÃ¼ dern
ĠtÃ¶t ungs
Ġscho ol
Ġvertre te
Ġstrate g
Ġintegrations un
inform ation
Ġschmier fin
Ġki ppen
:: ::
Ġbab ys
Ġweb site
rÃ¶ me
Ġunbek annte
gener al
ĠabendlÃ¤nd ische
ĠverrÃ¼ck te
Ġgepfl ogenheiten
Ġredakte ure
tÃ¼rk ei
ĠdÃ¶r ing
ĠerbÃ¤rm liche
Ġmont age
Ġwich ser
Ġausnahm slos
509 24
ĠklÃ¼ ger
offiz iell
Ġfig uren
dadgd x
Ġbefrei ung
Ġvertu schen
Ġatem zug
Ġbit tet
Ġhies igen
Ġerwer b
Ġverlin kt
Ġversiff ten
Ġausleg ungs
sprich st
ĠhÃ¤uf iger
Ġgnaden los
Ġprie ster
Ġquadrat meter
lik es
Ġerwei tern
Ġgrosst eil
Ġferng est
Ġmue zz
hÃ¼l sen
nus ra
Ġverga ÃŁ
Ġsayy af
Ġjehov as
ufakt ur
! ....
3 31
4 16
b ook
b acke
d at
d ler
f y
h ut
k ne
n asen
n eutral
o es
p on
t ri
u we
v Ã¶lk
w acht
w are
Ä į
Ø ®
ch a
Ġd ehm
Ġd oku
Ġa sche
Ġg ymn
Ġdie t
Ġb unter
Ġb ka
.. "
sch all
Ġl isten
mm m
et abl
Ġver wiesen
Ġauf lage
ro ten
Ġan h
Ġer arbeitet
ÃŁ ten
Ġbe arbeitet
ehr te
Ġaus breitung
Ġal b
Ġdem ot
14 26
etz ter
omm ern
ra p
ra di
Ġvor Ã¼ber
Ġvor ang
Ġvor geschlagen
Ġvor raus
Ġislam iyah
Ġgegen bewegung
Ġgegen demonstrant
06 9
Ġum zusetzen
ĠÃ¼ber zogen
Ġab hilfe
Ġwei chen
Ġander weit
Ġwieder sehen
Ġfa llt
Ġlie fer
Ġgel iebt
ru iter
34 3
55 5
erk aste
so weit
Ġmacht los
ab del
Ġkon zerte
Ġsu chst
sy m
sy ndrom
Ġko oper
wo od
politik ern
Ġasyl missbrauch
Ġzusa mm
Ġwe cken
sicht ig
Ġjem aah
da von
ĠÃ¼ ble
Ġhand ys
Ġmei k
bel e
Ġkom iker
erst immen
mar ion
Ġunterst u
Ġmeinungs bildung
Ġnor weg
Ġnor bert
Ġgesellschaft spol
ay s
Ġfamil y
ath ie
Ġans aru
Ġaugen hÃ¶he
urteil e
Ġjo in
Ġarm se
Ġur heber
Ġvers orgen
Ġwider sp
Ġverk app
Ġsal at
Ġwahl betrug
wÃ¼r ttemberg
Ġtre tet
olog isch
Ġfeind bilder
Ġag g
Ġsalaf ismus
Ġfolgen der
vers ion
ĠrÃ¼ck wÃ¤rts
Ġregel t
ĠØ ¬
fach krÃ¤fte
Ġgeworden en
Ġgerman en
Ġzuwanderung spolitik
Ġober lehrer
Ġvolksver tretern
schn itzel
grÃ¼ ÃŁe
terror ist
ĠtÃ¤ tern
sh eu
Ġzer flei
Ġabzu schieben
pr inzip
Ġverschl eiert
demokrat ische
ÙĬ Ø±
Ġnetz planet
Ġ11 0
Ġverda mmten
Ġdoo fe
Ġcon fu
ĠflÃ¼chtling spolitik
jahr es
prop het
Ġhimm ler
kor rup
Ġerschein ung
fluechtl ings
ungl Ã¤ubige
port al
Ġherzlich st
ta iba
Ġass i
mÃ¼ hlen
ĠerzÃ¤hl st
Ġillegal en
Ġhen ry
ĠjÃ¼ng er
Ġantifasch ismus
Ġye ar
Ġeinschl ieÃŁlich
part y
finanz en
Ġing enie
Ġvorn her
Ġwuer den
rec ruiter
Ġbab y
Ġbrenn punkten
amerikan ischen
Ġabgew Ã¤hlt
Ġsyr ischen
Ġblau Ã¤u
ĠausfÃ¼hr lich
Ġleh mann
ĠbevÃ¶lkerungsanteil s
Ġlok al
Ġbeschuld igen
Ġmanuel a
Ġerheb lich
slo ser
Ġbeschn eiden
Ġbefo re
kass el
Ġtherap ie
Ġumer ziehung
Ġtreff punkt
Ġult ra
Ġunein gesch
Ġannet te
Ġmah atma
Ġeinkn icken
Ġsensation ell
Ġschmun zeln
dial og
Ġazz am
Ġlash kar
9 04
b Ã¼ndnis
d m
d Ã¼r
h men
k p
l och
m ittelt
n chen
n ehme
r id
z v
Ġ Å
Ġ ***
Ġd iv
Ġd rast
Ġs as
Ġa gent
Ġi d
Ġm es
Ġm ol
Ġm ami
Ġg reu
Ġg iebt
Ġh et
Ġh Ã¤ng
Ã¼ ndern
Ã¼ mmel
sch ub
Ã¤ ht
Ã¤ ul
Ġz og
Ġz Ã¼nden
Ġz oro
or ge
Ġso cial
Ġj md
ig ida
Ġver achte
Ġun antast
Ġun wahrheiten
is land
Ġauf geb
Ġauf macht
ro ss
Ġan hÃ¶rt
Ġst ei
Ġre ttung
Ġwer ben
Ġwer ter
ehr ung
Ġaus er
Ġaus zur
us ste
iel efeld
und et
23 3
ra f
Ġges under
Ġvor gehalten
Ġvor eingenommen
Ġab zur
Ġab kÃ¼r
Ġnach hinein
27 5
Ġpro jekt
Ġmenschen wÃ¼rde
Ġkl ickt
Ã¤t ig
Ġfa br
Ã¤nder ung
Ġbl ank
Ġbl ieben
Ġc ocker
Ġlie ÃŁt
ang riffe
pf ungen
Ġlei m
komm e
iz ite
38 6
48 8
Ã¤u fe
Ġschw einen
ant iker
fl age
Ġverb alen
Ġverb Ã¼nden
Ġis n
gr uss
tre u
Ġverl auf
Ġverl Ã¤uft
aut os
Ġsicher es
Ġna ech
ĠgrÃ¼ ner
Ġfrei lich
Ġbel astet
ĠbÃ¼rger innen
Ġeh eb
for schung
pl ant
Ġeinz ahl
Ġbet ter
Ġung arn
Ġgest altet
ĠðŁĺ Ĵ
Ġhinter kopf
Ġzei gst
Ġ19 70
Ġthem selves
Ġsonst wo
Ġle ft
Ġle vel
Ġsinn frei
Ġschein asylanten
Ġwort laut
Ġhoch schwangere
gang s
feind et
aa anz
Ġrespekt voll
Ġpr inz
Ġjo e
Ġstimmt s
amm el
Ġlaufen den
Ġfest halten
Ġstaats gewalt
Ġbezeich nest
bes itzer
Ġrech ne
ĠfrÃ¼ hen
Ġsau dis
Ġbesten falls
Ġkennen gelernt
Ġfeind en
inst rum
verb oten
ib i
Ġerm itteln
Ġlust ige
Ġeinge stehen
Ġprovo c
Ġint oller
ĠfrÃ¼her en
Ġentwick lungs
Ġkritik ern
rech ung
Ġideolog ische
Ġspiegel t
Ġmed ik
feh lern
Ġmultik ult
bo te
Ġabzu schaffen
Ġbildungs stand
Ġintoler anten
Ġumge dreht
Ġaggress ion
ĠgrÃ¶n emeier
ĠðŁĳįðŁĳį ðŁĳįðŁĳįðŁĳį
berecht igung
Ġvorhanden e
Ġfehl geleite
wert ung
Ġnaiv en
Ġnegativ es
to den
Ġsamm el
******** ********
Ġtau b
bericht erstattung
Ġuner heb
Ġara bern
Ġreform iert
fal sch
ÙĤ ÙĪ
Ġevangel ische
ĠdÃ¼mm sten
Ġbedauer liche
Ġverwe chsel
ĈĈĈĈĈĈĈĈĈĈĈĈĈĈĈĈĈĈĈĈĈĈĈĈĈĈĈĈĈĈĈĈ ĈĈĈĈĈĈĈĈĈĈĈĈĈĈĈĈĈĈĈĈĈĈĈĈĈĈĈĈĈĈĈĈ
Ġanwesen den
114 3
Ġabschl ieÃŁen
Ġtim o
Ã¼nde te
Ġartik eln
attent at
Ġsyr ische
zens ur
detail page
Ġbezir ks
== ==
Ġinwie weit
ĠØ¹ÙĦ ÙĬÙĩ
Ġlea der
trotz dem
etar ier
Ġschlam pe
Ġmosk au
ĠpÃ¤ sse
sympath isanten
Ġduck mÃ¤user
Ġlichterk etten
Ġerrungen schaften
zugeh Ã¶rigkeit
Ġimpress um
ĠØµ ÙĦ
Ġtast atur
6 03
a ppen
b v
b Ã¶sen
e der
f ache
g idas
i ÃŁ
j ur
j agen
l ehre
p at
q j
s ag
u c
w isser
Ð º
er te
Ġa kte
Ġn Ã¤hr
es ident
an ges
Ã¼ ben
Ġk ing
Ġf Ã¤u
on ald
Ġp ausen
Ġein geben
gen den
ir ate
em burg
Ġin ne
Ġt ieren
ig mann
et ings
lich ung
and s
Ġun interessant
Ġmit unter
Ġauf b
Ġauf getreten
de x
sl an
Ġha gida
Ġan im
Ġer stellen
Ġr ade
Ġr Ã¤uber
Ġwie sheu
Ġbe folgen
Ġaus genommen
be kÃ¤m
Ġmal en
und rauch
ra dio
il a
Ġvor ab
06 26
ĠÃ¼ber sp
ul en
Ġviel zahl
ver kauf
ha llo
Ġbes puckt
Ġwieder stand
Ġe k
Ġc el
ĠmÃ¼ ÃŁt
ang ern
art h
ierung s
ru hen
55 3
46 8
gel aden
schl Ã¤ger
die sen
Ġbr at
rat ten
Ġher abl
Ġis st
Ġent lich
Ġne xt
Ġinter n
ĠbÃ¼rger s
Ġpl Ã¤r
Ġung ut
Ġde aler
Ġgeb Ã¼
ĠðŁĺ ķ
wander ten
ick e
Ġschei ben
sw id
unter schrift
war ds
Ġres ign
Ġmus iker
ĠglÃ¼ck licherweise
Ġanschl uss
Ġgenauso wenig
Ġstatt gefunden
Ġco uld
lo h
Ġans ich
Ġange stellte
Ġrei f
Ġsystem e
Ġ20 20
Ġstaats form
!!!!!!!! !!!!
mo d
Ġaufge fÃ¼hrt
Ġartikel s
wÃ¼r fen
stimm ungen
Ġverein igungen
Ġstein igung
Ġasylanten heime
Ġstark es
ib il
ĠgefÃ¤hr dung
Ġkurz um
vers ager
ĠstÃ¤r k
Ġneben an
Ġunglaub liche
Ġdemonstration sverbot
Ġauseinander gesetzt
Ġy ork
ĠgÃ¤ hn
Ġlau ne
kÃ¶ pfen
Ġgeboren e
Ġ17 0
Ġverar sche
zieh ungs
Ġmed iathek
Ġser v
Ġluft ball
beh and
Ġfort setzung
Ġdiktatur en
Ġhu ffington
Ġgeschw oren
200 9
Ġbeob achter
Ġret tet
Ġausschl ieÃŁen
Ġfehl anzeige
Ġeingesch leu
eide te
ĠkrÃ¤ ften
Ġanerk annten
ĠdÃ¤mlich es
ðŁĳıðŁĳı ðŁĳı
Ġhon k
Ġskand ieren
Ġanal yt
Ġq aida
Ġabst reiten
sol idar
Ġgleichberecht igt
Ġkas ernen
Ġdav utoglu
Ġletzter es
Ġtotsch lagen
Ġsab ot
Ġverkl eidet
ĠverschwÃ¶rungsthe orie
Ġbehand lung
Ġangrei fbar
Ġverbesser t
ĠÃ¼berg riffen
Ġruh igen
Ġahm ad
seid ank
Ġzuwanderungs diskussion
Ġadmin s
karikatur isten
Ã¶ch ern
Ġselbstmord attentÃ¤ter
ĠschÃ¤r fer
Ġposte st
ĠÃ¤m ter
Ġkartoff eln
Ġkomp atibel
Ġverabscheu e
esp recher
krank heit
Ġdit o
Ġbefo hlen
ĠbÃ¤um en
schlimm ste
Ġtick et
Ġverpflicht ung
ĠgewÃ¼n schte
Ġwohlwollen d
cur ity
ĠÙħØŃÙħ Ø¯
Ġernie dr
Ġgequirl te
Ġmainstreamm edien
ĠmeinungsÃ¤usser ung
schall undrauch
Ġvornher ein
/ -/
5 07
7 09
b itz
d auer
f ers
f alen
g Ã¼ltig
h ist
n Ã¼
q w
s em
t ten
t ja
w all
w ache
Ã ¹
Ø ¶
Ø Ł
Ġ ĈĈ
Ġ 53
Ġ old
er folg
er mittlungen
Ġs aat
ie se
Ġa tl
Ġw isch
Ġm rd
es kal
Ġb ook
an halt
Ġv iell
Ġk ay
Ġf anden
Ġz err
re e
re form
re ttung
Ġzu schauen
Ġt isa
el ker
Ġsch ere
Ġsch iller
Ġsch enkt
Ġsch Ã¤chten
Ġist s
Ġden is
Ġver Ã¤cht
Ġun verstÃ¤ndlich
Ġun ited
Ġmit macht
Ġmit lerweile
Ġst anislaw
ck chen
ist ers
Ġaus wahl
Ġaus gaben
Ġal g
13 0
ft iger
17 68
Ġwar d
10 4
land tag
Ġvor fÃ¤lle
Ġsp errt
ðŁ Ķ
ste ten
Ġgr ips
Ġgeh oert
sp unkt
sp erre
ver sen
bl um
Ġkl Ã¤r
Ġkl amm
Ġkl inik
Ġmu d
Ġbes en
Ġbes orgen
rie gen
pp ert
Ġgew uÃŁt
Ġbl ess
Ġc icero
ĠwÃ¤ nden
pf chen
pf alz
rÃ¼ t
sa ar
so gar
Ġho y
Ġwelt bevÃ¶lkerung
Ġgem ischt
Ġverb ale
Ġverb indungen
richt ert
ade d
auf rufe
Ġna ive
Ġklar kommen
Ġmoslem e
Ġbeg rei
Ġeinz ut
Ġasyl verfahren
Ġgeb unden
ĠðŁĺ ı
dr in
Ġpass agen
Ġkrieg sverb
zeit ungen
unter icht
Ġand r
war d
ĠzurÃ¼ck drÃ¤ngung
Ġle o
organis ator
ĠgrÃ¶ hl
Ġel o
Ġans ehe
do ppel
Ġnormal es
Ġmach bar
Ġseiner zeit
Ġhe er
ĠfrÃ¼ chte
uell er
Ġkat zen
Ġreich er
brau ne
Ġkrit er
Ġdro hnen
Ġfern er
Ġmitl Ã¤ufern
Ġempf indet
Ġausge prÃ¤
Ġregel ung
ĠgrÃ¼nd ung
Ġpfl ast
Ġkot ze
Ġnieder landen
mer zen
hand lung
Ġideolog y
ĠfÃ¤ den
Ġverbl endung
Ġtroll alarm
Ġpein licher
Ġleg e
Ġgottes staat
Ġweltoffen e
Ġzug unsten
aaaa aa
Ġangeg angen
heb eln
Ġentgegen zutreten
Ġschluss folger
Ġbur kas
kla ven
Ġli ppen
fan at
ĠwÃ¤hl erstimmen
Ġph ot
Ġukra in
Ġche ckt
Ġimm obil
Ùĩ Ùħ
krimin ellen
Ġbut ter
Ġba cken
grÃ¼nd ig
Ġbekl agen
Ġehren am
Ġkapital isten
Ġhor de
Ġunschuld ig
Ġfe ed
Ġausgel Ã¶st
ĠprÃ¼ fung
einfl uss
Ġmet ap
Ø¹ Ø§
Ġzuge stehen
ĠkÃ¼nst lich
Ġcom puter
ĠstÃ¼r men
Ġscheinheil ige
ĠbevÃ¶lkerungs gruppe
Ġabgeh alten
Ġhir ng
ĠbewÃ¤hr ungs
Ġwil ders
Ġstraff rei
Ġunge w
links unten
Ġevangel isch
peg ada
Ġeinschl Ã¤
Ġautor itÃ¤t
Ġgleichgesch altet
antas ien
Ġkanzler amt
Ġprob ieren
Ġbesatzungs stat
Ġmultikulture llen
Ġordnungs amt
Ġpie tzsch
ĠverdÃ¤cht igen
Ġhilfs bedÃ¼r
Ġkompro miss
Ġabscheu lich
ĠÃ¼berwach ungs
orient iert
bun ten
ĠnÃ¶t ige
199 0955
Ġgeschmack los
Ġbeklopp ten
schweiz magazin
verantwort lich
Ġsugger iert
Ġblum en
Ġdestabil isieren
Ġbedingung slos
Ġunsach lich
ĠtÃ¼ te
Ġverunsich ern
2716 1990955
Ġwitzfig ur
âľ Ĭ
ĠbeschÃ¤d igt
Ġgastfreund schaft
ĠgrÃ¤u eltaten
Ġskandinav ien
unglaub lich
Ġbeglei tet
Ġbundesverfassungs gericht
Ġressent iments
skÃ¤m pfer
Ġschwachm aten
korrup te
27161990955 1143
c ific
f indet
j w
j on
l at
o ter
s itz
t rat
t ausend
v wj
v ariante
w ild
w ischer
y et
Ù ĳ
ã Ģ
Ġ 57
Ġd ut
Ġd egen
st od
ein kommen
Ġh emm
Ġb ord
Ġb ange
.. ,
Ã¼ ÃŁ
sch iff
Ġf einen
Ã¤ len
Ġz a
Ġz onen
Ġl isa
Ġp in
it tert
Ġge achtet
eu ter
or ten
or ia
Ġsch aum
ber s
Ġver fallen
eg ten
eg angen
!! )
Ġun fair
Ġo uten
Ġauf rechten
Ġha cken
Ġer mittl
Ġer spart
Ġst ande
19 3
Ġre fer
cht ungen
Ġdu e
14 0
Ġja k
Ġfr ucht
Ġhat tet
Ġwar men
Ġbei der
Ġbei ÃŁen
ĠÃ¼ber schw
ste chen
res ser
Ġste ck
Ġste mpel
03 7
Ġje an
Ġfa ce
Ġc nn
Ġ! "
Ġmuslim in
Ġdurch lese
45 7
Ġeinfach ste
48 248
Ġschw enken
inn e
so nder
Ġho yer
Ġbr iten
ant is
kl am
Ġverb Ã¼ndeten
Ġkon ter
Ġstaat licher
Ġgef reut
tel chen
Ġzeit raum
qu es
ph em
att acke
ðŁĳ Į
Ġkr im
pe tent
wo gen
pl att
Ġbet reiber
Ġung en
Ġro b
fÃ¼ t
Ġ:) .
Ġmar ie
Ġmar ius
ho den
Ġle der
Ġle eren
mar ia
Ġverm ischt
iss ion
Ġvert reibt
Ġstellen abbau
Ġbezahl e
Ġur teilt
Ġwider lichen
we ckt
Ġlaut hals
Ġfasch o
Ġrech ner
Ġlo hnen
Ġwest lich
wand el
Ġminder wert
Ġreligions gemeinschaften
Ġlik ed
stehen de
ĠmÃ¼ll eimer
Ġla sten
Ġ25 00
Ã¼ch tert
Ġlebens art
Ġschwachsinn ig
mer ken
will igen
Ġrechtsradikal er
Ġgeil er
kar rt
Ġdial ekt
Ġbem it
Ġsh itstorm
Ġverschl ossen
Ġneutral er
Ġwohn ort
Ġauszu schlieÃŁen
Ġstud iere
Ġsouver Ã¤ner
berecht igten
200 8
Ġholl ande
Ġvoraus setzungen
kann st
dar stellung
Ġeingesch lagen
Ġvermu mmen
sstaat en
hel den
Ġvolksverh etzer
Ġpoten zial
Ġbus sen
Ġpu bert
xx xx
Ġpred iger
Ġherrschen de
schrei en
Ġleist ungs
Ġwissenschaft lich
ta ire
hard t
schei ÃŁe
ĠtÃ¼rkisch stÃ¤mm
Ġsub jekt
Ġattack iert
mil iz
Ġbedauer lich
Ã¡ n
ĠkÃ¼r ze
Ġaufl Ã¶sung
Ġdenun ziert
Ġklu ger
ĠseriÃ¶ sen
wenig sten
Ġvertre tern
ĠpÃ¤dophil e
Ġlat ein
Ġberu ht
724 48248
Ġop ium
ĠpalÃ¤st inenser
Ġpie per
Ġparano ia
eulen furz
Ġeinger ichtet
Ġzweif eln
Ġliebl ing
weiger er
Ġunterbel ichtet
typ isch
Ġverskla vt
Ġlam b
Ġunqualifiz ierten
Ġtanz t
Ġausfallen d
Ġpul ver
roth schild
Ġrepress alien
Ġangew endet
Ġlebensst il
ĠgebrÃ¼ llt
Ġverzap ft
Ġnap oleon
Ġminderbem ittel
Ġausget auscht
ĠflÃ¼chtlingsst rÃ¶me
Ġweimar er
Ġangriffs flÃ¤che
Ġcoul eur
konfl ikt
Ġgetro st
Ġzugrund e
neujahr sansprache
Ġverwunder lich
Ġschweigemin ute
) ;
5 37
b k
c m
c ce
c ity
f eu
g Ã¼r
k Ã¶rper
l Ã¼ge
m Ã¤dchen
p te
q k
s ehn
t ungs
w ern
w ulff
y d
z esse
â ĺ
ch ar
Ġs Ã¤uber
Ġw alten
st or
Ġg regor
Ġh auch
.. !!
Ġv irt
on a
on anz
Ġl eu
Ġl inden
Ġp ho
Ġp ause
Ġein stellungen
ar affen
Ġin n
Ġin fil
Ġso c
Ġt og
el ine
Ã¶ ver
Ã¼r gt
Ġver krie
ol aus
ann ung
Ġun ange
Ġun wesen
Ġo lle
Ġmit marschieren
Ġauf hÃ¤ngen
Ġha hn
Ġan sch
Ġan nimmt
Ġan lauf
id d
Ġr afft
Ġst illen
Ġsich ert
Ġre levant
ÃŁ land
Ġbe wei
Ġbe eint
Ġbe freundet
Ġman gelt
Ġdu ld
Ġaus sp
Ġaus bilden
20 9
14 22
13 8
tt ip
Ġges essen
rei bst
il maz
Ġvor wiegend
Ġgegen wehr
Ġum d
Ġab gaben
ul a
Ġnach weisen
sp ir
Ġunter zeichnet
Ġmenschen pflicht
ver teilung
Ġkl ang
Ġkl immt
Ġang ucken
ot her
ha x
ðŁĺ ¢
rie sen
Ġje pp
Ġfa ckel
wei ch
Ġschl auen
Ġc are
ad d
ang abe
Ġber auben
Ġzum indestens
Ġgesch lafen
Ġschw Ã¤tzer
57 6
Ġhin halten
47 23
schl Ã¤
Ġbr it
fl Ã¼
Ġent stand
Ġsu mme
af eln
ah me
Ġneu zeit
Ġneu kÃ¶ln
ult an
ĠgrÃ¼ ÃŁ
Ġbel ohnt
Ġgrund sÃ¤tz
Ġma idan
vor stand
Ã¶l f
Ġwor tsch
Ġde zentrale
Ġgeb Ã¤uden
Ġpar al
Ġju pp
Ġschei ÃŁt
Ġqu ote
Ġqu atscht
unter gang
ip sen
schw anger
deutschland abgeschafft
ĠzurÃ¼ck kehren
Ġle ktÃ¼re
ĠgroÃŁ artigen
ce pt
Ġhoch verrat
gem eind
Ã¼nd igen
ack er
Ġfrauen feindlich
Ġ9 000
geh ort
Ġans Ã¤tze
Ġange stellten
Ġwider sprÃ¼che
Ġkar d
je de
Ġoh hh
stra ÃŁen
Ġlaut stark
Ġles ben
Ġunterschie den
Ġgek rochen
Ġverein zelt
Ġag o
Ġlandes regierung
Ġverantwort ungs
po tt
ĠrÃ¼ck kehr
Ġuhr zeit
Ġbeleidigen den
Ġlebens unterhalt
Ġabges etzt
Ġdiskussion s
hand lungen
Ġkrank heiten
Ġmassen haft
86 4
Ġmass iver
Ġverz ichtet
Ġheil en
Ġaufzu hetzen
Ġgra v
Ġmed ina
Ã¤ss igen
Ġneg erk
Ġbay r
Ġkan onen
sh irt
Ġabgel enkt
pr angern
ĠÃ¼bel sten
ĠwÃ¤hl bar
Ġthom es
Ġmauer fall
Ġspazierg Ã¤ngern
Ġhans eln
Ġwillen s
mÃ¤ÃŁ ige
bundes ebene
spazier gÃ¤ngen
Ġpsych isch
Ġmittelalter lichen
inte llekt
religion s
Ġruss ian
ĠprÃ¼ geln
Ġnett o
ĠÃ¼berw achen
Ġgebur ts
Ġapp lau
mÃ¤r chen
Ġschreck lichen
Ġdum pfen
ĠverblÃ¶ deten
Ġtru e
Ġgrat uliere
Ġmotiv ierte
Ġzunehmen den
Ġverallgemein ert
Ġhaft strafe
Ġasozial e
Ġzentralrat s
entwick elt
Ġahm et
Ġprob iert
Ġzuwanderungs gesetz
Ġadmin ist
ln xz
Ġsitz block
ĠgemÃ¼ tlich
Ġhad it
ĠbelÃ¤st igen
Ġnachge wiesen
ĠzurÃ¼ckge blieben
Ġscham los
Ġbemerk ung
Ġangelegen heit
Ġunqualifiz ierte
ĠergÃ¤n zen
Ġrekrut ieren
Ġalternativ los
Ġbetreu ung
gol denen
initi ative
Ġschmarot zen
Ġstup id
ĠwÃ¶l fe
Ġbevorzu gt
Ġwed ding
Ġumkehr schluss
Ġsomal ia
Ġbestech lichkeit
Ġkarne val
Ġunreal istisch
Ġertr inken
hoe fer
Ġstap el
Ġunsich ere
chsl ung
Ġpho enix
araffen land
Ġbeeint rÃ¤cht
3 09
7 04
= &
b Ã¼
c or
c el
c ians
f k
f achen
g rei
j q
k st
k ord
l angen
l aber
l eitung
r s
r km
r isiko
s medien
t q
v j
w ing
z r
z est
z Ã¤hlt
ä ¸
er echt
Ġd ig
00 6
Ġs Ã¤nger
Ġm och
Ġm iete
Ġg aaanz
ein stellung
Ġu mm
Ġh uch
Ġh ymne
as y
Ġv ot
ll ner
Ã¤ ÃŁt
Ġl eitung
Ġein bruch
Ġein greifen
re direct
ir aden
Ġsch alt
in ett
ber uf
den ker
Ġauf rechte
Ġauf zÃ¤hlen
eh ne
ro w
Ġan rei
Ġan sprÃ¼che
Ġer ma
Ġer wiesen
Ġre formen
Ġbe achtung
Ġwer ke
22 7
Ġaus schluss
Ġaus fÃ¼hrung
Ġaus rufe
be stimmt
be zeichnet
omm y
ra deburg
um b
Ġvor l
Ġislam hass
Ġislam hasser
anz t
ĠÃ¼ber lebt
Ġab o
Ġab we
Ġab stra
Ġmein erseits
Ġwei ten
Ġgeh Ã¤lter
Ġste ffi
ver mu
bl o
Ġkl atsche
Ġgew ohn
Ġschl ange
Ġc ur
Ġc ame
ad din
Ġland owsky
Ġweiter leiten
Ġgel eitet
Ġdurch halte
Ġnaz it
57 9
Ġger Ã¤umt
schl uÃŁ
schl Ã¼ssel
ri ck
ant ideutsch
Ġgem eine
Ġher an
fl ow
Ġstaat ss
Ġzeit nah
iger es
Ġwurde st
Ġkommt s
Ġterror anschlÃ¤gen
Ġna ckt
Ġgu ant
Ġweg lassen
Ġbez wecken
pe z
cher ei
ĠschÃ¶n reden
wer de
wo hnung
ition en
me yer
Ġbet rieb
Ġde cken
Ġgeb Ã¼hren
Ġ:-) .
Ġins geheim
Ġdemonstr iere
gesch ickt
geb ir
Ġrechts krÃ¤ftig
zeit ungs
unter kunft
gar ter
Ġarbeit sver
Ġarbeit samt
schw achen
lie s
Ġget Ã¤t
fahr tsch
Ġwort hÃ¼lsen
Ġhoch burg
ĠÃ¤ pfel
zie llen
Ġange feindet
Ġvers Ã¤umt
Ġwider legt
Ġfreiheit liche
Ġrei ÃŁt
Ġdreck ig
Ġlaut sprecher
Ġverg asen
zent ren
Ġnational feiertag
Ġei erk
Ġdo ktor
Ġverd Ã¼n
Ġwit hout
Ġtyp ischer
olog ische
Ġerstmal s
flÃ¼chtl ings
Ġerl angen
Ġgemeinsam es
Ġdiff usen
Ġ12 00
Ġvolks verrÃ¤tern
kon serv
Ġausge dacht
Ġfach krÃ¤ften
Ġbesonder es
par k
Ġeinsch Ã¤tz
Ġauft aucht
Ġstat ist
ĠwÃ¼ gida
Ġrechtsradikal ismus
ĠbrÃ¼ dern
Ġkrank es
Ġnacht rag
Ġirgendwel cher
Ġverz eihen
Ġbuch es
Ġarmen iern
spolitik er
Ġtu be
Ġleicht gl
Ġâ ĺ
beg inn
Ġzug Ã¤nge
Ġpausch ale
Ġschweigen d
Ġkapit uliert
Ġvermut ungen
Ġrund schau
rechts radikal
Ġetabl ierte
dumm e
)) )
Ġbre tt
Ġstefan ie
Ġpsych op
ĠkÃ¶rper lich
Ġzuge stÃ¤nd
Ġliber ale
Ġtur k
Ġkal kul
ied elt
Ġsin ti
ĠhÃ¤ tt
Ġdunkel heit
Ġsab atina
justiz minister
Ġgenehm igung
Ġing o
ĠÙĦ ÙĦ
Ġkrawall macher
verschw Ã¶rung
Ġpropagand am
Ġentlar ven
Ġbehinder te
Ġweb seite
Ã¤rt ner
beam ten
Ġhundertt ausenden
Ġkarikatur isten
Ġanstren gung
Ġselb iger
Ġkonzent ration
social flow
rang ig
Ġkontin ent
ĠmÃ¼nd ige
Ġdurchschnit ts
Ġkinderporn ographischen
Ġtalks how
Ġchap eau
Ġwilhel ms
Ġmaz yek
ĠstrÃ¶ bele
heuch ler
Ġgleichgesinn ten
Ġalev iten
Ġsymph at
Ġrich ard
volksentsch eide
bere chen
spun kte
Ġaprop os
Ġconfu cians
Ġelo qu
& _
3 26
b recher
f und
f acht
g ht
g old
i land
j n
j Ã¼ng
k her
m aterial
p m
p ret
p ublic
q id
t agen
u gen
u ste
w Ã¼tigen
Ġ 49
Ġd rag
Ġs illy
Ġa p
Ġw dr
Ġw inz
Ġm ies
Ġm auern
st iftung
Ġh ase
Ġb io
Ġp ff
Ġp ink
Ġein bringt
ar ien
ar zt
Ġzu zug
Ġzu rueck
Ġsch oll
Ġsch mitt
in os
Ã¶ se
ur laub
Ġver bringen
Ġver Ã¤ngst
Ġun ab
Ġun auf
Ġun berechen
Ġauf geht
Ġan arch
Ġr ation
19 90
Ġbe fried
Ġall ow
Ġsind s
isch w
14 6
Ġja aa
us k
etz lich
Ġfr u
07 8
um ent
Ġislam verbÃ¤nde
Ġsp err
ĠÃ¼ber treffen
Ġab wer
Ġnach namen
Ġste hlen
Ġste ve
ver fassung
ver schleier
ot h
ha y
Ġpolitik wissenschaftler
iz ed
iz ierte
Ġeinfach sten
44 06
Ġhin bekommen
schl ieÃŁlich
Ġho hem
Ġho hes
Ġfl o
Ġbr as
Ġmacht s
Ġher d
Ġher ange
Ġent sorgt
Ġto i
Ġneu lich
Ġthe o
Ġbel esen
Ġbez og
Ġkrie cht
Ġbesch reibung
gl Ã¼ck
Ġgrund los
Ġgleich zusetzen
Ġdumm kÃ¶pfe
Ġsy ria
ob bt
Ġasyl heime
Ġbet rÃ¤gt
Ġgest immt
wander ungs
Ġzusammen brechen
Ġhinter hÃ¤lt
Ġpolizei angaben
Ġrechts anwalt
Ġ:) )
unter schriften
isk on
Ġant worte
end igung
bild mobile
lie d
ĠgroÃŁ em
stÃ¤nd igkeit
Ġgesp art
Ġkom petenz
pro min
Ġverm isst
Ġhoch mut
gem Ã¤
Ġgemein nÃ¼tz
Ġel ekt
Ġ8 0000
Ġben ennt
akt uelle
Ġverh inder
geh offt
Ã¤lt igen
Ġ!!!! !!!!!!
krie ges
Ġange klagt
Ġstadt verwaltung
stra te
Ġverg iftet
Ġhe ad
Ġlo pez
bed ingt
ech selt
fb c
ka ida
Ġargument ativ
Ġson e
get oe
dd dd
Ġgesetz lichen
Ġka ida
Ġempf unden
pa ar
Ġnieder lage
Ġdrei mal
ĠfrÃ¼her e
fert ig
volk er
Ġprozent ual
ĠkÃ¼ che
Ġfrag st
mein ungen
Ġsteu ert
Ġinst all
schul den
merk ur
ĠschÃ¤ fchen
Ġorg as
ĠbefÃ¼r chtungen
Ġku ck
Ġrechtsch affen
Ġleicht es
Ġâ Ļ¡
Ġfanat isch
Ġerf asst
Ġstraf rechtlich
Ġmoder nis
Ġmoder aten
Ġwand ert
Ġvier teln
Ġgelten den
ĠauÃŁen politik
ĠmaÃŁ stab
Ġgebl endet
Ġbeob achtung
Ġihres gleichen
spl an
Ġbrut alitÃ¤t
Ġhervor ragen
Ġwichtiger e
wÃ¤ hrend
Ġfe der
Ġarbeitsl ager
tot al
Ġbir mingham
Ġfeuer werk
denk st
serv ice
Ġmonat lich
Ġwiederhol ung
Ġah ja
Ġangesch lossen
Ġter or
ci ht
Ġfass ade
har am
hann over
Ġdat o
Ġhistor ische
Ġseltsam e
ĠmilitÃ¤r isch
Ġniedr igen
Ġsi ppe
sto ppen
hing ehen
ĠbÃ¼r okratie
woll te
Ðµ Ð
eins Ã¤tze
Ġgequ atsche
Ġverwer f
Ġagress iv
Ġbeschuld igt
Ġnazischw ein
ĠfÃ¤l sch
Ġunterbel ichteten
ĠschÃ¶ ng
Ġlux emburg
Ġverabscheu en
ĠrÃ¶ mer
masch ine
:- (
Ġobjekt iver
ĠtrÃ¼ mmer
ergeb nis
Ġschimpf wort
Ġassimil ieren
Ġengstirn ig
Ġdev ise
Ġfris eur
Ġklische es
ĠeinschrÃ¤n kung
Ġportug al
Ġterrord rohungen
Ġirrt um
Ġgewer tet
Ġrosar ote
Ġhyster ie
Ġvorrat sdatenspeicherung
ĠmÃ¼llt onnen
ĠgÃ¼r tell
Ġfranzisk a
Ġdraht zieher
Ġmonst er
verar scht
miÃŁ brauch
ĠmÃ¤rty rer
Ġagg res
Ġherabl assen
Ġpflast erst
Ġbesatzungsstat ut
Ġbemit leiden
Ġlamb sdorf
wern er
Ġtog ether
" !!!
" .....
4 04
6 22
? :
a ve
c x
d ra
d aten
d nern
f politik
h Ã¤u
h ington
i hnen
j k
j ap
m per
m orden
p opul
s g
t f
t id
v u
v gl
w l
w al
w eigen
w etter
Ġ ),
ch ert
Ġd ru
ei ht
Ġs ide
Ġs etzte
Ġs inkt
ie sslich
Ġa cker
Ġa cc
Ġm ex
Ġn asen
Ġh orden
as ste
Ġb eute
Ġb ang
Ġb ieder
an fang
an amo
Ġk ei
Ġk iste
Ġk rÃ¼ger
Ġk ogn
Ġf uchs
Ġp utzen
Ġein sam
Ġein halt
Ġein blick
re ter
Ġder selben
or te
ir a
em e
em p
Ġin quis
Ġso zis
Ġsch iff
Ġsch ranken
Ã¶ scht
Ã¶ pfe
Ġver spielt
eg te
Ġwir s
Ġun ang
Ġun zur
Ġun lieb
Ġauf gehen
Ġauf fordern
Ġauf zumachen
sl eben
ro y
ro ckefeller
Ġha cker
Ġer gehen
Ġst ink
19 1
19 7
Ġre lev
Ġre ttungs
Ġbe cker
ist et
22 99
20 6
Ġdem ol
be wegen
be cker
14 28
us g
un kel
ra deburger
Ġges Ã¼lze
ent her
ent weder
Ġvor liegen
Ġum stand
ĠÃ¼ber partei
ĠÃ¼ber blick
ðŁ Į
Ġviel fÃ¤lt
05 8
Ġar yan
sp itzen
Ġuns ympath
ien s
Ġunter bringen
ver suche
rau ben
imm el
ok ol
Ġpolitik erkaste
Ġfa ire
Ġgew aschen
wei chlich
Ġschl oss
Ġc la
Ġc orn
Ġland et
Ġdurch ziehen
Ġmo in
38 99
49 6
Ġhin stellt
43 2403
yo u
so ber
Ġfl oskeln
Ġbr Ã¶
Ġwelt ordnung
Ġgem isch
Ġher gestellt
kl eine
Ġterr itor
Ġterror isieren
Ġna her
Ġblei bst
ess eln
pl ak
hal al
Ġung ern
Ġro llt
Ġgewalt and
Ġgest ohlen
Ġbed ankt
Ġju beln
fÃ¼ hlen
Ġpass anten
geb Ã¼hren
Ġschei tert
Ġqu alifiziert
Ġ19 1
Ã¤hr ung
Ġschn eiden
end es
Ġmontag abend
lie der
wa hre
Ġlang u
Ġstehen den
Ġoffen kund
Ġlinks grÃ¼n
Ġlinks grÃ¼nen
ma x
islam ic
Ġhel me
ak el
sver l
Ġ9 7
ahn t
do cs
ĈĈĈĈĈĈĈĈ ĈĈ
Ġarm str
Ġvers ichern
ex tra
Ġrei ben
len burg
Ġfest gelegt
Ġfei ges
Ġdemonstrieren de
mu essen
Ġei ern
Ġmin arett
istisch em
co re
ĠtÃ¶ tete
ĠgefÃ¼ hr
Ġev a
vie wer
na cra
Ġbef iehlt
Ġka cken
Ġabl aufen
Ġverw endung
ĠØ ±
ĠgrÃ¼nd lich
frieden s
durch schnit
Ġabges prochen
inter essen
Ã¤cht nis
Ġsa ÃŁen
Ġsatz bau
Ġersch ienen
86 38
Ġanz ul
Ġanz eichen
ipp t
ĠschÃ¤ den
Ġkreuz zÃ¼gen
Ġverteid iger
Ġaufzu stehen
Ġniveau los
Ġanzu schauen
Ġira q
Ġfanat ikern
Ġkathol ik
Ġbur k
Ġbildungs niveau
Ġauszu Ã¼ben
Ġbeant ragt
Ġrie cht
bu de
swert es
hÃ¤lt nisse
kreuz berg
Ġeinwanderungs debatte
Ġterrorist s
soll ten
Ġschwier igkeiten
Ġdis qualifiziert
ĠkÃ¶rper liche
136 1768
Ġderart igen
Ġausgeb eutet
Ġschrift lich
Ġmangel s
Ġral ph
Ġliber alen
Ġsamstag s
journal ismus
position en
Ġbast eln
stÃ¤d te
Ġunwissen d
Ġsim one
Ġpress esprecher
Ġorient ieren
Ġhen dr
ĠgemÃ¤ÃŁ igte
Ġren Ã©
Ġinszen ierung
Ġgeschichts buch
Ġumf asst
Ġscheiss egal
Ġzugeh Ã¶rigkeit
Ġjapan er
klus iv
Ġstre ben
Ġbos bach
ĠðŁĴ ©
trau er
Ġright s
Ġeig nen
pÃ¶ beln
Ġkatastrop hal
bank ster
143 049
kol um
schmei ssen
aktiv isten
log isch
Ġfriedlieben de
Ø§Ø ¡
Ġvietnam esen
sterror isten
Ġsilv ester
ĠbÃ¤um e
Ġtagess Ã¤tzen
person al
ĠhasserfÃ¼ll ten
toe ten
Ġwr ong
verda echt
Ġschwamm ig
Ġmiter lebt
Ġschmer zen
sth emen
Ġwaffenex porte
Ġrausgesch missen
Ġkalaschnik ow
Ġjugosl awien
etabl ierten
sym pt
toden hoefer
rkm si
ĠgÃ¼rtell inie
Ġunzur eichen
432403 335
Ġarmstr ong
1361768 06
143049 432403335
" ).
3 13
3 17
4 25
5 35
6 12
7 20
f watch
f ebruar
h b
i ja
j i
j r
k and
p rediger
p ommern
u ber
v c
y wood
Û ģ
Ġ Ñ
Ġd ritter
Ġs m
ie ger
Ġa ben
Ġa str
Ġw iss
Ġi sch
Ġm Ã¤ÃŁ
st eigt
Ġg it
Ġg ig
Ġu top
Ġh it
Ġh ach
Ġb j
Ġk im
Ġk rÃ¼
sch afft
Ġf asst
Ġf antast
Ã¤ ck
Ġein wohnern
it alien
re uer
Ġder jenigen
Ġzu gest
Ġso ÃŁe
Ġt an
Ġsch alte
Ġsch rank
ig an
Ã¶ pfung
and o
Ġmit teil
Ġmit genommen
Ġauf steht
Ġauf gemacht
Ġr Ã¤t
Ġr affen
Ġst eiger
Ġst iften
Ġre thor
Ġdu bai
be kund
ge fahren
und wieder
rei ter
um in
il en
Ġbei seite
Ġsp rit
Ġsp ack
Ġsp eck
Ġsp uk
ĠÃ¼ber geben
ĠÃ¼ber nahme
Ġab weichen
Ġgl Ã¼
Ġgl Ã¤
Ġnach folgen
Ġ( -
Ġ( ?)
Ġkein s
Ġ: "
Ġ: :
Ã¶r ungen
ot ter
he ater
ha ken
29 8
rie fen
Ġgew illt
02 8
Ġschl aum
Ġc os
Ġc ru
iz za
Ã¤ng elt
Ġgesch Ã¶nt
39 9
48 18
Ã¤u f
Ã¤u re
Ã¤r m
Ġschw ed
Ġwill ste
Ġselbst herr
Ġricht linien
Ġho ene
ler s
Ġher vorg
Ġwohl gemerkt
ab s
Ġent b
Ġsu pi
Ġgar keine
Ġzeit gleich
lin ie
Ġverl ange
Ġna ckte
ange bote
ja mmer
Ġpoliz eid
Ġpa ste
Ġgrund lagen
Ġblei berecht
ĠÃ¶ st
Ġpl ump
Ġwor in
Ġung es
Ġgewalt igen
Ġpar l
gesch mack
da ily
Ġ;-) .
ast ung
Ġhand lung
Ġhand els
recht swid
Ġte ach
Ġres sour
Ġtoler iere
Ġgesp endet
lau ben
pro mis
Ġtat verdÃ¤cht
sk a
ress iert
Ġfrauen feindliche
Ġgesellschaft licher
Ġ8 6
geh irn
Ġaugen wischer
Ġpr in
Ġfol glich
Ġarm in
Ġ7 9
Ġzwischen zeit
Ġverg ast
89 9
Ġintegration sproblem
Ġaufge st
Ġtre te
si ver
Ġsach besch
Ġwunder e
Ġuntersch Ã¤tzen
Ġbu de
ĠâĢľ ...
Ġerl eich
Ġgek Ã¼ndigt
Ġbehaup test
ĠgefÃ¼ llt
kon sum
Ġakzept abel
iÃ¶ sen
Ġausge fÃ¼hrt
Ġabge druckt
Ġanschlag es
Ġmanipul ierten
Ġherz liche
Ġschwachsinn ige
Ġdefin iere
hat te
Ġstat es
Ġy ilmaz
bet roffen
Ġglaubens freiheit
Ġherk ules
Ġdikt ieren
hÃ¶ fen
Ġbundestag sabge
Ġtages licht
Ġkommun ist
Ġfot ze
Ġeinzu wenden
blog s
Ġas sozial
Ġrand gruppen
Ġerf assen
ment alitÃ¤t
ĠverhÃ¤lt nissen
Ġkapit ulation
Ġerkennt nisse
Ã¤um en
Ġimm un
Ġfar ce
200 4
200 7
Ġmot or
Ġhimm els
kot zt
Ġkorrekt ur
Ġmomentan en
ĠÙĪ Ø³ÙĦÙħ
Ġmis stÃ¤nde
Ġcl aus
Ġformul ierung
Ġzuwanderer gruppen
Ġgepl anten
cc i
Ġbrei ter
Ġordentlich es
Ġzens ieren
aler ie
kont rolle
Ġpu tsch
ĠsÃ¤ en
toler ant
kom isch
Ġversammlungs gesetz
Ġgrat iskon
kur z
spe cific
Ġtraum atisiert
Ġfein sten
rÃ¤um t
ĠerzÃ¤hl e
hhhh h
Ġdick es
Ġschil dern
Ġhung ern
Ġhistor isch
Ġsven ja
Ġschleichen d
Ġgeschichts bÃ¼cher
Ġabschn itt
Ġgefol ge
Ġgeschm iert
Ġmoslim en
Ġnutz er
Ġverzwei fl
ae ft
Ġfett es
Ġgelungen e
Ġgewinn e
rott ung
Ġgeschen ke
Ġjose ph
opf ert
Ġzeich nen
Ġverleumd ungen
Ġmath ias
jÃ¼d ische
ĠmÃ¤nn lich
Ġruhr pott
................................ ................................
ĠgerÃ¼ chte
Ġ----- --
kna llt
ĠverrÃ¼ck ten
Ġgleicher maÃŁen
ĠÃ¶r tel
Ġgeziel ter
verfassungs schutz
Ġtit anic
ðŁĻĪ ðŁĻĪ
Ġzimmer mann
135 04
bru der
hon igmann
Ġunvor eingenommen
bon zen
Ġty r
ĠberÃ¼cksicht igen
Ġangep rangert
ergeb nisse
Ġstumpf sinn
ĠgÃ¶n nen
Ġtagess Ã¤tze
ĠgÃ¼nst ig
Ġpolizeibeam te
Ġzyn isch
Ġverschen kt
Ġbombard ieren
Ġabget an
Ġimmig rants
ðŁĳĬ ðŁĳĬ
Ġrohst off
ĠgegenwÃ¤rt igen
ĠwÃ¶ch entlich
Ġerkund igen
akzept abel
Ġverschleier ung
ĠgeprÃ¼ ft
sing el
ĠgebrÃ¤u che
Ġpatriarch al
ĠlÃ¤ng ere
Ġameric an
Ġmaj or
Ġgespon sert
Ġswe den
Ġanbet racht
Ġanschuld igungen
kategorie deutsch
down load
Ġantisem iten
Ġunantast bar
Ġimmobil ien
Ġhirng esp
Ġdurchhalte vermÃ¶gen
Ġstatist iker
undwieder verarscht
Ġhoene ÃŁ
! ).
( ?)
0 27
b ehe
b auer
f n
f ro
g rie
h ern
h asen
i Äĩ
k ette
m ist
n b
p az
r iss
r oland
s un
s Ã¼d
s Ã¼cht
t im
t ok
w eh
w om
w alter
z un
Ġ 08
Ġ 56
Ļ ¥
er ungen
Ġd eg
00 4
01 7
ie ter
Ġa de
Ġm cd
Ġn Ã¶r
Ġu ff
Ġh enn
Ġb Ã¤nde
Ã¼ mmert
Ġk id
sch ne
Ã¤ er
Ġz i
Ġein sp
it o
Ġin tent
Ġt ad
Ġsch uf
Ġsch aufenster
12 57
Ġj us
Ġden iz
der honigmann
Ġun klar
och um
Ġo cc
Ġauf hebung
... (
Ġan spiel
Ġan fÃ¼hren
Ġan wohner
Ġer fr
sen kirchen
Ġr Ã¼d
Ġr aff
Ġr Ã¤chen
se y
19 83
ÃŁ te
Ġwer tsch
be kommt
14 4
13 36
un z
Ġvor gÃ¤nger
Ġvor gesehen
Ġgegen demonst
09 8
Ġpol ar
Ġab bringen
ul den
Ġgl atzen
Ġnach hause
Ġ( âĢŀ
Ġgeh asst
Ġunter schw
Ġunter menschen
Ġunter ordnen
bl ob
ger ichts
ha bet
Ġpolitik verdrossen
Ġfa il
Ġgew Ã¶hnen
aus gabe
wei gt
Ġbl as
Ġvolk sw
Ġschl esien
Ġschl araffenland
Ġc at
Ġc ap
Ġlie bst
Ġlei ter
Ġgel en
Ġgel ang
Ġdurch schauen
Ġmo hammad
Ġgesch impft
55 8
ĠĠĠĠĠĠĠĠ ĠĠ
56 8
lig ht
sa al
Ġselbst justiz
Ġbr Ã¶tchen
ab sch
Ġent spr
Ġent mut
eid el
ĠwÃ¤re t
all ein
auf gebot
utu re
Ġfor c
Ġbew ert
Ġko bane
Ġinter gr
Ġweg gesperrt
Ġzw ick
for scher
Ġex or
Ġasyl gesetz
Ġgest oÃŁen
Ġde cke
Ġbeh indern
ĠÃ¼ bt
zeit schrift
viel falt
Ġte ur
Ġte mp
Ġbeleid ige
ĠgroÃŁ zÃ¼gig
Ġgott seidank
islam ist
pro b
sk ir
gew andert
Ġkn ochen
Ġkn aller
rig ht
Ġnot fall
Ġbeit reten
Ġno us
Ġangeb licher
Ġbo dy
Ġind iz
sel ect
Ġmigranten gruppen
frie de
Ġzukunft s
co w
Ġbu ll
rab ah
Ġrede freiheit
Ġgemeinsam keiten
Ġham pel
Ġverein igten
red docs
Ġev olution
rum pf
naz ischw
Ġwochen lang
Ġschwei g
Ġad am
Ġfach kraft
Ġkosten losen
Ġfamilien politik
Ġbesonder en
par ad
Ġober ste
Ġober hand
Ġsa hen
Ġfrag lich
Ġpriv il
ĠhÃ¤lt st
ĠÃ¼berzeu gend
Ġpegid isten
kar a
Ġisrael s
Ġhetz ten
terror ismus
Ġversamm elt
Ġbra ve
Ġas so
Ġabzu stempeln
Ġvergleich bar
gh ett
Ġbill ionen
stu d
stu fe
Ġwohn raum
ev ent
seh er
Ġvergewalt iger
Ġnenn er
Ġdiffer ent
Ġzivil isiert
Ġhu ber
Ġschwein chen
Ġstunden lang
Ġhinzu fÃ¼gen
christ oph
Ġmot ive
ign or
Ġwichtiger es
Ġweh re
Ġpsych ologen
Ġhor ror
Ġwende hÃ¤lse
mÃ¤r kten
Ġbas iert
fÃ¤h ige
Ġchar ly
Ġhon ig
Ġprodu ktiv
ĠgÃ¼ lle
Ġzweck los
ta eter
ĠreprÃ¤sent ieren
Ġtel e
Ġinv ol
Ġlinksextrem ismus
Ġkarl s
Ġfortsch reiten
Ġgre etings
Ġorient iert
prof i
ĠÃ¤g yp
ĠgeprÃ¤gt es
jan uar
sr c
macher ei
normal en
Ġscho en
Ġablehnen d
Ġinvest iert
ĠfÃ¤hig keiten
ĠverdÃ¤cht ig
ĠursprÃ¼ng lichen
Ġinstitut ion
Ġabscheu liche
Ġfing ern
Ġped ida
Ġbelieb ig
Ø§Ø± Ùĩ
Ġsn ow
Ġeingeb Ã¼rger
Ġbemerk ungen
Ġbulgar en
Ġbeschn eidung
Ġbesinn liches
Ġhilflos igkeit
Ġausgew andert
Ġ~ ~
Ġfaden schein
Ġflei ssig
Ġpotent ielle
Ġreflekt iert
Ġunmensch lich
Ġbeeindrucken d
ĠgÃ¶r l
Ġfotograf ieren
arg on
ĠverfÃ¤l scht
Ġtags Ã¼ber
164 20
Ġpressemit teilung
Ġrepres ent
Ġvaterlands verrÃ¤ter
mÃ¤cht ig
Ġauthent isch
Ġtriller pfeifen
Ġbeunruh igt
Ġsowjet union
Ġentsteh ung
kne cht
ĠnÃ¤hr boden
behand lung
Ġapplau d
Ġabwe chslung
Ġguant anamo
kher bane
Ġcorn el
sympt om
Ġgig ant
derhonigmann sagt
" ),
, ....
0 29
8 359
_ -
a ha
a ine
b ug
b ack
b ollah
b amf
c lu
d ur
f deutschland
f rom
f Ã¶rder
h au
i ater
j y
l Ã¶sung
m ot
n Ã¼gen
p c
p ff
p ic
r ent
s id
s iv
t c
x a
x k
z eige
Ø «
Ġ ^
Ġs hal
Ġs lo
Ġs ib
Ġa kten
Ġw w
Ġm ental
Ġg an
Ġg ieÃŁen
Ġg alle
Ġn ice
ein bar
0000 00
as el
Ġv illen
Ã¼ gt
ll st
Ġf inn
Ġf Ã¼gen
Ġz Ã¼nd
Ġl is
Ġl af
Ġl euchten
Ġp ille
Ġp isa
Ġein getragen
Ġge po
Ġge deckt
or sam
au lt
Ġin es
Ġin zest
Ġt rat
Ġsch mal
ach el
ber eiten
Ã¶ zdemir
ur n
Ġver fall
Ġver drÃ¤ngen
eg ern
Ġun um
is me
Ġmit marschiert
Ġauf schluss
sl Ã¤nder
ro bin
Ġan stelle
Ġan meldung
Ġan wohnern
Ġer ik
Ġer geht
ag ert
ag no
Ġr is
Ġr ap
Ġvon einander
Ġda hingehen
Ġre par
ck et
ut f
Ġman s
Ġaus bl
Ġaus kommen
Ġdem agog
be feh
ge p
ge ordnete
ĠfÃ¼r chter
15 9
14 9
Ġja aaa
Ġpegida demo
un abhÃ¤ng
ft i
Ġges and
Ġvor nehm
Ġvor wirft
06 4
anz lei
Ġsp am
ĠÃ¼ber arbeitet
Ġab i
Ġab geb
Ġab fall
Ġab bau
Ġab holen
Ġgl ied
fa ce
Ġnach teil
27 9
Ġpro ebstl
Ġgeh euch
Ġgeh offt
sp elz
24 4
Ã¶r n
ver achten
ha llen
ðŁĺ Ń
Ġgew echselt
Ġsel f
Ġc ir
ad es
Ġwa re
Ġwa cker
pf te
Ġlei er
Ġlei tet
Ġen ger
tlich es
iz ierung
ĠwÃ¼r ttemberg
eich ert
49 9
ĠĠĠĠĠĠĠĠ ĠĠĠ
br ik
br ille
fl ogen
Ġreligion skritik
Ġverb ote
ĠmÃ¶ cht
Ġverl etzungen
ss ingen
Ġbel ust
Ġschul tern
Ġkr acht
Ġgo des
Ġnazi parolen
Ġpl ace
Ġ.... ........
Ġvoll zogen
Ġru ÃŁland
Ġkor n
Ġ:-) )
Ġzusammen fallen
Ġzusammen fassung
Ġzei gten
ho ol
ho od
Ġget auft
Ġlinks versiff
Ġdr ingen
Ã¼t ig
Ġverm ischung
Ġstr ikt
uch tet
Ġgesellschaft lich
Ġentsch eide
Ġben zin
Ġrein zu
geh n
Ġ6 1
Ġem mer
Ġbeispiel en
anst att
Ġstaats religion
Ġmer bitz
stra hlt
Ġpositionspapier e
Ġerw art
Ġhaupt grund
Ġpo int
Ġverschw ind
Ġverschw inde
Ġzit aten
Ġson na
ĠlÃ¶ wen
Ġverantwort liche
Ġerm ittel
ĠstÃ¤r kt
Ġabgesch altet
Ġprofil ieren
Ġabge fahren
Ġversch issen
Ġ% ,
volk es
Ġprotest anten
Ġmassen mord
Ġheuch eln
Ġums atz
ĠÃ¤uÃŁer e
ĠschÃ¤ dlich
Ġhetz ern
ĠtÃ¤ te
haus halt
ĠprÃ¤ senz
Ġkan acken
ref id
arbeit slose
ju gend
ju beln
Ġflie ger
Ġhalb wahrheiten
10737418 26
Ġbar rik
Ġph antasie
str Ã¶
bu dd
Ġstunden lohn
Ġverbr ennt
Ġmainstream ing
Ġzentral er
Ġta xi
Ġrel ation
Ġinterp unktion
Ġvoraus setzung
dar auf
ĠhÃ¤l st
Ġschmei sst
Ġgeschlossen e
ĠflÃ¼ cht
ĠÃ¼berw inden
Ġeinst ieg
Ġverf assen
Ġentt arnt
Ġarmsel iges
Ġdon ald
Ġcar l
bi bel
Ġjen es
ĠstÃ¼r zt
Ġsauber e
sha reddocs
Ġlobby ismus
Ġsport ler
Ġausges ucht
ÙĤ Ø¯
Ġhof mann
Ġbewa hrt
Ġdurchge knall
vern icht
Ġberufs ausbildung
Ġvertre tet
Ġfat wa
ĠthÃ¼r inger
Ġpersonal ausweis
Ġries igen
ĠunfÃ¤h ige
link sextrem
Ġzeich ner
Ġemot ion
zens ion
angeb ot
Ġbezir k
Ġsyn agoge
comm ents
Ġglaubenskrie g
stre ben
bun te
Ġvorsitzen de
Ġlinksfasch istischen
gez Ã¤hlt
ĠschwÃ¤ch sten
Ġpir in
Ġcall ed
Ġbegl eiten
Ġti ppe
Ġvertrau ens
ĠklÃ¼ gere
Ġerober ung
hauptstadt brief
Ġputz ig
Ġabgrund t
Ġprom ille
ĠÃ¼berheb lichkeit
Ġmarg ot
Ġperspektiv en
tschaf tet
Ġwilhel m
Ġdien lich
Ġbush ido
ĠschÃ¤tz ungen
Ġphilosoph ie
Ġeinget richtert
konst rukt
pein lich
Ġunpartei isch
abschie bung
Ġscheiter haufen
Ġmuezz in
Ġanderweit ig
Ġverwechsel st
platt form
2299 8638
Ġlangu age
Ġschlaum eier
Ġverzweifl ung
13504 22998638
Ġgodes berg
1350422998638 36
! ".
0 22
5 48
7 88
? ^^
b ast
f w
f unden
h j
h eulen
j ul
k ungs
k bar
l eb
l eich
l ingen
n ase
r k
r andal
s ign
s werten
t age
v ision
w ind
w ell
w ehren
Ġ 51
en ger
er fen
00 9
ei men
Ġa al
Ġa achen
Ġa spekt
Ġi bn
Ġm ult
st utt
st oppt
Ġg eier
Ġn ciht
.. !!!
Ġv ive
Ġk iffer
Ġund iffer
Ġf ell
Ġf fm
Ġf uture
Ã¤ us
Ã¤ le
Ġz Ã¶
Ġp gida
Ġein lassen
Ġdas eins
ir ass
au ÃŁen
Ġsch aft
Ġsch Ã¤nd
Ġes s
Ġun zul
Ġun wahr
... !!
... ?!
... ðŁĺī
sl iste
Ġan halt
Ġan weisungen
Ġer weiter
ag and
Ġst reitet
Ġst iller
Ġst reuen
Ġall t
ist all
Ġal bert
ser geb
Ġfr ische
Ġfr itz
16 00
16 34
23 5
23 7
07 6
10 89
rei ssen
Ġvor erst
anz ip
Ġum schauen
Ġsp eise
Ġab weg
Ġwei te
ed ikt
Ġkomm erz
Ġunter gegangen
Ġunter ird
bl icken
Ġang abe
Ã¤t tern
Ġfa ken
wei a
Ġbl anke
28 57
art iger
Ġber eu
Ġdurch setzt
zen ten
Ġnaz im
Ġgesch nitten
ungs geld
Ġschw ingt
Ġhin ziehen
59 8
gel egen
Ġdam pf
schl a
br anden
Ġfl u
Ġerst atten
Ġher o
ab is
auf nehmen
Ġbest anden
Ġhei men
ord je
Ġto wards
ah u
Ġbew undern
att ungen
Ġverl uste
Ġna cken
Ġbel Ã¤ch
Ġweg fallen
Ġbesch rÃ¤nken
gl ob
pe ace
ĠauslÃ¤nder in
Ġbeg ab
wer ken
ic es
ĠÃ¶ ko
Ġma ier
Ġsehen swert
hal ter
ĠðŁĺ Ŀ
Ġzusammen gefasst
ick i
gesch ichten
Ġschei s
Ġbek amen
hei zen
ho he
Ġrad ical
Ġte mpel
Ã¤d t
Ġspr ung
Ġmus sen
Ġvert an
Ġkam eltreiber
feind en
Ġfalsch meldungen
ĠglÃ¼ck liche
Ġsozial demokraten
Ġel imin
Ġverh Ã¼
Ġfall es
Ġakt ive
Ġtoll wÃ¼tigen
Ġeins eit
Ġstadt rat
Ġkar in
Ġbezeich nete
Ġsal eh
ĠfrÃ¼ hst
Ġintegration swill
Ġaufge deckt
Ġwest deutsche
co nd
Ġlu egenpresse
Ġvern ie
ret ter
Ġabsch recken
dd d
Ġeinge fallen
ĠrÃ¼ be
88 25
asi um
Ġstimmen anteil
aria blen
bet on
Ġinst anz
Ġaust oben
ĠschÃ¤ big
oph obe
ĠbefÃ¼r wor
ĠbefÃ¼r chtung
Ġsit ze
Ġdial oge
vert rauen
Ġausd rucken
Ġleg idas
Ġschle pper
Ġster nen
ĠaufklÃ¤r ungs
Ġtu gend
Ġtu genden
aff Ã¤re
Ġbur ger
Ġprim aten
stu dio
itter ung
verd re
Ġunver einbar
67 3
Ġvorurteil s
Ø± ÙĬ
Ġtief grÃ¼nd
Ġbezie hungen
Ġmitbe kommt
Ġgelten des
ĠmaÃŁ nahme
Ġret ter
kot zen
spl atz
Ġhervor gebracht
Ġfehl te
Ġeingesch Ã¼chtert
ĠflÃ¼ gel
ueber sicht
Ġberecht igung
Ġhuman ity
Ġfeuer wehr
Ġprop he
kont akt
Ġarmsel ige
Ġwesent lichen
zut ragen
schrei ber
ĠflÃ¼chtlings camps
Ġflug zeug
Ġarbeiter klasse
gu enther
Ġhell ste
Ġrechtsstaat lichkeit
Ġvorge fÃ¼hrt
Ø³ÙĦ Ø§Ùħ
ĠdÃ¼mm lichen
Ġvorzu werfen
Ġhistor iker
Ġunterb unden
Ġbewer fen
ĠverhÃ¤ltnis mÃ¤ÃŁig
Ġbro delt
Ġhomosex ualitÃ¤t
Ġnerv st
Ġnerv ig
Ġwien s
Ġsaar gida
Ġvorder grÃ¼ndig
Ġengag iert
Ġtie ff
Ġmur addin
Ġgesamt bevÃ¶lkerung
west falen
Ġsi ppen
ĠðŁĺĢ ðŁĺĢðŁĺĢ
Ġendg Ã¼ltige
Ġlag ern
inform ationen
Ġschmier blatt
kat alog
Ġbesetzt es
Ùĥ Ø§Ø±Ùĩ
Ġbehinder ten
ĠbÃ¼r o
ĠfÃ¶rder ung
ĠfÃ¶rder lich
ĠgÃ¶ b
Ġbildungsfern en
Ġzweif els
ĠÃ¼berprÃ¼ ft
Ġnachge plapp
ĠnÃ¶t igen
afrikan ischen
ĠgerÃ¼ ckt
Ġgepfl egt
pap st
vorsitzen de
ĠunglÃ¼ck lich
Ġfig ur
Ġnik olaus
Ġsugger ieren
poten tial
ĠÃ¤ngst lich
Ġsubje ktiv
Ġundemokrat isch
Ġdurchzu fÃ¼hren
Ġhingeh Ã¶rt
Ġscher gen
Ġsatir iker
Ġumfassen d
Ġlind a
Ġaufrei ssen
ĠrealitÃ¤tsver lust
Ġpot sd
Ġregierungsk rit
Ġparas iten
Ġvorgesch oben
ĠallerhÃ¶ch ster
Ġorth ographie
Ġabgest ochen
Ġdazugeh Ã¶r
ĠØ£Ùģ ÙĥØ§Ø±Ùĩ
Ġeingeh egt
Ġunaus weichlich
Ġzutreffen d
Ġbeschlie ÃŁen
Ġwon ach
ĠwidersprÃ¼ chlich
Ġprovokate ure
Ġaspe kte
Ġerbl Ã¼hen
Ġgroes sten
stich wort
Ġlinksl iber
sprop aganda
marion etten
ÙĤÙĪ ÙĤ
Ġduld ung
Ġressour cen
Ġaugenwischer ei
Ġsonna bend
Ġundiffer enz
( (
. ĈĈ
. ðŁĺī
4 29
a i
d iv
d rohungen
d nn
d ney
g q
h essen
k aum
m ost
n ennt
o y
p il
p sych
p cb
u cke
v da
w q
w achsen
x er
z iffer
Ġ 44
Ġd tl
00 8
Ġs ultan
Ġw ick
Ġm h
Ġm un
Ġm ieten
st eine
Ġg b
Ġg aben
Ġg Ã¼ltig
Ġn om
Ġn Ã¼chtern
Ġn olegida
ein wohner
Ġb am
Ġb utton
Ġk iller
sch marot
Ã¤ res
Ġl ug
Ġp ath
re ad
Ġge denk
or ig
ir en
Ġt end
12 86
ber ater
Ġver ei
Ġver ti
eg lich
ann i
Ġun wahrscheinlich
Ġo sk
Ġmit gemacht
sl Ã¤ndern
Ġha mm
Ġr ind
Ġst och
19 5
18 54
enn st
Ġaus grenzen
Ġaus zusp
Ġaus fÃ¤llt
be frag
be auftrag
Ġja hn
Ġja mmert
Ġfr ist
13 34
13 58
eil er
Ġwar nte
ra et
Ġges iegt
ent ry
Ġvor gestellt
Ġgegen dem
Ġgegen argument
anz ug
Ġab zieht
ðŁ į
Ġwei ber
Ġnach denkt
Ġnach teile
27 1
24 08
Ġuns Ã¤glichen
Ġunter stellst
ver treten
che ck
!!! ...
ot s
ot z
Ġbes agten
Ġgew eckt
ff elt
Ġvolk stod
ell os
Ġlei be
35 7
Ġgesch eit
Ġgesch lachtet
ti als
Ġschw uchtel
Ġhin richtung
56 9
Ġleben der
Ġger d
Ġnie dert
br achten
ri yet
Ġfl Ã¼ch
Ġbr utt
Ġwelt frieden
Ġwelt weite
Ġproblem atisch
Ġausl assen
Ġir ration
Ġzeit alter
Ġmedien hetze
ss s
Ġnun mehr
Ġbel o
ont aine
Ġbesch leu
Ġgleich em
Ġbesser wisser
Ġtro st
ob jektiv
Ġde c
Ġgeb Ã¤r
Ġgeb ildeter
gesch w
Ġrechts freien
sw issen
unter werfung
unter kÃ¼nfte
Ġaller wer
rad ical
Ġget arnt
fer ien
Ġzie m
Ġhalt s
Ġse ch
Ġanschl ieÃŁt
Ġsozial es
Ġhel ene
ak ten
des ign
Ġrein ste
Ġrein fallen
geh alt
Ġ6 6
Ġvers etzt
Ġjuden hass
Ġrechte m
Ġwirtschaft skrise
Ġbezeich ne
ativ es
ĠpersÃ¶n liches
Ġnational er
Ġneue sten
co ver
Ġgegens eit
Ġfinanz ierte
Ġreligions ausÃ¼bung
ĠlÃ¶ chern
staat svertrag
Ġtr agt
auft ritt
Ġmiss verstanden
Ġeinge bracht
Ġabgesch rieben
fu hr
Ġsa br
ĠkÃ¼ hl
hand elt
mein er
Ġsolch em
ĠfÃ¤ llig
chr onik
Ġplan ung
Ġplan et
Ġgra ben
Ġgottes hÃ¤user
Ġâ ľ
gest ochen
Ġmultik ultur
pfl ichten
Ġattent Ã¤tern
Ġabgel egt
Ġsympath ien
herr en
Ġauszu halten
Ġmoder at
Ġmoder ate
67 56
Ġverfolg ter
Ġbilder berger
rimin ellen
Ġhu i
iar de
Ġfur z
Ġhinzu weisen
Ġholl ywood
Ġfahr gemeinschaften
ĠunabhÃ¤ng igkeit
Ġtran sport
Ġmy th
Ġbre mer
Ġkass iert
Ġmittelalter liche
ĠjÃ¤hr iger
Ġgepl ante
kont o
Ġnotwend igen
Ġ--- >
Ġemp athie
Ġwesent liche
Ġskand iert
Ġeinheit s
Ġsen dern
Ġtraum welt
ĠÙħ Ø³ÙĦÙħ
Ġverab schieden
far ben
stÃ¤d ten
ðŁĳįðŁĳįðŁĳįðŁĳį ðŁĳįðŁĳįðŁĳįðŁĳį
fal sche
Ġangez ettelt
Ġgehei ratet
Ġmusel mann
Ġdeb att
Ġerfolgreich es
ĠÐ ²
ĠÐ ½
Ġrandal iert
Ġwunsch denken
ĠÃ¼berleben de
ðŁĳİðŁĳİ ðŁĳİ
ĠrÃ¤um t
Ġstraftat bestand
Ġunivers um
Ġdumpf backe
Ġabt reten
Ġpur er
Ġany one
Ġendg ame
/# /
zeigt wies
Ġruh iger
Ġungeh indert
ĠpalÃ¤st in
Ġbewaff nete
Ġgeburt stag
Ġindivid uen
Ġfran co
son ntag
ĠmÃ¤nn lichen
Ġkriminal isiert
Ġfisch ers
blÃ¶ d
Ġschleu ser
ĠblÃ¼ hen
feiert age
Ġkontin u
Ġkolon ial
weihnachts markt
sold aten
ĠberÃ¼cksicht igt
altern ative
bÃ¼r o
Ġglot ze
Ġmikro f
Ġexp ans
jes us
Ġfrien ds
Ġschmar rn
Ġnachhalt ig
Ġnaziz eit
Ġvorrauss etzung
Ġheterogen isiert
liban on
Ġvorherr schen
Ġsomet hing
Ġ----------------------------------------------------------------- ------------------------
Ġwiederauf bau
Ġschweiner ei
Ġelem ente
Ġdiet mar
Ġcocker wiese
Ġschlussfolger ung
ĠbewÃ¤hrungs strafe
fÃ¼t tern
ĠverdÃ¼n nt
Ġunberechen bar
Ġinquis ition
Ġprivil eg
Ġbeschleu n
zeigtwies geht
1 18
4 28
7 34
< /
? __
b oko
f ein
f uss
f ru
g igen
g oo
h z
k b
k h
k in
k rat
l eit
l egung
n es
n atur
n Ã¤mlich
o i
o ft
q e
q jc
v p
w y
z ion
Ù Ĵ
Ġ ####
Ġ 09
Ġ Ñģ
ch land
Ġd ol
Ġa dd
Ġi mmen
Ġm eute
Ġm agen
st off
Ġg age
Ġn Ã¼
Ġu dn
Ġh ert
Ġh auf
Ġh elle
Ġb ruch
Ġb agd
.. )
Ġv it
Ã¼ te
Ã¼ ste
Ġk essel
Ġk emal
sch o
Ġau a
on esien
Ã¤ sser
Ġl Ã¤nge
Ġl eugnet
Ġl umpen
Ġp df
Ġein steht
it ies
re aktion
al isten
or isch
Ġzu ruck
ten siver
Ġsch iessen
in v
in ess
in sel
ur z
Ġver weis
Ġver fÃ¼hrung
ter m
Ġun menschen
Ġo oo
Ġauf g
Ġauf er
Ġauf ges
Ġauf fang
Ġan reise
Ġan rufen
Ġr ang
Ġst um
Ġbe denke
ut iert
Ġdem ut
ge bern
etz bar
Ġeu ern
il fen
Ġvor b
Ġvor schreibt
Ġab gebildet
08 57
Ġgeh oben
Ġar ier
ver eine
ver besser
rau f
zu schlag
men s
ha ckt
Ġgi ov
Ġbes etzten
Ġje w
Ġe ast
ges s
Ġschl ieÃŁ
ĠmÃ¼ tze
Ġber aubt
iz iere
Ġdurch kommen
Ġch at
Ġzum eist
45 4
45 68
39 5
36 6
ti c
Ġschw ede
Ġschw esig
Ġger Ã¼cht
Ġherr mann
Ġfl eck
Ġverst Ã¶
Ġerst ickt
Ġth ings
Ġproblem los
Ġgem obbt
Ġher stellen
Ġher kommst
Ã¤nd ische
Ġreligion skrieg
Ġverb Ã¼ndet
Ġent kommen
Ġgro ko
Ġteil nimmt
ne e
ne ck
Ġstaat sober
tel y
..... ,
qu art
qu atsch
Ġwirk sam
Ġneu em
ult aten
ss ache
Ġbel gi
Ġbel euchtet
gl oria
ĠbÃ¼rger rechtler
Ġbeg raben
Ġbeg ibt
wo her
Ġex em
Ġex per
ĠfÃ¼ hre
Ġpl atte
Ġru hen
Ġro s
Ġgewalt verherr
Ġgest rickt
Ġpar don
Ġzusammen ge
Ġnat uerlich
Ġpolizei auto
sw elle
ast hen
Ġmar ken
Ġmar zahn
ho sen
amen ten
Ġversu chs
asch ent
Ġte ch
Ġauss ort
Ġauss itzen
fr eitag
Ġle ckt
Ġstehen de
Ġgesp rengt
Ġdr k
Ġstr ang
sk om
zahl te
weil en
Ġel ende
Ġ8 1
Ġfamil i
Ġverh Ã¶hnt
Ġrein lassen
geh ei
ian ische
Ġ!!!! !!!!!!!!!!!!!!!!
Ġange stellt
Ġange pÃ¶belt
ĈĈĈĈĈĈĈĈ ĈĈĈ
ex press
cke y
Ġsystem kritische
Ġaut oren
Ġangeb ote
Ġdreck iger
olut ionen
Ġmer ci
bes ucher
Ġwahl versprechen
Ġgeist reich
Ġverurteil te
ka mmer
Ġanst alt
Ġpo tt
brau nen
Ġverschw endung
Ġkrit ischer
Ġabsch alten
ĠlÃ¶ sch
Ġrest liche
verb ieten
verb ietet
Ġstand punkte
Ġmund tod
bewer b
Ġausge wogen
Ġtotal itÃ¤r
ĠÃ¤hn licher
par iser
Ġfake account
Ġeinsch Ã¤tzen
ĠstÃ¤d t
Ġheraus finden
Ġsatz ung
Ġlau ert
kÃ¶ pf
ĠfÃ¤ kal
kar l
Ġhetz jagd
grÃ¼ ÃŁ
fuer chten
Ġtu erk
Ġchristian isierung
Ġmil de
ium s
Ġerd al
pr im
heil iger
Ġprim at
Ġtreffen der
fig uren
Ġinhalt liche
Ġanw Ã¤lte
hof ft
Ġgewissen s
ish ed
Ġengl ische
fel der
him a
ĠwÃ¼nschen swert
Ġbrut ale
Ġfremd schÃ¤men
ĠÙĪ ÙħØ¹
Ġaktuell er
Ġteuf els
anw altschaft
Ġangem acht
Ġgeschlossen en
Ġarbeits scheu
Ġdest ru
Ġanony mus
Äģ r
ĠbÃ¤r t
mÃ¤r schen
[...]
