{"!":0,"\"":1,"#":2,"$":3,"%":4,"&":5,"'":6,"(":7,")":8,"*":9,"+":10,",":11,"-":12,".":13,"/":14,"0":15,"1":16,"2":17,"3":18,"4":19,"5":20,"6":21,"7":22,"8":23,"9":24,":":25,";":26,"<":27,"=":28,">":29,"?":30,"@":31,"A":32,"B":33,"C":34,"D":35,"E":36,"F":37,"G":38,"H":39,"I":40,"J":41,"K":42,"L":43,"M":44,"N":45,"O":46,"P":47,"Q":48,"R":49,"S":50,"T":51,"U":52,"V":53,"W":54,"X":55,"Y":56,"Z":57,"[":58,"\\":59,"]":60,"^":61,"_":62,"`":63,"a":64,"b":65,"c":66,"d":67,"e":68,"f":69,"g":70,"h":71,"i":72,"j":73,"k":74,"l":75,"m":76,"n":77,"o":78,"p":79,"q":80,"r":81,"s":82,"t":83,"u":84,"v":85,"w":86,"x":87,"y":88,"z":89,"{":90,"|":91,"}":92,"~":93,"¡":94,"¢":95,"£":96,"¤":97,"¥":98,"¦":99,"§":100,"¨":101,"©":102,"ª":103,"«":104,"¬":105,"®":106,"¯":107,"°":108,"±":109,"²":110,"³":111,"´":112,"µ":113,"¶":114,"·":115,"¸":116,"¹":117,"º":118,"»":119,"¼":120,"½":121,"¾":122,"¿":123,"À":124,"Á":125,"Â":126,"Ã":127,"Ä":128,"Å":129,"Æ":130,"Ç":131,"È":132,"É":133,"Ê":134,"Ë":135,"Ì":136,"Í":137,"Î":138,"Ï":139,"Ð":140,"Ñ":141,"Ò":142,"Ó":143,"Ô":144,"Õ":145,"Ö":146,"×":147,"Ø":148,"Ù":149,"Ú":150,"Û":151,"Ü":152,"Ý":153,"Þ":154,"ß":155,"à":156,"á":157,"â":158,"ã":159,"ä":160,"å":161,"æ":162,"ç":163,"è":164,"é":165,"ê":166,"ë":167,"ì":168,"í":169,"î":170,"ï":171,"ð":172,"ñ":173,"ò":174,"ó":175,"ô":176,"õ":177,"ö":178,"÷":179,"ø":180,"ù":181,"ú":182,"û":183,"ü":184,"ý":185,"þ":186,"ÿ":187,"Ā":188,"ā":189,"Ă":190,"ă":191,"Ą":192,"ą":193,"Ć":194,"ć":195,"Ĉ":196,"ĉ":197,"Ċ":198,"ċ":199,"Č":200,"č":201,"Ď":202,"ď":203,"Đ":204,"đ":205,"Ē":206,"ē":207,"Ĕ":208,"ĕ":209,"Ė":210,"ė":211,"Ę":212,"ę":213,"Ě":214,"ě":215,"Ĝ":216,"ĝ":217,"Ğ":218,"ğ":219,"Ġ":220,"ġ":221,"Ģ":222,"ģ":223,"Ĥ":224,"ĥ":225,"Ħ":226,"ħ":227,"Ĩ":228,"ĩ":229,"Ī":230,"ī":231,"Ĭ":232,"ĭ":233,"Į":234,"į":235,"İ":236,"ı":237,"Ĳ":238,"ĳ":239,"Ĵ":240,"ĵ":241,"Ķ":242,"ķ":243,"ĸ":244,"Ĺ":245,"ĺ":246,"Ļ":247,"ļ":248,"Ľ":249,"ľ":250,"Ŀ":251,"ŀ":252,"Ł":253,"ł":254,"Ń":255,"##":256,"####":257,"########":258,"en":259,"ch":260,"er":261,"################":262,"Ġd":263,"00":264,"ei":265,"Ġs":266,"01":267,"ie":268,"Ġa":269,"Ġw":270,"Ġi":271,"nd":272,"Ġm":273,"st":274,"Ġg":275,"ich":276,"Ġn":277,"ein":278,"Ġu":279,"Ġ2":280,"es":281,"0000":282,"Ġ201":283,"Ġh":284,"###":285,"Ġ################":286,"#######":287,"###############":288,"###############################":289,"Ġ###############################################":290,"as":291,"Ġdie":292,"Ġb":293,"an":294,"..":295,"Ġv":296,"Ġ2015":297,"Ã¼":298,"Ġk":299,"sch":300,"ll":301,"Ġau":302,"Ġund":303,"te":304,"Ġf":305,"on":306,"ng":307,"icht":308,"Ã¤":309,"Ġz":310,"Ġl":311,"Ġp":312,"Ġein":313,"it":314,"Ġdas":315,"re":316,"Ġge":317,"gen":318,"al":319,"ar":320,"at":321,"Ġder":322,"eu":323,"or":324,"Ġnicht":325,"ir":326,"au":327,"em":328,"hr":329,"Ġin":330,"Ġzu":331,"ung":332,"Ġso":333,"Ġt":334,"ten":335,"el":336,"ier":337,"Ġsch":338,"ach":339,"Ġist":340,"in":341,"12":342,"Ġj":343,"mm":344,"ig":345,"ber":346,"Ã¶":347,"ur":348,"Ġich":349,"et":350,"den":351,"lich":352,"Ġden":353,"ben":354,"der":355,"Ã¼r":356,"and":357,"Ġes":358,"Ġver":359,"eg":360,"Ġwir":361,"ter":362,"!!":363,"ol":364,"am":365,"ind":366,"ann":367,"Ġun":368,"och":369,"is":370,"Ġo":371,"Ġmit":372,"Ġauf":373,"de":374,"...":375,"sl":376,"eh":377,"ro":378,"Ġha":379,"Ġan":380,"Ġer":381,"Ġauch":382,"eit":383,"id":384,"sen":385,"ag":386,"tsch":387,"Ġsie":388,"Ġ2014":389,"Ġr":390,"Ġwie":391,"ĠĠ":392,"se":393,"Ġst":394,"Ġsich":395,"Ġvon":396,"Ġda":397,"19":398,"Ġre":399,"18":400,"ÃŁ":401,"ida":402,"Ġbe":403,"enn":404,"eutsch":405,"21":406,"ck":407,"nder":408,"Ġall":409,"egida":410,"ut":411,"cht":412,"Ġwer":413,"ik":414,"ehr":415,"ist":416,"Ġsind":417,"isch":418,"ĠĊ":419,"22":420,"Ġman":421,"Ġdu":422,"Ġwas":423,"Ġaus":424,"Ġal":425,"20":426,"ion":427,"Ġdeutsch":428,"Ġdem":429,"be":430,"ge":431,"ser":432,"ĠfÃ¼r":433,"15":434,"14":435,"Ġja":436,"Ġihr":437,"Ġaber":438,"eine":439,"us":440,"Ġpegida":441,"etz":442,"Ġfr":443,"13":444,"Ġnur":445,"ww":446,"omm":447,"fen":448,"Ġhat":449,"Ġals":450,"un":451,"ft":452,"Ġ\"":453,"Ġwo":454,"17":455,"ht":456,"Ġeu":457,"eil":458,"16":459,"Ġwenn":460,"11":461,"iel":462,"hl":463,"Ġmal":464,"und":465,"....":466,"tt":467,"Ġwar":468,"23":469,"Ġnoch":470,"07":471,"hn":472,"Ġeine":473,"10":474,"ern":475,"land":476,"Ġhaben":477,"ra":478,"Ã¼ber":479,"bt":480,"Ġges":481,"rei":482,"om":483,"ing":484,"um":485,"il":486,"Ġwird":487,"ent":488,"Ġvor":489,"Ġbei":490,"Ġisl":491,"Ġislam":492,"Ġhier":493,"Ġgegen":494,"Ġoder":495,"Ġdann":496,"kt":497,"06":498,"Ġwerden":499,"chen":500,"im":501,"Ġim":502,"Ġmehr":503,":/":504,"llen":505,"09":506,"schen":507,"://":508,"Ġdoch":509,"Ġdass":510,"Ġpol":511,"25":512,"anz":513,"Ġum":514,"ttp":515,"Ġhttp":516,"Ġsp":517,"ĠÃ¼ber":518,"Ġkann":519,"Ã¶n":520,"Ġab":521,"ul":522,"ðŁ":523,"Ġmein":524,"08":525,"ieren":526,"ĠĠĠĠ":527,"Ġgl":528,"Ġschon":529,"sten":530,"Ġwei":531,"fa":532,"Ġmen":533,"26":534,"Ġnach":535,"??":536,"Ġdeutschland":537,"ste":538,"ed":539,"res":540,"iert":541,"itik":542,"Ġkomm":543,"os":544,"Ġsoll":545,"Ġander":546,"Ġgr":547,"Ġsein":548,"Ġunser":549,"igen":550,"Ġviel":551,"acht":552,"mmer":553,"Ġ(":554,"27":555,"05":556,"Ġ-":557,"Ġpro":558,"Ġgeh":559,"Ġar":560,"eben":561,"sp":562,"24":563,"Ġuns":564,"Ġgen":565,"Ġste":566,"nen":567,"err":568,"etzt":569,"ien":570,"Ġunter":571,"ehen":572,"Ġkein":573,"Ġalle":574,"ken":575,"Ġmenschen":576,"Ġ:":577,"04":578,"www":579,"Ã¶r":580,"ass":581,"ver":582,"az":583,"bl":584,"heit":585,"che":586,"eute":587,"!!!":588,"ill":589,"rau":590,"Ġkl":591,"Ġdiese":592,"ort":593,"Ġeuch":594,"Ġdes":595,"âĢ":596,"Ġkeine":597,"Ġang":598,"isten":599,"ot":600,"ation":601,"zu":602,"Ġimmer":603,"Ġwel":604,"uss":605,"he":606,"eigen":607,"Ġmir":608,"Ġmu":609,"ffen":610,"ungen":611,"Ã¤t":612,"men":613,"ke":614,"ger":615,"03":616,"ha":617,"Ġgi":618,"29":619,"Ġbes":620,"ðŁĺ":621,"imm":622,"ischen":623,"rie":624,"hre":625,"Ġwieder":626,"Ġ,":627,"ĠkÃ¶n":628,"30":629,"ok":630,"age":631,"Ġganz":632,"iv":633,"Ġgibt":634,"pp":635,"achen":636,"agen":637,"olk":638,"31":639,"Ġje":640,"Ġdar":641,"Ġpolitik":642,"Ġfa":643,"Ġe":644,"Ġmich":645,"Ġgew":646,"aus":647,"onst":648,"Ġjetzt":649,"alt":650,"Ã¤nder":651,"wei":652,"slim":653,"Ġgeht":654,"Ġbl":655,"Ġeinen":656,"02":657,"tet":658,"mal":659,"assen":660,"Ġsel":661,"ff":662,"ges":663,"ige":664,"Ġrecht":665,"Ġvolk":666,"Ġsei":667,"Ġschl":668,"ell":669,"Ġc":670,"Ġgut":671,"ĠwÃ¤":672,"Ġ!":673,"Ġam":674,"ad":675,"was":676,"Ġwa":677,"Ġdenn":678,"Ġlie":679,"ĠmÃ¼":680,"Ġbin":681,"ang":682,"bei":683,"pf":684,"urch":685,"Ġlei":686,"Ġalles":687,"dem":688,"28":689,"Ġmuslim":690,"rÃ¼":691,"art":692,"com":693,"Ġland":694,"Ġdies":695,"Ġen":696,"Ġber":697,"Ġweiter":698,"tlich":699,"Ġ...":700,"komm":701,"ĈĈ":702,"Ġeinf":703,"iz":704,"Ġgel":705,"ĠwÃ¼r":706,"eb":707,"!!!!":708,"Ġeigen":709,"Ġeiner":710,"ische":711,"Ġdurch":712,"Ġch":713,"Ġmo":714,"Ġet":715,"ierung":716,"oll":717,"Ġnichts":718,"Ġzum":719,"ru":720,"eich":721,"35":722,"Ã¤ng":723,"zen":724,"bst":725,"ran":726,"Ġnaz":727,"37":728,"Ġlin":729,"38":730,"Ġweil":731,"Ġgesch":732,"45":733,"Ġmuss":734,"50":735,"hren":736,"Ġwur":737,"Ġglau":738,"34":739,"39":740,"Ġeinfach":741,"Ġihre":742,"55":743,"36":744,"ti":745,"ungs":746,"40":747,"49":748,"Ġhabe":749,"48":750,"gt":751,"Ã¤u":752,"46":753,"itte":754,"58":755,"Ã¤r":756,"Ġschw":757,"57":758,"Ġhttps":759,"44":760,"ĠĠĠĠĠĠĠĠ":761,"Ġhin":762,"egen":763,"47":764,"56":765,"agt":766,"59":767,"Ġwill":768,"dlich":769,"33":770,"Ġsehr":771,"Ġleben":772,"erk":773,"gel":774,"her":775,"inn":776,"Ġger":777,"est":778,"hen":779,"54":780,"32":781,"lig":782,"ert":783,"53":784,"Ġdam":785,"41":786,"Ġsol":787,"51":788,"Ġmachen":789,"43":790,"Ġalso":791,"ild":792,"52":793,"Ġnie":794,"schl":795,"Ġleute":796,"yo":797,"42":798,"llt":799,"ahl":800,"aft":801,"die":802,"Ġ.":803,"rÃ¤":804,"Ġunsere":805,"ĠmÃ¼s":806,"esen":807,"br":808,"Ġsollte":809,"-)":810,"ĠkÃ¶nnen":811,"sa":812,"aat":813,"so":814,"Ġrelig":815,"Ġ;":816,"ÃŁe":817,"Ġviele":818,"Ġherr":819,"Ġselbst":820,"blem":821,"alten":822,"Ġricht":823,"Ġho":824,"Ġdan":825,"Ġwarum":826,"Ġdir":827,"--":828,"Ġgenau":829,"rop":830,"Ġ?":831,"ri":832,"Ġfl":833,"kommen":834,"chte":835,"Ġverst":836,"Ġerst":837,"Ġth":838,"Ġbr":839,"Ġwelt":840,"ant":841,"resden":842,"Ġwollen":843,"Ġmacht":844,"hne":845,"Ġproblem":846,"Ġfrau":847,"ler":848,"Ġgem":849,"rat":850,"resse":851,"Ã¤ch":852,"Ġeinem":853,"Ġkind":854,"cken":855,"Ġbitte":856,"edien":857,"ner":858,"Ġher":859,"Ġausl":860,"Ã¤nd":861,"ander":862,"ĠwÃ¼rde":863,"kl":864,"Ġfre":865,"Ġwohl":866,"fl":867,"Ġwen":868,"Ġreligion":869,"pt":870,"Ġverb":871,"ab":872,"ÃŁen":873,"Ġdeutschen":874,"teil":875,"Ġis":876,"Ġbis":877,"Ġob":878,"Ġfind":879,"gend":880,"Ġdich":881,"Ġkon":882,"richt":883,"Ġchr":884,"Ġstra":885,"000":886,"fÃ¼r":887,"Ġgehen":888,"tz":889,"Ġdresden":890,"Ġent":891,"Ġdeutsche":892,"eid":893,"ðŁĺĤ":894,"Ġdamit":895,"Ġsu":896,"ĠwÃ¤re":897,"Ã¼rger":898,"issen":899,"Ġgro":900,"gr":901,"Ġteil":902,"all":903,"Ġjeder":904,"Ġtun":905,"ade":906,"ne":907,"Ġmeinung":908,"Ġzur":909,"af":910,"Ġihn":911,"Ġstaat":912,"auf":913,"Ġbrau":914,"Ġir":915,"Ġgef":916,"Ġdieser":917,"ache":918,"tel":919,"tre":920,"ĠâĢ":921,"utu":922,"liche":923,"lichen":924,"Ġgar":925,"youtu":926,"Ã¶rt":927,"Ġfor":928,"Ġzeit":929,"og":930,"Ġdein":931,"ĠmÃ¶":932,"ap":933,"Ġbest":934,"Ġsagen":935,"iger":936,"Ġmuslime":937,"Ġwurde":938,"Ġetwas":939,"Ġmedien":940,"ingen":941,".....":942,"qu":943,"Ġfrie":944,"Ġpolitiker":945,"lin":946,"ndern":947,"elt":948,"bar":949,"wie":950,"Ġkommen":951,"ĠmÃ¼ssen":952,"ehmen":953,"Ġhei":954,"Ġandere":955,"ml":956,"Ġanderen":957,"eicht":958,"keit":959,"ord":960,"Ġkommt":961,"immt":962,"mus":963,"Ġto":964,"Ġwirk":965,"Ġterr":966,"Ġeurop":967,"ph":968,"le":969,"Ġwaren":970,"ah":971,"Ġbew":972,"Ã¤m":973,"Ġmeine":974,"Ġneu":975,"att":976,"Ġreg":977,"pol":978,"sy":979,"Ġterror":980,"Ġthe":981,"ult":982,"ze":983,"iell":984,"Ġverl":985,"schaft":986,"ook":987,"ial":988,"Ġanti":989,"Ġheute":990,"html":991,"Ġko":992,"Ġne":993,"aut":994,"slem":995,"ðŁĳ":996,"Ã¼gen":997,"ss":998,"Ġsicher":999,"Ġna":1000,"deutsch":1001,"Ġinter":1002,"ismus":1003,"ckt":1004,"ers":1005,"ranten":1006,"okrat":1007,"Ġlassen":1008,"Ġ1":1009,"su":1010,"ceb":1011,"ange":1012,"cebook":1013,"org":1014,"ĠgrÃ¼":1015,"Ġfrei":1016,"Ġwahr":1017,"__":1018,"Ġgu":1019,"Ġohne":1020,"eind":1021,"Ġdemonst":1022,"Ġklar":1023,"pegida":1024,"mmen":1025,"Ġnun":1026,"Ġbel":1027,"Ġwirklich":1028,"Ġschul":1029,"youtube":1030,"Ġweg":1031,"ja":1032,"atz":1033,"asst":1034,"Ġhast":1035,"Ġzw":1036,"fe":1037,"inge":1038,"Ġsondern":1039,"Ġkr":1040,"Ġangst":1041,"ĠkÃ¶nn":1042,"Ġmoslem":1043,"Ġleider":1044,"Ġbez":1045,"Ġkinder":1046,"ont":1047,"aufen":1048,"net":1049,"atch":1050,"Ġvom":1051,"Ġkrie":1052,"Ġbesch":1053,"Ã¼n":1054,"gl":1055,"Ġbist":1056,"Ġpoliz":1057,"chtl":1058,"Ġpa":1059,"pe":1060,"Ġirgend":1061,"ren":1062,"watch":1063,"eln":1064,"ĠhÃ¤t":1065,"ĠbÃ¼rger":1066,"ĈĈĈĈ":1067,"Ġeh":1068,"frei":1069,"cher":1070,"Ġgrund":1071,"det":1072,"sam":1073,"ĠauslÃ¤nder":1074,"erkel":1075,"Ġlink":1076,"for":1077,"asse":1078,"Ġblei":1079,"Ġgleich":1080,"Ġbeg":1081,"Ġdazu":1082,"ÃŁt":1083,"???":1084,"Ġbesser":1085,"Ġnazis":1086,"ĠschÃ¶n":1087,"wer":1088,"sche":1089,"nis":1090,"Ġeben":1091,"ĠdafÃ¼r":1092,"Ġkomment":1093,"ĠtÃ¼r":1094,"ennen":1095,"Ġdemokrat":1096,"igt":1097,"Ġrichtig":1098,"ic":1099,"utz":1100,"isierung":1101,"Ġschrei":1102,"Ġdort":1103,"Ġ!!!":1104,"wo":1105,"Ġdumm":1106,"das":1107,"ĠÃ¶":1108,"wir":1109,"ition":1110,"per":1111,"Ã¼chtl":1112,"Ġgo":1113,"Ġnein":1114,"Ġma":1115,"Ġseit":1116,"ess":1117,"lle":1118,"Ã¼ck":1119,"aupt":1120,"Ġdabei":1121,"Ġbild":1122,"vor":1123,"Ġex":1124,"di":1125,"Ġnazi":1126,"ĠfÃ¼":1127,"sst":1128,"von":1129,"Ġsehen":1130,"ielleicht":1131,"Ġpl":1132,"Ġihnen":1133,"lt":1134,"Ġ....":1135,"pl":1136,"ker":1137,"Ġchrist":1138,"angen":1139,"Ġeigentlich":1140,"Ġdanke":1141,"Ġ;)":1142,"me":1143,"Ġseine":1144,"facebook":1145,"politik":1146,"hin":1147,"Ġsy":1148,"Ġinte":1149,"Ġtro":1150,"mann":1151,"du":1152,"Ġvielleicht":1153,"eist":1154,"Ġvoll":1155,"Ã¶l":1156,"anden":1157,"Ġsteht":1158,"Ġdenen":1159,"tern":1160,"Ġwissen":1161,"ob":1162,"Ġru":1163,"ug":1164,"Ġwor":1165,"Ġasy":1166,"Ġseid":1167,"ðŁĳį":1168,"Ġkor":1169,"hÃ¤ng":1170,"ia":1171,"eht":1172,"Ġmerkel":1173,"Ġeinz":1174,"uer":1175,"Ġdieses":1176,"rÃ¼ck":1177,"Ġasyl":1178,"Ġglauben":1179,"hal":1180,"ĠĠĠĠĠĠĠĠĠĠĠĠĠĠĠĠ":1181,"oten":1182,"Ġbet":1183,"beit":1184,"Ġung":1185,"ĠlÃ¼gen":1186,"Ġseite":1187,"Ġro":1188,"Ġihren":1189,"Ġgewalt":1190,"ikal":1191,"Ġdiesen":1192,"Ġgest":1193,"ÃŁer":1194,"Ġde":1195,"Ġgeb":1196,"Ġgerade":1197,"Ġzusa":1198,"etzen":1199,"Ġ:-)":1200,"ĠðŁĺ":1201,"orgen":1202,"egal":1203,"Ã¶ren":1204,"Ġpar":1205,"wander":1206,"Ġzusammen":1207,"zw":1208,"Ġbed":1209,"Ġnat":1210,"Ġfriedlich":1211,"Ġregierung":1212,"Ã¤hl":1213,"ĶâĢ":1214,"Ġdeine":1215,"Ġfal":1216,"Ġhinter":1217,"Ġins":1218,"201":1219,"Ġju":1220,"ick":1221,"Ġgern":1222,"artei":1223,"unkt":1224,"Ġdemonstr":1225,"gesch":1226,"oler":1227,"fÃ¼":1228,"itÃ¤t":1229,"Ġhab":1230,"are":1231,"Ġpolizei":1232,"dr":1233,"Ã¤ndern":1234,"ðŁĺĤðŁĺĤ":1235,"Ġkeiner":1236,"egung":1237,"rit":1238,"glich":1239,"Ġsolche":1240,"ive":1241,"presse":1242,"Ġpolit":1243,"Ġpass":1244,"geb":1245,"fol":1246,"ĠstraÃŁe":1247,"Ġ@":1248,"Ġfrage":1249,"Ġrechts":1250,"ultur":1251,"ĠgehÃ¶rt":1252,"Ġ:)":1253,"Ġjeden":1254,"Ġdiesem":1255,"ennt":1256,"chten":1257,"rechen":1258,"Ġdarf":1259,"Ġbeh":1260,"ĶâĢĶâĢ":1261,"Ġschei":1262,"Ġwe":1263,"Ġwelche":1264,"Ġantifa":1265,"sicht":1266,"sw":1267,"zial":1268,"Ġforder":1269,"Ġjem":1270,"haha":1271,"Ġeure":1272,"ost":1273,"da":1274,"Ġ..":1275,"Ġeuropa":1276,"ehe":1277,"Ġpers":1278,"Ġzei":1279,"Ġwegen":1280,"Ġsollen":1281,"ide":1282,"Ġbund":1283,"Ġsollten":1284,"ffentlich":1285,"mit":1286,"Ġkrieg":1287,"ffe":1288,"echt":1289,"Ġqu":1290,"ix":1291,"Ġ;-)":1292,"ank":1293,"ĠÃ¼":1294,"Ġ19":1295,"Ġtrau":1296,"aten":1297,"Ġkeinen":1298,"Ġdi":1299,"Ġgemacht":1300,"Ġpresse":1301,"Ġthem":1302,"Ġbek":1303,"Ġmoslems":1304,"Ġjahren":1305,"hei":1306,"ame":1307,"zeit":1308,"viel":1309,"unter":1310,"Ã¼rlich":1311,"isk":1312,"ionen":1313,"ingt":1314,"ast":1315,"Ġhand":1316,"Ġand":1317,"Ġdenken":1318,"Ġjed":1319,"ĠhÃ¤tte":1320,"gar":1321,"aber":1322,"Ġsagt":1323,"Ġant":1324,"ĠnÃ¤ch":1325,"recht":1326,"annt":1327,"ehm":1328,"Ġfreund":1329,"bend":1330,"ochen":1331,"ĠâĢŀ":1332,"Ġmar":1333,"halten":1334,"scht":1335,"Ġsonst":1336,"Ġanders":1337,"man":1338,"Ġendlich":1339,"Ġlesen":1340,"ĠflÃ¼chtl":1341,"âĢľ":1342,"Ġdemokratie":1343,"Ġaller":1344,"Ġeinmal":1345,"war":1346,"ho":1347,"fall":1348,"freiheit":1349,"Ġfinde":1350,"Ġegal":1351,"amen":1352,"zig":1353,"Ġversu":1354,"Ġislamisierung":1355,"rag":1356,"Ġzahl":1357,"ip":1358,"schie":1359,"weise":1360,"ischer":1361,"wort":1362,"ĠnatÃ¼rlich":1363,"----":1364,"Ġarbeit":1365,"Ġihrer":1366,"Ġged":1367,"asch":1368,"ogen":1369,"demonst":1370,"Ġrad":1371,"Ġlieber":1372,"Ġletz":1373,"Ã¤hr":1374,"klÃ¤r":1375,"Ġraus":1376,"Ġte":1377,"Ġschn":1378,"end":1379,"Ġgeben":1380,"Ġ3":1381,"Ġintegr":1382,"Ġauss":1383,"Ġhabt":1384,"ontag":1385,"rieben":1386,"auen":1387,"Ġdavon":1388,"elle":1389,"ppen":1390,"ĠdÃ¼r":1391,"form":1392,"stem":1393,"lam":1394,"Ġsieht":1395,"Ġach":1396,"Ġallen":1397,"schein":1398,"ĠweiÃŁ":1399,"ust":1400,"als":1401,"los":1402,"Ġres":1403,"Ġdemo":1404,"Ġwurden":1405,"Ġkultur":1406,"oren":1407,"Ġlinken":1408,"bild":1409,"ĠmÃ¶chte":1410,"schw":1411,"halb":1412,"Ġklein":1413,"Ġmontag":1414,"lie":1415,"deutschland":1416,"imin":1417,"Ġart":1418,"Ġgeld":1419,"fr":1420,"Ġtag":1421,"Ġunserer":1422,"Ġglaube":1423,"ĠzurÃ¼ck":1424,"Ġwenig":1425,"wa":1426,"under":1427,"Ġle":1428,"Ġbeleid":1429,"Ġberlin":1430,"Ġlange":1431,"rad":1432,"organ":1433,"Ġjahr":1434,"ĠgroÃŁ":1435,"op":1436,"ald":1437,"Ã¤ter":1438,"Ġlang":1439,"Ġpos":1440,"Ġtoler":1441,"anten":1442,"hlen":1443,"itz":1444,"spiel":1445,"Ġkir":1446,"Ġrass":1447,"Ġmensch":1448,"Ã¤n":1449,"Ġsowas":1450,"Ġern":1451,"Ġdisk":1452,"Ġbekommen":1453,"Ġmei":1454,"ellschaft":1455,"Ġzwei":1456,"Ġeigenen":1457,"stand":1458,"Ġkoran":1459,"Ġpartei":1460,"adt":1461,"stÃ¤nd":1462,"Ġstehen":1463,"Ġoffen":1464,"Ġget":1465,"Ġfeh":1466,"Ġsinn":1467,"Ġnix":1468,"oo":1469,"ĠkÃ¶nnte":1470,"Ġgott":1471,"bel":1472,"reich":1473,"ko":1474,"Ġpaar":1475,"Ã¼tz":1476,"Ġgesp":1477,"achsen":1478,"gum":1479,"Ġlinks":1480,"ĠtÃ¼rk":1481,"pzig":1482,"Ġ!!":1483,"ma":1484,"Ġkom":1485,"Ġdr":1486,"igkeit":1487,"unden":1488,"'s":1489,"fer":1490,"Ġarbei":1491,"Ġecht":1492,"Ġniem":1493,"lau":1494,"ate":1495,"ĠwÃ¼rden":1496,"nicht":1497,"stens":1498,"Ġbundes":1499,"ater":1500,"Ġsogar":1501,"Ġgesagt":1502,"Ġjemand":1503,"fahr":1504,"........":1505,"amil":1506,"erst":1507,"ichte":1508,"islam":1509,"Ġmann":1510,"haupt":1511,"aum":1512,"Ã¼t":1513,"Ã¤d":1514,"Ġislamisten":1515,"ragen":1516,"pft":1517,"Ġzie":1518,"Ġspr":1519,"pro":1520,"Ġradikal":1521,"Ã¶lker":1522,"mar":1523,"Ġhalt":1524,"gehen":1525,"nehmen":1526,"Ġunterst":1527,"reck":1528,"????":1529,"etze":1530,"wor":1531,"Ġmus":1532,"unft":1533,"Ġabend":1534,"igung":1535,"Ġtat":1536,"tschaft":1537,"eut":1538,"Ġdenke":1539,"**":1540,"fte":1541,"pfen":1542,"Ġschein":1543,"kte":1544,"Ġganze":1545,"ce":1546,"Ġmeinungs":1547,"Ġwort":1548,"eichen":1549,"Ġselber":1550,"Ġverm":1551,"iss":1552,"Ġvert":1553,"stellt":1554,"Ġbewegung":1555,"achten":1556,"Ġse":1557,"bur":1558,"Ġnehmen":1559,"Ġargum":1560,"Ġstr":1561,"Ġabs":1562,"Ġliebe":1563,"hÃ¤nger":1564,"Ġsag":1565,"Ġkam":1566,"Ġwi":1567,"menschen":1568,"ue":1569,"nung":1570,"Ġjahre":1571,"pekt":1572,"Ġhoch":1573,"gem":1574,"Ġgemein":1575,"Ġtrotz":1576,"Ġderen":1577,"gang":1578,"Ġ:-":1579,"sk":1580,"fre":1581,"irn":1582,"ationen":1583,"feind":1584,"apier":1585,"Ġfalsch":1586,"Ġgute":1587,"uch":1588,"ĠglÃ¼ck":1589,"Ġmig":1590,"Ġanschl":1591,"ress":1592,"Ġgenug":1593,"Ã¼nd":1594,"Ġsozial":1595,"Ġgerne":1596,"Ġsuper":1597,"geben":1598,"\".":1599,"Ġnor":1600,"ack":1601,"roh":1602,"Ġreden":1603,"organis":1604,"Ġhatte":1605,"auer":1606,"ritt":1607,"aa":1608,"ock":1609,"Ġ5":1610,"sinn":1611,"ideo":1612,"____":1613,"hm":1614,"auso":1615,"Ġvielen":1616,"ommen":1617,"trem":1618,"Ġrespekt":1619,"Ġeher":1620,"ĠdaÃŁ":1621,"Ġhel":1622,"Ġ=":1623,"Ġleipzig":1624,"ĠdÃ¼rfen":1625,"ĠÃ¼berhaupt":1626,"ĠÃ¤":1627,"Ġerk":1628,"Ġgenauso":1629,"Ġfrauen":1630,"Ġhalten":1631,"stell":1632,"Ġgeg":1633,"Ġinteress":1634,"Ġbleiben":1635,"Ã¤llt":1636,"Ġkommentar":1637,"ĠlÃ¼genpresse":1638,"Ġmeinen":1639,"ry":1640,"zahl":1641,"Ġgesellschaft":1642,"Ġchristen":1643,"weil":1644,"ak":1645,"Ġfrank":1646,"gegen":1647,"Ġverstehen":1648,"Ġeines":1649,"alitÃ¤t":1650,"Ġentsch":1651,"einander":1652,"llig":1653,"ings":1654,"ĠgrÃ¶":1655,"Ġel":1656,"Ġspaz":1657,"Ġgru":1658,"Ġ8":1659,"ay":1660,"Ġben":1661,"Ġstatt":1662,"Ġco":1663,"aden":1664,"sver":1665,"?!":1666,"Ġfamil":1667,"Ġernst":1668,"Ġmorgen":1669,"Ġbestimmt":1670,"grund":1671,"Ġmut":1672,"nehm":1673,"des":1674,"akt":1675,"Ã¤ub":1676,"richten":1677,"Ġnamen":1678,"Ġmill":1679,"Ġverh":1680,"ĠlÃ¤":1681,"gew":1682,"Ġkur":1683,"lo":1684,"Ġthema":1685,"zie":1686,"Ġ4":1687,"Ġfall":1688,"Ġposition":1689,"Ġlos":1690,"Ġprobleme":1691,"Ġ9":1692,"ath":1693,"Ġmeisten":1694,"ster":1695,"achmann":1696,"Ġbzw":1697,"anken":1698,"ĠÃ¼br":1699,"folg":1700,"Ġrein":1701,"stellen":1702,"Ġakt":1703,"name":1704,"euten":1705,"ppe":1706,"Ġganzen":1707,"Ġniemand":1708,"geh":1709,"Ġstimm":1710,"Ġusw":1711,"nt":1712,"pfer":1713,"Ġstellen":1714,"Ġ6":1715,"Ġbereit":1716,"Ġans":1717,"Ġwicht":1718,"Ġaugen":1719,"Ġwahrheit":1720,"Ġhoffe":1721,"Ġpr":1722,"Ġehr":1723,"urteil":1724,").":1725,"Ġnation":1726,"ian":1727,"ĠmÃ¶glich":1728,"inder":1729,"Ġpassiert":1730,"Ġweit":1731,"Ã¤lt":1732,"wegen":1733,"kommt":1734,"Ġkn":1735,"fallen":1736,"Ġanf":1737,"Ġschreiben":1738,"ahn":1739,"ĠÃ¶ffentlich":1740,"Ġbeim":1741,"demonstranten":1742,"ĠhÃ¶":1743,"burg":1744,"nah":1745,"Ġdaran":1746,"Ġ!!!!":1747,"vÃ¶lker":1748,"halt":1749,"Ġheim":1750,"ws":1751,"Ġfol":1752,"krie":1753,"Ġem":1754,"Ġjo":1755,"licher":1756,"wanderung":1757,"Ġkannst":1758,"Ġange":1759,"denken":1760,"2015":1761,"uld":1762,"Ġkopf":1763,"Ġbleibt":1764,"ikel":1765,"Ġbrauchen":1766,"do":1767,"Ġmeiner":1768,"rig":1769,"Ġunseren":1770,"Ġeigene":1771,"tl":1772,"ierten":1773,"reu":1774,"Ġlinke":1775,"Ġsehe":1776,"Ġende":1777,"ts":1778,"php":1779,"ĠflÃ¼chtlinge":1780,"Ġhil":1781,"Ġbezahl":1782,"Ġkrimin":1783,"egt":1784,"......":1785,"Ġide":1786,"Ã¶s":1787,"Ġzeigen":1788,"Ġlegida":1789,"fass":1790,"Ġwoll":1791,"Ġstimmt":1792,"sland":1793,"Ġbeispiel":1794,"if":1795,"nach":1796,"Ġbraucht":1797,"Ġschnell":1798,"yp":1799,"ĈĈĈĈĈĈĈĈ":1800,"orden":1801,"Ġnot":1802,"Ġperson":1803,"ente":1804,"ĠerklÃ¤r":1805,"Ġirgendw":1806,"Ġeinige":1807,"ierte":1808,"Ġarm":1809,"Ġsor":1810,"anst":1811,"Ġlasst":1812,"Ġhal":1813,"Ġallem":1814,"Ġletzten":1815,"ðŁĳįðŁĳį":1816,"Ġyo":1817,"Ġgez":1818,"Ġur":1819,"Ġaf":1820,"Ġdeshalb":1821,"Ġbachmann":1822,"Ġkommentare":1823,"Ġvers":1824,"Ġwider":1825,"iere":1826,"Ġfrem":1827,"Ġgesehen":1828,"ex":1829,"auch":1830,"Ġbald":1831,"ĠheiÃŁt":1832,"ĠnÃ¤chsten":1833,"Ġfreiheit":1834,"ausen":1835,"\",":1836,"kten":1837,"Ġjuden":1838,"Ġrei":1839,"we":1840,"Ġarbeiten":1841,"spapier":1842,"Ġnormal":1843,"ĠÃ¼brigen":1844,"ichtet":1845,"Ġstar":1846,"ĠdarÃ¼ber":1847,"hrt":1848,"Ġmittel":1849,"Ġtats":1850,"Ġbeit":1851,"fo":1852,"eiten":1853,"ĠblÃ¶":1854,"ĠbevÃ¶lker":1855,"Ġdeutscher":1856,"Ġzahlen":1857,"vo":1858,"weit":1859,"cke":1860,"Ġsystem":1861,"Ġdarauf":1862,"Ġgab":1863,"Ġtoll":1864,"Ġzeigt":1865,"Ġaut":1866,"Ġno":1867,"Ġangeb":1868,"Ġof":1869,"ral":1870,"Ġeins":1871,"amm":1872,"fil":1873,"len":1874,"Ġspiel":1875,"ÙĦ":1876,"eld":1877,"olz":1878,"Ġdreck":1879,"Ġinform":1880,"Ġfast":1881,"fÃ¤":1882,"Ġetc":1883,"Ġjung":1884,"iegel":1885,"Ġtut":1886,"min":1887,"Ġsof":1888,"agegen":1889,"Ġschlimm":1890,"Ġverk":1891,"ĠlÃ¤ndern":1892,"Ø§":1893,"Ġmach":1894,"Ġ10":1895,"Ġstadt":1896,"Ġ7":1897,"Ġat":1898,"Ġlaufen":1899,"ĠlÃ¤sst":1900,"Ġstu":1901,"Ġgeschrieben":1902,"Ġbo":1903,"Ġtot":1904,"Ġpasst":1905,"Ġgelesen":1906,"Ġdagegen":1907,"Ġtrotzdem":1908,"iges":1909,"Ġseiner":1910,"Ġseinen":1911,"haft":1912,"Ġkar":1913,"je":1914,"Ã¤hlt":1915,"falls":1916,"Ġ20":1917,"Ġdank":1918,"Ġmeinungsfreiheit":1919,"Ġanderes":1920,"Ġwann":1921,"io":1922,"olen":1923,"Ġmag":1924,"Ġpunkt":1925,"ans":1926,"Ġwerde":1927,"hnung":1928,"Ġfest":1929,"sie":1930,"Ġhass":1931,"affen":1932,"Ġzwischen":1933,"ure":1934,"Ġrechte":1935,"bÃ¼rger":1936,"wenn":1937,"ĠwÃ¼n":1938,"Ã¼tzen":1939,"Ġzuk":1940,"Ġkap":1941,"Ġstaats":1942,"dern":1943,"olut":1944,"Ã¤uft":1945,"Ġsache":1946,"Ġrum":1947,"Ġweihn":1948,"Ġwirtschaft":1949,"Ġak":1950,"Ġihrem":1951,"Ġschuld":1952,"Ġschlecht":1953,"Ġmer":1954,"Ġlern":1955,"ĠgrÃ¼nen":1956,"Ġschm":1957,"Ġoh":1958,"sex":1959,"wohl":1960,"Ġunserem":1961,"test":1962,"ause":1963,"ĠvÃ¶":1964,"Ġsofort":1965,"ration":1966,"Ġtoleranz":1967,"atur":1968,"Ġbericht":1969,"immer":1970,"Ġfragen":1971,"Ġfinden":1972,"Ġorganis":1973,"Ġwieso":1974,"Ġschwer":1975,"Ġkirche":1976,"Ġsteuer":1977,"phot":1978,"nehmer":1979,"welt":1980,"ĠauÃŁer":1981,"app":1982,"sse":1983,"ty":1984,"tp":1985,"zeu":1986,"Ġfei":1987,"essen":1988,"ieten":1989,"unde":1990,"ubl":1991,"Ġfakt":1992,"geg":1993,"Ġziel":1994,"ĠanhÃ¤nger":1995,"Ġind":1996,"ett":1997,"ĠĠĠĠĠĠĠĠĠĠĠĠĠĠĠĠĠĠĠĠĠĠĠĠĠĠĠĠĠĠĠĠ":1998,".\"":1999,"Ġper":2000,"ĠunterstÃ¼tz":2001,"pag":2002,"Ġbevor":2003,"Ġverges":2004,"sel":2005,"lichkeit":2006,"enz":2007,"treten":2008,"Ġbezeich":2009,"Ġdemonstrieren":2010,"ĠgegenÃ¼ber":2011,"!!!!!!!!":2012,"stra":2013,"demo":2014,"ga":2015,"eite":2016,"Ġpositionspapier":2017,"Ġlangsam":2018,"isiert":2019,"Ġerw":2020,"fern":2021,"Ġkenn":2022,"Ġeinzel":2023,"enden":2024,"bes":2025,"ĠwÃ¤ren":2026,"eiden":2027,"Ġgeschichte":2028,"Ġseiten":2029,"Ġterroristen":2030,"Ġlaut":2031,"Ġdemos":2032,"mo":2033,"Ġweniger":2034,"Ġpost":2035,"rochen":2036,"Ġdarum":2037,"Ġgedanken":2038,"Ġmillionen":2039,"ĠbÃ¶":2040,"voll":2041,"ister":2042,"Ġextrem":2043,"itzen":2044,"Ġbringen":2045,"uf":2046,"bung":2047,"Ġfrieden":2048,"ĠbevÃ¶lkerung":2049,"Ã¶t":2050,"Ġleuten":2051,"ĠmuÃŁ":2052,"Ġ#":2053,"Ġ100":2054,"weg":2055,"bracht":2056,"rekt":2057,"Ġoben":2058,"ativ":2059,"Ġheu":2060,"gesetz":2061,"Ġzwar":2062,"Ġtraurig":2063,"arbei":2064,"Ġfreunde":2065,"Ġverg":2066,"Ġihm":2067,"),":2068,"Ġhaupt":2069,"Ġmitt":2070,"Ġkran":2071,"scheinlich":2072,"laub":2073,"Ġheimat":2074,"ĠlÃ¤ch":2075,"89":2076,"hnen":2077,"zent":2078,"Ġok":2079,"Ġnochmal":2080,"ere":2081,"ĠkÃ¤m":2082,"Ġsowie":2083,"reg":2084,"Ġspd":2085,"ens":2086,"ĠpersÃ¶n":2087,"Ġsal":2088,"Ġfasch":2089,"Ġrech":2090,"aup":2091,"Ġidi":2092,"Ã¤tz":2093,"ruck":2094,"Ġhe":2095,"ine":2096,"inden":2097,"Ã¤mlich":2098,"ĠfrÃ¼":2099,"reiben":2100,"Ġstolz":2101,"Ġwahl":2102,"Ġintegration":2103,"ĠÃ¤u":2104,"Ġparis":2105,"ĶâĢĶâĢĶâĢĶâĢ":2106,"Ġgutmenschen":2107,"isieren":2108,"Ġnational":2109,"ĠlÃ¤nder":2110,"Ġneue":2111,"rer":2112,"Ġdrau":2113,"Ġgestern":2114,"mu":2115,"fahren":2116,"type":2117,"lei":2118,"Ġkaum":2119,"Ġei":2120,"Ġaufge":2121,"Ġlo":2122,"inanz":2123,"Ġliegt":2124,"Ġgegendemonstranten":2125,"Ġusa":2126,"Ġerfolg":2127,"ĠtÃ¼rkei":2128,"unt":2129,"Ġvergessen":2130,"Ġdamals":2131,"Ġmigranten":2132,"Ġ'":2133,"Ġdeiner":2134,"Ġdemonstranten":2135,"ĠvÃ¶llig":2136,"atri":2137,"frie":2138,"Ġschade":2139,"Ġmin":2140,"dert":2141,"istisch":2142,"Ġgeist":2143,"Ġles":2144,"ĠhÃ¤tten":2145,"hinter":2146,"Ġdo":2147,"Ġvideo":2148,"Ġartikel":2149,"Ġerz":2150,"Ġfrankreich":2151,"Ġdenkt":2152,"Ġzukunft":2153,"pd":2154,"Ġverd":2155,"Ġcdu":2156,"gern":2157,"wÃ¼r":2158,"Ġdeswegen":2159,"Ġwest":2160,"Ġislamischen":2161,"ĠÃ¼berl":2162,"Ġsolchen":2163,"Ġddr":2164,"afft":2165,"ande":2166,"Ġerrei":2167,"line":2168,"nte":2169,"uell":2170,"Ġoft":2171,"Ġspazier":2172,"geht":2173,"Ġyou":2174,"recher":2175,"prÃ¤":2176,"Ġafd":2177,"gn":2178,"Ġsicherheit":2179,"Ġhatten":2180,"Ġkat":2181,"Ġwit":2182,"Ġtre":2183,"ikan":2184,"Ġbereits":2185,"co":2186,"si":2187,"Ġsach":2188,"Ġdeinen":2189,"Ġschwach":2190,"ĠlÃ¤cher":2191,"zug":2192,"ĠkÃ¶nnt":2193,"bed":2194,"Ġkont":2195,"Ġerwar":2196,"ssen":2197,"--------":2198,"Ġjedem":2199,"ct":2200,"Ġ15":2201,"innen":2202,"Ġlu":2203,"dings":2204,"Ġsoviel":2205,"Ġschau":2206,"ĠblÃ¶d":2207,"Ġon":2208,"Ġgegens":2209,"ĠeuropÃ¤":2210,"Ġsorgen":2211,"ech":2212,"ulti":2213,"Ġveranst":2214,"Ġstrasse":2215,"Ġsprechen":2216,"reifen":2217,"annten":2218,"rif":2219,"kr":2220,"xt":2221,"llo":2222,"gemein":2223,"Ġwollt":2224,"Ġtyp":2225,"weis":2226,"Ġbekommt":2227,"Ġbeschim":2228,"Ġeuer":2229,"ĠÃ¼brigens":2230,"Ġhirn":2231,"Ġwunder":2232,"ehren":2233,"Ġverurteil":2234,"Ġmosche":2235,"th":2236,"ieÃŁen":2237,"Ġuntersch":2238,"Ġjede":2239,"ruch":2240,"radikal":2241,"fb":2242,"ka":2243,"Ġaussage":2244,"Ġbu":2245,"Ġlutz":2246,"spr":2247,"antwort":2248,"ĠhÃ¶ren":2249,"zept":2250,"Ġopfer":2251,"Ġworte":2252,"Ġbil":2253,"Ġlicht":2254,"Ġarsch":2255,"Ġmehrheit":2256,"zer":2257,"ĠlÃ¤uft":2258,"Ġpet":2259,"olog":2260,"hh":2261,"Ġunterschie":2262,"gru":2263,"Ġanst":2264,"http":2265,"âĢĿ":2266,"istischen":2267,"Ġwelch":2268,"Ġerstmal":2269,"Ġsau":2270,"Ġpo":2271,"Ġwelcher":2272,"hig":2273,"ĠâĢľ":2274,"ve":2275,"ĠtÃ¶":2276,"Ġanges":2277,"Ġschule":2278,"ieÃŁ":2279,"rab":2280,"ikt":2281,"oche":2282,"Ġverstanden":2283,"Ġit":2284,"stimm":2285,"Ġrus":2286,"flÃ¼chtl":2287,"Ġpun":2288,"itler":2289,"bew":2290,"unktion":2291,"onder":2292,"Ġahnung":2293,"ĠÃ¼berall":2294,"Ġgewesen":2295,"Ġrede":2296,"Ġwichtig":2297,"the":2298,"aften":2299,"Ã¤nger":2300,"Ġerl":2301,"Ġgek":2302,"Ġ&":2303,"dent":2304,"ehrt":2305,"Ġca":2306,"Ġschwar":2307,"Ġgemeinsam":2308,"Ġwahrscheinlich":2309,"Ġsorry":2310,"Ġham":2311,"riff":2312,"wand":2313,"Ġverein":2314,"sprechen":2315,"Ġreich":2316,"Ġnaja":2317,"!!!!!":2318,"artic":2319,"zt":2320,"Ġbehaup":2321,"Ġpeg":2322,"Ġargument":2323,"ief":2324,"Ġklasse":2325,"Ġhallo":2326,"euer":2327,"Ġplatz":2328,"hnt":2329,"brau":2330,"nal":2331,"esse":2332,"Ġdiff":2333,"Ġallerdings":2334,"oder":2335,"Ġvern":2336,"etzung":2337,"tent":2338,"Ġsolange":2339,"kel":2340,"Ġmon":2341,"Ġverschw":2342,"Ġwillst":2343,"krieg":2344,"red":2345,"Ġamer":2346,"ĠhÃ¶rt":2347,"ĠðŁĺī":2348,"^^":2349,"Ġfindet":2350,"ret":2351,"ĠgefÃ¼":2352,"ĠgrÃ¼ÃŁe":2353,"heim":2354,"Ġdeu":2355,"mals":2356,"Ġkrit":2357,"reuz":2358,"Ġzit":2359,"ika":2360,"Ġbesten":2361,"Ġfinanz":2362,"Ġweder":2363,"Ġglaubt":2364,"abl":2365,"Ġor":2366,"altung":2367,"Ġantwort":2368,"ĠðŁĺĤ":2369,"ĠÃ¤ndern":2370,"mp":2371,"Ġhart":2372,"Ġversucht":2373,"Ġehrlich":2374,"Ġgefahr":2375,"Ġetwa":2376,"Ġ???":2377,"Ġnen":2378,"Ġworden":2379,"Ġungl":2380,"article":2381,"istische":2382,"Ġabsch":2383,"Ġbringt":2384,"nahme":2385,"Ġminder":2386,"Ġallein":2387,"utzen":2388,"Ã¤chlich":2389,"Ġreligions":2390,"indest":2391,"Ġglaub":2392,"Ġwollte":2393,"Ġlik":2394,"Ġwaffen":2395,"ĠmÃ¼n":2396,"Ġgener":2397,"Ġeind":2398,"Ġanfang":2399,"Ġstein":2400,"eiche":2401,"Ġteilnehmer":2402,"Ġbom":2403,"Ġtausen":2404,"gut":2405,"Ġson":2406,"ĠĠĠ":2407,"ĠscheiÃŁ":2408,"ĠÙ":2409,"reiten":2410,"achte":2411,"Ġkennen":2412,"Ġfeind":2413,"Ã¤l":2414,"Ġ12":2415,"Ġwoche":2416,"Ġgegner":2417,"inst":2418,"ellen":2419,"news":2420,"Ġverfass":2421,"arlie":2422,"Ġislamische":2423,"Ġfacebook":2424,"ĠlÃ¶":2425,"ende":2426,"Ġdenk":2427,"Ġguten":2428,"wick":2429,"Ã¤ge":2430,"Ġrest":2431,"deutsche":2432,"Ġag":2433,"Ã¤ft":2434,"Ġfordern":2435,"Ġersten":2436,"Ġlandes":2437,"Ġasylanten":2438,"Ġfamilie":2439,"ilt":2440,"icken":2441,"schaften":2442,"sehen":2443,"Ġhelfen":2444,"/?":2445,"Ġschulen":2446,"ĠtÃ¼rken":2447,"Ġhitler":2448,"isches":2449,"Ġpatri":2450,"rÃ¼nd":2451,"Ġdaher":2452,"Ġev":2453,"Ġeuro":2454,"schlag":2455,"Ġsalaf":2456,"Ġdro":2457,"Ġparteien":2458,"Ġbrd":2459,"Ġforderungen":2460,"vie":2461,"Ġreligionen":2462,"Ã¼nft":2463,"staat":2464,"Ġbeitrag":2465,"ĠlÃ¤cherlich":2466,"Ġfern":2467,"Ġherrn":2468,"Ġverboten":2469,"unterricht":2470,"na":2471,"rum":2472,"eigt":2473,"Ġeuren":2474,"press":2475,"Ġstark":2476,"verb":2477,"Ġdrauf":2478,"endet":2479,"fin":2480,"riffen":2481,"Ġfremden":2482,"stellung":2483,"tv":2484,"Ġverantwort":2485,"Ġ.....":2486,"ĠnÃ¤mlich":2487,"Ġsuchen":2488,"2014":2489,"ib":2490,"Ġstand":2491,"Ġabsolut":2492,"Ġdiskuss":2493,"anzler":2494,"ipul":2495,"schau":2496,"naz":2497,"________":2498,"inger":2499,"post":2500,"Ġ)":2501,"Ġbef":2502,"get":2503,"rom":2504,"Ġnu":2505,"Ġign":2506,"Ġerm":2507,"Ġsprache":2508,"Ġsachsen":2509,"ale":2510,"urnal":2511,"worten":2512,"Ġtr":2513,"Ġreicht":2514,"Ġlust":2515,"aul":2516,"raft":2517,"Ġ18":2518,"ĠgefÃ¤hr":2519,"Ġkriegs":2520,"gewalt":2521,"Ġdeutlich":2522,"Ġrechten":2523,"Ġwieviel":2524,"stehen":2525,"itiv":2526,"ard":2527,"Ġmitl":2528,"Ġversuchen":2529,"dd":2530,"Ġirgendwann":2531,"Ġvolks":2532,"Ġmuslimen":2533,"ĠmÃ¤n":2534,"Ġgilt":2535,"ati":2536,"Ġbeste":2537,"Ġthey":2538,"Ġpack":2539,"hamm":2540,"Ġkurz":2541,"kon":2542,"Ġlass":2543,"ĠðŁĺĤðŁĺĤ":2544,"amt":2545,"Ġmund":2546,"Ġform":2547,"Ġfolgen":2548,"pg":2549,"bewer":2550,"Ġpolitikern":2551,"auft":2552,"ĠgroÃŁe":2553,"ehn":2554,"Ġgesetz":2555,"ĠmÃ¼ll":2556,"Ġlernen":2557,"Ġspricht":2558,"Ġ<":2559,"enzen":2560,"Ġmiss":2561,"tag":2562,"Ã¤ubigen":2563,"Ġka":2564,"istanz":2565,"Ġvolkes":2566,"Ġwochen":2567,"Ġeinge":2568,"vers":2569,"Ġfunktion":2570,"Ġgesetze":2571,"Ġabendland":2572,"zus":2573,"Ġla":2574,"Ġkirchen":2575,"Ġakzept":2576,"po":2577,"Ġhahaha":2578,"Ġ25":2579,"Ã¼d":2580,"Ġobwohl":2581,"eck":2582,"ĠrÃ¼ck":2583,"Ġignor":2584,"sache":2585,"Ġ200":2586,"Ġabl":2587,"Ġschwei":2588,"dass":2589,"ĠðŁĳį":2590,"Ġargumente":2591,"iÃ¶":2592,"liches":2593,"offen":2594,"gida":2595,"Ġstellt":2596,",,":2597,"Ġschaut":2598,"igungen":2599,"Ġwerte":2600,"ziehen":2601,"usst":2602,"ĠlÃ¼":2603,"Ġdistanz":2604,"machen":2605,"Ġallah":2606,"Ġdinge":2607,"Ã¤ngt":2608,"Ġempf":2609,"ĠkÃ¶l":2610,"Ġwesten":2611,"theater":2612,"Ġverw":2613,"edia":2614,"ĠâĢĵ":2615,"Ġscheint":2616,"Ġvergl":2617,"Ġsetzen":2618,"bewegung":2619,"Ġ50":2620,"utt":2621,"Ġmeinem":2622,"lung":2623,"genommen":2624,"Ġseinem":2625,"ies":2626,"Ġausge":2627,"ordnung":2628,"Ġdeutschlands":2629,"eutet":2630,"ĠgrÃ¶ÃŁ":2631,"Ġregel":2632,"ĠmÃ¼sste":2633,"Ġidioten":2634,"ina":2635,"Ġuhr":2636,"ĠkÃ¶":2637,"Ġbildung":2638,"Ġbeleidigen":2639,"photos":2640,"weisen":2641,"Ġdiskut":2642,"ĠgehÃ¶ren":2643,"Ġwith":2644,"ĠØ":2645,"frage":2646,"Ġ/":2647,"ĠgrÃ¼nd":2648,"ĠstÃ¤r":2649,"nachrichten":2650,"ĠrÃ¼":2651,"utzt":2652,"ĠpersÃ¶nlich":2653,"ee":2654,"Ġpfl":2655,"Ġabgesch":2656,"Ġad":2657,"Ġkennt":2658,"alter":2659,"Ġkot":2660,"Ġprofil":2661,"ienst":2662,"frieden":2663,"pa":2664,"ramm":2665,"ertel":2666,"Ġost":2667,"Ã¤hlen":2668,"Ġabge":2669,"Ġbi":2670,"inde":2671,"ance":2672,"Ã¼ch":2673,"Ġeinwander":2674,"heiten":2675,"bewerber":2676,"Ġarab":2677,"stadt":2678,"ĠmÃ¼nchen":2679,"Ġtotal":2680,"ublik":2681,"ette":2682,"krÃ¤":2683,"rien":2684,"Ã¤ndert":2685,"Ġfranz":2686,"Ġeinzige":2687,"Ġfach":2688,"Ġhoffentlich":2689,"hol":2690,"medien":2691,"Ġbisher":2692,"ĠnÃ¤chste":2693,"Ġneben":2694,"lligen":2695,"dner":2696,"fÃ¼hr":2697,"dann":2698,"Ġpropag":2699,"ow":2700,"Ġkosten":2701,"passen":2702,"Ġ30":2703,"Ġjedoch":2704,"Ġschauen":2705,"Ġweihnacht":2706,"ĠwÃ¼nsche":2707,"ĠÃ¤hn":2708,"ĠtrÃ¤":2709,"****":2710,"tert":2711,"Ġprovo":2712,"Ġkenne":2713,"ihr":2714,"ĠgefÃ¤llt":2715,"jpg":2716,"Ġfamilien":2717,"77":2718,"Ġ>":2719,"Ġoertel":2720,"Ġnieder":2721,"Ġ*":2722,"Ġhar":2723,"Ġletzte":2724,"ream":2725,"Ġeurer":2726,"Ġmom":2727,"Ġheut":2728,"fu":2729,"hle":2730,"ktiv":2731,"Ġgefallen":2732,"drÃ¼":2733,"fach":2734,"ickt":2735,"iker":2736,"entum":2737,"Ġunglaub":2738,"oben":2739,"Ġnpd":2740,"Ġverstehe":2741,"spiegel":2742,"Ġgarnicht":2743,"Ġaussagen":2744,"video":2745,"Ġkonnte":2746,"Ġfehler":2747,"88":2748,"Ġgeworden":2749,"Ġverloren":2750,"ama":2751,"Ġdrei":2752,"europ":2753,"ĠrealitÃ¤t":2754,"Ġmanche":2755,"bringen":2756,"Ġsomit":2757,"nisse":2758,"Ġkleine":2759,"Ġleid":2760,"durch":2761,"wik":2762,"anti":2763,"demos":2764,"Ġmuslimischen":2765,"Ġsagte":2766,"ittel":2767,"Ġgerman":2768,"Ġerkennen":2769,"Ġwerdet":2770,"Ġmuslims":2771,"Ġanschlag":2772,"weile":2773,"Ġsogen":2774,"Ġgleiche":2775,"Ġbekannt":2776,"online":2777,"Ġmanipul":2778,"glie":2779,"asi":2780,"Ġzumindest":2781,"Ġschreibt":2782,"ĠstÃ¤nd":2783,"eier":2784,"Ġmord":2785,"Ġlebens":2786,"Ġantif":2787,"Ġherz":2788,"Ġpassieren":2789,"Ġbesonder":2790,"ĠgroÃŁen":2791,"Ġkompl":2792,"Ġschwachsinn":2793,"lagen":2794,"Ġgesicht":2795,"Ġpolitische":2796,"Ġziehen":2797,"uÃŁ":2798,"verl":2799,"Ġpolizisten":2800,"Ġ??":2801,"Ġhause":2802,"muslim":2803,"Ġschlimmer":2804,"berg":2805,"Ġoff":2806,"ĠwÃ¤hlen":2807,"par":2808,"Ġare":2809,"Ġwert":2810,"Ġteilen":2811,"Ġhetze":2812,"Ġwenigstens":2813,"lossen":2814,"alen":2815,"Ġgrundgesetz":2816,"Ġlese":2817,"Ġsalafisten":2818,"Ġprovoz":2819,"Ã¤ÃŁ":2820,"demir":2821,"Ã¤ngst":2822,"Ġabges":2823,"Ġfake":2824,"Ġint":2825,"Ġversch":2826,"):":2827,"Ġsage":2828,"inter":2829,"Ġjedes":2830,"Ġgegeben":2831,"ĠtatsÃ¤chlich":2832,"ĠfrÃ¼her":2833,"olf":2834,"keiten":2835,"Ġwem":2836,"Ġmoment":2837,"Ġ%":2838,"ven":2839,"hlt":2840,"pfe":2841,"rÃ¤ge":2842,"ufen":2843,"Ġdeinem":2844,"Ġjunge":2845,"fert":2846,"od":2847,"Ġnimmt":2848,"Ġentwick":2849,"Ġerste":2850,"volk":2851,".......":2852,"Ġfakten":2853,"mlich":2854,"Ġpunkte":2855,"mer":2856,"Ġniemals":2857,"Ġeinsch":2858,"anda":2859,"annte":2860,"ĠstÃ¤d":2861,"zdemir":2862,"Ã¤cht":2863,"Ùħ":2864,"Ġosten":2865,"Ġbedeutet":2866,"Ġdefin":2867,"Ġvorbei":2868,"will":2869,"79":2870,"ental":2871,"minister":2872,"Ġliv":2873,"Ġdumme":2874,"ĠfÃ¤llt":2875,"inner":2876,"Ġauft":2877,"edig":2878,"Ġpersonen":2879,"Ġner":2880,"ĠĠĊ":2881,"Ġbestimm":2882,"sichtlich":2883,"Ġnennt":2884,"Ġbezahlt":2885,"Ġmittler":2886,"Ġanderer":2887,"Ġinteressiert":2888,"Ġhaus":2889,"Ġstelle":2890,"ĠglÃ¼cklich":2891,"Ġdiskussion":2892,"cus":2893,"Ġgebracht":2894,"Ġzuwanderung":2895,"Ġober":2896,"rot":2897,"Ġheraus":2898,"66":2899,"Ġvo":2900,"ĠfÃ¼hren":2901,"Ġdemonstration":2902,"Ġradikalen":2903,"Ġsa":2904,"Ã¤nde":2905,"mehr":2906,"Ġauseinander":2907,"ĠkÃ¶nnten":2908,"lÃ¼gen":2909,"no":2910,"Ġx":2911,"Ġessen":2912,"hat":2913,"etten":2914,"Ġvorher":2915,"Ġkritik":2916,"Ġstimmen":2917,"chst":2918,"Ġging":2919,"ĠscheiÃŁe":2920,"Ġstat":2921,"Ġgekommen":2922,"Ġwirst":2923,"Ã¶rder":2924,"wÃ¼rd":2925,"ieÃŁlich":2926,"aria":2927,"rifft":2928,"Ġspaziergang":2929,"90":2930,"Ġy":2931,"Ġprozent":2932,"samm":2933,"Ġort":2934,"bil":2935,"achtet":2936,"mut":2937,"osen":2938,"ieben":2939,"Ġtja":2940,"Ġvolksver":2941,"Ã¤ngen":2942,"nur":2943,"ute":2944,"Ġchristentum":2945,"ausch":2946,"Ġeltern":2947,"Ġdirekt":2948,"cker":2949,"sich":2950,"ĠerklÃ¤ren":2951,"ichten":2952,"rael":2953,"Ġweiss":2954,"sozial":2955,"Ġdran":2956,"Ġrep":2957,"Ã¤tze":2958,"Ġkindern":2959,"hil":2960,"Ġnennen":2961,"ĠstraÃŁen":2962,"Ġpolitisch":2963,"Ġprotest":2964,"ĠverstÃ¤nd":2965,"Ġrussland":2966,"ĠwÃ¼":2967,"anhÃ¤nger":2968,"ossen":2969,"Ġrechtsradikal":2970,"eren":2971,"ĠkÃ¼":2972,"Ġhaha":2973,"hand":2974,"Ġdanach":2975,"Ġasylbewerber":2976,"ften":2977,"Ġnich":2978,"ĠbrÃ¼":2979,"itt":2980,"Ġverbieten":2981,"ĠÌ":2982,"Ġsatz":2983,"Ġfrag":2984,"rohung":2985,"mein":2986,"Ġirgendwie":2987,"Ġsteu":2988,"Ġkrank":2989,"Ġpe":2990,"Ġruhig":2991,"flÃ¼chtlinge":2992,"Ġmeinst":2993,"hrend":2994,"dresden":2995,"ĠspÃ¤ter":2996,"hammed":2997,"ey":2998,"md":2999,"Ġfriedliche":3000,"iveau":3001,"Ġnachrichten":3002,"ĠgÃ¤":3003,"Ġvergangen":3004,"Ġlau":3005,"isst":3006,"Ġjournal":3007,"ĠÌģ":3008,"hÃ¶ren":3009,"ĠdÃ¼":3010,"Ġintelligen":3011,"Ġwahren":3012,"fur":3013,"ieht":3014,"rech":3015,"ĠunterstÃ¼tzen":3016,"Ġangeblich":3017,"Ġersch":3018,"ucht":3019,"bet":3020,"Ġmassen":3021,"reis":3022,"Ġgenommen":3023,"ĠgelÃ¶":3024,"uh":3025,"Ġheuch":3026,"Ġzul":3027,"Ġneuen":3028,"Ġinst":3029,"ase":3030,"schul":3031,"Ġglaubens":3032,"Ġpriv":3033,"Ġanstatt":3034,"Ġvertreten":3035,"kÃ¶":3036,"uren":3037,"Ġfehlt":3038,"Ġschweine":3039,"Ġsyrien":3040,"feindlich":3041,"eule":3042,"Ġunterschied":3043,"86":3044,"Ġmass":3045,"Ġaust":3046,"Ġfriedlichen":3047,"Ġgeil":3048,"schutz":3049,"Ġblo":3050,"Ġsolch":3051,"Ġrassismus":3052,"Ġanz":3053,"estag":3054,"Ġstraft":3055,"system":3056,"ultik":3057,"Ġideolog":3058,"ĠhÃ¤lt":3059,"atte":3060,"ative":3061,"Ġgleichen":3062,"Ġfreu":3063,"ĠkÃ¤mpfen":3064,"Ġnacht":3065,"uten":3066,"indern":3067,"Ġirgendwel":3068,"df":3069,"Ġalleine":3070,"wiesen":3071,"Ġ:-(":3072,"ih":3073,"Ġherk":3074,"Ġgestellt":3075,"Ġrtl":3076,"ĠbekÃ¤m":3077,"ĠÃ¼berzeu":3078,"spol":3079,"Ġinternet":3080,"Ġzeichen":3081,"Ġmist":3082,"ĠfÃ¤":3083,"Ġverz":3084,"Ġmittlerweile":3085,"Ġwillkommen":3086,"Ġums":3087,"Ġschaffen":3088,"macht":3089,"Ġgehe":3090,"ĠÃ¤uÃŁer":3091,"Ġpegid":3092,"!\"":3093,"ene":3094,"ĠauslÃ¤nd":3095,"Ġpolitischen":3096,"99":3097,"Ġbeiden":3098,"go":3099,"ipp":3100,"merk":3101,"rechte":3102,"els":3103,"slos":3104,"Ġsinne":3105,"Ġrichtige":3106,"ĠfÃ¼hr":3107,"Ġverp":3108,"Ġalt":3109,"ĠkÃ¶ln":3110,"Ġtv":3111,"Ġgegenteil":3112,"ĠmÃ¤nner":3113,"Ġinner":3114,"Ġecke":3115,"ĠtÃ¶ten":3116,"uu":3117,"Ġlachen":3118,"Ġjob":3119,"Ġkampf":3120,"Ġbesonders":3121,"Ġdau":3122,"ager":3123,"Ġgibts":3124,"rift":3125,"Ġthat":3126,"Ġidee":3127,"tem":3128,"ĠschÃ¤":3129,"Ġverbl":3130,"dient":3131,"Ġverfol":3132,"Ġverhalten":3133,"Ġtroll":3134,"Ġeinwanderung":3135,"Ġorg":3136,"Ġfan":3137,"Ġstell":3138,"Ġeng":3139,"ĠbeschÃ¤ft":3140,"Ġmel":3141,"Ġkreuz":3142,"Ġdikt":3143,"Ġsoweit":3144,"Ġverurteilt":3145,"oph":3146,"Ġausland":3147,"Ġwach":3148,"Ġverbrecher":3149,"Ġsicherlich":3150,"schieden":3151,"Ġgutes":3152,"Ġrichtung":3153,"Ġlebt":3154,"Ġjan":3155,"ernt":3156,"ĠstÃ¤ndig":3157,"ĠbefÃ¼r":3158,"ĠreligiÃ¶":3159,"ĠvernÃ¼nft":3160,"hÃ¶":3161,"Ġsteuern":3162,"Ġpein":3163,"Ġunbed":3164,"Ġhilfe":3165,"word":3166,"reten":3167,"eister":3168,"Ġverteid":3169,"++":3170,"ror":3171,"Ġbuch":3172,"bert":3173,"Ġdessen":3174,"ĠÃ¶zdemir":3175,"Ġmaas":3176,"kar":3177,"Ġsit":3178,"mensch":3179,"hst":3180,"ii":3181,"Ġlog":3182,"Ġspe":3183,"Ġdial":3184,"vert":3185,"Ġsolltest":3186,"bildung":3187,"Ġwoher":3188,"Ġstimme":3189,"set":3190,"anzlerin":3191,"Ġgehirn":3192,"Ġgetan":3193,"Ġgruppe":3194,"atire":3195,"view":3196,"Ġlach":3197,"lÃ¼genpresse":3198,"la":3199,"Ġheil":3200,"Ġbem":3201,"rauen":3202,"Ġradikale":3203,"76":3204,"Ġweise":3205,"Ġmigration":3206,"Ã¼ndnis":3207,"seite":3208,"Ġfroh":3209,"Ġzerst":3210,"hrin":3211,"mmern":3212,"Ġberuf":3213,"Ġverlogen":3214,"gesetzt":3215,"Ġhol":3216,"krÃ¤fte":3217,"Ġisrael":3218,"Ġspazieren":3219,"Ġgeboren":3220,"lu":3221,"one":3222,"ĠbestÃ¤t":3223,"mord":3224,"istan":3225,"Ã¼rgern":3226,"ĠnÃ¤":3227,"eug":3228,"Ġspiegel":3229,"schauen":3230,"eter":3231,"Ġerinn":3232,"zul":3233,"Ġweiterhin":3234,"Ġweihnachts":3235,"punkt":3236,"Ġthemen":3237,"Ġkleinen":3238,"ks":3239,"iet":3240,"endung":3241,"jen":3242,"Ġisis":3243,"Ġintegrieren":3244,"Ġbezeichnet":3245,"teilen":3246,"ĠbÃ¶se":3247,"101":3248,"Ġaufzu":3249,"Ġminderheit":3250,"Ġherkunft":3251,"wordpress":3252,"Ġprof":3253,"enten":3254,"deutschen":3255,"gramm":3256,"prochen":3257,"Ġausd":3258,"Ġkleiner":3259,"Ġruhe":3260,"Ġwu":3261,"Ġhetz":3262,"Ġleg":3263,"Ġlage":3264,"Ġblock":3265,"Ġmanch":3266,"ienen":3267,"Ġsitzen":3268,"agida":3269,"Ġtext":3270,"orf":3271,"Ġmerkt":3272,"Ġoffiz":3273,"ĠwÃ¤hrend":3274,"Ġdres":3275,"Ġvater":3276,"schn":3277,"Ġalter":3278,"ĠgewÃ¤hlt":3279,"treter":3280,"Ġunglaublich":3281,"Ġverschieden":3282,"istik":3283,"grÃ¼":3284,"ikatur":3285,"Ġberichtet":3286,"Ġzeitung":3287,"aschen":3288,"Ġarmen":3289,"markt":3290,"gi":3291,"zum":3292,"Ġ17":3293,"Ġeinigen":3294,"Ġschande":3295,"Ġansicht":3296,"chr":3297,"Ġtragen":3298,"Ġbeleidigt":3299,"sextrem":3300,"mpath":3301,"Ġ14":3302,"Ġku":3303,"Ġaufru":3304,"Ġkopft":3305,"lose":3306,"ite":3307,"Ġerreicht":3308,"Ø§ÙĦ":3309,"Ġgrad":3310,"ĠstÃ¤rker":3311,"wissen":3312,"Ġwes":3313,"Ġschle":3314,"Ġniveau":3315,"Ġflag":3316,"Ġanschein":3317,"Ġkathrin":3318,"Ġ40":3319,"stÃ¤nde":3320,"ĠauÃŁerdem":3321,"Ġname":3322,"Ã¤re":3323,"iten":3324,"Ġgebe":3325,".)":3326,"fÃ¼hren":3327,"Ġhartz":3328,"Ġbibel":3329,"by":3330,"ĠtÃ¤ter":3331,"eitig":3332,"Ġsto":3333,"Ġebenfalls":3334,"Ġrot":3335,"roht":3336,"Ġdemonstriert":3337,"Ġspa":3338,"Ġkomisch":3339,"Ġmusste":3340,"verstÃ¤nd":3341,"Ġangeh":3342,"Ġweihnachten":3343,"kra":3344,"Ġjauch":3345,"Ġwelchen":3346,"Ġplan":3347,"Ġgast":3348,"Ġkath":3349,"Ã¤ubige":3350,"ante":3351,"roffen":3352,"Ġrichter":3353,"Ġbeschimpft":3354,"atten":3355,"Ġverar":3356,"Ġebenso":3357,"Ġbundestag":3358,"Ġamerikan":3359,"Ġgra":3360,"berlin":3361,"wohn":3362,"ĈĈĈĈĈĈĈĈĈĈĈĈĈĈĈĈ":3363,"Ġster":3364,"Ġkund":3365,"Ġguter":3366,"Ġwelches":3367,"Ġdachte":3368,"Ġfb":3369,"Ġunbedingt":3370,"Ġislamismus":3371,"Ġneut":3372,"Ġmeint":3373,"Ġnachdenken":3374,"Ġbraun":3375,"iff":3376,"ĠfÃ¼hlen":3377,"Ġgehts":3378,"ĠlÃ¶s":3379,"Ġliest":3380,"itzt":3381,"ĠunterstÃ¼tzt":3382,"schuld":3383,"also":3384,"Ġ90":3385,"setzen":3386,"atoren":3387,"ĠwÃ¤r":3388,"Ġrechtsch":3389,"Ġfunktioniert":3390,"yl":3391,"urs":3392,"poliz":3393,"Ġerwarten":3394,"fbid":3395,"Ġpatriot":3396,"ĠÃ¤ng":3397,"Ġmohammed":3398,"Ġjust":3399,"sprache":3400,"Ġposten":3401,"ĠgelÃ¶scht":3402,"Ġhas":3403,"ĠbÃ¼ndnis":3404,"atsch":3405,"zieh":3406,"Ġanzu":3407,"spolitik":3408,"Ġmed":3409,"Ġdiskutieren":3410,"Ġneues":3411,"107":3412,"terror":3413,"Ġgefunden":3414,"Ġdummheit":3415,"Ġquelle":3416,"Ġgottes":3417,"ael":3418,"Ġprovozieren":3419,"fasch":3420,"rw":3421,"ĠÃ¤uÃŁ":3422,"ierungen":3423,"Ġcharlie":3424,"Ġchristlichen":3425,"Ġtages":3426,"Ġlustig":3427,"alle":3428,"aust":3429,"Ġbeide":3430,"Ġpropaganda":3431,"ĠtÃ¤":3432,"ĠaufklÃ¤r":3433,"Ġkotzen":3434,"ĠanschlÃ¤ge":3435,"fuer":3436,"Ġtu":3437,"Ġinteressant":3438,"Ġveranstaltung":3439,"Ã¤ss":3440,"altt":3441,"Ġjes":3442,"errt":3443,"ehrer":3444,"ĠerwÃ¤":3445,"Ġsowieso":3446,"Ġrichtigen":3447,"arbeiter":3448,"78":3449,"Ġdialog":3450,"nern":3451,"Ġentschuld":3452,"mÃ¶":3453,"Ġmor":3454,"reitet":3455,"Ġscheisse":3456,"Ġgemeint":3457,"Ġbunt":3458,"Ġsiehe":3459,"Ġbisschen":3460,"Ġerreichen":3461,"Ġgegendemo":3462,"Ġchance":3463,"Ġmoscheen":3464,"gung":3465,"Ġleicht":3466,"Ġâ":3467,"ĠmÃ¤d":3468,"Ġalten":3469,"Ġ^^":3470,"Ġbewusst":3471,"Ġser":3472,".âĢľ":3473,"ham":3474,"haus":3475,"onnen":3476,"Ġversamm":3477,"Ġmuslimische":3478,"feh":3479,"ys":3480,"Ġsatire":3481,"Ġneg":3482,"Ġalte":3483,"spruch":3484,"Ġnee":3485,"Ġmerken":3486,"stimmung":3487,"Ġdummen":3488,"Ġkommun":3489,"anger":3490,"ĠprÃ¤":3491,"fragen":3492,"ĠÃ¤r":3493,"Ġfot":3494,"Ġallgemein":3495,"Ġbesteht":3496,"uelle":3497,"Ġ[":3498,"Ġhilft":3499,"pan":3500,"up":3501,"einer":3502,"Ġlieben":3503,"Ġwollten":3504,"Ġbay":3505,"leben":3506,"undert":3507,"Ġrassisten":3508,"Ġgezeigt":3509,"418":3510,"Ġsicht":3511,"ĠlÃ¤ngst":3512,"gest":3513,"gebung":3514,"Ġlebe":3515,"ĠgesprÃ¤":3516,"Ġanscheinend":3517,"zogen":3518,"Ġschutz":3519,"ege":3520,"weder":3521,"Ġweitere":3522,"ĠgetÃ¶":3523,"Ġmusst":3524,"Ġhetzen":3525,"iste":3526,"Ġbeleidigungen":3527,"eisch":3528,"gef":3529,"recken":3530,"reibung":3531,"Ġsachlich":3532,"ÙĨ":3533,"Ġmultik":3534,"Ġus":3535,"Ġeinzu":3536,"tliche":3537,"ose":3538,"Ġkan":3539,"Ġgruppen":3540,"gress":3541,"ref":3542,"Ġschaden":3543,"blog":3544,"Ġlive":3545,"Ġausser":3546,"Ġgewaltt":3547,"ĠgrÃ¶ÃŁer":3548,"Ġ>>":3549,"sh":3550,"Ġzuwander":3551,"Ġfalsche":3552,"!?":3553,"beg":3554,"Ġira":3555,"Ġbra":3556,"pfl":3557,"Ġchristian":3558,"Ġerhalten":3559,"warum":3560,"rÃ¤n":3561,"Ġerlau":3562,"Ġgelernt":3563,"Ġkriminelle":3564,"ender":3565,"Ġmil":3566,"regierung":3567,"aff":3568,"Ġpassen":3569,"Ġeindeut":3570,"ium":3571,"ausland":3572,"Ġkontro":3573,"Ġhing":3574,"orn":3575,"Ġdrogen":3576,"Ġwitz":3577,"Ġzer":3578,"Ġgespannt":3579,"Ġziemlich":3580,"Ġ0":3581,"arbeit":3582,"Ġteilweise":3583,"photo":3584,"Ġweltoffen":3585,"Ġantworten":3586,"Ġdresdner":3587,"stag":3588,"onn":3589,"alien":3590,"Ġverdient":3591,"ome":3592,"eller":3593,"Ġoffensichtlich":3594,"mb":3595,"Ġas":3596,"onie":3597,"reden":3598,"Ġzug":3599,"Ġderzeit":3600,"attung":3601,"Ġboden":3602,"Ġsh":3603,"sent":3604,"ĠspÃ¤t":3605,"Ã¶rung":3606,"Ġfreie":3607,"Ġdiffam":3608,"ĠschÃ¼tzen":3609,"Ġfanat":3610,"chs":3611,"ory":3612,"Ġliegen":3613,"Ġ80":3614,"Ġerd":3615,"idar":3616,"Ġentscheid":3617,"Ġhalte":3618,"Ġschwarz":3619,"Ġwundern":3620,"Ġmitglie":3621,"Ġrand":3622,"69":3623,"ragt":3624,"Ġangel":3625,"Ġwahlen":3626,"Ġmoschee":3627,"Ġbomber":3628,"itel":3629,"esser":3630,"wegs":3631,"bo":3632,"Ġerf":3633,"reibt":3634,"Ġspinner":3635,"haben":3636,"Ġfahne":3637,"Ġgedacht":3638,"Ġversteht":3639,"Ġzwang":3640,"wur":3641,"ment":3642,"ĠÂ":3643,"Ġgesam":3644,"Ã¼tzt":3645,"aaaa":3646,"sÃ¤tz":3647,"verr":3648,"ony":3649,"inz":3650,"Ġgrenzen":3651,"Ġhoff":3652,"Ġbekomm":3653,"Ġfresse":3654,"Ġwahn":3655,"Ġwahre":3656,"jenigen":3657,"Ġangeg":3658,"Ġliving":3659,"68":3660,"Ġbezeichnen":3661,"Ã¶tig":3662,"Ġpeinlich":3663,"oe":3664,"spricht":3665,"ulture":3666,"Ġhandeln":3667,"Ġspielen":3668,"ĠðŁ":3669,"onsten":3670,"Ġbegriff":3671,"Ġinformieren":3672,"Ġattent":3673,"Ġpausch":3674,"Ġverfassung":3675,"Ġinnen":3676,"Ġabzu":3677,"Ġabgel":3678,"Ġunterricht":3679,"Ġdennoch":3680,"ipedia":3681,"heb":3682,"Ġmontags":3683,"Ġvergleich":3684,"einen":3685,"had":3686,"Ġentgegen":3687,"hang":3688,"ju":3689,"Ġdre":3690,"Ġsachen":3691,"ĠschÃ¤m":3692,"Ġflie":3693,"Ġfalschen":3694,"fÃ¼hrt":3695,"Ġentscheiden":3696,"Ġsteuergel":3697,"Ġerfahr":3698,"Ġnachbar":3699,"ivil":3700,"ĠÃ¤ngste":3701,"gh":3702,"ppy":3703,"Ġschluss":3704,"Ġordnung":3705,"Ġbill":3706,"eits":3707,"sequ":3708,"Ġverbreiten":3709,"Ġbetr":3710,"sd":3711,"Ġpf":3712,"Ġgegangen":3713,"Ġbehaupten":3714,"Ġps":3715,"Ġergeb":3716,"Ġgesprochen":3717,"pr":3718,"zÃ¼":3719,"Ġnutzen":3720,"hahahaha":3721,"gro":3722,"Ġkonk":3723,"Ġhinterher":3724,"Ġschweiz":3725,"Ġkathol":3726,"ita":3727,"Ġparolen":3728,"erung":3729,"indet":3730,"----------------":3731,"Ġsar":3732,"Ġme":3733,"ature":3734,"teilt":3735,"Ġhauptsache":3736,"Ġheuchler":3737,"bund":3738,"Ġredet":3739,"Ġkomme":3740,"Ġchristliche":3741,"Ġsympath":3742,"Ġvergangenheit":3743,"meister":3744,"ĠmitbÃ¼rger":3745,"Ġaufgrund":3746,"ef":3747,"heil":3748,"Ġbur":3749,"tto":3750,"Ġmerk":3751,"alif":3752,"reichen":3753,"artikel":3754,"ĠÃ¼bel":3755,"Ġsprach":3756,"Ġluft":3757,"Ġhind":3758,"Ġverschl":3759,"Ġschweigen":3760,"ntag":3761,"Ã©":3762,"ehnt":3763,"gestellt":3764,"ĠverhÃ¤lt":3765,"Ġhalb":3766,"merksam":3767,"Ġstaaten":3768,"Ġneutral":3769,"Ġmeinungen":3770,"ĠdrÃ¼ber":3771,"Ġprim":3772,"ĠerklÃ¤rt":3773,"ĠweiÃŁt":3774,"Ġauto":3775,"Ġmasse":3776,"altet":3777,"Ġaufmerksam":3778,"zeitung":3779,"Ġsogenannten":3780,"partei":3781,"Ġreag":3782,"Ġblind":3783,"ator":3784,"ada":3785,"Ġdadurch":3786,"asen":3787,"Ġverhindern":3788,"Ġmissbrau":3789,"anke":3790,"Ġmiteinander":3791,"kla":3792,"Ġpetition":3793,"ĠunglÃ¤ubigen":3794,"Ġker":3795,"igten":3796,"ihad":3797,"Ġli":3798,"sextre":3799,"Ġwirtschafts":3800,"Ġfaschisten":3801,"Ġtreffen":3802,"stu":3803,"demokrat":3804,"gegeben":3805,"Ġhamburg":3806,"Ġsitu":3807,"Ġhum":3808,"Ġbezahlen":3809,"Ġ70":3810,"Ġbudd":3811,"Ġlol":3812,"Ġhappy":3813,"Ġwenige":3814,"ritten":3815,"Ġandre":3816,"erstattung":3817,"Ġfalls":3818,"10737":3819,"rep":3820,"Ġrunter":3821,"ĠschlÃ¤":3822,"Ġversteh":3823,"Ġentweder":3824,"gabe":3825,"fan":3826,"herr":3827,"ÙĬ":3828,"Ġgau":3829,"asyl":3830,"ĠbÃ¼":3831,"adet":3832,"Ġeuropas":3833,"Ġvollkommen":3834,"zwischen":3835,"Ġkapit":3836,"merkel":3837,"itter":3838,"Ġsolidar":3839,"feature":3840,"lage":3841,"Ġafr":3842,"ielt":3843,"10737418":3844,"rt":3845,"unsch":3846,"angel":3847,"Ġkonsequ":3848,"ĠbloÃŁ":3849,"Ġ:(":3850,"ĠwÃ¤hl":3851,"schluss":3852,"Ġherzen":3853,"fordert":3854,"ac":3855,"zert":3856,"Ġmdr":3857,"esch":3858,"itze":3859,"allel":3860,"Ġkopftuch":3861,"Ġwohn":3862,"Ġabschie":3863,"ev":3864,"eig":3865,"platz":3866,"Ġverfassungs":3867,"Ġwieviele":3868,"kam":3869,"Ġbar":3870,"ĠmÃ¼ssten":3871,"Ġthom":3872,"Ġbildungs":3873,"Ġmutter":3874,"aktion":3875,"Ġpflicht":3876,"Ġmigrations":3877,"zi":3878,"Ġ35":3879,"Ġweis":3880,"Ġdemonstrationen":3881,"Ġintoler":3882,"fig":3883,"antifa":3884,"Ġbau":3885,"Ġfallen":3886,"Ġph":3887,"organisation":3888,"focus":3889,"ĠvÃ¶lker":3890,"euert":3891,"Ġoss":3892,"Ġaufw":3893,"iver":3894,"Ġhintergrund":3895,"\"?":3896,"Ġgg":3897,"ðŁĳı":3898,"Ġzitat":3899,"Ġukra":3900,"itten":3901,"Ã¤ufer":3902,"Ġstraf":3903,"Ġpeter":3904,"ĠØ§ÙĦ":3905,"info":3906,"verd":3907,"gert":3908,"Ġfehlen":3909,"beh":3910,"unehmen":3911,"gesellschaft":3912,"ildet":3913,"ogra":3914,"Ġansonsten":3915,"98":3916,"Ġspahn":3917,"indestens":3918,"Ġsk":3919,"ĠschÃ¼":3920,"ĠverÃ¶":3921,"Ġauszu":3922,"Ġentfern":3923,"Ġnull":3924,"Ġkomplett":3925,"Ġirak":3926,"stet":3927,"Ġbahn":3928,"Ġinhalt":3929,"ink":3930,"rakt":3931,"Ġsonntag":3932,"weiter":3933,"schlagen":3934,"Ġniemanden":3935,"Ġerkennt":3936,"ĠspaÃŁ":3937,"Ġumge":3938,"politiker":3939,"rohungen":3940,"Ġstud":3941,"Ġfuer":3942,"Ġzent":3943,"Ġanw":3944,"Ġarme":3945,"ople":3946,"marsch":3947,"Ġpauschal":3948,"Ġbeant":3949,"Ġfahren":3950,"Ġzieht":3951,"Ã¤ten":3952,"Ġzuh":3953,"andelt":3954,"Ġentsprechen":3955,"Ġfordert":3956,"ele":3957,"Ġverlassen":3958,"Ġvermut":3959,"nahmen":3960,"Ġaggress":3961,"Ġabendlandes":3962,"Ġ13":3963,"ertig":3964,"ĠfachkrÃ¤fte":3965,"Ġmoder":3966,"zeitig":3967,"Ġblut":3968,"Ġgefragt":3969,"seh":3970,"inken":3971,"Ġjeg":3972,"Ġanteil":3973,"Ġrund":3974,"Ġwere":3975,"ĠÃ¤uÃŁern":3976,"ĠgetÃ¶tet":3977,"mittel":3978,"lang":3979,"Ġmaul":3980,"Ġextremisten":3981,"Ġbehauptet":3982,"Ġche":3983,"Ġnetz":3984,"old":3985,"Ġlies":3986,"Ġtausende":3987,"lassen":3988,"uver":3989,"Ġnehm":3990,"Ġstatistik":3991,"Ġideologie":3992,"cl":3993,"Ġdom":3994,"ĠbÃ¼rgern":3995,"isse":3996,"ilde":3997,"Ġgegendemos":3998,"ĠgefÃ¤hrlich":3999,"Ġschr":4000,"Ġtolerant":4001,"Ġinstrum":4002,"feld":4003,"Ġtod":4004,"Ġparallel":4005,"Ġindem":4006,"hass":4007,"eilen":4008,"ient":4009,"bern":4010,"ogan":4011,"Ġbedroht":4012,"Ġrassistisch":4013,"Ġprivat":4014,"opp":4015,"Ġunver":4016,"Ġreal":4017,"Ġwerfen":4018,"ĠschlieÃŁlich":4019,"Ġjesus":4020,"Ġtill":4021,"olution":4022,"ĠverstÃ¤ndnis":4023,"jo":4024,"Ġed":4025,"ausl":4026,"Ġmenge":4027,"iziert":4028,"demonstr":4029,"Ĥ¬":4030,"Ġvergewalt":4031,"Ġrev":4032,"Ġmenschenver":4033,"Ġjedenfalls":4034,"67":4035,"Ġwut":4036,"rukt":4037,"fest":4038,"ĠÃ¤ndert":4039,"ichts":4040,"relig":4041,"Ġunbe":4042,"Ġstecken":4043,"Ġirgendwo":4044,"Ġaktiv":4045,"Ġmauer":4046,"Ġschafft":4047,"Ġvorurteil":4048,"Ġjemanden":4049,"ĠĠĠĠĠĠĠĠĠĠĠĠĠĠĠĠĠĠĠĠĠĠĠĠĠĠĠĠĠĠĠĠĠĠĠĠĠĠĠĠĠĠĠĠĠĠĠĠĠĠĠĠĠĠĠĠĠĠĠĠĠĠĠĠ":4050,"Ġpeople":4051,"Ġdauer":4052,"Ġnenn":4053,"arf":4054,"rÃ¼che":4055,"cd":4056,"Ġintegriert":4057,"feindlichkeit":4058,"ĠunterstÃ¼tzung":4059,"ediglich":4060,"Ġsterben":4061,"Ġfrom":4062,"Ġgewaltber":4063,"Ġzusammenhang":4064,"Ġberichten":4065,"Ã¤um":4066,"................":4067,"polizei":4068,"ekt":4069,"eiÃŁ":4070,"Ã¼ss":4071,"Ġfil":4072,"Ġerb":4073,"ĠheiÃŁen":4074,"hof":4075,"Ġberichterstattung":4076,"zur":4077,"Ġ11":4078,"Ġ!!!!!":4079,"hintergrund":4080,"Ġspazierg":4081,"Ġ<<":4082,"Ġeindeutig":4083,"stes":4084,"ins":4085,"mmt":4086,"Ġdahin":4087,"unk":4088,"ĠstÃ¤dten":4089,"Ġverfolgt":4090,"Ġmitte":4091,"Ġgeha":4092,"Ġherum":4093,"Ġ......":4094,"Ġ1989":4095,"Ġ16":4096,"Ġimm":4097,"denten":4098,"utm":4099,"Ġard":4100,"lebt":4101,"Ġkriegen":4102,"mt":4103,"Ġlediglich":4104,"ĠschÃ¤men":4105,"wig":4106,"Ġverfolg":4107,"geln":4108,"Ġrufen":4109,"Ġziele":4110,"Ġdiffer":4111,"Ġbuddh":4112,"ote":4113,"ĠhÃ¶r":4114,"Ġtage":4115,"Ġzeiten":4116,"ĠbÃ¶sen":4117,"ĠerzÃ¤hlen":4118,"Ġbilden":4119,"instream":4120,"drÃ¼cken":4121,"Ġsituation":4122,"Ġhut":4123,"anschlag":4124,"ille":4125,"losen":4126,"ĠgefÃ¼hl":4127,"Ġjournalisten":4128,"sor":4129,"Ġfand":4130,"ðŁĺī":4131,"Ġdaraus":4132,"Ġbla":4133,"Ġ?!":4134,"Ġbrand":4135,"ĠschÃ¶nen":4136,"Ġquatsch":4137,"ĠwofÃ¼r":4138,"Ġehem":4139,"wirtschaft":4140,"tra":4141,"eige":4142,"Ġwind":4143,"atik":4144,"ppel":4145,"Ġnazik":4146,"ebt":4147,"Ġkoll":4148,"ime":4149,"spaz":4150,"aktuell":4151,"chter":4152,"ĠgeprÃ¤":4153,"igranten":4154,"Ġsure":4155,"Ġhandelt":4156,"freund":4157,"Ġkaputt":4158,"standen":4159,"ehme":4160,"Ã¼nst":4161,"ĠauslÃ¤ndern":4162,"Ġansehen":4163,"Ġwiderstand":4164,"Ġbilder":4165,"10000":4166,"gie":4167,"ideos":4168,"ĠeuropÃ¤ischen":4169,"eyer":4170,"lern":4171,"Ġzb":4172,"Ġpart":4173,"Ġrie":4174,"ogle":4175,"ĠgrÃ¶ÃŁte":4176,"chtung":4177,"Ġprov":4178,"Ġheisst":4179,"Ġscheinbar":4180,"Ø±":4181,"Ġzivil":4182,"ĠðŁĺĤðŁĺĤðŁĺĤ":4183,"Ùĩ":4184,"Ġwand":4185,"!!!!!!":4186,"nazis":4187,"Ġeinwanderer":4188,"Ġholen":4189,"Ġheutigen":4190,"100":4191,"sind":4192,"setzung":4193,"Ġwarten":4194,"Ġ1000":4195,"Ġjahrz":4196,"Ġfort":4197,"Ġverste":4198,"ole":4199,"eldung":4200,"arbeitet":4201,"Ġverantwortlich":4202,"________________":4203,"Ġwahnsinn":4204,"Ġtief":4205,"Ġbezie":4206,"ĠflÃ¼chtlingen":4207,"ĠgrÃ¼nden":4208,"Ġergebnis":4209,"sweise":4210,"ĠmÃ¶rder":4211,"Ġverda":4212,"abhÃ¤ng":4213,"iban":4214,"nÃ¤ch":4215,"rimin":4216,"Ġsetzt":4217,"Ġsouver":4218,"Ġkriege":4219,"setzt":4220,"Ġdoo":4221,"Ġjahrh":4222,"Ġirgendwelche":4223,"con":4224,"trag":4225,"Ġvier":4226,"Ġmichael":4227,"Ġcon":4228,"ĠschÃ¶ne":4229,"ĠeuropÃ¤er":4230,"zz":4231,"Ġmitbe":4232,"Ġbereich":4233,"Ġerwartet":4234,"gruppen":4235,"ĠgrÃ¶ÃŁten":4236,"ĠaufklÃ¤rung":4237,"aben":4238,"charlie":4239,"Ġverstand":4240,"wohner":4241,"sÃ¤tzlich":4242,"nation":4243,"ĠmÃ¤r":4244,"str":4245,"Ġfar":4246,"atisch":4247,"Ġanpassen":4248,"Ġthis":4249,"Ġernsthaft":4250,"hilfe":4251,"woch":4252,"Ġheb":4253,"Ġeurem":4254,"dp":4255,"satz":4256,"Ġwasser":4257,"Ġdiktatur":4258,"gibt":4259,"Ġthomas":4260,"!)":4261,"Ġorden":4262,"Ġhans":4263,"iser":4264,"radition":4265,"nazi":4266,"furt":4267,"Ġinteressen":4268,"Ġflagge":4269,"legida":4270,"Ġ000":4271,"Ġhu":4272,"Ġaufnehmen":4273,"Ġsolltet":4274,"Ġschlag":4275,"teln":4276,"ĠflÃ¼chtling":4277,"echnet":4278,"ĠmÃ¤dchen":4279,"Ġhoffnung":4280,"bau":4281,"Ã¶tz":4282,"Ġstattf":4283,"Ġmanchmal":4284,"lungs":4285,"Ġtal":4286,"ĠgrÃ¶n":4287,"Ã¤tzen":4288,"wiki":4289,"Ġoffiziell":4290,"bahn":4291,"Ġzut":4292,"Ġgeschafft":4293,"Ġgerecht":4294,"wahr":4295,"Ġorga":4296,"ĠðŁĳįðŁĳį":4297,"Ġkamen":4298,"Ġterrororganisation":4299,"pen":4300,"ĠfuÃŁ":4301,"Ġeinstellung":4302,"Ġgebrau":4303,"Ġwillen":4304,"handen":4305,"Ġsingen":4306,"Ġreichen":4307,"plan":4308,"97":4309,"Ġ????":4310,"text":4311,"Ġdavor":4312,"Ġcha":4313,"hÃ¤ngern":4314,"ĠlÃ¶sung":4315,"Ġmindestens":4316,"Ġdiejenigen":4317,"Ġdun":4318,"Ġgegenseitig":4319,"kultur":4320,"off":4321,"Ġnet":4322,"ise":4323,"Ġgelten":4324,"raten":4325,"ĠgrÃ¼ne":4326,"https":4327,"Ġakzeptieren":4328,"wahl":4329,"enken":4330,"Ġsam":4331,"Ġleisten":4332,"âĢĻ":4333,"Ġitalien":4334,"iar":4335,"Ġtaten":4336,"Ġtrifft":4337,"Ġstehe":4338,"angt":4339,"Ġmarsch":4340,"fref":4341,"ĠtÃ¤glich":4342,"kn":4343,"sachsen":4344,"rog":4345,"Ġgeschw":4346,"Ġmache":4347,"Ġnrw":4348,"rief":4349,"Ġrassist":4350,"Ġfeiert":4351,"ĠblÃ¶dsinn":4352,"Ġausger":4353,"Ġglaubst":4354,"Ġtatsache":4355,"bc":4356,"ĠauÃŁen":4357,"Ã¶ner":4358,"Ġanfangen":4359,"87":4360,"oh":4361,"index":4362,"Ġlob":4363,"Ġeigenes":4364,"fs":4365,"Ġmio":4366,"berecht":4367,"Ġstasi":4368,"innt":4369,"marot":4370,"keine":4371,"Ġislams":4372,"jahr":4373,"fÃ¤lle":4374,"krimin":4375,"Ġtillich":4376,"zunehmen":4377,"Ġtradition":4378,"Ġaufs":4379,"Ġsteckt":4380,"ĠnÃ¶tig":4381,"ĠmaÃŁ":4382,"Ġtausend":4383,"ĠtrÃ¤um":4384,"europa":4385,"neu":4386,"Ġlaber":4387,"Ġstad":4388,"Ġfragt":4389,"ĠfÃ¼hrt":4390,"Ġinteressieren":4391,"ischt":4392,"fleisch":4393,"Ġexist":4394,"Ġxd":4395,"Ġnazikeule":4396,"legen":4397,"Ġumfrage":4398,"riften":4399,"wÃ¼rdig":4400,"Ġbayern":4401,"Ġangegriffen":4402,"eis":4403,"Ġgebl":4404,"denn":4405,"indert":4406,"ĠgenÃ¼":4407,"Ġgewissen":4408,"Ġrechtfert":4409,"Ġschwein":4410,"rechts":4411,"Ġlike":4412,"abend":4413,"stÃ¤ndig":4414,"Ġlikes":4415,"Ġukraine":4416,"Ã¼lt":4417,"Ġeiniges":4418,"Ġnormale":4419,"Ġdistanzieren":4420,"lln":4421,"ĠlÃ¤nger":4422,"itÃ¤r":4423,"igte":4424,"reisen":4425,"Ġkriminellen":4426,"Ġjustiz":4427,"Ġsho":4428,"ish":4429,"zufrieden":4430,"here":4431,"anteil":4432,"Ġsteuerzahl":4433,"Ġvogel":4434,"bu":4435,"Ø³":4436,"ieÃŁt":4437,"achtung":4438,"ĠmÃ¼sst":4439,"kopf":4440,"pages":4441,"ĠÃ¼berlegen":4442,"ĠwÃ¼rdest":4443,"swert":4444,"200":4445,"hÃ¤lt":4446,"Ġyoutube":4447,"Ġmart":4448,"Ġstunden":4449,"Ġbeob":4450,"Ġihres":4451,"ĠmÃ¶chten":4452,"Ġmittwoch":4453,"mÃ¶glich":4454,"Ġinstrumental":4455,"Ġfund":4456,"eur":4457,"Ġzuviel":4458,"Ġklingt":4459,"Ġschlau":4460,"ese":4461,"artig":4462,"Ġtreten":4463,"sident":4464,"Ġverbr":4465,"Ã¤nge":4466,"uellen":4467,"Ġsaudi":4468,"ĠrÃ¼cken":4469,"Ġschlechte":4470,"ly":4471,"Ġmeist":4472,"eitag":4473,"Ġislamist":4474,"Ġengl":4475,"Ġdurchaus":4476,"rant":4477,"geld":4478,"schlÃ¤ge":4479,"Ġbestehen":4480,"ðŁĺĤðŁĺĤðŁĺĤðŁĺĤ":4481,"Ġyour":4482,"zeug":4483,"Ġantifanten":4484,"Ġerlaubt":4485,"nimmt":4486,"Ġwundert":4487,"Ġeindruck":4488,"Ġhaut":4489,"Ġfertig":4490,"Ġverbreitet":4491,"wortet":4492,"Ġkamer":4493,"Ġdefinitiv":4494,"Ġnimm":4495,"riffe":4496,"Ġfried":4497,"Ġmainstream":4498,"appt":4499,"ball":4500,"sein":4501,"Ġbut":4502,"Ġleb":4503,"Ġschicken":4504,"Ġhaufen":4505,"emeyer":4506,"Ġvorbe":4507,"Ġgrie":4508,"Ġfur":4509,"Ġret":4510,"ional":4511,"Ġhinzu":4512,"Ġmax":4513,"opul":4514,"Ġfernsehen":4515,"Ġlieb":4516,"Ġteile":4517,"polit":4518,"Ġzentral":4519,"fel":4520,"him":4521,"Ġta":4522,"forder":4523,"Ġversuch":4524,"Ġreihen":4525,"fangen":4526,"Ġholl":4527,"ĠplÃ¶tz":4528,"ĠÃ¤hnlich":4529,"ziehung":4530,"mÃ¤ÃŁ":4531,"wend":4532,"Ġfir":4533,"Ġjungen":4534,"Ġrel":4535,"Ġvorhanden":4536,"komment":4537,"Ġherrscht":4538,"Ġzweiten":4539,"wikipedia":4540,"Ġtritt":4541,"dlichen":4542,"Ġmark":4543,"steht":4544,"Ġetabl":4545,"werden":4546,"ĠlÃ¼ge":4547,"Ġdifferenz":4548,"ias":4549,"Ġatt":4550,"drÃ¼ckt":4551,"christ":4552,"pet":4553,"osition":4554,"Ġselbe":4555,"demonstration":4556,"Ġkulturen":4557,"Ġorganisation":4558,"kreuz":4559,"lÃ¤nder":4560,"ĠstÃ¼ck":4561,"ĠhÃ¶re":4562,"Ġarmes":4563,"ĠbekÃ¤mpfen":4564,"Ġtrauen":4565,"Ġdrin":4566,"Ã¼nden":4567,"ĠbeitrÃ¤ge":4568,"Ġhey":4569,"verbot":4570,"sych":4571,"Ġirgendwas":4572,"Ġinformiert":4573,"Ġkraft":4574,"Ġsooo":4575,"Ġpolen":4576,"Ġselten":4577,"Ġselben":4578,"Ġhose":4579,"baren":4580,"Ġverlieren":4581,"Ġinteresse":4582,"ĠmÃ¶glichkeit":4583,"Ġminister":4584,"willig":4585,"bs":4586,"vt":4587,"Ġmot":4588,"Ġnord":4589,"Ġraum":4590,"Ġseien":4591,"icker":4592,"Ġbenutzt":4593,"Ġwachsen":4594,"Ġislamic":4595,"ĠwÃ¼nschen":4596,".-":4597,"lungen":4598,"strei":4599,"ĠhÃ¤u":4600,"unser":4601,"Ġhoffen":4602,"Ġidiot":4603,"Ġwelchem":4604,"Ġrechtschreibung":4605,"Ġzuhause":4606,"Ġwinter":4607,"arch":4608,"ĠzustÃ¤nde":4609,"Ġstate":4610,"ĶâĢĶâĢĶâĢĶâĢĶâĢĶâĢĶâĢĶâĢ":4611,"Ġgeneration":4612,"Ġverteidigen":4613,"pz":4614,"oss":4615,"Ġfahr":4616,"zwungen":4617,"Ġsprich":4618,"uechtl":4619,"stimmen":4620,"ĠgÃ¤be":4621,"Ġgehabt":4622,"ehnen":4623,"ingend":4624,"Ġschreibst":4625,"jÃ¤hr":4626,"erkt":4627,"ierse":4628,"Ġscharia":4629,"Ġunrecht":4630,"ents":4631,"Ġgermany":4632,"inzip":4633,"Ġvermutlich":4634,"prop":4635,"Ġsitzt":4636,"Ġhimm":4637,"Ġ60":4638,"noch":4639,"ĠdÃ¶ner":4640,"Ġ21":4641,"Ġby":4642,"ity":4643,"ĠÃ¶ffentlichkeit":4644,"Ġangesprochen":4645,"ail":4646,"hu":4647,"kot":4648,"nten":4649,"Ġtagen":4650,"Ġour":4651,"Ġgeschehen":4652,"Ġintelligenz":4653,"verstÃ¤ndlich":4654,"Ġnehmt":4655,"ĠplÃ¶tzlich":4656,"del":4657,"ĠsÃ¼d":4658,"ĠunabhÃ¤ng":4659,"Ġmehrere":4660,"spl":4661,"Ġherren":4662,"Ġbrut":4663,"ĠÃ¶ster":4664,"Ġkorrekt":4665,"Ġregeln":4666,"muslime":4667,"Ġmomentan":4668,"bundes":4669,"eden":4670,"lesen":4671,"Ġ+":4672,"ietet":4673,"Ġhom":4674,"Ġkaufen":4675,"Ġdahinter":4676,"kritik":4677,"Ġreligionsunterricht":4678,"Ġempfeh":4679,"ba":4680,"mor":4681,"ĠsÃ¼":4682,"alte":4683,"Ġausschl":4684,"spd":4685,"gesp":4686,"ĠbegrÃ¼nd":4687,"Ġansichten":4688,"Ġvorbestra":4689,"Ġdienst":4690,"Ġba":4691,"Ġfen":4692,"ierter":4693,"Ġjetz":4694,"indung":4695,"ĠhÃ¶ch":4696,"kÃ¶lln":4697,"\"...":4698,"Ġunten":4699,"ennung":4700,"reift":4701,"Ġklare":4702,"Ġspielt":4703,"Ġausdruck":4704,"ms":4705,"tragen":4706,"aren":4707,"Ġzuerst":4708,"ĠjÃ¼d":4709,"ight":4710,"Ġunseres":4711,"Ġarrog":4712,"Ġweltweit":4713,"Ġbrauch":4714,"Ġfremd":4715,"Ġtolle":4716,"grÃ¼nd":4717,"Ġsendung":4718,"Ġpapier":4719,"wÃ¤r":4720,"orama":4721,"Ġgesund":4722,"reise":4723,"Ġgenannt":4724,"Ġamt":4725,"Ġmigrationshintergrund":4726,"nÃ¤chst":4727,"wehr":4728,"zin":4729,"Ġinterp":4730,"Ġbegreifen":4731,"fremd":4732,"ieb":4733,"story":4734,"ign":4735,"Ġvoraus":4736,"Ġprogramm":4737,"Ġcem":4738,"dliche":4739,"Ġverbrechen":4740,"ĠÙĪ":4741,"bin":4742,"idi":4743,"Ġeurope":4744,"Ġbeschimpfen":4745,"dam":4746,"wi":4747,"Ġhervor":4748,"Ġdummes":4749,"Ġpositiv":4750,"maÃŁen":4751,"Ġfeige":4752,"Ġhebdo":4753,"uhe":4754,"Ġsonder":4755,"Ġinterview":4756,"Ġtrolle":4757,"Ġkommentaren":4758,"Ġga":4759,"Ġlehrer":4760,"Ġaktion":4761,"leipzig":4762,"Ġeier":4763,"kinder":4764,"eim":4765,"Ġinzwischen":4766,"Ġanschauen":4767,"Ġerde":4768,"rank":4769,"Ġtop":4770,"Ġaktuell":4771,"fÃ¤llig":4772,"kann":4773,"Ġmis":4774,"izieren":4775,"ĠÃ¤l":4776,"ĠÃ¶ffentlichen":4777,"Ġgedankengut":4778,"Ġkranken":4779,"Ġgegensatz":4780,"ĠgefÃ¼hrt":4781,"Ġhindus":4782,"oc":4783,"Ġinf":4784,"blatt":4785,"Ġschreien":4786,"eitet":4787,"Ġident":4788,"euch":4789,"ĠverfÃ¼":4790,"Ġvorstellen":4791,"Ġvieles":4792,"Ġfehl":4793,"strafe":4794,"Ġgefl":4795,"sentsch":4796,"alles":4797,"Ġorgan":4798,"Ġmulti":4799,"Ġkanzlerin":4800,"Ġsteine":4801,"Ġbekl":4802,"Ġaltern":4803,"rug":4804,"fassbar":4805,"Ġarmut":4806,"iarden":4807,"Ġunzufrieden":4808,"Ġweiteren":4809,"Ġbeleidigung":4810,"afen":4811,"laufen":4812,"mach":4813,"Ġhunder":4814,"Ġuni":4815,"Ġverkaufen":4816,"Ġtypen":4817,"dar":4818,"Ġseh":4819,"Ġwisst":4820,"Ġbedrohung":4821,"Ġsozialen":4822,"Ġignorieren":4823,"kor":4824,"med":4825,"Ã¤gen":4826,"Ġkonzert":4827,"Ġgarant":4828,"ðŁĳİ":4829,"dumm":4830,"Ġfreuen":4831,"passt":4832,"Ġerlebt":4833,"Ã¶rper":4834,"Ġteuf":4835,"Ġwichtiger":4836,"Ġstraftaten":4837,"))":4838,"bald":4839,"Ġerg":4840,"ization":4841,"suchen":4842,"Ġchristlich":4843,"ĠgroÃŁteil":4844,"islamisierung":4845,"Ġabsol":4846,"gegangen":4847,"Ġmultikulti":4848,"Ġehemal":4849,"Ġprovok":4850,"96":4851,"mag":4852,"Ġeingesch":4853,"Ġaufger":4854,"Ġquellen":4855,"zahlen":4856,"wert":4857,"Ġsiehst":4858,"Ġmutti":4859,"Ġehren":4860,"verrÃ¤ter":4861,"Ġkonst":4862,"Ġcl":4863,"Ġweltkrieg":4864,"Ġobje":4865,"Ġeinzelnen":4866,"Ġabgesehen":4867,"Ġrepublik":4868,"eide":4869,"onen":4870,"Ġtran":4871,"Ġerfahren":4872,"ĠðŁĺĬ":4873,"gebaut":4874,"Ġvermu":4875,"ikaturen":4876,"uar":4877,"Ġwus":4878,"nde":4879,"Ġcan":4880,"Ġdaniel":4881,"ĠdÃ¼rfte":4882,"Ġmy":4883,"Ġzdf":4884,"Ġhave":4885,"gefÃ¼":4886,"Ġformul":4887,"spazier":4888,"petition":4889,"Ġdur":4890,"Ġspitze":4891,"Ġthierse":4892,"Ġsucht":4893,"Ġsagst":4894,"ĠgruÃŁ":4895,"besch":4896,"Ġeinwanderungs":4897,"Ġweh":4898,"Ġbre":4899,"Ġstamm":4900,"Ġverbot":4901,"Ġgross":4902,"ĠbÃ¼rgerkrieg":4903,"ĠschÃ¼ler":4904,"Ġaha":4905,"Ġerschein":4906,"Ġstefan":4907,"fluechtl":4908,"Ġeinzig":4909,"Ã¤hrt":4910,"Ġsex":4911,"tum":4912,"stat":4913,"Ġspan":4914,"wiegen":4915,"obil":4916,"Ġrevolution":4917,"cdu":4918,"ld":4919,"wen":4920,"Ġup":4921,"anw":4922,"gelt":4923,"briel":4924,"kriegen":4925,"Ġpsych":4926,"eger":4927,"Ġkla":4928,"ollt":4929,"sstaat":4930,"liebe":4931,"!!!!!!!!!!!!!!!!":4932,".âĢĿ":4933,"Ġkass":4934,"Ã¼ren":4935,"Ġvorsicht":4936,"Ġend":4937,"anders":4938,"Ġnaiv":4939,"Ġsteuerzahler":4940,"Ġausb":4941,"Ġkeinem":4942,"Ġmittelalter":4943,"cam":4944,"wel":4945,"ungl":4946,"Ġnachdem":4947,"ĠgehÃ¶r":4948,"Ġangem":4949,"pport":4950,"nete":4951,"tages":4952,"panorama":4953,"ĠsouverÃ¤n":4954,"pack":4955,"zeich":4956,"asser":4957,"Ġfrech":4958,"werfen":4959,"Ġgezogen":4960,"Ġreligionsfreiheit":4961,"Ġkapital":4962,"Ġfenster":4963,"bare":4964,"ĠhÃ¤l":4965,"Ġzudem":4966,"Ġrecher":4967,"Ġkommst":4968,"blick":4969,"Ġbewegen":4970,"Ġterrorist":4971,"Ġmachst":4972,"ĠkÃ¶pfe":4973,"Ġlegit":4974,"yt":4975,"Ġschritt":4976,"Ġgehol":4977,"Ġfahnen":4978,"diese":4979,"Ġregieren":4980,"ĠgroÃŁes":4981,"frau":4982,"ellschaften":4983,"Ġamis":4984,"stellungen":4985,"Ġschmei":4986,"wandern":4987,"ĠÃ¤lter":4988,"deb":4989,"Ġalex":4990,"ged":4991,"Ġgeschlossen":4992,"hel":4993,"Ġseht":4994,"moslem":4995,"meier":4996,"Ġaga":4997,"Ġachtung":4998,"Ġze":4999,"ement":5000,"Ġbegriffen":5001,"ĠanschlieÃŁen":5002,"Ġamerika":5003,"Ġdoof":5004,"osten":5005,"Ã¤st":5006,"inte":5007,"Ġverwir":5008,"Ġbeweis":5009,"Ġwohnen":5010,"Ġrolle":5011,"Ġdire":5012,"Ã¼chtern":5013,"ĠwÃ¤hler":5014,"bom":5015,"famil":5016,"Ġol":5017,"Ġord":5018,"Ġhor":5019,"schrift":5020,"Ã¤Ã¤":5021,"Ġbraunen":5022,"haltung":5023,"60":5024,"wn":5025,"ller":5026,"Ġgehalten":5027,"Ġgutmensch":5028,"Ġdemokratischen":5029,"liegen":5030,"iÃ¶s":5031,"asche":5032,"Ġkra":5033,"schihad":5034,"Ġzeu":5035,"eitung":5036,"idt":5037,"etzten":5038,"ðŁĴ":5039,"Ġerster":5040,"Ġworten":5041,"Ġmitlaufen":5042,"ĠkrÃ¤":5043,"Ġprakt":5044,"irgend":5045,"Ġunschuld":5046,"Ġgleichzeitig":5047,"ice":5048,"republik":5049,"religion":5050,"wÃ¤":5051,"schung":5052,"Ġfe":5053,"emit":5054,"Ġmeinte":5055,"Ġarbeitsl":5056,"ĠtÃ¼rkischen":5057,"ĠtÃ¼rkische":5058,"Ġengland":5059,"'re":5060,"hier":5061,"ĠnÃ¶":5062,"Ġpal":5063,"ischpo":5064,"edet":5065,"Ġbessere":5066,"Ġoffenbar":5067,"Ġerdogan":5068,"Ġinfo":5069,"ĠjÃ¤hr":5070,"Ġausgel":5071,"Ġwobei":5072,"Ġgelebt":5073,"ĠflÃ¼":5074,"Ġtoten":5075,"ĠgewalttÃ¤t":5076,"fter":5077,"Ġanerk":5078,"Ġruss":5079,"ĠÃ¶ff":5080,"burger":5081,"Ġschweinefleisch":5082,"ek":5083,"tot":5084,"Ġdruck":5085,"Ġzufrieden":5086,"wird":5087,"Ġeinzigen":5088,"Ġbeteil":5089,"Ġsinnvoll":5090,"Ġerkannt":5091,"Ġdaumen":5092,"Ġzuwanderer":5093,"Ġfo":5094,"Ġstunde":5095,"Ġarbeits":5096,"ueber":5097,"Ġnegativ":5098,"Ġwehren":5099,"Ġgefor":5100,"95":5101,"ain":5102,"Ġschadet":5103,"Ġgesinn":5104,"Ġ500":5105,"ĠÃ¤uÃŁerungen":5106,"Ġmoral":5107,"not":5108,"rin":5109,"Ġwww":5110,"Ġpan":5111,"gesa":5112,"Ġkonvert":5113,"Ġbraune":5114,"Ġdiskrimin":5115,"Ġmilliarden":5116,"ĠfranzÃ¶s":5117,"ĠreligiÃ¶sen":5118,"Ġerinnert":5119,"glichen":5120,"port":5121,"profil":5122,"Ġeinzelfall":5123,"echter":5124,"ĠmÃ¼ller":5125,"Ġvolksverh":5126,"Ġinterpret":5127,"soll":5128,"Ġbir":5129,"Ġput":5130,"ĠprÃ¼":5131,"Ġgepl":5132,"ĠerzÃ¤hlt":5133,"postet":5134,"Ġkaiser":5135,"ym":5136,"Ġmi":5137,"Ġnett":5138,"ĠzÃ¤hlt":5139,"ĠÃ¼berw":5140,"marotzer":5141,"Ġstatement":5142,"krit":5143,"to":5144,"ÙĪ":5145,"Ġhi":5146,"Ġrente":5147,"Ġkonnten":5148,"ustrie":5149,"Ġbenehmen":5150,"ĠkriegsflÃ¼chtlinge":5151,"ĠgrÃ¶nemeyer":5152,"Ġteufel":5153,"Øª":5154,"Ġlegen":5155,"eldet":5156,"Ġunterwegs":5157,"Ġberecht":5158,"Ġruft":5159,"Ġgebur":5160,"Ġhuman":5161,"cc":5162,"ober":5163,"ðŁĺĦ":5164,"Ġmussten":5165,"Ġverkauft":5166,"gruppe":5167,"ĠmitlÃ¤ufer":5168,"drÃ¼ck":5169,"jetzt":5170,"sagen":5171,"zel":5172,"Ġgepostet":5173,"arm":5174,"orben":5175,"Ġabsicht":5176,"Ġfreiwillig":5177,"Ã¼nscht":5178,"Ġdistanziert":5179,"ĠstÃ¤dte":5180,"ds":5181,"ĠsÃ¤m":5182,"Ġapp":5183,"einfl":5184,"Ġauge":5185,"Ġgesetzt":5186,"Ġgesperrt":5187,"ĠkriminalitÃ¤t":5188,"Ġaustral":5189,".,":5190,"Ġkauf":5191,"altungen":5192,"Ġbundesk":5193,"Ġgrupp":5194,"Ġprinzip":5195,"ĠgrÃ¼nde":5196,"ghan":5197,"demonstrationen":5198,"kreis":5199,"of":5200,"sal":5201,"Ġdest":5202,"Ġkulture":5203,"Ġwenns":5204,"Ġeinfl":5205,"Ġschnau":5206,"kir":5207,"Ġsand":5208,"Ġeinst":5209,"Ġverf":5210,"rÃ¼ckt":5211,"problem":5212,"feindliche":5213,"Ġrussen":5214,"Ġentwicklung":5215,"faschisten":5216,"Ġsamm":5217,"ieder":5218,"Ġwhat":5219,"Ġkamm":5220,"schreiben":5221,"ktion":5222,"Ġspruch":5223,"iller":5224,"Ġgeschlagen":5225,"Ġdringend":5226,"Ġverantwortung":5227,"Ġmelden":5228,"Ġbun":5229,"Ġbrei":5230,"Ġanony":5231,"Ġechte":5232,"glau":5233,"Ġplak":5234,"Ġsoziale":5235,"zusetzen":5236,"Ġsan":5237,"ĠmÃ¤cht":5238,"Ġgep":5239,"ament":5240,"Ġperfe":5241,"Ġordentlich":5242,"eten":5243,"Ġfeuer":5244,"Ġeinl":5245,"Ġspenden":5246,"Ġtote":5247,"Ġradio":5248,"pziger":5249,"kehr":5250,"Ã¼rgen":5251,"Ġanzahl":5252,"Ġvorteil":5253,"acke":5254,"Ġcount":5255,"Ġdrecks":5256,"ĠkÃ¼mmern":5257,";)":5258,"erz":5259,"itÃ¤ten":5260,"ember":5261,"denk":5262,"geber":5263,"Ġ--":5264,"Ġarschl":5265,"gleich":5266,"ĠstaatsbÃ¼rger":5267,"Ġermord":5268,"ĠbestÃ¤tigt":5269,"Ġmartin":5270,"64":5271,"pi":5272,"Ġmet":5273,"Ġunfassbar":5274,"omen":5275,"Ġrechtsextrem":5276,"Ġ10000":5277,"Ġjugen":5278,"Ġtrauer":5279,"Ġfrankfurt":5280,"Ġorganisatoren":5281,"ĠbeschÃ¤ftigt":5282,"Ġvaterland":5283,"uchen":5284,"Ġvideos":5285,"Ġschim":5286,"Ġunsinn":5287,"Ġwende":5288,"Ġruf":5289,"garten":5290,"ĠnÃ¤chstes":5291,"eber":5292,"Ġzens":5293,"Ġextra":5294,"Ġsorge":5295,"gaben":5296,"\"!":5297,"ses":5298,"Ġprop":5299,"ĠðŁĺĦ":5300,"ediga":5301,"Ġstoppen":5302,"content":5303,"Ġnehme":5304,"Ġbagida":5305,"aler":5306,"ĠverÃ¼":5307,"ĠverÃ¤nder":5308,"reib":5309,"Ġimmerhin":5310,"Ġforderung":5311,"Ġstimmung":5312,"Ġonline":5313,"ĠgesprÃ¤ch":5314,"indel":5315,"eile":5316,"azin":5317,"83":5318,"Ġill":5319,"schwei":5320,"Ġfinger":5321,"ochter":5322,"Ġhammer":5323,"Ġentt":5324,"Ġwenigen":5325,"Ġkorru":5326,"Ġerleben":5327,"94":5328,":-)":5329,"Ø¹":5330,"Ġsc":5331,"ierst":5332,"Ġmitteln":5333,"verlag":5334,"Ġgesamte":5335,"Ġmehrfach":5336,"erren":5337,"Ġgelassen":5338,"ĠtÃ¼rke":5339,"Ġargumentation":5340,"Ġlegitim":5341,"debatte":5342,"kont":5343,"Ġszen":5344,"Ġwho":5345,"Ġfrust":5346,"wirk":5347,"Ġroth":5348,"Ġarmsel":5349,"ĠerwÃ¤hnt":5350,"hot":5351,"vier":5352,"Ø¯":5353,"ark":5354,"Ġtisch":5355,"ruf":5356,"Ġsold":5357,"ĠneukÃ¶lln":5358,"Ġandersdenken":5359,"Ġschmidt":5360,"Ġokay":5361,"Ġnationalsozial":5362,"ĠauslÃ¤ndische":5363,"ischpoke":5364,"ther":5365,"Ġdon":5366,"ierer":5367,"serv":5368,"Ġschwier":5369,"ĠgroÃŁer":5370,"Ġextre":5371,"Ġvoller":5372,"Ġnotwend":5373,"ĠfÃ¼hrer":5374,"Ġbravo":5375,"Ġgriechen":5376,"yn":5377,"Äģ":5378,"Ġwh":5379,"Ġnem":5380,"Ġbeam":5381,"ftig":5382,"Ġnachvoll":5383,"Ġangriff":5384,"ĠselbstverstÃ¤ndlich":5385,"Ġgrade":5386,"holen":5387,"¸ı":5388,"ï¸ı":5389,"Ġrh":5390,":)":5391,"kul":5392,"Ġdis":5393,"eir":5394,"iegen":5395,"ĠbÃ¤r":5396,"ĠverÃ¤ndern":5397,"Ġknapp":5398,"Ġafghan":5399,"Ġfranzosen":5400,"Ġpegidas":5401,"Ġgabriel":5402,"mÃ¤r":5403,"Ġpoten":5404,"Ġsobald":5405,"etzte":5406,"Ġislamisch":5407,"Ġteilnehmen":5408,"Ġlinker":5409,"????????":5410,"Ġburka":5411,"mich":5412,"pun":5413,"ĠanstÃ¤nd":5414,"Ġregen":5415,"Ġ,,":5416,"ittelt":5417,"Ġgoogle":5418,"Ġjanuar":5419,"Ġossis":5420,"ĠgenÃ¼gend":5421,"sste":5422,"Ġiran":5423,"Ġwohin":5424,"Ġcar":5425,"Ġirre":5426,"halte":5427,"Ġdarfst":5428,"mÃ¤ÃŁig":5429,"buch":5430,"Ã¤te":5431,"regen":5432,"usser":5433,"Ġblick":5434,"ĠâĢĶâĢĶâĢĶâĢĶâĢĶâĢĶâĢĶâĢĶâĢ":5435,"Ġgegenseite":5436,"sser":5437,"werk":5438,"Ġdd":5439,"!!!!!!!":5440,"eutung":5441,"Ġansatz":5442,"Ġkritisch":5443,"Ġauftritt":5444,"over":5445,"Ġaufgenommen":5446,"Ġvorgehen":5447,"Ġbesatz":5448,"Ġnahe":5449,"Ġbesseres":5450,"Ġstudie":5451,"Ġdenkst":5452,"ĠdÃ¼n":5453,"ĠkÃ¶rper":5454,"Ġzig":5455,"Ġletzt":5456,"ðŁĩ":5457,"?????":5458,"Ġfreien":5459,"ĶâĢĶ":5460,"ĠauslÃ¤ndischen":5461,"nein":5462,"wunsch":5463,"Ġnase":5464,"Ġhetzt":5465,"ĠÃ¼berr":5466,"Ġverdre":5467,"Ġhassp":5468,"Ġaufwachen":5469,"Ġzuge":5470,"inen":5471,"inkt":5472,"mmert":5473,"Ġfair":5474,"schule":5475,"Ġmassiv":5476,"Ġinnerhalb":5477,"ĠÃ¶sterreich":5478,"onaz":5479,"Ġpap":5480,"Ġschaf":5481,"Ġaufnahme":5482,"ĠschÃ¶nes":5483,"ĠfÃ¼hlt":5484,"Ġzweite":5485,"Ġandreas":5486,"pel":5487,"Ġvolksentsch":5488,"ĠwÃ¤chst":5489,"Ġhool":5490,"Ġeinzelne":5491,"gb":5492,"Ġ++":5493,"jeder":5494,"Ġsteinmeier":5495,"Ġvorurteile":5496,"Ġverdammt":5497,"Ġbas":5498,"orfen":5499,"isburg":5500,"Ġaufgeh":5501,"Ġwarst":5502,"ressen":5503,"Ġleiden":5504,"plo":5505,"cdn":5506,"iti":5507,"Ġschlicht":5508,"ĠmÃ¶gen":5509,"Ġbetroffen":5510,"Ġangefangen":5511,"Ġschnauze":5512,"75":5513,"ĠdÃ¤mlich":5514,"Ġbauen":5515,"Ġpediga":5516,"inland":5517,"136":5518,"llekt":5519,"Ġ300":5520,"Ġtatsachen":5521,"fÃ¤h":5522,"Ġkennst":5523,"sextreme":5524,"93":5525,"jung":5526,"Ġwacht":5527,"stein":5528,"Ġbein":5529,"Ġbus":5530,"heten":5531,"Ġmotto":5532,"Ġstaates":5533,"Ġurlaub":5534,"Ġmonat":5535,"********":5536,"Ġkontroll":5537,"Ġentfernt":5538,"Ġorganization":5539,"Ġlasse":5540,"rieb":5541,"Ġironie":5542,"lass":5543,"met":5544,"ĠfÃ¶r":5545,"Ġrent":5546,"ĠfÃ¼rs":5547,"Ġvorschlag":5548,"pfosten":5549,"afr":5550,"Ġ89":5551,"Ġfaschismus":5552,"Ġbestimmte":5553,"Ġaggressiv":5554,"Ġbru":5555,"Ġpu":5556,"ĠpÃ¶":5557,"aun":5558,"Ġschreck":5559,"Ġversp":5560,"Ġdum":5561,"Ġgewollt":5562,"Ġdeppen":5563,"Ġtraut":5564,"Ġantid":5565,"gemacht":5566,"fÃ¼hrung":5567,"xx":5568,"Ġhein":5569,"ĠhÃ¼":5570,"Ġhann":5571,"Ġbrot":5572,"Ġderart":5573,"ĠstÃ¶rt":5574,"faz":5575,"Ġ---":5576,"Ġkeines":5577,"Ġungeb":5578,"Ġeinsatz":5579,"ðŁĳıðŁĳı":5580,"84":5581,"bi":5582,"zess":5583,"ĠkÃ¼nst":5584,"ĠanhÃ¤ngern":5585,"Ġvorbild":5586,"Ġchar":5587,"Ã¤uÃŁer":5588,"Ġminuten":5589,"Ġfoto":5590,"Ġstadtt":5591,"pu":5592,"zeln":5593,"Ġhon":5594,"Ġhist":5595,"Ġlest":5596,"Ġsohn":5597,"Ġausgeb":5598,"Ġgraus":5599,"Ġprodu":5600,"Ġcom":5601,"eidet":5602,"Ġbeweg":5603,"ĠlÃ¶schen":5604,"Ġmanipuliert":5605,"ĠsÃ¤":5606,"Ġwolf":5607,"Ġzeug":5608,"arab":5609,"orter":5610,"Ġtor":5611,"Ġislamistischen":5612,"flag":5613,"ĠgrÃ¼n":5614,"Ġplatt":5615,"prÃ¤sent":5616,"Ġarabischen":5617,"Ġhimmel":5618,"ÄŁ":5619,"Ġjen":5620,"Ġteam":5621,"maÃŁ":5622,"lÃ¤ndern":5623,"ieden":5624,"Ġnsu":5625,"Ġmanchen":5626,"Ġmeines":5627,"Ġewig":5628,"sour":5629,"Ġsupport":5630,"Ġemp":5631,"Ġseitens":5632,"Ġac":5633,"Ġnah":5634,"ĠzÃ¤hlen":5635,"Ġpred":5636,"Ġaufgebaut":5637,"Ġrau":5638,"Ġmobil":5639,"Ġhohl":5640,"ehnten":5641,"fÃ¼hrer":5642,"Ġaufruf":5643,"Ġwesent":5644,"Ġhmm":5645,"ĠfÃ¤ngt":5646,"Ġtau":5647,"Ġtra":5648,"Ġbezug":5649,"Ġausgesch":5650,"Ġwiederhol":5651,"Ġgelaufen":5652,"allem":5653,"allgemein":5654,"Ġtoller":5655,"Ġskand":5656,"scher":5657,"urm":5658,"amental":5659,"Ġaufgeben":5660,"Ġevent":5661,"Ġabgeschoben":5662,"Ġherzlich":5663,"ĠerbÃ¤r":5664,"sta":5665,"ĠstÃ¼r":5666,"Ġglob":5667,"Ġunterkriegen":5668,"rÃ¼cken":5669,"Ġhohen":5670,"Ġwestlichen":5671,"flÃ¼chtlingen":5672,"Ġmonaten":5673,"Ġagainst":5674,"Ġudo":5675,"Ġgebt":5676,"Ġopf":5677,"Ġohren":5678,"Ġanal":5679,"Ġaussehen":5680,"Ġangela":5681,"nn":5682,"ĠhÃ¤ngt":5683,"orgt":5684,"amer":5685,"Ġantis":5686,"Ġfreunden":5687,"Ġarbeitslos":5688,"Ġmenschheit":5689,"ĠglÃ¼ckwunsch":5690,"posts":5691,"Ġmenschenverachten":5692,"bis":5693,"rich":5694,"zut":5695,"Ġton":5696,"Ġtochter":5697,"Ã¼rt":5698,"...\"":5699,"Ġreaktion":5700,"Ġkindergarten":5701,"Ġbehaupt":5702,"besonder":5703,"ĠreligiÃ¶se":5704,"zÃ¼ge":5705,"Ġherrschen":5706,"Ġrechnen":5707,"ĠtrÃ¤gt":5708,"Ġafrika":5709,"ĠhÃ¤lfte":5710,"63":5711,"Ġjungs":5712,"ĠangehÃ¶r":5713,"Ġentscheidung":5714,"Ġputin":5715,"ep":5716,"zern":5717,"Ġding":5718,"ĠgÃ¼":5719,"ĠhÃ¤nde":5720,"schrei":5721,"Ã¤llig":5722,"Ġjens":5723,"ĠaufhÃ¶ren":5724,"Ġabgeht":5725,"tif":5726,"Ġlebenden":5727,"ĠunglÃ¤ubige":5728,"Ġgefordert":5729,"netz":5730,"out":5731,"ĠjÃ¼rgen":5732,"etter":5733,"Ġhinaus":5734,"richtung":5735,"Ġbestraft":5736,"Ġfeiern":5737,"Ġtypisch":5738,"Ã¶rden":5739,"Ġschweden":5740,"Ġzweck":5741,"ĠflÃ¼chtlings":5742,"ĠfrÃ¼h":5743,"toler":5744,"schm":5745,"team":5746,"Ġleist":5747,"Ġwissenschaft":5748,"Ġworum":5749,"Ġsauber":5750,"Ġfinanziert":5751,"mobil":5752,"âĤ¬":5753,"enze":5754,"Ġsed":5755,"Ġah":5756,"Ġanderem":5757,"Ġunternehmen":5758,"verein":5759,"Ġdarin":5760,"quem":5761,"Ġasylpolitik":5762,"Ġbeherr":5763,"ĶâĢĶâĢĶâĢĶ":5764,"Ġscheinen":5765,"Ġscheinheil":5766,"Ġstudenten":5767,"Ġerfahrung":5768,"ĠâĢĶâĢĶâĢĶâĢĶâĢĶâĢĶâĢĶâĢĶâĢĶâĢĶâĢĶâĢĶ":5769,"dre":5770,"li":5771,"leute":5772,"Ġschubl":5773,"ble":5774,"ffer":5775,"Ġgeredet":5776,"ester":5777,"Ġbetrifft":5778,"oooo":5779,"Ġarbeitet":5780,"ĠverblÃ¶":5781,"ĠnÃ¤he":5782,"Ġkundgebung":5783,"Ġnachbarn":5784,"ĠgeÃ¤ndert":5785,"bereit":5786,"Ġaufgew":5787,"Ġwerbung":5788,"Ġwarte":5789,"Ġschlafen":5790,"Ġdiesmal":5791,"Ġfindest":5792,"Ġvollpfosten":5793,"svertrag":5794,"Ġautos":5795,"pload":5796,"ca":5797,"Ġeinheit":5798,"Ġjene":5799,"ffentl":5800,"Ġthank":5801,"Ġtheir":5802,"Ġsinnlos":5803,"ĠrÃ¼ckt":5804,"ta":5805,"Ġbal":5806,"Ġbesitzen":5807,"wieder":5808,"ĠbÃ¼rgermeister":5809,"ausende":5810,"Ġabgesagt":5811,"73":5812,"Ġlauf":5813,"Ġpfu":5814,"ehnte":5815,"Ġlande":5816,"Ġgeschei":5817,"Ġflug":5818,"ĠbevÃ¶lkerungs":5819,"Ġautom":5820,"Ġkapiert":5821,"Ġmanipulieren":5822,"'t":5823,"bauen":5824,"iellen":5825,"Ġschrift":5826,"ĠsprÃ¼che":5827,"sab":5828,"Ġbenutzen":5829,"Ġinformationen":5830,"gegner":5831,"ĠeinschÃ¼chtern":5832,"Ġstellung":5833,"Ġmitbekommen":5834,"kein":5835,"miss":5836,"sha":5837,"uel":5838,"Ġ2000":5839,"Ġtru":5840,"Ġfreitag":5841,"ĠÃ¼bert":5842,"Ġschonmal":5843,"veranst":5844,"Ġdarunter":5845,"Ġleipziger":5846,"Ġstrafe":5847,"Ġjugend":5848,"Ġbekannten":5849,"kopp":5850,"Ġfeinde":5851,"Ġsharia":5852,"500":5853,"ammen":5854,"gten":5855,"Ġntv":5856,"ane":5857,"Ġgezwungen":5858,"Ġverurs":5859,"Ġstill":5860,"Ġbehandelt":5861,"worter":5862,"Ġmusik":5863,"ocker":5864,"Ġangeblichen":5865,"Ġhasspred":5866,"sar":5867,"Ġq":5868,"Ġsack":5869,"ĠreprÃ¤sent":5870,"Ġmangel":5871,"Ġduisburg":5872,"Ġregiert":5873,"kom":5874,"rr":5875,"san":5876,"Ġass":5877,"Ġ24":5878,"Ã¤sst":5879,"elte":5880,"...!":5881,".........":5882,"Ġschlagen":5883,"Ġlandsl":5884,"ĠeinfÃ¼":5885,"Ġneonaz":5886,"Ġdemokratische":5887,"Ġroten":5888,"folge":5889,"Ġvertritt":5890,"ĠhÃ¶her":5891,"Ġerwachsen":5892,"ĠverschwÃ¶rung":5893,"Ġversammlungs":5894,"ĠidentitÃ¤t":5895,"heist":5896,"upload":5897,"Ø¨":5898,"Ġsat":5899,"Ġbeil":5900,"elbe":5901,"Ġalko":5902,"Ġwow":5903,"Ġabst":5904,"Ġhinten":5905,"Ġnato":5906,"Ġkurden":5907,"Ġgeistigen":5908,"Ġreagieren":5909,"Ġeiniger":5910,"Ġratten":5911,"anzen":5912,"gericht":5913,"stemp":5914,"Ġgetroffen":5915,"Ġvertrauen":5916,"Ġdoppel":5917,"Ġunterscheiden":5918,"Ġpunkten":5919,"Ġevtl":5920,"Ġbekomme":5921,"74":5922,"lÃ¤nd":5923,"mÃ¼":5924,"ĠspÃ¤te":5925,"ĠunterdrÃ¼ck":5926,"ĠwÃ¼rdet":5927,"Ġzeitungen":5928,"fbcdn":5929,"Ġangesch":5930,"himi":5931,"sitzen":5932,"Ġ22":5933,"schaut":5934,"Ġlinie":5935,"Ġnormalen":5936,"rÃ¤nkt":5937,"ĠschÃ¤me":5938,"ĠenttÃ¤u":5939,"85":5940,"ya":5941,"teten":5942,"Ġfu":5943,"Ġter":5944,"ism":5945,"Ġrat":5946,"Ġislamischer":5947,"Ġklaus":5948,"âĢľ,":5949,"Ġschwarze":5950,"Ġmonate":5951,"staaten":5952,"Ġmesser":5953,"icher":5954,"Ġlager":5955,"Ġgrat":5956,"Ġgering":5957,"Ġterrorismus":5958,"opo":5959,"stÃ¤nden":5960,"nehmern":5961,"Ġverdienen":5962,"Ġverarschen":5963,"Ġlobby":5964,"Ġtel":5965,"eiert":5966,"Ġsen":5967,"Ã¼ng":5968,"Ġral":5969,"Ġgericht":5970,"ĠkÃ¤mpft":5971,"ci":5972,"danke":5973,"hphotos":5974,"kur":5975,"Ġhr":5976,"Ġtreiben":5977,"Ġschieben":5978,"igkeiten":5979,"Ġverurteilen":5980,"Ġgenerell":5981,"mbh":5982,"Ġbeziehen":5983,"Ġwusste":5984,"Ġafghanistan":5985,"frauen":5986,"Ġdicht":5987,"Ġgekl":5988,"Ġinv":5989,"bericht":5990,"Ġtodes":5991,"warten":5992,"lament":5993,"Ġarbeiter":5994,"Ġpatrioten":5995,"Ġsogenannte":5996,"Ġverschiedenen":5997,"hebdo":5998,"Ġliber":5999,"Ġmotiv":6000,"Ġpropheten":6001,"igration":6002,"roll":6003,"spe":6004,"dia":6005,"ĠfÃ¼hle":6006,"Ġtraum":6007,"Ġjahres":6008,"Ġretten":6009,"gu":6010,"sol":6011,"eifen":6012,"Ġsil":6013,"Ġrenten":6014,"Ġsport":6015,"raum":6016,"Ġweshalb":6017,"Ġriesen":6018,"Ġvorbestraft":6019,"gefÃ¼hl":6020,"\"-":6021,"beln":6022,"ire":6023,"ohne":6024,"uv":6025,"chn":6026,"Ġfein":6027,"Ġabgeh":6028,"ations":6029,"perten":6030,"ĠÃ¼brig":6031,"paris":6032,"Ã¤uÃŁerung":6033,"ĠhÃ¤ngen":6034,"Ġseines":6035,"Ġhogesa":6036,"abel":6037,"Ġkonfl":6038,"Ġintellekt":6039,"Ġkriminell":6040,"Ġfilm":6041,"gien":6042,"nden":6043,"Ġflaschen":6044,"freien":6045,"ĠÙħ":6046,"Ġalkohol":6047,"dung":6048,"funk":6049,"kas":6050,"zeichen":6051,"Ġverab":6052,"deckt":6053,"Ġvorallem":6054,"Ġakzeptiert":6055,"hs":6056,"ps":6057,"sthe":6058,"ong":6059,"Ã¶ff":6060,"Ġdeutsches":6061,"gesellschaften":6062,"ĠmÃ¼he":6063,"Ġnunmal":6064,"ĠauslÃ¤nderfeindlich":6065,"ograf":6066,"Ġfundamental":6067,"teste":6068,"Ġliban":6069,"Ġschick":6070,"etwas":6071,"ages":6072,"ike":6073,"ĠÃ¼bernehmen":6074,"habe":6075,"mitglie":6076,"programm":6077,"Ġatheist":6078,"Ġdiskutiert":6079,"Ġmedial":6080,"wÃ¤sche":6081,"?\"":6082,"Ġwess":6083,"Ġhir":6084,"anter":6085,"tete":6086,"brochen":6087,"Ġrichten":6088,"klar":6089,"Ġlinksextrem":6090,"heisten":6091,"front":6092,"Ġlinksradikal":6093,"Ġallahs":6094,"Ġhetzer":6095,"fremdung":6096,"Ġklappe":6097,"Ġvolksverhetzung":6098,"flich":6099,"just":6100,"iebt":6101,"testen":6102,"Ġekel":6103,"tlichen":6104,"Ġfolge":6105,"Ġfolgt":6106,"Ġabschaum":6107,"blogsp":6108,"Ġgauck":6109,"Ġobjektiv":6110,"bb":6111,"hard":6112,"Ġueber":6113,"tend":6114,"Ġuner":6115,"Ġwohnung":6116,"Ġangeht":6117,"Ġweitermachen":6118,"Ġgrosse":6119,"ĠbewÃ¤hr":6120,"Ġwenigsten":6121,"ĠbeschÃ¤ftigen":6122,"Ġamerikaner":6123,"Ġverfassungsschutz":6124,"auslÃ¤nder":6125,"Ġermordet":6126,"ons":6127,"Ġpi":6128,"neten":6129,"frem":6130,"dessen":6131,"ĠvernÃ¼nftig":6132,"doch":6133,"far":6134,"gst":6135,"mÃ¤n":6136,"opfer":6137,"Ġ20000":6138,"Ã¶re":6139,"Ġstutt":6140,"fahne":6141,"Ġgemeinschaft":6142,"ĠmÃ¤rchen":6143,"Ġsamstag":6144,"Ġstammt":6145,"Ġrentner":6146,"kunft":6147,"Ġeinwohner":6148,"orie":6149,"Ġanspruch":6150,"Ġertragen":6151,"Ġstart":6152,"stelle":6153,"ĠbrÃ¤u":6154,"Ġjemals":6155,"Ġoffenen":6156,"Ġurteil":6157,"Ġfernseh":6158,"ĠrÃ¼cksicht":6159,"ĠsolidaritÃ¤t":6160,"Ġabschieben":6161,"ĠverÃ¶ffentl":6162,"journal":6163,"ĠdÃ¼nn":6164,"ĠspÃ¤testens":6165,"bitte":6166,"position":6167,"Ġ26":6168,"schei":6169,"Ġfass":6170,"Ġproblemen":6171,"Ġverletzt":6172,"Ġbegangen":6173,"ĠtÃ¼rkisch":6174,"Ġdankbar":6175,"siehe":6176,"Ġposts":6177,"gutmenschen":6178,"Ġentwickelt":6179,"Ġerschrecken":6180,"ĠbekÃ¤mpft":6181,"Ġverstehst":6182,"ace":6183,"enkt":6184,"Ġbast":6185,"Ġkern":6186,"deburg":6187,"Ġgewinnen":6188,"Ġschlechter":6189,"rÃ¤um":6190,"Ġfreut":6191,"richtungen":6192,"aller":6193,"Ġrutsch":6194,"Ġbehalten":6195,"Ġreihe":6196,"Ġfriedens":6197,"Ġumsonst":6198,"alifiz":6199,"65":6200,"fung":6201,"Ġvol":6202,"Ġvllt":6203,"Ã¶Ã¶":6204,"oland":6205,"Ġbeeinfl":6206,"Ġaussch":6207,"gelassen":6208,"ical":6209,"wahn":6210,"ĠerzÃ¤hl":6211,"Ġvergleichen":6212,"Ġrechtsradikale":6213,"Ġerinnern":6214,"gs":6215,"mir":6216,"stÃ¤d":6217,"Ġkipp":6218,"Ġausgehen":6219,"Ã¤nden":6220,"Ġtheater":6221,"ĠgrundsÃ¤tzlich":6222,"Ġunger":6223,"Ġversuche":6224,"Ġtest":6225,"versagen":6226,"Ġverarscht":6227,"Ġaufgerufen":6228,"Ġfrechheit":6229,"Ġpfui":6230,"bach":6231,"erweise":6232,"eien":6233,"Ġausges":6234,"tip":6235,"Ġgrunde":6236,"wollen":6237,"Ġbundesregierung":6238,"mous":6239,"prÃ¤sident":6240,"Ġjahrhunder":6241,"Ġgeblieben":6242,";-)":6243,"?)":6244,"Ġdingen":6245,"Ġara":6246,"Ġnic":6247,"Ġbieten":6248,"anschlÃ¤ge":6249,"Ġreform":6250,"Ġfahimi":6251,"Ġgewerk":6252,"ĠmeinungsÃ¤uÃŁerung":6253,"Ġlernt":6254,"pflicht":6255,"Ġmitglieder":6256,"demokratie":6257,"Ġzutun":6258,"Ġrechtfertigen":6259,"Ġhomo":6260,"ĠausschlieÃŁlich":6261,"Ġeinfluss":6262,"mopo":6263,"nu":6264,"patri":6265,"Ġbier":6266,"Ġkre":6267,"Ġliste":6268,"Ġgearbeitet":6269,"leider":6270,"gart":6271,"lar":6272,"mdr":6273,"Ġsay":6274,"iete":6275,"berger":6276,"Ġwoanders":6277,"Ġvorm":6278,"ession":6279,"Ġkarl":6280,"Ġdemonstrations":6281,"Ġirgendwelchen":6282,"ĠnÃ¤her":6283,"Ġbombers":6284,"ĠverÃ¶ffentlich":6285,"planet":6286,"source":6287,"Ġbonn":6288,"Ġredner":6289,"Ġwohne":6290,"Ġgewar":6291,"Ã¤ren":6292,"teilung":6293,"Ġvollidi":6294,"Ġasylant":6295,"Ġkriegstrei":6296,"ðŁĳįðŁĳįðŁĳįðŁĳį":6297,"hhhh":6298,"Ġadolf":6299,"Ġdrehen":6300,"fal":6301,"fot":6302,"ÙĤ":6303,"Ã¤men":6304,"int":6305,"gebracht":6306,"spro":6307,"Ġgemeind":6308,"ssel":6309,"Ġschreib":6310,"Ġmarion":6311,"Ġberliner":6312,"Ġgeholfen":6313,"Ġgeteilt":6314,"ehre":6315,"Ġstich":6316,"Ġhof":6317,"Ġbrennen":6318,"Ġkeinerlei":6319,"Ġkleines":6320,"Ġverschwinden":6321,"blogspot":6322,"kehrt":6323,"ergie":6324,"Ġaffen":6325,"ĠwÃ¶r":6326,"Ġban":6327,"Ã¶sen":6328,"denkt":6329,"Ġgewisse":6330,"fÃ¤hig":6331,"Ġnenne":6332,"fluechtlinge":6333,"ĠsÃ¤mtliche":6334,"Ġsender":6335,"Ġiden":6336,"atschen":6337,"Ġttip":6338,"weist":6339,"Ġbeschwer":6340,"Ġachso":6341,"Ã¼ndet":6342,"ayer":6343,"ĠbenÃ¶t":6344,"Ġangez":6345,"Ġkritisiert":6346,"ĠðŁĺĤðŁĺĤðŁĺĤðŁĺĤ":6347,"ĠvernÃ¼nftige":6348,"ĠzerstÃ¶ren":6349,"Ġgesinnung":6350,"ohnt":6351,"Ġdschihad":6352,"Ġhm":6353,"Ġfro":6354,"Ġfaz":6355,"Ġfront":6356,"Ġbewegt":6357,"gebiet":6358,"âĢľ.":6359,"Ġhauptstadt":6360,"Ġauftrag":6361,"Ġmitglied":6362,"Ġsteuergeldern":6363,"82":6364,"kund":6365,"ple":6366,"rass":6367,"Ġul":6368,"Ġhell":6369,"Ġtitel":6370,"ĠerfÃ¼":6371,"Ġausbildung":6372,"Ġ->":6373,"ĈĈĈ":6374,"abil":6375,"Ġgleichberecht":6376,"uerger":6377,"Ġgebaut":6378,"Ġaussieht":6379,"Ġnopegida":6380,"ihÄģ":6381,"angere":6382,"Ġausserdem":6383,"Ġbuddhisten":6384,"kotte":6385,"Ġaustralien":6386,"ÄŁihÄģ":6387,"ÄŁihÄģd":6388,"har":6389,"kal":6390,"Ġwil":6391,"Ġiq":6392,"Ġhassen":6393,"Ġfischer":6394,"wiegend":6395,"Ġkommenden":6396,"Ġatheisten":6397,"unsere":6398,"Ġkraw":6399,"Ġsoldaten":6400,"keln":6401,"page":6402,"vz":6403,"Ġdrohungen":6404,"Ġbon":6405,"ĠbÃ¶s":6406,"rede":6407,"Ġunwissen":6408,"Ġmitten":6409,"Ġauftreten":6410,"iken":6411,"hafte":6412,"Ġlied":6413,"ĠmÃ¼ÃŁ":6414,"Ġgeschickt":6415,"estream":6416,"Ġsolcher":6417,"quelle":6418,"erseits":6419,"Ġbedeuten":6420,"arteien":6421,"Ġquasi":6422,"ĠhÃ¤ttest":6423,"Ġkna":6424,"Ġignoriert":6425,"Ġintoleranz":6426,"Ġbeileid":6427,"fkotte":6428,"nor":6429,"prÃ¼":6430,"uk":6431,"Ġderer":6432,"ussen":6433,"Ġgehei":6434,"Ġrechtsstaat":6435,"Ġclau":6436,"Ġeinfacher":6437,"sondern":6438,"ĠreligiÃ¶s":6439,"2013":6440,"aktionen":6441,"Ġlohn":6442,"kampf":6443,"Ġrelativ":6444,"Ġautomatisch":6445,"80":6446,"sagt":6447,"Ã¤h":6448,"Ġtur":6449,"Ġschief":6450,"Ġrichtet":6451,"Ġumgehen":6452,"Ġproph":6453,"ðŁĺĬ":6454,"Ġberichte":6455,"fragt":6456,"Ġbeispiele":6457,"ĠeinzelfÃ¤lle":6458,"Ġargumentieren":6459,"Ġlogik":6460,"licht":6461,"rige":6462,"sb":6463,"tw":6464,"Ġhinge":6465,"Ġkas":6466,"rect":6467,"tens":6468,"bereich":6469,"Ġislamunterricht":6470,"Ġgeworfen":6471,"Ġweltbild":6472,"Ġstraff":6473,"Ġinternation":6474,"Ġguck":6475,"Ġcool":6476,"zentral":6477,"Ġerfahrungen":6478,"ĠwirtschaftsflÃ¼chtlinge":6479,"heben":6480,"ĠdÃ¤m":6481,"emen":6482,"Ġvorge":6483,"Ġcont":6484,"Ġgeschieht":6485,"Ã¤user":6486,"ĠfÃ¼t":6487,"ferenz":6488,"Ġmusel":6489,"Ġgeistig":6490,"Ø³ÙĦ":6491,"junge":6492,"kan":6493,"Ġeg":6494,"Ġfassen":6495,"Ġdummer":6496,"Ġangen":6497,"Ġunge":6498,"Ġstrassen":6499,"Ġaktionen":6500,"getreten":6501,"Ġfunktionieren":6502,"punkte":6503,"ki":6504,"Ġdick":6505,"ars":6506,"sprÃ¼":6507,"Ġschlie":6508,"Ġgelegen":6509,"Ġgucken":6510,"Ġbetitel":6511,"Ġarbeitspl":6512,"Ġseele":6513,"ĠzukÃ¼nft":6514,"Ġnebenbei":6515,"ĠbestÃ¤tigen":6516,"Ġaufmerksamkeit":6517,"Ġidentif":6518,"sum":6519,"Ġdritten":6520,"steuer":6521,"Ġhals":6522,"ĠtÃ¤t":6523,"ĠglÃ¤ubigen":6524,"links":6525,"Ġdemokratisch":6526,"ĠÃ¼b":6527,"Ġdiver":6528,"ĠanschlÃ¤gen":6529,"Ġrespektieren":6530,"ĠlÃ¼gt":6531,"70":6532,"zÃ¤hl":6533,"Ġmeldung":6534,"Ġaufhalten":6535,"eidung":6536,"Ġverlangt":6537,"Ġtrot":6538,"Ġrote":6539,"skrie":6540,"Ġkontakt":6541,"Ġsoviele":6542,"Ġkontrolle":6543,"wurf":6544,"ildete":6545,"brief":6546,"cen":6547,"Ġkal":6548,"Ġgefahren":6549,"Ġklappt":6550,"Ġgewonnen":6551,"Ġgerufen":6552,"Ġsub":6553,"Ġpak":6554,"Ġgestalten":6555,"Ġbundesrepublik":6556,"Ġknast":6557,"ĠvolksverrÃ¤ter":6558,"Ġverschiedene":6559,"oppt":6560,"Ġattack":6561,"Ġszene":6562,"ftet":6563,"Ġshin":6564,"ano":6565,"Ġvertreter":6566,"annen":6567,"...?":6568,"Ġgesindel":6569,"rÃ¼cke":6570,"Ġfremde":6571,"gruende":6572,"ĠflÃ¼chten":6573,"Ġprophet":6574,"Ġeingel":6575,"Ġschil":6576,"Ġaufgabe":6577,"Ġdav":6578,"Ġabout":6579,"Ġverlangen":6580,"Ġzwingen":6581,"politikversagen":6582,"?!?":6583,"ativen":6584,"bilder":6585,"ĠzerstÃ¶rt":6586,"hann":6587,"nommen":6588,"nitten":6589,"ziell":6590,"ied":6591,"Ġzuvor":6592,"unst":6593,"Ġvoran":6594,"spack":6595,"ĠgewÃ¤hl":6596,"ĠschlieÃŁen":6597,"ĠwÃ¤hlt":6598,"Ġnatur":6599,"Ġlangweil":6600,"Ġkarr":6601,"Ġextremismus":6602,"ĠkÃ¶pfen":6603,"meinung":6604,"ĠÃ¼berzeugt":6605,"fehler":6606,"sextremen":6607,"Ġstattfinden":6608,".:":6609,"zb":6610,"Ġeinig":6611,"Ġnichtmal":6612,"ingung":6613,"uldet":6614,"Ġgenial":6615,"Ġdargestellt":6616,"eistet":6617,"Ġpressefreiheit":6618,"Ġletzter":6619,"reuze":6620,"Ġaufgefallen":6621,"count":6622,"Ġerled":6623,"Ġbomben":6624,"Ġprofilbild":6625,"Ġdauert":6626,"Ġetablierten":6627,"Ġgarantiert":6628,"Ġsus":6629,"Ġmeck":6630,"Ġni":6631,"Ġlehr":6632,"Ã¶m":6633,"deten":6634,"ĠerhÃ¶":6635,"unken":6636,"ðŁĺģ":6637,"Ġwohlstand":6638,"Ġtotsch":6639,"eschÃ¶n":6640,"Ġverstecken":6641,"Ġrecherch":6642,"bachmann":6643,"hasser":6644,"kÃ¤m":6645,"Ġdeb":6646,"Ġzunehmen":6647,"idas":6648,"Ġbeweisen":6649,"Ġentstehen":6650,"Ġandersgl":6651,"hintergruende":6652,"ĠlÃ¶sen":6653,"Ġevangel":6654,"Ġvolksvertreter":6655,"ĠdÃ¼mm":6656,"gott":6657,"Ġchef":6658,"Ġfeiertage":6659,"ĠverÃ¶ffentlicht":6660,"iat":6661,"Ġsim":6662,"Ġmorden":6663,"lande":6664,"Ġgelogen":6665,"Ġfreue":6666,"ĠÃ¤usser":6667,"eldorf":6668,"kommentare":6669,"magazin":6670,"Ġdat":6671,"Ġgramm":6672,"ĠstÃ¶ren":6673,"Ġklassen":6674,"Ġkostet":6675,"ĠbÃ¼rgerbewegung":6676,"ĠÃ¶fter":6677,"Ġbett":6678,"Ġfordere":6679,"Ġlebensweise":6680,"Ġstuttgart":6681,"brÃ¼":6682,"dig":6683,"nungs":6684,"Ġoch":6685,"Ġzustimmung":6686,"Ġali":6687,"Ġvorzu":6688,"Ġhinweis":6689,"ally":6690,"Ġlogisch":6691,"Ġzecken":6692,"kennt":6693,"ov":6694,"ockt":6695,"tos":6696,"Ġsauer":6697,"Ġnirgend":6698,"Ġverallgemein":6699,"Ġopp":6700,"Ġgegeneinander":6701,"tzut":6702,"deutscher":6703,"Ġworld":6704,"Ġorganisiert":6705,"arbeiten":6706,"Ġgeistes":6707,"pdf":6708,"ologie":6709,"ĠkÃ¶lner":6710,"Ġopfern":6711,"mil":6712,"Ġhung":6713,"isierten":6714,"Ġumgang":6715,"ĠĠĠĠĠ":6716,"raut":6717,"ĠlÃ¤ÃŁt":6718,"Ġreise":6719,"regional":6720,"Ġausgerechnet":6721,"Ġshintos":6722,"tzutage":6723,"racht":6724,"tu":6725,"Ġbeine":6726,"Ġbanken":6727,"rechten":6728,"isanten":6729,"uns":6730,"Ġtopf":6731,"Ġbedauer":6732,"worfen":6733,"Ġvermein":6734,"Ġhelden":6735,"Ġerkenn":6736,"Ġhaltet":6737,"Ġreagiert":6738,"Ġhannover":6739,"Ġhistor":6740,"Ġlandsleute":6741,"vb":6742,"Ġsven":6743,"Ġhundert":6744,"Ġhaste":6745,"Ġanliegen":6746,"Ġreda":6747,"Ġwerten":6748,"ĠdemnÃ¤chst":6749,"ppelt":6750,"Ġechten":6751,"freunde":6752,"Ġerfolgreich":6753,"Ġbestimmten":6754,"Ġzulauf":6755,"damit":6756,"Ġalternative":6757,"Ġkriegstreiber":6758,"Ġpakistan":6759,"Ã¡":6760,"Ġsin":6761,"ĠhÃ¤":6762,"Ġhau":6763,"Ġken":6764,"ĠfÃ¼n":6765,"Ġfdp":6766,"emm":6767,"Ġstren":6768,"Ġjaja":6769,"Ġhierzu":6770,"Ġunterhalten":6771,"Ġsymb":6772,"lohn":6773,"Ġfinanzieren":6774,"Ġminderheiten":6775,"Ġprofit":6776,"Ġbundeskanzlerin":6777,"besondere":6778,"ident":6779,"Ġsog":6780,"elei":6781,"etzungen":6782,"Ġspalten":6783,"Ġever":6784,"Ġethn":6785,"bstimm":6786,"Ġkop":6787,"Ġexisten":6788,"Ġheutzutage":6789,"ĠaufgeklÃ¤r":6790,"Ġunterschreiben":6791,"Ġsteuergelder":6792,"Ġkonkret":6793,"Ġjahrzehnten":6794,"ĠrÃ¼cktritt":6795,"mg":6796,"rieren":6797,"Ġmischpoke":6798,"Ġvie":6799,"ĠpÃ¤d":6800,"Ġpaul":6801,"itut":6802,"Ġzustand":6803,"Ġsozi":6804,"Ġbewiesen":6805,"ðŁĺħ":6806,"Ġgesteuert":6807,"Ġbekennen":6808,"ĠÃ¼berzeugen":6809,"ograph":6810,"Ġkollegen":6811,"hung":6812,"kung":6813,"ĠÐ":6814,"Ġwald":6815,"Ġif":6816,"Ġnag":6817,"Ġhund":6818,"schÃ¶n":6819,"Ã¶der":6820,"Ġrennen":6821,"Ġwozu":6822,"imes":6823,"Ġgod":6824,"Ġparad":6825,"Ġhinterfragen":6826,"Ġdiskussionen":6827,"Ġrechtsradikalen":6828,"hamed":6829,"Ġafrikan":6830,"gliche":6831,"tÃ¼r":6832,"tsam":6833,"Ġpress":6834,"Ġwovon":6835,"okum":6836,"ruckt":6837,"Ġeinfache":6838,"Ġbekann":6839,"recke":6840,"Ġschneller":6841,"Ġholland":6842,"Ġperfekt":6843,"Ġgescheitert":6844,"ĠhieÃŁ":6845,"Ġpopul":6846,"Ġgehetzt":6847,"Ġseltsam":6848,"Ġbrauchst":6849,"ĠbehÃ¶rden":6850,"Ġzweifel":6851,"Ġbeschimpf":6852,"1073741828":6853,"Ġgeplant":6854,"Ġillegal":6855,"Ġclaudia":6856,"ØŃ":6857,"eider":6858,"Ġ2010":6859,"Ġbeur":6860,"hrung":6861,"Ġtier":6862,"ets":6863,"ĠunmÃ¶glich":6864,"Ġteilnehmern":6865,"Ġfortsch":6866,"Ġ.......":6867,"zahlt":6868,"ĠÃ¶ffentliche":6869,"Ġmundtot":6870,"ĠdÃ¼ss":6871,"ĠbemÃ¼":6872,"ĠðŁĳįðŁĳįðŁĳį":6873,"Ġkassel":6874,"ĠkÃ¼nstler":6875,"mund":6876,"wald":6877,"Ġgre":6878,"ĠkÃ¼r":6879,"Ġeint":6880,"Ġbeides":6881,"german":6882,"Ġjeweil":6883,"Ġbewa":6884,"gleichen":6885,"ĠblÃ¶de":6886,"ĠtÃ¶tet":6887,"Ġorient":6888,"hammad":6889,"Ġkerze":6890,"Ġimmigranten":6891,"Ġgerechtigkeit":6892,"gner":6893,"mi":6894,"ĠÄŁihÄģd":6895,"Ġsah":6896,"stern":6897,"Ġhen":6898,"Ã¼l":6899,"isa":6900,"Ġhaft":6901,"ĠÃ¼berfremdung":6902,"Ġgrenze":6903,"Ã¤chs":6904,"Ġwirklichkeit":6905,"Ġmaria":6906,"Ġveranstaltungen":6907,"Ġwunderbar":6908,"Ġkritisieren":6909,"Ġanzeige":6910,"Ġentschuldigung":6911,"Ġdunkel":6912,"Ġeventuell":6913,"aid":6914,"gte":6915,"stimmt":6916,"stock":6917,"Ġgas":6918,"Ġnutzt":6919,"Ġhunde":6920,"argum":6921,"Ġunterb":6922,"blei":6923,"gesamt":6924,"Ġschwul":6925,"linke":6926,"Ġbildet":6927,"Ġhandy":6928,"Ġzahlt":6929,"Ġprovoziert":6930,"ophil":6931,"Ġrandal":6932,"Ġjegliche":6933,"Ġparallelgesellschaften":6934,"Ġfocus":6935,"\":":6936,"lag":6937,"Ġmos":6938,"isser":6939,"Ġmitarbeiter":6940,"Ġroland":6941,"ĠausÃ¼":6942,"Ġ1945":6943,"Ġangekommen":6944,"Ġangesehen":6945,"Ġbeleidigend":6946,"ĠmilitÃ¤r":6947,"parteien":6948,"bruch":6949,"morgen":6950,"nissen":6951,"Ġsab":6952,"Ġiv":6953,"hnw":6954,"Ġmenschenrechte":6955,"Ã¶rigkeit":6956,"Ġtolerieren":6957,"Ġ5000":6958,"Ġentschieden":6959,"Ġfeststellen":6960,"Ġorganisationen":6961,"Ġkamera":6962,"Ġwesentlich":6963,"kauf":6964,"liv":6965,"zit":6966,"Ġjul":6967,"ĠrÃ¼ber":6968,"Ġfrance":6969,"Ġklug":6970,"Ġwurzeln":6971,"ĠgemÃ¤ÃŁ":6972,"hÃ¤ngen":6973,"islamisten":6974,"prof":6975,"Ġ!!!!!!":6976,"ĠerklÃ¤rung":6977,"eldungen":6978,"Ġschweizer":6979,"Ġverwendet":6980,"Ġarabien":6981,"Ġgebraucht":6982,"ĠbewÃ¤hrung":6983,"esien":6984,"Ã¼cher":6985,"Ġverkl":6986,"Ġhaken":6987,"Ġram":6988,"Ġbeweise":6989,"ions":6990,"Ġschleichen":6991,"Ġbekannte":6992,"ianer":6993,"Ġone":6994,"Ġabschaffen":6995,"Ġerfunden":6996,"Ġglobal":6997,"disk":6998,"les":6999,"pass":7000,"sc":7001,"Ã¤che":7002,"Ġgetreten":7003,"ĠjÃ¼ng":7004,"Ġumben":7005,"Ġwirklichen":7006,"Ġbewer":7007,"Ġverhar":7008,"Ġaktuelle":7009,"ĠverstÃ¤ndlich":7010,"ĠverhÃ¤ltnis":7011,"Ã¼ltig":7012,"linge":7013,"legt":7014,"Ġwunsch":7015,"ĠgÃ¼n":7016,"Ġphil":7017,"Ġaufh":7018,"Ġaufl":7019,"Ġren":7020,"iment":7021,"Ġdurchge":7022,"Ġverbindung":7023,"Ġkrass":7024,"ĠbegrÃ¼":7025,"Ġbeginnt":7026,"player":7027,"Ġinszen":7028,"kosten":7029,"Ġ600":7030,"Ġdreht":7031,"ĠverschwÃ¶rungsthe":7032,"Ġsatt":7033,"Ġgmbh":7034,"Ġnationen":7035,"Ġbock":7036,"Ġlegt":7037,"ocht":7038,"razin":7039,"Ġwirds":7040,"Ġvorber":7041,"Ġgrundlage":7042,"Ġzusammenleben":7043,"Ġrassistische":7044,"ĠÃ¤g":7045,"steller":7046,"Ġmissbrauchen":7047,"Ġjahrhundert":7048,"unglim":7049,"integr":7050,"ĠmiÃŁ":7051,"91":7052,"Ġwehr":7053,"ĠgÃ¤n":7054,"Ġiniti":7055,"Ġwerd":7056,"ists":7057,"spar":7058,"ĠunterdrÃ¼ckt":7059,"Ġberuh":7060,"grenz":7061,"Ġkohle":7062,"Ġdeck":7063,"Ġeinsetzen":7064,"Ġchaoten":7065,"ocaust":7066,"ĠmÃ¤chtig":7067,"Ġschublade":7068,".!":7069,"my":7070,"migranten":7071,"richtet":7072,"vern":7073,"Ġ45":7074,"Ġseb":7075,"Ġlg":7076,"Ġzumal":7077,"Ġzurecht":7078,"Ġthere":7079,"Ġmob":7080,"ĠgeschÃ¤ft":7081,"Ġentspricht":7082,"Ġentstanden":7083,"Ġschreibe":7084,"ĠhÃ¶lle":7085,"ĠpersÃ¶nliche":7086,"Ġleser":7087,"brauch":7088,"rÃ¼ndet":7089,"Ġprotestieren":7090,"ĠâĤ¬":7091,"Ġantideutsch":7092,"peg":7093,"zieren":7094,"Ġbro":7095,"Ġkulti":7096,"Ġverunglim":7097,"Ġrasse":7098,"rate":7099,"Ġvorne":7100,"Ġabwarten":7101,"angst":7102,"Ġteilt":7103,"Ġbrauche":7104,"Ġgood":7105,"akter":7106,"ĠÃ¼berleben":7107,"Ġhomosex":7108,"geist":7109,"ku":7110,"oÃŁen":7111,"vent":7112,"Ġlast":7113,"Ġvernicht":7114,"Ġwirkt":7115,"Ġunn":7116,"ulieren":7117,"sabstimm":7118,"Ġhohe":7119,"Ġneuer":7120,"ĠmÃ¶chtest":7121,"aaa":7122,"Ġkorrup":7123,"mache":7124,"wicht":7125,"Ġkol":7126,"Ġpk":7127,"ĠtÃ¶t":7128,"Ġforum":7129,"lev":7130,"Ġinsgesamt":7131,"Ġstattdessen":7132,"Ġkarikaturen":7133,"Ġstaatsanw":7134,"Ġantifasch":7135,"Ġnerv":7136,"Ġzulassen":7137,"kÃ¶pfe":7138,"Ġgesamten":7139,"ĠbÃ¼hne":7140,"Ġinstrumentalisieren":7141,"Ġpanik":7142,"Ġarmselig":7143,"arabien":7144,"justiz":7145,"Ġtrottel":7146,"nungen":7147,"rigen":7148,"ĻĪ":7149,"Ġwik":7150,"Ġgehn":7151,"Ġspass":7152,"Ġvieler":7153,"verbr":7154,"Ġsuch":7155,"Ġursache":7156,"ĠeuropÃ¤ische":7157,"Ġattentat":7158,"Ġumgebracht":7159,"moral":7160,"Ġmissst":7161,"ĠverfÃ¼gung":7162,"ðŁĳİðŁĳİ":7163,"Ġantisemit":7164,"ĠunterdrÃ¼ckung":7165,"ecke":7166,"Ġdeut":7167,"Ġasozial":7168,"Ġrunde":7169,"Ġgriff":7170,"Ġest":7171,"Ġgeschaffen":7172,"Ġirgendein":7173,"Ġdepp":7174,"Ġinsbesondere":7175,"Ġ99":7176,"ians":7177,"Ġstatistiken":7178,"Ġlebst":7179,"ĠunabhÃ¤ngig":7180,"wider":7181,"Ġgei":7182,"Ġtri":7183,"Ã¶st":7184,"Ġpolizist":7185,"Ġkommentieren":7186,"Ġgebildet":7187,"Ġparlament":7188,"Ã¼ttel":7189,"gemeine":7190,"Ã¤ubig":7191,"Ġaktuellen":7192,"Ġwiderlich":7193,"Ġmagdeburg":7194,"wandert":7195,"redit":7196,"Ġye":7197,"Ġentschuldigen":7198,"Ġdiffamieren":7199,"Ġexistieren":7200,"mel":7201,"Ġwien":7202,"iko":7203,"images":7204,"Ġflucht":7205,"ahmen":7206,"Ġverleu":7207,"sued":7208,"ĠgrÃ¼ÃŁen":7209,"feindlichen":7210,"Ġreporter":7211,"1015":7212,"Ġmissbraucht":7213,"ruktur":7214,"ĠgeprÃ¤gt":7215,"ban":7216,"Ġmatt":7217,"Ġtsche":7218,"etzer":7219,"oko":7220,"Ġmond":7221,"Ġfaschist":7222,"Ġfremdenfeindlichkeit":7223,"Ġbestimmen":7224,"Ġsaar":7225,"Ġlauter":7226,"--------------------------------":7227,"Ġbeantworten":7228,"netzplanet":7229,"Ġerschreckend":7230,"gd":7231,"hoch":7232,"sn":7233,"ľĮ":7234,"Ġstern":7235,"Ġhis":7236,"Ġscheren":7237,"ĠschÃ¼ren":7238,"etor":7239,"Ġverwe":7240,"Ġumfeld":7241,"Ġenden":7242,"Ġthese":7243,"teilnehmer":7244,"eistungen":7245,"Ġgetr":7246,"ĠbrÃ¼der":7247,"Ġfurcht":7248,"Ġzeugen":7249,"wÃ¤hl":7250,"enner":7251,"Ġislamistische":7252,"immen":7253,"Ġtollen":7254,"Ġehre":7255,"Ġbleib":7256,"Ġ1933":7257,"Ġmeistens":7258,"Ġfremdenfeindlich":7259,"Ġkanada":7260,"ĠattentÃ¤ter":7261,"itaet":7262,"toleranz":7263,"tr":7264,"ucken":7265,"Ã¤chen":7266,"Ġschickt":7267,"Ġohn":7268,"Ġaufregen":7269,"ĠrÃ¤um":7270,"Ġhierher":7271,"block":7272,"pflich":7273,"ĠfleiÃŁ":7274,"haled":7275,"Ġbedeutung":7276,"Ã¼ndigt":7277,"gehalten":7278,"Ġdrohen":7279,"Ġbekommst":7280,"spaziergang":7281,"Ġungerecht":7282,"finden":7283,"frank":7284,"vik":7285,"Ġdienen":7286,"Ġachten":7287,"Ġgn":7288,"Ġgreifen":7289,"Ġeinschl":7290,"euro":7291,"anne":7292,"Ġra":7293,"Ġkannste":7294,"Ġeth":7295,"geschichte":7296,"Ġbehand":7297,"Ġtex":7298,"Ġsachliche":7299,"Ġabgeschafft":7300,"ĠwÃ¼sste":7301,"ĠgÃ¤ste":7302,"Ġallgemeinen":7303,"bre":7304,"ganz":7305,"Ġdet":7306,"Ġskla":7307,"einfach":7308,"atzen":7309,"ino":7310,"unn":7311,"Ġgehst":7312,"gesetze":7313,"Ġverhindert":7314,"Ġunschuldige":7315,"mis":7316,"part":7317,"uÃŁt":7318,"eife":7319,"schte":7320,"itive":7321,"genau":7322,"Ġdul":7323,"Ġvorder":7324,"Ġvolksabstimm":7325,"Ġniedr":7326,"Ġgenauer":7327,"Ġbescheid":7328,"Ġbundeswehr":7329,"Ġurs":7330,"Ġangebliche":7331,"Ġkranke":7332,"sicher":7333,"Ġbillig":7334,"Ġschafe":7335,"Ġneonazis":7336,"nie":7337,"ĠsÃ¤chs":7338,"Ġgold":7339,"Ġniger":7340,"schiss":7341,"Ġtipp":7342,"ĠfÃ¼rchten":7343,"ump":7344,"Ġsteh":7345,"weige":7346,"Ġdaneben":7347,"ĠschÃ¶ner":7348,"Ġgewaltig":7349,"Ġmarkt":7350,"Ġschlechtes":7351,"ĠÃ¼berlegt":7352,"Ġveranstalter":7353,"Ġmarschieren":7354,"Ġgesundheit":7355,"Ġgruppierungen":7356,"Ø³ÙĦÙħ":7357,"dach":7358,"gÃ¤nger":7359,"jan":7360,"igans":7361,"Ġumso":7362,"Ġweist":7363,"Ġangrei":7364,"Ġcia":7365,"Ġchin":7366,"ĠbezÃ¼":7367,"folgen":7368,"Ġgekauft":7369,"Ġfinanziell":7370,"schulen":7371,"Ġengag":7372,"ĈĈĈĈĈĈĈĈĈĈĈĈĈĈĈĈĈĈĈĈĈĈĈĈĈĈĈĈĈĈĈĈ":7373,"ĠbÃ¼cher":7374,"Ġdirekte":7375,"ĠangehÃ¶rigen":7376,"Ġhassprediger":7377,">>":7378,"finanz":7379,"Ġdorf":7380,"Ġtie":7381,"Ġtom":7382,"Ġtreibt":7383,"Ġstrom":7384,"ppt":7385,"grenzen":7386,"obie":7387,"ĠÙĬ":7388,"Ġhahahaha":7389,"Ġpseu":7390,"Ġextreme":7391,"bÃ¼rgern":7392,"falt":7393,"kind":7394,"muss":7395,"wp":7396,"ziert":7397,"ero":7398,"Ġsowohl":7399,"industrie":7400,"Ġaufpassen":7401,"Ġstanden":7402,"Ġgenehm":7403,"verstanden":7404,"chef":7405,"adr":7406,"Ġkonserv":7407,"Ġteilnahme":7408,"ĠfÃ¼ÃŁen":7409,"ĠðŁĺģ":7410,"ĠnationalitÃ¤t":7411,"Ġverlogene":7412,"ĠÃ¤rger":7413,"Ġkonkre":7414,"familien":7415,"Ġgriechenland":7416,"Ġaufgewachsen":7417,"Ġvolke":7418,"aker":7419,"smann":7420,"ench":7421,"Ã¤mm":7422,"Ġtaschen":7423,"ettel":7424,"Ġverteilt":7425,"Ġmichel":7426,"Ġgeschichts":7427,"gendes":7428,"viele":7429,"Ġdreckspack":7430,"heimer":7431,"ĠausdrÃ¼ck":7432,"Ġhingegen":7433,"Ġabgelehnt":7434,"Ġgauland":7435,"Ġschreit":7436,"Ġgrausam":7437,"Ġaraber":7438,"buerger":7439,"dpp":7440,"gust":7441,"Ġmas":7442,"Ġmur":7443,"Ġgingen":7444,"Ġ2013":7445,"Ã¼sse":7446,"Ġlocker":7447,"Ġzustimmen":7448,"Ġtsch":7449,"ĠÃ¼berwiegend":7450,"angeh":7451,"Ġhaltung":7452,"Ġabends":7453,"Ġlohnt":7454,"getragen":7455,"konferenz":7456,"zusp":7457,"Ġverfolgen":7458,"schnitt":7459,"grÃ¼n":7460,"Ġaufrufen":7461,"Ġfanatiker":7462,"ĠschÃ¤mt":7463,"Ġbetrachtet":7464,"Ġabschiebung":7465,"Ġinfos":7466,"ĠanstÃ¤ndigen":7467,"cial":7468,"greifen":7469,"nat":7470,"pers":7471,"seiten":7472,"Ġbank":7473,"Ġlache":7474,"Ġmitmenschen":7475,"Ġann":7476,"Ġsteigen":7477,"Ġweisst":7478,"steckt":7479,"Ġvielmehr":7480,"rucken":7481,"Ġbreit":7482,"Ġheiko":7483,"Ġgrundrechte":7484,"Ġkorre":7485,"Ġscheinst":7486,"Ġgezielt":7487,"Ġredest":7488,"Ġstraftat":7489,"Ġheiligen":7490,"ĠfuÃŁball":7491,"Ġunivers":7492,"ĠerbÃ¤rmlich":7493,"echte":7494,"Ġunru":7495,"Ġotto":7496,"Ġgesamt":7497,"Ġgenannten":7498,"haftet":7499,"Ġwiederum":7500,"Ġberufen":7501,"jaehr":7502,"werte":7503,"Ġplus":7504,"Ġargumenten":7505,"fernsehen":7506,"Ġheimatland":7507,"ĠgehirnwÃ¤sche":7508,"Ġanwesen":7509,"Ġnachvollziehen":7510,"Ġthanks":7511,"Ġkipping":7512,"jem":7513,"kraft":7514,"ud":7515,"Ġing":7516,"Ġimmern":7517,"ash":7518,"Ġbrief":7519,"Ã¶hne":7520,"eitigen":7521,"Ġmehreren":7522,"Ġumf":7523,"Ġanger":7524,"Ġbesuchen":7525,"Ġkriegt":7526,"geschlagen":7527,"ington":7528,"Ġknow":7529,"Ġversagt":7530,"ĠÃ¤hnliches":7531,"Ġerschossen":7532,"Ġprima":7533,"forderung":7534,"Ġabsolute":7535,"ĠÃ¶ffnen":7536,"uvdpp":7537,"uvdppsa":7538,"schÃ¤m":7539,"reche":7540,"emokrat":7541,"Ġabw":7542,"ĠwÃ¼rd":7543,"Ġerstes":7544,"Ġverbo":7545,"Ġbewir":7546,"kirche":7547,"ĠverÃ¼bt":7548,"Ġtestament":7549,"Ġgleichberechtigung":7550,"ĠdÃ¼sseldorf":7551,"Ġimmernoch":7552,"bn":7553,"dk":7554,"iessen":7555,"Ġpreis":7556,"ironie":7557,"reiche":7558,"umpf":7559,"klasse":7560,"allah":7561,"Ġverliert":7562,"Ġbelegen":7563,"renz":7564,"Ġbedarf":7565,"2012":7566,"Ġscheiss":7567,"protest":7568,"Ġschwarzen":7569,"Ġfremdenhass":7570,"Ġnervt":7571,"Ġholocaust":7572,"ups":7573,"Ġumgekehrt":7574,"ĠschrÃ¶der":7575,"Ġtraditionen":7576,"ĠmissstÃ¤nde":7577,"''":7578,"dan":7579,"lÃ¤ss":7580,"ĠÙĦ":7581,"atze":7582,"Ġzusch":7583,"Ġdenun":7584,"Ġverpflich":7585,"isen":7586,"slosen":7587,"Ġreine":7588,"Ġklu":7589,"zustellen":7590,"Ġrechtsextreme":7591,"bringt":7592,"Ġfriedliches":7593,"Ġarbeite":7594,"Ġgegnern":7595,"affung":7596,"ĠverhÃ¤ltnisse":7597,"Ġkonsequenzen":7598,"Ġempfehle":7599,"Ġbaha":7600,"west":7601,"entsch":7602,"Ġdrohung":7603,"mmte":7604,"rolle":7605,"Ġfressen":7606,"Ġlieder":7607,"Ġtour":7608,"frist":7609,"mack":7610,"Ġdrum":7611,"Ġrechtschreib":7612,"Ġarschloch":7613,"belt":7614,"ndon":7615,"Ġbeu":7616,"Ġlen":7617,"Ġtiere":7618,"sender":7619,"gekommen":7620,"Ġablen":7621,"Ġschlaf":7622,"---":7623,"Ġpolitischer":7624,"..........":7625,"Ã¤ubiger":7626,"Ġwitzig":7627,"Ġlivestream":7628,"chseln":7629,"ĠschlÃ¤gt":7630,"Ġzentralrat":7631,"114":7632,"bieten":7633,"ling":7634,"sr":7635,"sv":7636,"chsel":7637,"Ġsig":7638,"anschau":7639,"Ġverwei":7640,"ĠĠĠĊ":7641,"Ġbedenken":7642,"Ġwohnt":7643,"Ġabzul":7644,"Ġvieleicht":7645,"ðŁĺ¡":7646,"Ġthink":7647,"Ġbring":7648,"Ġbrennt":7649,"ĠâĢĶ":7650,"freie":7651,"Ġbegeg":7652,"Ġbetreiben":7653,"Ġelite":7654,"Ġ150":7655,"nopegida":7656,"Ġdifferenzieren":7657,"macher":7658,"ĠbÃ¤rgida":7659,"Ġdumpf":7660,"ohn":7661,"ĠĈ":7662,"Ġsi":7663,"schon":7664,"Ã¤tern":7665,"Ġschuhe":7666,"Ġverraten":7667,"Ġabschl":7668,"Ġnachzu":7669,"Ġcsu":7670,"Ġenkel":7671,"Ġgereg":7672,"Ġstaatlich":7673,"Ġbezieht":7674,"Ġarbeitgeber":7675,"Ġ30000":7676,"Ġ3000":7677,"schwangere":7678,"Ġjosch":7679,"Ġtrennung":7680,"ĠkriegsflÃ¼chtlingen":7681,"Ġbremen":7682,"tagesschau":7683,"Ġnotwendig":7684,"Ġkrawall":7685,"ĠbÃ¶ses":7686,"hi":7687,"Ġdaten":7688,"Ġeingehen":7689,"Ġintens":7690,".../":7691,"aganda":7692,"Ġstinkt":7693,"Ġaltp":7694,"ĠÃ¼berfl":7695,"ppich":7696,"abschluss":7697,"Ġwirkliche":7698,"Ġfreundin":7699,"zieht":7700,"ypten":7701,"Ġschlimme":7702,"Ġabschn":7703,"Ġgeneral":7704,"fehl":7705,"Ġinnenminister":7706,"71":7707,"lachtet":7708,"web":7709,"ĠdrÃ¼cken":7710,"Ġfaul":7711,"orm":7712,"ĠzuhÃ¶ren":7713,"Ġrahmen":7714,"Ġvorn":7715,"haften":7716,"Ġcor":7717,"Ġfreundlich":7718,"produ":7719,"Ġbeispielsweise":7720,"ĠunterstÃ¼tzer":7721,"Ġwestliche":7722,"volks":7723,"ĠbrÃ¼ssel":7724,"Ġchaos":7725,"Ġexistiert":7726,"Ġbewegungen":7727,"normal":7728,"ĠfÃ¼nf":7729,"km":7730,"sÃ¤chlich":7731,"ub":7732,"Ġtim":7733,"ierre":7734,"Ġoper":7735,"Ġsturm":7736,"ikte":7737,"ratet":7738,"Ġumfragen":7739,"Ġnachricht":7740,"verschw":7741,"ĠschlieÃŁt":7742,"Ġausleben":7743,"mittl":7744,"astian":7745,"Ġleer":7746,"ateam":7747,"ĠhÃ¶he":7748,"ĠbefÃ¼rworter":7749,"Ġjahrzehnte":7750,"Ġlabern":7751,"Ġfrohe":7752,"fÃ¤llt":7753,"gau":7754,"schmarotzer":7755,"Ġeinheim":7756,"igst":7757,"ĠverrÃ¤":7758,"Ġmitmachen":7759,"sehr":7760,"Ġwars":7761,"ðŁĺĢ":7762,"olle":7763,"ĠgefÃ¤ng":7764,"Ġbezwei":7765,"geschrieben":7766,"liefer":7767,"Ã¤lte":7768,"ĠfÃ¤llen":7769,"Ġverblendet":7770,"grÃ¼nen":7771,"Ġpatriotismus":7772,"Ġempfehlen":7773,"Ġmetho":7774,"Ġrhetor":7775,"stempelt":7776,"kÃ¶n":7777,"riert":7778,"Ġfuss":7779,"ema":7780,"Ġzufall":7781,"Ġsommer":7782,"Ġscho":7783,"hek":7784,"Ġthesen":7785,"Ã¶lk":7786,"fassung":7787,"Ġliken":7788,"Ġgenerationen":7789,"ĠfÃ¼hrung":7790,"Ġbetrachten":7791,"positionspapier":7792,"Ġerledigt":7793,"Ġverpflichtet":7794,"oret":7795,"ĺº":7796,"change":7797,"Ġsehn":7798,"Ġabt":7799,"schicht":7800,"Ġerziehung":7801,"ÃŁert":7802,"bekommen":7803,"ĠabhÃ¤ng":7804,"Ġnachts":7805,"Ġuntereinander":7806,"hab":7807,"ries":7808,"Ġrechtes":7809,"Ġleib":7810,"Ġneujahr":7811,"sky":7812,"Ġbezahlte":7813,"Ã¤tzt":7814,"Ġablehnen":7815,"eugnen":7816,"ĠseriÃ¶":7817,"Ġdiffamiert":7818,"sorten":7819,"Ġehemaligen":7820,"Ġschwierig":7821,"Ġnette":7822,"Ġleit":7823,"Ġpur":7824,"rea":7825,"ĠtÃ¤u":7826,"inal":7827,"Ġsieg":7828,"Ġausweisen":7829,"Ġgrenz":7830,"Ġuntergang":7831,"Ġmore":7832,"Ġnew":7833,"astrop":7834,"Ġauton":7835,"selbst":7836,"Ġverantwortlichen":7837,"Ġmordd":7838,"Ġeinwanderungspolitik":7839,"Ġholt":7840,"ĠÂ·":7841,"Ġmarkus":7842,"Ġgrammatik":7843,"Ġmatth":7844,"va":7845,"Ġtakt":7846,"Ġverwand":7847,"Ġbeten":7848,"istischer":7849,"Ġgib":7850,"Ġwaffe":7851,"pfung":7852,"Ġgeschweige":7853,"Ġexperten":7854,"Ġgestorben":7855,"Ġabsur":7856,"Ġjahrelang":7857,"nahm":7858,"Ġignoranz":7859,"ĠlÃ¼gner":7860,"Ġpropagand":7861,"ĠwÃ¼tend":7862,"ĠÃ¼berzeugung":7863,"Ġberufs":7864,"verdienst":7865,"Ġjeglicher":7866,"illen":7867,"auern":7868,"Ġany":7869,"Ġwartet":7870,"Ġspren":7871,"Ġ-.-":7872,"Ġbesitzt":7873,"Ġlief":7874,"Ġgelaber":7875,"Ġverbesser":7876,"uerken":7877,"Ġarbeitsk":7878,"Ġsiehts":7879,"ĠbundeslÃ¤ndern":7880,"Ã¼tteln":7881,"ĠmÃ¶glichkeiten":7882,"straÃŁe":7883,"Ġrechter":7884,"Ġkontra":7885,"Ġfreude":7886,"Ġverzichten":7887,"Ġweihnachtsmarkt":7888,"Ġzwangs":7889,"Ġmaxim":7890,"Ġdesto":7891,"viertel":7892,"ĠfÃ¼ttern":7893,"Ġaltparteien":7894,"218":7895,"xe":7896,"yer":7897,"Ġball":7898,"iter":7899,"Ġerstens":7900,"anzeige":7901,"Ġgeleistet":7902,"tial":7903,"treue":7904,"Ġnahen":7905,"Ġbelgien":7906,"Ġsym":7907,"Ġmutig":7908,"Ġknall":7909,"weisung":7910,"Ġarabische":7911,"ĠdÃ¼mmer":7912,"Ġsprichst":7913,"wenig":7914,"Ġbeamten":7915,"bereitschaft":7916,"veranstaltung":7917,"Ġausgesprochen":7918,"bf":7919,"ius":7920,"Ã¤glich":7921,"Ġladen":7922,"Ġvertre":7923,"Ġanstand":7924,"gefahr":7925,"ĠÃ¼berg":7926,"brd":7927,"Ġeinziges":7928,"ĠnÃ¤chstenliebe":7929,"Ġtrinken":7930,"Ġeingestellt":7931,"Ġzuletzt":7932,"Ġbahnhof":7933,"Ġdavid":7934,":\"":7935,"mill":7936,"meldung":7937,"Ġfangen":7938,"Ġzugeh":7939,"ĠanhÃ¶ren":7940,"Ġabstimmung":7941,"Ġprozess":7942,"Ġbesuch":7943,"ĠgewÃ¼nscht":7944,"Ġdurchsetzen":7945,"Ġdamal":7946,"new":7947,"afd":7948,"Ġgefol":7949,"Ġterroranschlag":7950,"maas":7951,"Ġschaue":7952,"Ġgekauf":7953,"Ġharz":7954,"Ġentsprechend":7955,"ĠspaziergÃ¤nger":7956,"Ġspanien":7957,"ede":7958,"haufen":7959,"ÃŃ":7960,"Ġwuer":7961,"Ġhasse":7962,"Ġfat":7963,"reens":7964,"Ã¶hn":7965,"agd":7966,"Ġausgeht":7967,"ima":7968,"ĠgehÃ¶re":7969,"blieben":7970,"Ġbesorg":7971,"Ġblatt":7972,"Ġami":7973,"Ġmenschlichkeit":7974,"Ġlinksfaschisten":7975,"Ġnorwegen":7976,"Ġboot":7977,"Ġkapieren":7978,"zeugen":7979,"Ġlondon":7980,"Ġkatrin":7981,"hhh":7982,"handel":7983,"Ġfliegen":7984,"Ġossi":7985,"Ġdomin":7986,"Ġandersdenkende":7987,"michael":7988,"ðŁĩª":7989,"©ðŁĩª":7990,"Ġnar":7991,"ĠzusÃ¤tzlich":7992,"igungs":7993,"Ġgegenw":7994,"Ġdasselbe":7995,"ierend":7996,"Ġganzes":7997,"Ġdarstellen":7998,"rÃ¤ger":7999,"Ġteils":8000,"ordnen":8001,"Ġasylsuchen":8002,"Ã¼nde":8003,"loser":8004,"Ġpositionen":8005,"Ġjohann":8006,"Ġletztendlich":8007,"itteln":8008,"Ġshow":8009,"Ġsebastian":8010,"ĠausdrÃ¼cklich":8011,"dienst":8012,"meine":8013,"nf":8014,"Ġbaut":8015,"Ġkehren":8016,"Ġphr":8017,"Ġaldi":8018,"Ġjapan":8019,"Ġsollst":8020,"otten":8021,"ĠlieÃŁ":8022,"Ã¤uÃŁert":8023,"Ġhinein":8024,"Ġgemerkt":8025,"Ġkonsorten":8026,"Ġwege":8027,"ĠhÃ¤ttet":8028,"how":8029,"fahrt":8030,"Ġsee":8031,"Ġschlimmsten":8032,"Ġtausenden":8033,"grÃ¼nde":8034,"Ġzensur":8035,"Ġcharakter":8036,"Ġethik":8037,"112":8038,"iden":8039,"vielleicht":8040,"ĠÃ¤nder":8041,"ieg":8042,"schriften":8043,"Ġaugust":8044,"Ġesel":8045,"Ġmancher":8046,"Ġdeutschem":8047,"sprecher":8048,"weihn":8049,"Ġchina":8050,"Ġhosen":8051,"Ġkonfront":8052,"Ġentlar":8053,"Ġsuche":8054,"ĠðŁĺĢ":8055,"Ġdient":8056,"Ġfalsches":8057,"Ġendg":8058,"welche":8059,"Ġcountry":8060,"reenshot":8061,"csu":8062,"hetze":8063,"oge":8064,"tun":8065,"Ġ:/":8066,"chtet":8067,"Ġsuren":8068,"Ġ23":8069,"Ġlag":8070,"Ġlegal":8071,"aucht":8072,"Ġtrag":8073,"Ġschrieb":8074,"ola":8075,"landes":8076,"ðŁĺĥ":8077,"Ġgeschm":8078,"rÃ¤gen":8079,"Ġexpl":8080,"Ġbetrieben":8081,"ĠgroÃŁstÃ¤d":8082,"itzer":8083,"Ã¼tze":8084,"Ġ400":8085,"Ġfolgendes":8086,"tember":8087,"ĠerwÃ¤hnen":8088,"wÃ¤rt":8089,"Ġ+++":8090,"ĠenttÃ¤uscht":8091,"Ġnagel":8092,"-,":8093,"sto":8094,"ital":8095,"ĠgeÃ¤uÃŁert":8096,"Ġjur":8097,"ĠausdrÃ¼cken":8098,"bevÃ¶lker":8099,"reicher":8100,"Ġdamen":8101,"Ġfleisch":8102,"ordneten":8103,"hahaha":8104,"heime":8105,"way":8106,"Ġdroht":8107,"Ġinnere":8108,"Ġblockiert":8109,"christen":8110,"Ġtagesschau":8111,"Ġgewaltbereite":8112,"Ġkonstru":8113,"Ġexistenz":8114,"allen":8115,"cy":8116,"ift":8117,"wach":8118,"Ġsl":8119,"Ġkok":8120,"Ġlt":8121,"rec":8122,"orien":8123,"reiÃŁen":8124,"Ġglas":8125,"osz":8126,"Ġeb":8127,"Ġcomm":8128,"Ġbernd":8129,"rÃ¤gt":8130,"Ġverbunden":8131,"Ġstrate":8132,"Ġzeitpunkt":8133,"ĠÃ¶l":8134,"Ġgeduldet":8135,"Ġwichtige":8136,"Ġsicherheits":8137,"Ġunterschrieben":8138,"Ġgarnichts":8139,"Ġantifas":8140,"parolen":8141,"uuuu":8142,"Ġstattfindet":8143,"Ġjustizminister":8144,"Ġfirma":8145,"Ġformuliert":8146,"Ġplattform":8147,"share":8148,"ĠbezÃ¼glich":8149,"lutz":8150,"pres":8151,"sage":8152,"zeiten":8153,"ndr":8154,"ĠhÃ¤ss":8155,"Ġunwort":8156,"Ġregt":8157,"pfel":8158,"ption":8159,"Ġbeginnen":8160,"Ġbekennt":8161,"akama":8162,"sverb":8163,"Ġurteilen":8164,"Ġautor":8165,"Ġintegrations":8166,"ĠÃ¤hnliche":8167,"ihd":8168,"Ġverlogenen":8169,"Ġoffiziellen":8170,"Ġweltoffenheit":8171,"Ġmenschenverstand":8172,"ðŁĴ©":8173,"Ġgewerkschaften":8174,"akamaihd":8175,"&__":8176,"fwww":8177,"kassen":8178,"xen":8179,"Ġwein":8180,"Ġbart":8181,"empf":8182,"ĠzunÃ¤chst":8183,"klus":8184,"Ġkontext":8185,"__=":8186,"Ġehe":8187,"fordern":8188,"Ġbegehen":8189,"drÃ¤ngt":8190,"Ġoffene":8191,"Ġversagen":8192,"Ġatom":8193,"Ġorganisieren":8194,"meinungs":8195,"ĠÂ§":8196,"Ġprimitiv":8197,"events":8198,"Ġzweitens":8199,"afrika":8200,"Ġbehauptung":8201,"Ġbeurteilen":8202,"Ġintensiv":8203,"verdienstkreuz":8204,"cb":8205,"fg":8206,"liste":8207,"wÃ¶r":8208,"Ġschmarotzer":8209,"inform":8210,"Ġout":8211,"Ġalltag":8212,"Ġauswandern":8213,"Ġvorfahren":8214,"Ġunterwandert":8215,"Ġdarstellt":8216,"Ġew":8217,"Ġrechtsp":8218,"Ġcent":8219,"Ġdame":8220,"Ġgleichgesch":8221,"Ġbeginn":8222,"Ġregierungs":8223,"ischerweise":8224,"itzel":8225,"ateg":8226,"Ġnamens":8227,"ĠkÃ¤mpfer":8228,"europÃ¤":8229,"Ġschlechten":8230,"ĠprÃ¤sent":8231,"gefÃ¤hr":8232,"zeichnet":8233,"Ġkonvertieren":8234,"ĠverÃ¤nderungen":8235,"ĠdÃ¼nnschiss":8236,"mangel":8237,"Ġfoll":8238,"Ġgeehr":8239,"Ġwirft":8240,"Ġereig":8241,"Ġwart":8242,"fakt":8243,"Ġgenutzt":8244,"ĠunterdrÃ¼cken":8245,"dies":8246,"Ġbesseren":8247,"zwingen":8248,"Ġdenkende":8249,"mark":8250,"Ġsozialsystem":8251,"Ġhahahahahahaha":8252,"Ġverpasst":8253,"kriminal":8254,"Ġhooligans":8255,"sueddeutsche":8256,"fÃ¼gen":8257,"ana":8258,"anen":8259,"Ġkru":8260,"Ġpublik":8261,"eher":8262,"ckel":8263,"ischem":8264,"Ġfrench":8265,"eilt":8266,"Ġgelegt":8267,"antas":8268,"Ġsuis":8269,"ogida":8270,"Ġregierungen":8271,"Ġelend":8272,"Ġnerven":8273,"Ġorgateam":8274,"Ġspeziell":8275,"profile":8276,"ĠstÃ¼rzen":8277,"Ġbeschweren":8278,".?":8279,"heute":8280,"ij":8281,"ihre":8282,"ptember":8283,"Ġwant":8284,"Ġstre":8285,"Ġgesucht":8286,"img":8287,"ĠĠĠĠĠĠĠ":8288,"Ġangreifen":8289,"Ġmoslim":8290,"Ġobdach":8291,"grÃ¶":8292,"Ġdeines":8293,"Ã¤mpft":8294,"Ġregime":8295,"Ġverlag":8296,"plapp":8297,"worte":8298,"Ġschmier":8299,"Ġnochmals":8300,"Ġanzeigen":8301,"ĠschlÃ¤ger":8302,"ildeten":8303,"Ġliebsten":8304,"wÃ¤rts":8305,"campa":8306,"dj":8307,"fst":8308,"multik":8309,"wj":8310,"Ġnutz":8311,"Ġhaust":8312,"Ã¼s":8313,"Ã¼re":8314,"Ã¼ge":8315,"Ġki":8316,"Ġpierre":8317,"mmel":8318,"Ġaufmachen":8319,"ehem":8320,"raben":8321,"Ġnachweis":8322,"ĠthÃ¼r":8323,"Ġbranden":8324,"Ġirgendeiner":8325,"Ġdemokraten":8326,"ffekt":8327,"Ġniemandem":8328,"Ġ!!!!!!!":8329,"Ġpersonal":8330,"Ġstarke":8331,"Ġlichter":8332,"ĠØ¹":8333,"Ġharam":8334,"verstÃ¤ndnis":8335,"Ġfliehen":8336,"Ġsarrazin":8337,"Ġgewaltbereit":8338,"Ġschlagz":8339,"Ġfirmen":8340,"gesperrt":8341,"ĠhÃ¶chstens":8342,"gedacht":8343,"Ġjugendliche":8344,"Ġschrecklich":8345,"journalisten":8346,"Ġevery":8347,"::":8348,"acken":8349,"kat":8350,"ohen":8351,"seit":8352,"Ġhan":8353,"rem":8354,"ĠzufÃ¤llig":8355,"Ġrande":8356,"Ġhintern":8357,"Ġverbietet":8358,"Ġungest":8359,"Ġeuropaweit":8360,"Ġbereitschaft":8361,"Ġverkehr":8362,"ĠØ£":8363,"Ġverzwei":8364,"Ġarmuts":8365,"moslems":8366,"Ġnationalsozialismus":8367,"Ġangenommen":8368,"Ġursachen":8369,"bevÃ¶lkerung":8370,"/#":8371,"ae":8372,"hing":8373,"mÃ¶rder":8374,"pb":8375,"tur":8376,"Ġwm":8377,"Ġuntreue":8378,"Ġobr":8379,"...)":8380,"htm":8381,"ktionen":8382,"igend":8383,"spekt":8384,"Ġweltanschau":8385,"Ġirren":8386,"ordnet":8387,"Ġkorrig":8388,"Ġjude":8389,"spielen":8390,"Ġbundesverdienstkreuz":8391,"Ġwirtschaftlichen":8392,"Ġsteuerhinter":8393,"Ġkenntnis":8394,"Ġeinschalten":8395,"ĠkÃ¼mmert":8396,"Ġmorde":8397,"Ġfotos":8398,"ĠØ§ÙĦÙħ":8399,"Ġcountries":8400,"ĠstaatsbÃ¼rgerschaft":8401,"Ġbeeinflussen":8402,"ĠpÃ¤dophil":8403,"ðŁĺħðŁĺħ":8404,"ĠverrÃ¤ter":8405,"iy":8406,"sonst":8407,"Ġwachen":8408,"Ġlat":8409,"Ġzugeben":8410,"Ġverhei":8411,"Ġries":8412,"Ġausn":8413,"Ġgegendemonstrationen":8414,"Ġbesetzt":8415,"ĠkÃ¶nig":8416,"rÃ¼ger":8417,"ruft":8418,"Ġflach":8419,"Ġwenden":8420,"ĠgrÃ¼sse":8421,"Ġworauf":8422,"Ġtell":8423,"ĠdÃ¼rft":8424,"Ġabsage":8425,"ski":8426,"Ġperman":8427,"Ġzitiert":8428,"ĠlaÃŁt":8429,"Ġabgestempelt":8430,"Ġvollen":8431,"ĠÃ¤uÃŁerst":8432,"Ġbeantwortet":8433,"tagesspiegel":8434,"Ġgeburten":8435,"Ġschimpfen":8436,"Ġarbeitslosigkeit":8437,"Ġbeherrschen":8438,"home":8439,"mei":8440,"Ùĥ":8441,"eiger":8442,"Ġbab":8443,"anie":8444,"Ġschrecken":8445,"ĠunfÃ¤h":8446,"ernen":8447,"entwick":8448,"raus":8449,"Ġey":8450,"Ġberu":8451,"Ġkonsum":8452,"Ġgrundrecht":8453,"Ġeigentlichen":8454,"Ġgewaltfrei":8455,"Ġbehinder":8456,"Ġmarc":8457,"uchs":8458,"Ġnummer":8459,"Ġvergangenen":8460,"furter":8461,"Ġhingehen":8462,"ĠgeprÃ¤gten":8463,"medium":8464,"Ġbreivik":8465,"zentrale":8466,"Ġnigeria":8467,"reit":8468,"Ġweb":8469,"stolz":8470,"Ġnad":8471,"Ġhur":8472,"Ã¤ger":8473,"Ġeingesetzt":8474,"ales":8475,"Ġtasche":8476,"Ġscheu":8477,"Ġaufstand":8478,"Ġ!?":8479,"Ġbrenn":8480,"ĠðŁĺĥ":8481,"ðŁĺĤðŁĺĤðŁĺĤ":8482,"manipul":8483,"Ġintegrierte":8484,"Ġtoleriert":8485,"Ġheld":8486,"ĠeingefÃ¼hrt":8487,"Ã¼chern":8488,"Ġstudiert":8489,"ĠbegrÃ¼ndung":8490,"familie":8491,"Ġsammeln":8492,"Ġbasis":8493,"flagge":8494,"Ġekelhaft":8495,"farbe":8496,"ĠmÃ¼ÃŁte":8497,"okument":8498,"Ġkonkrete":8499,"dreck":8500,"gda":8501,"zeigt":8502,"Ùģ":8503,"Ġsantifa":8504,"ĠhÃ¤r":8505,"Ġbos":8506,"nge":8507,"Ġzuzu":8508,"Ġgesetzen":8509,"Ġislamkritik":8510,"Ġhierbei":8511,"Ġchris":8512,"Ġmaiz":8513,"Ġartik":8514,"Ġehrliche":8515,"Ġangebracht":8516,"Ġgesetzes":8517,"iiii":8518,"Ġitaliener":8519,"ainer":8520,"patriot":8521,"gier":8522,"Ã¨":8523,"Ø©":8524,"ĠðŁĳ":8525,"Ġdieter":8526,"Ġkalt":8527,"Ġkeller":8528,"Ġkunst":8529,"scheu":8530,"Ġfett":8531,"Ġverteilen":8532,"ehnung":8533,"Ġstop":8534,"umfrage":8535,"Ġgewohnt":8536,"Ã¤rt":8537,"afel":8538,"link":8539,"Ġkohl":8540,"Ġschulden":8541,"Ġteppich":8542,"spieler":8543,"Ã¤tzer":8544,"sprach":8545,"ĠðŁĴ":8546,"Ġversteckt":8547,"Ġbunten":8548,"Ġscreenshot":8549,"drehen":8550,"jungefreiheit":8551,"grenzung":8552,"Ġverbohr":8553,"hÃ¤user":8554,"sm":8555,"Ġsik":8556,"Ġwehrt":8557,"stchen":8558,"attent":8559,"beam":8560,"Ġunterbr":8561,"Ġmuhammad":8562,"Ġgewusst":8563,"Ġenergie":8564,"Ġnazisch":8565,"Ġgeschicht":8566,"Ã¤ude":8567,"Ġherbei":8568,"Ġruh":8569,"ĠmÃ¶chtegern":8570,"Ġgesellschaftlichen":8571,"Ġtolles":8572,"ĠÃ¼berlassen":8573,"Ġsolches":8574,"Ġerlauben":8575,"sorry":8576,"Ġbeobachten":8577,"Ġhundertt":8578,"Ġarbeitslosen":8579,"Ġvollidioten":8580,"Ġmarionetten":8581,"Ġsymbol":8582,"wÃ¤hler":8583,"61":8584,"724":8585,"hein":8586,"endlich":8587,"Ġbande":8588,"Ġannehmen":8589,"Ġausreichen":8590,"Ġsperren":8591,"spartei":8592,"Ġstets":8593,"sohn":8594,"Ġgemeldet":8595,"Ġzweit":8596,"Ġbetre":8597,"Ġdez":8598,"ĠhÃ¶chst":8599,"Ġmagida":8600,"Ġdefinition":8601,"grÃ¼ne":8602,"ĠhÃ¤ufig":8603,"Ġdurfte":8604,"Ġerscheinen":8605,"Ġanonymous":8606,"ĠpÃ¶bel":8607,"Ġlangweilig":8608,"Ġverharml":8609,"funktion":8610,"laut":8611,"Ġair":8612,"Ġgaz":8613,"Ġboko":8614,"schÃ¤nder":8615,"ĠfÃ¤hrt":8616,"Ġschach":8617,"...!!!":8618,"Ġbeendet":8619,"Ġumzu":8620,"Ġandern":8621,"Ġliebt":8622,"Ġendet":8623,"Ġweiteres":8624,"ĠgeschÃ¼tzt":8625,"Ġirr":8626,"ordnete":8627,"Ġbegonnen":8628,"Ġworan":8629,"Ġdritte":8630,"Ġreisen":8631,"Ġeinseitig":8632,"mosche":8633,"Ġorosz":8634,"Ġstandard":8635,"ĠermÃ¶":8636,"betrug":8637,"Ġverfolgten":8638,"Ġjetzigen":8639,"Ġbruder":8640,"Ġinvest":8641,"92":8642,"bay":8643,"hart":8644,"zwei":8645,"Ġgang":8646,"Ã¼cht":8647,"Ġkanzler":8648,"Ġfer":8649,"Ġpn":8650,"slose":8651,"rohen":8652,"ingungen":8653,"Ġislamisiert":8654,"Ġgegend":8655,"imim":8656,"ierenden":8657,"Ġjews":8658,"Ġgelungen":8659,"rÃ¤glich":8660,"Ġselbstbe":8661,"Ġbeschrieben":8662,"Ġgoo":8663,"Ġungeh":8664,"Ġrobert":8665,"Ġmarx":8666,"Ġ40000":8667,"ĠauÃŁerhalb":8668,"ction":8669,"Ġfeindbild":8670,"Ġableger":8671,"Ġunzufriedenheit":8672,"Ġvorsichtig":8673,"salaf":8674,"Ġleistung":8675,"Ġsoziall":8676,"gig":8677,"iber":8678,"nam":8679,"pn":8680,"za":8681,"Ġahm":8682,"itu":8683,"Ġschne":8684,"Ġverant":8685,"amp":8686,"Ġop":8687,"dete":8688,"rotz":8689,"Ġreaktionen":8690,"Ġsprecher":8691,"Ġfalle":8692,"Ġmohamed":8693,"rue":8694,"Ġbezogen":8695,"waffen":8696,"ĠmÃ¶glichst":8697,"Ġbezahlten":8698,"ifter":8699,"Ġkarikatur":8700,"wÃ¼rde":8701,"sidenten":8702,"Ġhamas":8703,"Ġkritische":8704,"Ġkonsequent":8705,"Ġintolerant":8706,"Ġvergewaltigt":8707,"Ġverfolgung":8708,"Ã¶ffnet":8709,"mÃ¤nner":8710,"Ġwikipedia":8711,"aender":8712,"Ġlacht":8713,"elten":8714,"Ġaufbauen":8715,"Ġraf":8716,"ĠĠĠĠĠĠ":8717,"Ġprob":8718,"ivid":8719,"gelesen":8720,"gelaufen":8721,"formen":8722,"Ġquer":8723,"lieben":8724,"Ġwichtigen":8725,"Ġschlimmste":8726,"Ġstufe":8727,"besser":8728,"ĠdrauÃŁen":8729,"âĢĿ,":8730,"Ġorig":8731,"ĠregelmÃ¤ÃŁig":8732,"ĠfÃ¤hig":8733,"google":8734,"juden":8735,"Ġoffizielle":8736,"ĠjÃ¼dischen":8737,"denklich":8738,"kontroll":8739,"Ġansatzweise":8740,"Ġbesatzungs":8741,"Ġwiederholt":8742,"Ġangeschaut":8743,"Ġidentifizieren":8744,"Ġsikhs":8745,"mass":8746,"massen":8747,"media":8748,"sau":8749,"seid":8750,"Ġeid":8751,"Ġhy":8752,"urage":8753,"ehin":8754,"Ġhaare":8755,"Ġras":8756,"ular":8757,"sprÃ¼che":8758,"ussion":8759,"Ġchem":8760,"ĠâĢ¢":8761,"Ġklaren":8762,"Ġteuer":8763,"losigkeit":8764,"skr":8765,"Ġausgewiesen":8766,"Ġkotzt":8767,"Ġauseinandersetzung":8768,"Ġjournalist":8769,"Ġzuwanderungs":8770,"Ġ35000":8771,"ĠpalÃ¤st":8772,"ðŁĺĦðŁĺĦ":8773,"Ġsandra":8774,"Ġeingeladen":8775,"Ġjoschka":8776,"300":8777,"Ġgh":8778,"ascht":8779,"anhÃ¤ngern":8780,"Ġschock":8781,"olt":8782,"Ġrefl":8783,"utter":8784,"Ġausgang":8785,"Ġ\"...":8786,"109":8787,"ĠglÃ¤ubige":8788,"Ġnachlesen":8789,"Ġgelehrt":8790,"rufen":8791,"Ġbewaff":8792,"Ġsek":8793,"Ġfeigl":8794,"gemeinschaft":8795,"eeee":8796,"Ġkatholische":8797,"ĠunverschÃ¤m":8798,"morde":8799,"amerikan":8800,"uploads":8801,"Ġgewarnt":8802,"Ġfollow":8803,"multikulti":8804,"cf":8805,"dl":8806,"kap":8807,"lach":8808,"lasst":8809,"ou":8810,"sz":8811,"vom":8812,"Ġdach":8813,"Ġmie":8814,"Ġhasst":8815,"Ã¤hren":8816,"Ã¤ne":8817,"Ġeinverstanden":8818,"eltern":8819,"denen":8820,"Ġunmut":8821,"Ġunbeg":8822,"Ġwarnt":8823,"Ġabu":8824,"Ġabgeben":8825,"Ġweich":8826,"Ġherab":8827,"Ġobama":8828,"Ġentsteht":8829,"Ġwahrlich":8830,"renzt":8831,"Ġermittelt":8832,"ecker":8833,",,,":8834,"Ġmanipulation":8835,"jÃ¤hrige":8836,"Ġgeflohen":8837,"Ġvolksentscheide":8838,"Ġmatthias":8839,"bul":8840,"Ġpra":8841,"Ġinhalte":8842,"Ġtust":8843,"ĠschÃ¤tze":8844,"ded":8845,"Ġanschau":8846,"ikation":8847,"Ġwarnen":8848,"108":8849,"ĠÃ¼bersch":8850,"Ġect":8851,"Ġwahres":8852,"Ġhabs":8853,"jekt":8854,"Ã¼chtet":8855,"Ġarabisch":8856,"Ġkostenlos":8857,"Ġverschwiegen":8858,"Ġintelligent":8859,"Ġverpiss":8860,"________________________________":8861,"Ġbereicherung":8862,"ĠverÃ¤nderung":8863,"ĠgÃ¼nther":8864,"Ġsteuerhinterziehung":8865,"brechen":8866,"grat":8867,"keule":8868,"trau":8869,"Ġwagen":8870,"Ġwetter":8871,"Ġgrab":8872,"Ġpage":8873,"Ġright":8874,"Ġjagen":8875,"ums":8876,"Ġnachgedacht":8877,"Ġgewinn":8878,"ĠfÃ¼hl":8879,"Ġeigentliche":8880,"eistert":8881,"Ġzieh":8882,"Ġseptember":8883,"Ġeig":8884,"Ġgeistige":8885,"Ġpegada":8886,"Ġbefinden":8887,"zusagen":8888,"ĠverprÃ¼":8889,"Ġfrohes":8890,"wissenschaft":8891,"Ġkommunisten":8892,"Ġhunderte":8893,"ĠeinfÃ¼hren":8894,"Ġtschech":8895,"\")":8896,"pÃ¶":8897,"Ġ********":8898,"ĠbÃ¼r":8899,"Ġbrechen":8900,"Ġkoch":8901,"Ġunder":8902,"ĠverÃ¤ndert":8903,"rott":8904,"Ġergibt":8905,"rast":8906,"Ġgeschen":8907,"Ġimam":8908,"Ġpolem":8909,"Ġspreche":8910,"Ġlandtag":8911,"Ġmopo":8912,"Ġherrlich":8913,"Ġmahnw":8914,"Ġpressekonferenz":8915,"Ġjose":8916,"Ġunterschiede":8917,"euerte":8918,"Ġheutige":8919,"lub":8920,"schnit":8921,"Ġmerkst":8922,"Ġstadtteile":8923,"sansprache":8924,"iathek":8925,"ĠÃ¤gypten":8926,"Ġohnehin":8927,"udo":8928,"Ġuk":8929,"Ġbann":8930,"Ġbitten":8931,"teuf":8932,"euchten":8933,"Ġverachten":8934,"isierte":8935,"Ġother":8936,"ĠmitgefÃ¼hl":8937,"Ġbeeind":8938,"ffington":8939,"Ġway":8940,"Ġweitergehen":8941,"ĠmÃ¶ge":8942,"Ġirgendjem":8943,"Ġradikaler":8944,"Ġvermute":8945,"Ġvertrag":8946,"Ġvereinigung":8947,"Ġvernunft":8948,"Ġmitleid":8949,"Ġ25000":8950,"Ġentscheidungen":8951,"ĠgÃ¼te":8952,"Ġtelef":8953,"Ġralf":8954,"ĠgewÃ¤hlten":8955,"Ġvieh":8956,"Ġparadies":8957,"Ġbeschimpfungen":8958,".[":8959,"kulti":8960,"videos":8961,"Ġmindest":8962,"Ġback":8963,"ĠfÃ¶rder":8964,"Ġaufschrei":8965,"Ġerheben":8966,"Ġspann":8967,"Ġabgew":8968,"Ġvielfalt":8969,"Ġgenossen":8970,"Ġangaben":8971,"Ġwurst":8972,"Ã¤ufig":8973,"Ġkopp":8974,"Ġguckt":8975,"Ġzwecke":8976,"ĠauslÃ¤nderanteil":8977,"Ġmai":8978,"Ġtechn":8979,"ĠgegrÃ¼ndet":8980,"Ġmillion":8981,"Ġangek":8982,"Ġurspr":8983,"Ġdoes":8984,"Ġdoppelt":8985,"Ġanstren":8986,"Ġkritiker":8987,"Ġeinwanderungsland":8988,"ĠprÃ¤sident":8989,"gefÃ¤llt":8990,"Ġmultikulture":8991,"Ġunbequem":8992,"Ġtaliban":8993,"Ġinstrumentalisiert":8994,"Ġordnungs":8995,"Ġgemeinde":8996,"Ġego":8997,"Ġphrasen":8998,"-/":8999,"zeigen":9000,"eiern":9001,"Ġwesen":9002,"Ġhuren":9003,"Ġbaum":9004,"Ġbitter":9005,"rev":9006,"iern":9007,"ierbar":9008,"Ġsparen":9009,"iene":9010,"hread":9011,"!!!!!!!!!":9012,"Ġlebensl":9013,"Ġregionen":9014,"Ġsyr":9015,"ĠĠĠĠĠĠĠĠĠĠĠĠĠĠĠĠĠĠĠĠĠĠĠĠ":9016,"ĠgestÃ¶rt":9017,"ĠursprÃ¼":9018,"Ġaufgefordert":9019,"Ġbefasst":9020,"Ġgraf":9021,"Ġentfernen":9022,"Ġeddie":9023,"Ġverwirr":9024,"ĠkrÃ¤fte":9025,"Ġbirne":9026,"Ġhija":9027,"Ġgeburt":9028,"Ġplakate":9029,"Ġbekanntlich":9030,",-":9031,"erken":9032,"Ġnimmer":9033,"Ġpie":9034,"arrer":9035,"irbt":9036,"Ġsieh":9037,"Ġwerk":9038,"ðŁĺĨ":9039,"dieses":9040,"Ġdirk":9041,"Ġstaatlichen":9042,"Ġbestand":9043,"essel":9044,"Ġmerkels":9045,"Ġparano":9046,"day":9047,"ĠÃ¼ben":9048,"bels":9049,"fahrer":9050,"Ġeis":9051,"Ġerzogen":9052,"euerten":9053,"abla":9054,"Ġherzlichen":9055,"Ġsarah":9056,"Ġgewaltbereiten":9057,"Ã¼ssig":9058,"wirtschafts":9059,"Ġkulturellen":9060,"Ġwolfgang":9061,"ĠverÃ¶ffentlichen":9062,"Ġgelegenheit":9063,"opf":9064,"wesen":9065,"Ð¾":9066,"Ġgreift":9067,"Ġuwe":9068,"ĠkÃ¤":9069,"ĠkÃ¼nd":9070,"Ġfau":9071,"Ġzeich":9072,"Ġschenken":9073,"achter":9074,"Ġverhaftet":9075,"decken":9076,"Ġerinner":9077,"cks":9078,"error":9079,"Ġmay":9080,"ĠðŁĺ¡":9081,"gebieten":9082,"Ġjudentum":9083,"Ġgabs":9084,"Ġakbar":9085,"Ġ''":9086,"Ġschwarzer":9087,"zusehen":9088,"ĠausgedrÃ¼ckt":9089,"Ġ?????":9090,"node":9091,"Ġpatriotische":9092,"Ġbrav":9093,"Ġhautfarbe":9094,"Ġangemeldet":9095,"Ġkapitalismus":9096,"Ġpapst":9097,"Ġzuschauer":9098,"druck":9099,"migration":9100,"tor":9101,"anony":9102,"Ġvis":9103,"Ġport":9104,"Ġzugang":9105,"lichkeiten":9106,"Ġeskal":9107,"Ġunkontroll":9108,"Ġarzt":9109,"Ġangriffe":9110,"Ġamts":9111,"Ã¤ngern":9112,"Ġhinweg":9113,"Ġwirkung":9114,"obby":9115,"Ġachja":9116,"Ã¤nomen":9117,"Ġgetrieben":9118,"Ġvertrieben":9119,"Ġemot":9120,"fassungs":9121,"Ġsorgt":9122,"Ġadmin":9123,"Ġheuchelei":9124,"Ġhasser":9125,"hamburg":9126,"onny":9127,"studie":9128,"Ġhumor":9129,"Ġenglisch":9130,"Ġnimmst":9131,"jÃ¤hrigen":9132,"Ġdiskriminiert":9133,"ĠgefÃ¤ngnis":9134,"gg":9135,"namen":9136,"oper":9137,"tuerken":9138,"ual":9139,"Ġnon":9140,"anschl":9141,"Ġpas":9142,"altschaft":9143,"Ġtenden":9144,"Ã¼rzt":9145,"isiko":9146,"Ġansprechen":9147,"Ġanhand":9148,"Ġran":9149,"Ġstammen":9150,"Ġaussen":9151,"ils":9152,"Ġumgesetzt":9153,"sphot":9154,"Ġunterm":9155,"verfahren":9156,"sofern":9157,"treffen":9158,"Ġpacken":9159,"Ġrassistischen":9160,"files":9161,"strafen":9162,"Ġpostet":9163,"Ġgemeinsame":9164,"Ġzitate":9165,"views":9166,"Ġkai":9167,"Ġpeace":9168,"ĠstraftÃ¤ter":9169,"Ġerscheint":9170,"Ġjugendlichen":9171,"Ġvolksentscheid":9172,"Ġaccount":9173,"ĠbenÃ¶tigt":9174,"Ġunterbringung":9175,"sphotos":9176,"dw":9177,"hÃ¶rt":9178,"ui":9179,"zc":9180,"Ġwette":9181,"Ġband":9182,"Ġfeigen":9183,"ĠzÃ¤hl":9184,"Ġwirken":9185,"Ġerschie":9186,"Ġunterstellen":9187,"Ġgelder":9188,"Ġerstaun":9189,"Ġbrille":9190,"Ġfreies":9191,"Ġkram":9192,"Ġbeschissen":9193,"drich":9194,"mantel":9195,"??????":9196,"Ġmigrant":9197,"Ġknie":9198,"ĠtatsÃ¤ch":9199,"Ġinformation":9200,"Ġermor":9201,"ĠverschÃ¤r":9202,"Ġverblende":9203,"Ġausgeschlossen":9204,"Ġmeckern":9205,"Ġdebatte":9206,"campaign":9207,"dikt":9208,"jagt":9209,"ves":9210,"ĠÃ":9211,"enchen":9212,"ĠnÃ¼tzt":9213,"Ġhauen":9214,"isation":9215,"Ġaufzunehmen":9216,"send":9217,"Ġwovor":9218,"reiber":9219,"uliert":9220,"Ġwohle":9221,"ĠdiÃ¤ten":9222,"aterial":9223,"Ġkurze":9224,"Ġhilfl":9225,"ĠmÃ¤nnern":9226,"Ġlautet":9227,"Ġsympathisanten":9228,"ĠverfÃ¼g":9229,"Ġalexander":9230,"Ġgruppierung":9231,"bro":9232,"ln":9233,"vater":9234,"xel":9235,"ĠgÃ¶":9236,"ĠgÃ¶t":9237,"Ġschiss":9238,"iner":9239,"Ġerhe":9240,"Ġstal":9241,"Ġselb":9242,"Ġteilzunehmen":9243,"Ġtode":9244,"Ġgedanke":9245,"Ġverkehrt":9246,"Ġkarten":9247,"ĠpersÃ¶nlichen":9248,"Ġkatastrop":9249,"Ġprofession":9250,"ĠÃ¤uÃŁert":9251,"asylbewerber":9252,"Ġbildungsfern":9253,"Ġletztes":9254,"Ġverbohrter":9255,"bank":9256,"mart":9257,"rÃ¶":9258,"Ġdor":9259,"ĠnÃ¼r":9260,"ted":9261,"Ġzeilen":9262,"Ġpubl":9263,"ari":9264,"eulen":9265,"Ġschatten":9266,"andt":9267,"Ġunert":9268,"Ġaufstehen":9269,"Ġergo":9270,"Ġrene":9271,"Ġbeweist":9272,"Ġislamisches":9273,"ĠÃ¼bers":9274,"Ġpromin":9275,"ebene":9276,"vertreter":9277,"Ġmust":9278,"adem":9279,"ĠmÃ¼t":9280,"Ġetliche":9281,"zens":9282,"que":9283,"ĠbewuÃŁt":9284,"angeb":9285,"peten":9286,"gebungen":9287,"schieben":9288,"Ġgesellschafts":9289,"ĠgezÃ¤hlt":9290,"vollen":9291,"Ġlove":9292,"Ġwaffenliefer":9293,"Ġtrennen":9294,"ĠstÃ¤rke":9295,"Ġfanatismus":9296,"wahrheit":9297,"Ġverbrannt":9298,"Ġsoooo":9299,"Ġbunte":9300,"mÃ¤rkte":9301,"Ġtotschlag":9302,"zusprechen":9303,"kurs":9304,"ram":9305,"wann":9306,"woll":9307,"Ġsitz":9308,"Ġmasch":9309,"Ġfans":9310,"Ġgesteckt":9311,"1020":9312,"248":9313,"Ġgender":9314,"Ġeigener":9315,"Ġhere":9316,"Ġherkommen":9317,"wanderer":9318,"Ġnov":9319,"Ġbotschaft":9320,"Ġindivid":9321,"Ġheulen":9322,"ĠhauptsÃ¤chlich":9323,"ĠverdÃ¤cht":9324,"Ġonkel":9325,"Ġvereint":9326,"ĠglaubwÃ¼rd":9327,"Ġbombe":9328,"ĠfÃ¤lle":9329,"Ġblockieren":9330,"iffer":9331,"Ġkatholischen":9332,"Ġbarbar":9333,"ĠspaziergÃ¤nge":9334,"ĠschmeiÃŁen":9335,"Ġrhein":9336,"Ġlinksextremisten":9337,"Ġgeheimd":9338,"fang":9339,"fÃ¤nger":9340,"kter":9341,"wid":9342,"Ġhaup":9343,"Ã¤gt":9344,"Ġeinger":9345,"...:":9346,"ehl":9347,"Ġstress":9348,"Ġbequem":9349,"143":9350,"altungs":9351,"Ġmuslimischer":9352,"Ġgerichtet":9353,"telsmann":9354,"qualifiz":9355,"ĠgroÃŁartig":9356,"Ġzweif":9357,"feinde":9358,"Ġerwarte":9359,"ĠgekÃ¤mpft":9360,"Ġsteinen":9361,"dummung":9362,"Ġtranspar":9363,"ĠsouverÃ¤nitÃ¤t":9364,"Ġkarriere":9365,"Ġstreng":9366,"Ġdulden":9367,"Ġangreifer":9368,"bart":9369,"dn":9370,"nun":9371,"uter":9372,"zs":9373,"Ðµ":9374,"Ġwehe":9375,"eins":9376,"Ġkreis":9377,"Ġkhaled":9378,"Ġfel":9379,"atisiert":9380,"elig":9381,"Ġunre":9382,"Ġomg":9383,"Ġhatt":9384,"ĠspÃ¼ren":9385,"verst":9386,"Ġgewiss":9387,"ĠamÃ¼s":9388,"Ġdurchlesen":9389,"Ġgeschle":9390,"ĠgemÃ¼":9391,"Ġbissl":9392,"afia":9393,"Ġbetrug":9394,"beitrag":9395,"Ġungef":9396,"Ġrollen":9397,"Ġfreundes":9398,"Ġresult":9399,"Ġstreit":9400,"Ġhelmut":9401,"Ġhilfs":9402,"Ġindien":9403,"Ġindustrie":9404,"Ġspezial":9405,"Ġstudieren":9406,"Ġunbek":9407,"kommentar":9408,"ĠfranzÃ¶sischen":9409,"ymne":9410,"Ġversprochen":9411,"Ġpredigen":9412,"Ġdicke":9413,"ĠzukÃ¼nftig":9414,"ðŁĴ©ðŁĴ©":9415,"bir":9416,"bra":9417,"irekt":9418,"laus":9419,"nieder":9420,"Ġbietet":9421,"ĠvÃ¶lk":9422,"llah":9423,"Ã¤chte":9424,"Ġlib":9425,"Ġtue":9426,"ĠunzÃ¤hl":9427,"ĠmitbÃ¼rgern":9428,"ĠstÃ¶r":9429,"ienste":9430,"035":9431,"haen":9432,"Ġgibst":9433,"Ã¤rkt":9434,"gelegt":9435,"aufruf":9436,"Ġkrisen":9437,"detail":9438,"dium":9439,"Ġfreundschaft":9440,"Ġkompro":9441,"ĠÃ¤h":9442,"Ġkurs":9443,"Ġunterschriften":9444,"Ġabschaffung":9445,"rechern":9446,"ĠkreuzzÃ¼ge":9447,"Ġplaneten":9448,"Ġbauern":9449,"Ġarroganz":9450,"Ġregierenden":9451,"ĠÃ¤ltere":9452,"ĠtÃ¶tung":9453,"ĠursprÃ¼ng":9454,"sman":9455,"Ġsens":9456,"Ġmv":9457,"aner":9458,"Ġviv":9459,"Ã¶hnt":9460,"ettern":9461,"Ġhad":9462,"Ġerkl":9463,"Ġallgemeine":9464,"Ġaussprechen":9465,"Ġgesunden":9466,"Ġsteph":9467,"Ġblau":9468,"artoff":9469,"Ġgelacht":9470,"Ġmoslemischen":9471,"Ġbezir":9472,"Ġlinkes":9473,"ĠðŁĺľ":9474,"Ġintegrierten":9475,"kow":9476,"stellte":9477,"ĠanfÃ¤ngen":9478,"Ġangepasst":9479,"201501":9480,"bewusst":9481,"Ġinstitut":9482,"karikatur":9483,"ĠangehÃ¶ren":9484,"Ġgastarbeiter":9485,"Ġchristians":9486,"Ġenglish":9487,"Ġprovokation":9488,"Ġtermin":9489,"tuerk":9490,"Ġgetrennt":9491,"dad":9492,"hauen":9493,"oert":9494,"ĠdÃ¤n":9495,"Ġasi":9496,"Ġwal":9497,"einwanderung":9498,"Ġbauch":9499,"Ġeinfallen":9500,"Ġtagt":9501,"Ġschie":9502,"utze":9503,"Ġausnahme":9504,"ĠausfÃ¼hr":9505,"147":9506,"Ġumbringen":9507,"achts":9508,"Ġherunter":9509,"Ġherbert":9510,"Ġbelegt":9511,"direct":9512,"Ġmarco":9513,"...........":9514,"ðŁĳįðŁĳįðŁĳį":9515,"ĠwÃ¼nscht":9516,"Ġabscheu":9517,"Ġweihnachtsl":9518,"Ġmassaker":9519,"Ġbrutal":9520,"Ġordner":9521,"Ġnachvollzieh":9522,"Ġverleumd":9523,"ĠfleiÃŁig":9524,"Ġpseudo":9525,"aw":9526,"dy":9527,"wenden":9528,"zdf":9529,"Ġsem":9530,"Ġbaden":9531,"Ġkev":9532,"schwar":9533,"Ġzehn":9534,"Ġlot":9535,"Ġpen":9536,"Ġgefa":9537,"ĠschÃ¼tzt":9538,"eitige":9539,"Ġbislang":9540,"Ġnews":9541,"Ġirgendetwas":9542,"samad":9543,"Ġbleibe":9544,"ica":9545,"ostet":9546,"***":9547,"Ġwortwahl":9548,"Ġkrimineller":9549,"Ġhalbe":9550,"Ġschweren":9551,"Ġnationalstolz":9552,"Ġteilnehmerzahl":9553,"Ġakzeptanz":9554,"ĠbrÃ¼llen":9555,"Ġbemerken":9556,"Ġviertel":9557,"ĠjÃ¼dische":9558,"Ġ100000":9559,"ĠverblÃ¶det":9560,"Ġopposition":9561,"ĠausÃ¼ben":9562,"Ġdeckmantel":9563,"Ġvolksabstimmung":9564,"big":9565,"kÃ¼r":9566,"ott":9567,"zte":9568,"Ġvgl":9569,"Ġfas":9570,"Ġgequ":9571,"Ġtanzen":9572,"rogen":9573,"Ġansprache":9574,"Ġero":9575,"enne":9576,"ckeln":9577,"142":9578,"Ġvorwurf":9579,"come":9580,"Ġschwanz":9581,"Ġauslegung":9582,"Ġkonzent":9583,"linken":9584,"such":9585,"Ġsyn":9586,"Ġasylrecht":9587,"ascha":9588,"Ġvermeiden":9589,"licherweise":9590,"Ġangesichts":9591,"holt":9592,"Ġverteidigt":9593,"Ġbraunschwei":9594,"Ġextremen":9595,"brÃ¼der":9596,"Ġbewahren":9597,"bleiben":9598,"Ġbehandeln":9599,"ĠnÃ¼rn":9600,"leu":9601,"lol":9602,"qa":9603,"zlich":9604,"zimmer":9605,"Ð°":9606,"Ġdokument":9607,"Ġwol":9608,"Ġfing":9609,"Ġlangen":9610,"Ġple":9611,"Ã¶ch":9612,"Ġbec":9613,"Ġbestens":9614,"Ġauswirk":9615,"Ġfran":9616,"ize":9617,"Ã¤rten":9618,"Ġgerechnet":9619,"Ġselbstmord":9620,"ĠgefÃ¤l":9621,"sure":9622,"ĠfÃ¼ÃŁe":9623,"ĠbedÃ¼r":9624,"ĠqualitÃ¤t":9625,"aster":9626,"nichts":9627,"stellten":9628,"Ġnow":9629,"bilden":9630,"Ġanzupassen":9631,"Ġkerzen":9632,"Ġdauerhaft":9633,"Ã¼ssel":9634,"Ġshould":9635,"Ġarrogant":9636,"ĠgehÃ¶rst":9637,"Ġzeugt":9638,"ĠÃ¼berrascht":9639,"Ġschlichtweg":9640,"Ġwessi":9641,"ľĮï¸ı":9642,"reitungen":9643,"ĠungefÃ¤hr":9644,"asten":9645,"comm":9646,"kÃ¼n":9647,"mon":9648,"Ġwetten":9649,"Ġbitt":9650,"Ã¤nen":9651,"Ġleh":9652,"auert":9653,"ĠschÃ¤d":9654,"Ã¶cher":9655,"Ġverteuf":9656,"Ġrath":9657,"Ġdemnach":9658,"uni":9659,"Ġwould":9660,"Ġislamkrit":9661,"ulation":9662,"ĠgewÃ¤hr":9663,"Ġberg":9664,"Ġdurchs":9665,"teile":9666,"aufstand":9667,"Ġwahrschein":9668,"Ġglaubenskrie":9669,"Ġgeradezu":9670,"Ġdiskredit":9671,"deshalb":9672,"Ġkurzer":9673,"Ġ15000":9674,"Ġmelanie":9675,"Ġherkunftsl":9676,"Ġdiffamierung":9677,"Ġentscheidet":9678,"sehaut":9679,"ĠspaziergÃ¤ngen":9680,"illerbe":9681,"glauben":9682,"Ġhunger":9683,"Ġrechtspopul":9684,"Ġkevin":9685,")...":9686,"ficker":9687,"hy":9688,"ssten":9689,"Ġsingt":9690,"ĠsÃ¼nden":9691,"Ġzehnt":9692,"atischen":9693,"Ġgesock":9694,"Ġspont":9695,"Ġfahrt":9696,"kommun":9697,"Ġentsp":9698,"ĠgefÃ¤llig":9699,"ĠbelÃ¤st":9700,"same":9701,"Ġgebiet":9702,"Ġgetragen":9703,"Ġziegen":9704,"zieher":9705,"Ġideen":9706,"Ġstarten":9707,"Ġfeier":9708,"Ġbezeichnung":9709,"volle":9710,"Ã¤tzung":9711,"Ġbusch":9712,"naja":9713,"Ġspekt":9714,"Ġbemerkt":9715,"ĠÂ»":9716,"herrschaft":9717,"Ġinhaltlich":9718,"bomben":9719,"Ġbehauptungen":9720,"Ġjeweiligen":9721,"Ġvorbereitet":9722,"ĠabhÃ¤ngig":9723,"Ġobrigkeit":9724,"gÃ¤nge":9725,"hitler":9726,"son":9727,"uen":9728,"Ġmath":9729,"eines":9730,"Ġkm":9731,"Ġkreuze":9732,"atscht":9733,"Ġtime":9734,"Ġschi":9735,"Ã¶ÃŁt":9736,"uther":9737,"Ġhats":9738,"Ġwomit":9739,"Ġhotel":9740,"teils":9741,"Ġdresdener":9742,"Ġwahrnehm":9743,"mannheimer":9744,"Ġstaatsschutz":9745,"Ġwichtigste":9746,"Ġhamed":9747,"Ġfolgenden":9748,"Ġverwenden":9749,"Ġentwickeln":9750,"beteil":9751,"ĠgrÃ¶ÃŁere":9752,"sdap":9753,"Ġfarbe":9754,"ĠgeschwÃ¤tz":9755,"bcr":9756,"ĠhÃ¤user":9757,"ĠÃ¼berwach":9758,"ĠsÃ¤kul":9759,"Ġlobbyisten":9760,"ĠstraffÃ¤llig":9761,"integration":9762,"levant":9763,"Ġabsurd":9764,"Ġhahahahahahahahahahaha":9765,"!âĢľ":9766,"600":9767,"jÃ¼d":9768,"king":9769,"oÃŁ":9770,"Ġwelle":9771,"stre":9772,"Ġkrei":9773,"orient":9774,"elst":9775,"128":9776,"Ġraten":9777,"Ġglatt":9778,"Ġproteste":9779,"Ġbertelsmann":9780,"Ġstaatsvertrag":9781,"ĠterroranschlÃ¤ge":9782,"Ġneed":9783,"Ġsalafist":9784,"ĠmÃ¤nn":9785,"Ġkomplette":9786,"berliner":9787,"rÃ¤nken":9788,"asylanten":9789,"weiteren":9790,"wahlen":9791,"backen":9792,"ĠgewalttÃ¤tig":9793,"ĠfÃ¶rdern":9794,"ĠbevÃ¶lkerungsanteil":9795,"abe":9796,"kaufen":9797,"lauf":9798,"laden":9799,"por":9800,"pert":9801,"qq":9802,"scontent":9803,"vi":9804,"win":9805,"yen":9806,"enter":9807,"eihen":9808,"Ġwat":9809,"Ġhup":9810,"ĠschieÃŁen":9811,"ders":9812,"Ġverun":9813,"ehlt":9814,"Ġgesungen":9815,"ulfkotte":9816,"Ã¶rde":9817,"Ġgewachsen":9818,"beispiel":9819,"Ġchan":9820,"Ġstaatliche":9821,"Ġkriechen":9822,"Ġbescheuert":9823,"Ġruhr":9824,"swahl":9825,"Ġqualifiz":9826,"Ġgeldstrafe":9827,"Ġ75":9828,"Ġschwere":9829,"ĠunterstÃ¼tze":9830,"staats":9831,"ĠØ¨":9832,"Ġasylbewerbern":9833,"ĠvÃ¶lkermord":9834,"................................":9835,"bahnhof":9836,"Ġberechtigt":9837,"glaubt":9838,"Ġlaufe":9839,"missbrauch":9840,"ĠaufgeklÃ¤rt":9841,"jaehrige":9842,"'m":9843,"bem":9844,"bun":9845,"zburg":9846,"Ġ|":9847,"Ġseg":9848,"Ġwhen":9849,"Ġment":9850,"Ġbach":9851,"Ġbul":9852,"Ġbsp":9853,"Ġkill":9854,"Ġped":9855,"Ġpenner":9856,"ata":9857,"ĠschÃ¤r":9858,"Ġokt":9859,"...,":9860,"Ġrennt":9861,"Ġstreiten":9862,"ktrin":9863,"Ġspar":9864,"verfolg":9865,"Ġcre":9866,"Ġliefern":9867,"Ġleichter":9868,"izont":9869,"rufe":9870,"Ġwille":9871,"Ġthor":9872,"Ġkindheit":9873,"fle":9874,"Ġsug":9875,"Ġregion":9876,"Ġinterviews":9877,"jahre":9878,"Ġzwingt":9879,"ĠbeschÃ¤men":9880,"alsund":9881,"schweine":9882,"Ġsystems":9883,"ĠdankeschÃ¶n":9884,"Ġpostill":9885,"Ġ2007":9886,"ĠunglaubwÃ¼rdig":9887,"ĠangehÃ¶rt":9888,"terroristen":9889,"ĠphÃ¤nomen":9890,"propaganda":9891,"Ġkontrollieren":9892,"zerne":9893,"Ġlinksradikalen":9894,"Ġnico":9895,"Ġtexte":9896,"fristig":9897,"fdp":9898,"lm":9899,"lein":9900,"oug":9901,"eint":9902,"Ã¼ler":9903,"Ġlok":9904,"Ġtaz":9905,"Ġjihad":9906,"Ġstream":9907,"ĠpegidaanhÃ¤nger":9908,"anzer":9909,"ĠÃ¼berprÃ¼":9910,"Ġabdel":9911,"Ġ(!)":9912,"Ã¶rdert":9913,"klage":9914,"Ġverbal":9915,"Ġiron":9916,"Ġfriedrich":9917,"polen":9918,"Ġvolle":9919,"Ġpositive":9920,"Ġvermitteln":9921,"skultur":9922,"Ġhilfrei":9923,"Ġmachte":9924,"bÃ¼rgermeister":9925,"Ġreichstag":9926,"ĠwÃ¼ste":9927,"Ġpfarrer":9928,"Ġentsprechende":9929,"ĠsÃ¼ÃŁ":9930,"Ġdienstag":9931,"Ġbetitelt":9932,"ĠarbeitsplÃ¤tze":9933,"Ġfortschritt":9934,"frankreich":9935,"Ġgoogeln":9936,"Ġerstaunlich":9937,"kka":9938,"rein":9939,"Ä±":9940,"Ġneid":9941,"Ġlenken":9942,"Ġpfer":9943,"Ġzusehen":9944,"elm":9945,"Ã¶hnen":9946,"denke":9947,"Ġverwer":9948,"Ġoma":9949,"Ġrassen":9950,"ftigen":9951,"Ġnachge":9952,"Ġgruss":9953,"Ġrechtsextremen":9954,"ĠschluÃŁ":9955,"Ġcle":9956,"ruppe":9957,"Ġhinweisen":9958,"flug":9959,"barer":9960,"Ġneo":9961,"Ġbegriffe":9962,"Ġdemokratisches":9963,"dio":9964,"Ġsinnlose":9965,"ĠkÃ¶nntest":9966,"Ġspringer":9967,"Ġkriminal":9968,"Ġwiderspruch":9969,"ausend":9970,"Ġwirtschaftliche":9971,"Ġagress":9972,"Ġwochenende":9973,"Ġharml":9974,"ĠbefÃ¼rchte":9975,"Ġerkenntnis":9976,"clans":9977,"Ã¤umt":9978,"freundlich":9979,"Ġgebrauch":9980,"itÃ¤ren":9981,"statistik":9982,"Ġverdreht":9983,"Ġverdrehen":9984,"ĠÃ¼bertrieben":9985,"Ġlibanes":9986,"ĠwÃ¶rter":9987,"Ġulfkotte":9988,"ĠandersglÃ¤ubige":9989,"ĠgÃ¤nsehaut":9990,"Ġvernichten":9991,"ĠthÃ¼ringen":9992,"Ġghett":9993,",...":9994,"han":9995,"rd":9996,"ÛĮ":9997,"Ġsamt":9998,"Ġbz":9999,"Ġvan":10000,"Ġpres":10001,"gener":10002,"igem":10003,"andal":10004,"Ġunion":10005,"Ġstau":10006,"Ġbeachten":10007,"spart":10008,"Ġmuslima":10009,"Ġchange":10010,"Ġflor":10011,"Ġbrun":10012,"Ġbelieb":10013,"Ġmain":10014,"Ġzusammenhalt":10015,"ĠstrÃ¶m":10016,"Ø§Ø±":10017,"muenchen":10018,"Ġbefassen":10019,"Ġablehnung":10020,"fertigt":10021,"Ġdunkl":10022,"Ġehemalige":10023,"Ġoliver":10024,"Ġsanktionen":10025,"ĠkÃ¶rperverl":10026,"Ġtodesstrafe":10027,"Ġabschneiden":10028,"moschee":10029,"bas":10030,"Ġsn":10031,"Ġsunn":10032,"Ġeinm":10033,"url":10034,"andert":10035,"dest":10036,"sens":10037,"Ġredu":10038,"Ġvorhin":10039,"Ġvorwerfen":10040,"Ġabstand":10041,"ĠgenieÃŁen":10042,"iener":10043,"Ġklass":10044,"haber":10045,"pps":10046,"ranken":10047,"antwortet":10048,"Ġbeschuld":10049,"Ġbegreift":10050,"Ġchristoph":10051,"folger":10052,"Ġtraurige":10053,"ĠzurÃ¼ckge":10054,"ĠÃ¤hm":10055,"Ġnormaler":10056,"Ġbefrag":10057,"interview":10058,"Ġkreuzberg":10059,"verrat":10060,"gross":10061,"Ġbuddhists":10062,"ĠhÃ¶chste":10063,"Ġungebildet":10064,"Ġdoppelmoral":10065,"foto":10066,"Ġoperation":10067,"Ġverantworten":10068,"Ġplease":10069,"Ġbecause":10070,"hungen":10071,"ucher":10072,"chner":10073,"iegt":10074,"Ġwg":10075,"ĠnÃ¶t":10076,"Ġmitnehmen":10077,"deck":10078,"Ġmanuel":10079,"Ġsollt":10080,"errand":10081,"Ġunterstellt":10082,"ðŁĺł":10083,"Ġisses":10084,"Ġheissen":10085,"ahm":10086,"Ġklartext":10087,"Ġ........":10088,"hals":10089,"2011":10090,"Ġzeig":10091,"............":10092,"Ġvergesst":10093,"Ġunterschiedlich":10094,"Ġrestlichen":10095,"Ġfolgende":10096,"Ġinneren":10097,"Ġjobs":10098,"Ġdauern":10099,"ĠlÃ¶sungen":10100,"mÃ¶gen":10101,"Ġnegative":10102,"Ġsonntags":10103,"Ġrundfunk":10104,"Ġpotential":10105,"Ġletztlich":10106,"Ġskandal":10107,"richen":10108,"zutreten":10109,"Ġfernseher":10110,"Ġtheaterplatz":10111,"sproblem":10112,"Ġhierzulande":10113,"ĠØ§ÙĦÙħØ³ÙĦÙħ":10114,"Ġtelefon":10115,"ĠverfÃ¼gbar":10116,"Ġwaffenlieferungen":10117,"/.../":10118,"bad":10119,"dom":10120,"fug":10121,"leg":10122,"yse":10123,"iehen":10124,"Ġmat":10125,"Ġns":10126,"esagt":10127,"Ġhome":10128,"Ġzahn":10129,"Ġlanger":10130,"Ġsome":10131,"Ġsteigt":10132,"verurteil":10133,"verkehr":10134,"Ġangehen":10135,"Ġherein":10136,"Ġbeleg":10137,"astet":10138,"Ġmarok":10139,"Ġerneut":10140,"Ġsozialschmarotzer":10141,"Ġinformiere":10142,"Ġverschwindet":10143,"Ġkurzem":10144,"Ġprivaten":10145,"Ġversammlung":10146,"Ġrandale":10147,"wurst":10148,"Ġinnenstadt":10149,"zÃ¼glich":10150,"ĠanschlieÃŁend":10151,"afrikan":10152,"mitglied":10153,"Ġchinesen":10154,"Ġtellerrand":10155,"rus":10156,"rtl":10157,"uckt":10158,"Ġss":10159,"Ġaxel":10160,"einmal":10161,"Ġkauft":10162,"aunt":10163,"126":10164,"ehlen":10165,"agten":10166,"Ġstil":10167,"Ġstirbt":10168,"199":10169,"ischung":10170,"Ġjammern":10171,"reicht":10172,"ĠÃ¼bernommen":10173,"iertes":10174,"sperren":10175,"Ġbesitz":10176,"Ġgewinnt":10177,"Ġgeschmack":10178,"social":10179,"Ġherrschaften":10180,"Ġfriede":10181,"Ġnever":10182,"orgung":10183,"Ġbeschwert":10184,"Ġirgendeine":10185,"icero":10186,"fÃ¼ll":10187,"Ġpolitisches":10188,"Ġsprachen":10189,"ĠabendlÃ¤nd":10190,"Ġheimlich":10191,"Ġsofern":10192,"Ġposte":10193,"ĠgefÃ¤hrdet":10194,"Ġmeldet":10195,"Ġamerikanischen":10196,"ĠwÃ¤rst":10197,"groups":10198,"Ġwandern":10199,"wahrscheinlich":10200,"ĠtrÃ¤umen":10201,"kirchen":10202,"Ġwessis":10203,"Ġausschreitungen":10204,"Ġethnische":10205,"Ġfurchtbar":10206,"ĠunverschÃ¤mt":10207,"Ġirgendjemand":10208,"hÃ¤l":10209,"live":10210,"setzungen":10211,"use":10212,"Ġ48":10213,"Ġmeter":10214,"Ġbogida":10215,"Ġkacke":10216,"Ġlehre":10217,"emark":10218,"Ġverrat":10219,"Ġbedenkt":10220,"ftige":10221,"Ġvorsitzen":10222,"Ġweisen":10223,"Ġbesucht":10224,"Ġschlacht":10225,"richtig":10226,"Ġkinderg":10227,"werfer":10228,"Ġnazifrei":10229,"ĠdÃ¼rften":10230,"open":10231,"gehend":10232,"Ġabsagen":10233,"Ġfalscher":10234,"Ġfrankfurter":10235,"Ġlerne":10236,"Ġargumentiert":10237,"Ġgrundgesetzes":10238,"Ġauseinandersetzen":10239,"Ġweihnachtsfest":10240,"ĠØ§ÙĦØ":10241,"Ġparty":10242,"national":10243,"Ġbeobachtet":10244,"Ġbeteiligen":10245,"Ġmenschenverachtend":10246,"vereinigung":10247,"Ġknallt":10248,"Ġhakenkreuz":10249,"diskussion":10250,"Ġpermanent":10251,"Ġsozialleistungen":10252,"kol":10253,"killerbe":10254,"mw":10255,"Ġamen":10256,"Ġhex":10257,"Ġzion":10258,"euern":10259,"Ġtab":10260,"acher":10261,"ĠanstÃ¤ndig":10262,"Ġerho":10263,"Ġstri":10264,"weiÃŁ":10265,"Ġschlauer":10266,"wasser":10267,"Ġweiterer":10268,"Ġbestra":10269,"werten":10270,"Ġebene":10271,"obwohl":10272,"ugce":10273,"Ġbundesweit":10274,"ĠknÃ¼":10275,"ifest":10276,"Ġmittelschicht":10277,"Ġrumlaufen":10278,"Ġrechnung":10279,"istisches":10280,"Ġzitieren":10281,"vieh":10282,"Ġstandpunkt":10283,"Ġsitten":10284,"Ġwohnungen":10285,"Ġstrafbar":10286,"Ġkonstrukt":10287,"Ġandersdenkenden":10288,"Ġhonecker":10289,"Ġverursacht":10290,"fremden":10291,"gauck":10292,"killerbeesagt":10293,"rang":10294,"sÃ¤":10295,"wÃ¤re":10296,"Ġnr":10297,"Ġfisch":10298,"Ġeingesperrt":10299,"Ġzugleich":10300,"ĠzustÃ¤nden":10301,"Ġscha":10302,"isis":10303,"Ġerheb":10304,"ids":10305,"Ġrt":10306,"reif":10307,"ĠÃ¼berfordert":10308,"gesehen":10309,"Ã¤nglich":10310,"ĠgerÃ¼":10311,"Ġentlassen":10312,"Ġtob":10313,"Ġrosa":10314,"demonstrant":10315,"Ġkorans":10316,"Ġjemandem":10317,"islamische":10318,"fÃ¤l":10319,"fried":10320,"iefert":10321,"Ġverschweigen":10322,"Ġkaffe":10323,"volksver":10324,"Ġoberfl":10325,"ĠgesprÃ¤che":10326,"ĠgesprÃ¤chs":10327,"Ġgeholt":10328,"Ġeinladen":10329,"Ġausgebildet":10330,"natÃ¼rlich":10331,"Ġdezember":10332,"400":10333,"cs":10334,"dis":10335,"oz":10336,"pal":10337,"Â«":10338,"Ġfeld":10339,"Ġeinander":10340,"elen":10341,"ĠverrÃ¼ckt":10342,"Ġanlass":10343,"Ġerika":10344,"ĠfrÃ¶":10345,"osse":10346,"Ġgehandelt":10347,"Ġschlage":10348,"Ġliebes":10349,"Ġgrossen":10350,"Ġdenkenden":10351,"Ġgeduld":10352,"schwÃ¤tzer":10353,"Ġlinksfasch":10354,"fred":10355,"Ġ95":10356,"Ġstaatsangeh":10357,"Ġperf":10358,"Ġunterscheidet":10359,"Ġsonne":10360,"Ġagieren":10361,"hÃ¶fer":10362,"ĠzerstÃ¶rung":10363,"Ġbillige":10364,"alifiziert":10365,"Ġkerl":10366,"euchtet":10367,"Ġbeklopp":10368,"Ġhorizont":10369,"Ġwhy":10370,"Ġregenwald":10371,"Ġnahezu":10372,"Ġmediale":10373,"Ġnirgends":10374,"mittlungen":10375,"ĠseriÃ¶se":10376,"Ġnovember":10377,"ĠerklÃ¤re":10378,"!âĢĿ":10379,"==":10380,"akte":10381,"gute":10382,"qz":10383,"sf":10384,"uck":10385,"ÑĤ":10386,"ĠgeiÃŁ":10387,"ichen":10388,"Ġpat":10389,"Ġinsofern":10390,"Ġmitreden":10391,"Ġaufrecht":10392,"unsten":10393,"Ġmehrmals":10394,"Ġ(\"":10395,"Ġ-----":10396,"blÃ¶":10397,"zuwanderung":10398,"iven":10399,"Ġbloss":10400,"Ġliebl":10401,"ebru":10402,"359":10403,"schlieÃŁen":10404,"Ġhow":10405,"Ġverbrei":10406,"Ġfreier":10407,"ĠtÃ¼rkischer":10408,"westen":10409,"Ġangeboten":10410,"Ġjungfrauen":10411,"selben":10412,"Ġreichlich":10413,"Ġmoderne":10414,"Ġarbeitslose":10415,"Ġaufgehoben":10416,"Ġkeineswegs":10417,"Ġdemonstrationsrecht":10418,"Ġdiverse":10419,"Ġtaktik":10420,"Ġgaza":10421,"fus":10422,"kna":10423,"utsch":10424,"ĠÃ¤m":10425,"erste":10426,"Ġnsdap":10427,"Ġ2012":10428,"Ġfight":10429,"Ġschriften":10430,"mmten":10431,"igern":10432,"ĠverrÃ¼ck":10433,"amo":10434,"Ġopa":10435,"Ġaufzwingen":10436,"tschaften":10437,"Ġalli":10438,"usw":10439,"Ġwiederholen":10440,"Ġschleu":10441,"Ġ...\"":10442,"Ġeigentum":10443,"sucht":10444,"Ġgleicher":10445,"obahn":10446,"zwang":10447,"Ġbedienen":10448,"Ġ1990":10449,"Ġantrag":10450,"Ġstralsund":10451,"Ġsozialkassen":10452,"Ġschwerer":10453,"ension":10454,"Ġteilnehmerzahlen":10455,"Ġabgeschlachtet":10456,"Ġkrankheit":10457,"zumachen":10458,"Ġmediz":10459,"Ġmarschiert":10460,"Ġpraktisch":10461,"Ġarbeitsmarkt":10462,"Ġapplaus":10463,"ĠreprÃ¤sentativ":10464,"Ġgratis":10465,"Ġumbenannt":10466,"Ġkonstruktiv":10467,"Ġnazischw":10468,"ĠbeschÃ¤mend":10469,"ebruar":10470,"?...":10471,"cem":10472,"fm":10473,"nitz":10474,"niveau":10475,"nrw":10476,"ĠÃ¶r":10477,"Ġsetzten":10478,"Ġwatch":10479,"Ġmeg":10480,"Ġkartoff":10481,"Ġeingeb":10482,"ors":10483,"Ġinwie":10484,"Ġschu":10485,"...]":10486,"slo":10487,"sek":10488,"1989":10489,"Ġvorstellung":10490,"Ġgegendemonstration":10491,"Ġdurchgelesen":10492,"Ġgeschoben":10493,"Ġgerichte":10494,"Ġklares":10495,"ĠauslÃ¤nderfeindlichkeit":10496,"Ġbegann":10497,"Ġdefen":10498,"kott":10499,"Ġkomischerweise":10500,"Ġgeziel":10501,"Ġwidersprechen":10502,"Ġzielen":10503,"Ġonly":10504,"ĠðŁĺĤðŁĺĤðŁĺĤðŁĺĤðŁĺĤðŁĺĤ":10505,"interess":10506,"ihi":10507,"ophobie":10508,"Ġbuntes":10509,"grÃ¼nden":10510,"Ġverwirrt":10511,"ĠfranzÃ¶sische":10512,"Ġbeamte":10513,"Ġhingestellt":10514,"Ġkasper":10515,"Ġsklaven":10516,"Ġgrenzt":10517,"Ġsympt":10518,")!":10519,"lust":10520,"schild":10521,"ĠfÃ¤l":10522,"gent":10523,"Ġscham":10524,"Ġschuss":10525,"Ġaufent":10526,"Ġgesamm":10527,"Ġspinn":10528,"Ã¤tter":10529,"weiger":10530,"Ġmode":10531,"Ġgeraten":10532,"Ġgerichts":10533,"Ġbegeistert":10534,"mitt":10535,"ips":10536,"Ġgespielt":10537,"Ġarmer":10538,"Ġschmutz":10539,"Ġreiches":10540,"Ġdiktator":10541,"Ġâĺº":10542,"Ġgewalttaten":10543,"Ġmekka":10544,"Ġlife":10545,"rukturen":10546,"Ġhorst":10547,"Ġrecherchieren":10548,"Ġnirgendwo":10549,"Ġafrikaner":10550,"Ġdetail":10551,"klusive":10552,"Ġweihnachtslieder":10553,"Ġoktober":10554,"-.":10555,"72":10556,"din":10557,"ding":10558,"dschihad":10559,"kreuze":10560,"qy":10561,"uchte":10562,"Ġmind":10563,"Ġvlt":10564,"Ġlas":10565,"Ġverfl":10566,"Ġunmittel":10567,"Ġmany":10568,"usa":10569,"Ġgeheim":10570,"Ġsteffen":10571,"Ġunterbel":10572,"verfassungs":10573,"ĠkÃ¶nne":10574,"weite":10575,"Ġeinfor":10576,"Ġeinfachen":10577,"Ġgeschaut":10578,"Ġbissel":10579,"Ġgrundeis":10580,"wirken":10581,"Ġrostock":10582,"daÃŁ":10583,"Ġinteressante":10584,"Ġwiderspricht":10585,"ĠerlÃ¤u":10586,"Ġkatholiken":10587,"bundestag":10588,"sarmut":10589,"Ġpkk":10590,"Ġmorddrohungen":10591,"Ġgleichgeschalte":10592,"ĠkÃ¶rperverletzung":10593,"\"....":10594,"bock":10595,"fort":10596,"ios":10597,"seits":10598,"ved":10599,"venz":10600,"yan":10601,"zo":10602,"ÂŃ":10603,"Ġdel":10604,"Ġginge":10605,"ichert":10606,"ĠhÃ¤nden":10607,"Ġvat":10608,"Ġluther":10609,"ĠdermaÃŁen":10610,"ĠtÃ¶n":10611,"ĠschÃ¤u":10612,"urt":10613,"beweg":10614,"Ġgesorgt":10615,"Ġvorschreiben":10616,"Ġimport":10617,"Ġdesweiteren":10618,"Ġseife":10619,"Ġmuslimisch":10620,"Ġselbstern":10621,"Ġiss":10622,"tze":10623,"suche":10624,"ĠbelÃ¼gen":10625,"Ġbeschlossen":10626,"Ġgrundlegen":10627,"Ġlinksextremen":10628,"Ġeinziger":10629,"haltet":10630,"ĠzusammenhÃ¤ng":10631,"folgt":10632,"mittag":10633,"Ġbekam":10634,"ooo":10635,"gemÃ¤ÃŁ":10636,"?!?!":10637,"ĈĈĈĈĈĈĈĈĈĈĈĈ":10638,"Ġkara":10639,"Ġanfangs":10640,"Ġkusch":10641,"Ġclans":10642,"ðŁĩ©ðŁĩª":10643,"ĠhÃ¼b":10644,"Ġkonflikt":10645,"Ġnachweislich":10646,"salafisten":10647,"Ġrathaus":10648,"ĠgefÃ¤lligst":10649,"iam":10650,"rp":10651,"ykott":10652,"Ùī":10653,"statt":10654,"Ġkee":10655,"tell":10656,"Ġpure":10657,"Ġgepfl":10658,"irt":10659,"Ġtit":10660,"ĠschÃ¤tzen":10661,"ĠschÃ¼tteln":10662,"uran":10663,"Ġausnahmen":10664,"gez":10665,"ĠÃ¼berschrift":10666,"Ġunterhalt":10667,"ĠblÃ¼":10668,"Ġengel":10669,"brand":10670,"Ġbewohn":10671,"Ġwegnehmen":10672,"Ġchristus":10673,"Ġrechtssystem":10674,"lieb":10675,"ĠmÃ¶glicherweise":10676,"Ġerwischt":10677,"Ġeisen":10678,"ĠlÃ¤cherliche":10679,"ĠlÃ¶scht":10680,"Ġmission":10681,"ĠwÃ¤rs":10682,"strasse":10683,"ĠÃ¶ffnet":10684,"notif":10685,"ĠarschlÃ¶cher":10686,"schweiz":10687,"Ġarbeitsplatz":10688,"Ġungerechtigkeit":10689,".(":10690,"723":10691,"bien":10692,"Ġsend":10693,"ĠsÃ¤tze":10694,"strom":10695,"einigt":10696,"Ġkeule":10697,"Ġpre":10698,"Ġeinkommen":10699,"ĠschÃ¶":10700,"Ġscherz":10701,"Ġschelm":10702,"Ġunangen":10703,"ision":10704,"Ġmitbringen":10705,"Ġaufeinander":10706,"Ġbeenden":10707,"Ġbeir":10708,"Ġumgebung":10709,"Ġklatschen":10710,"ðŁĺľ":10711,"ĠschwÃ¤ch":10712,"Ġhob":10713,"Ġbricht":10714,"ĠlÃ¼genmedien":10715,"rechtlich":10716,"Ġziehe":10717,"Ġkarren":10718,"Ġminute":10719,"Ġgemeinsamen":10720,"ĠbefÃ¼rchten":10721,"Ġmeer":10722,"schmei":10723,"ĠeinfÃ¼hrung":10724,"ĠwÃ¶rtlich":10725,"ĠerfÃ¼llt":10726,"Ġredakte":10727,"Ġredaktion":10728,"Ġdamaligen":10729,"ĠhaustÃ¼r":10730,"bz":10731,"our":10732,"Ùİ":10733,"stifter":10734,"Ġval":10735,"Ã¼bt":10736,"Ġkos":10737,"Ġleugnen":10738,"Ġpc":10739,"euner":10740,"auscht":10741,"Ġtw":10742,"eta":10743,"ktor":10744,"Ġmehrzahl":10745,"fast":10746,"Ġdeutschlandfahne":10747,"Ġgehalt":10748,"gerichte":10749,"weiten":10750,"Ġblog":10751,"gesinn":10752,"Ġeigendlich":10753,"estern":10754,"quote":10755,"jahren":10756,"ĠbeschrÃ¤nkt":10757,"Ġbegeben":10758,"Ġrufe":10759,"Ġkomp":10760,"aktiv":10761,"Ġschuldig":10762,"regung":10763,"Ġverdacht":10764,"wÃ¼rfe":10765,"Ġlux":10766,"themen":10767,"Ġempfinde":10768,"Ġsaid":10769,"enews":10770,"ĠvernÃ¼nftigen":10771,"jenige":10772,"ĠministerprÃ¤sident":10773,"Ġabstamm":10774,"Ġverabscheu":10775,"Ġstaatsanwaltschaft":10776,"Ġmethoden":10777,"Ġweltanschauung":10778,"Ġverheiratet":10779,"Ġbanner":10780,"ĠunertrÃ¤glich":10781,"Ġspektrum":10782,"dorf":10783,"ec":10784,"kes":10785,"log":10786,"letzte":10787,"typ":10788,"Ð¸":10789,"erer":10790,"Ġsry":10791,"Ġmama":10792,"Ã¼br":10793,"Ġpir":10794,"ith":10795,"reda":10796,"Ġgedenken":10797,"Ġgeglaubt":10798,"Ġzugelassen":10799,"Ġscharf":10800,"Ġopt":10801,"ĠrÃ¶":10802,"hnchen":10803,"ĠÃ¼bersetzt":10804,"Ġabsichtlich":10805,"ðŁĻĪ":10806,"ierende":10807,"Ġ:'":10808,"verw":10809,"illt":10810,"ottet":10811,"hast":10812,"Ġcall":10813,"Ġweile":10814,"Ġschwingen":10815,"Ġschwimmen":10816,"ĠmÃ¼sse":10817,"Ġjederzeit":10818,"Ġtunesien":10819,"Ġbelogen":10820,"Ġbegl":10821,"Ġdorthin":10822,"Ġbildzeitung":10823,"Ġpolitical":10824,"ated":10825,"Ġsagten":10826,"Ġsozialismus":10827,"Ġweitaus":10828,"sieht":10829,"Ġdraus":10830,"Ġverdanken":10831,"Ġhameln":10832,"sammlung":10833,"ĠÃ¤uÃŁerung":10834,"ĠfÃ¼hrungs":10835,"ĠkopftÃ¼cher":10836,"Ġneutrale":10837,"Ġentsprechenden":10838,"Ġfriedlieben":10839,"koran":10840,"Ġkulturelle":10841,"Ġverfasst":10842,"Ġbetroffenen":10843,"Ġmobilisieren":10844,"Ġbedauerlicher":10845,"tÃ¼rk":10846,"Ġunterbinden":10847,"brett":10848,"Ġfussball":10849,"Ġnachvollziehbar":10850,"Ġaufenthalt":10851,"Ġkeep":10852,"81":10853,"banden":10854,"dacht":10855,"fc":10856,"felt":10857,"kanzlerin":10858,"ls":10859,"nest":10860,"nix":10861,"png":10862,"Ñģ":10863,"Ġ`":10864,"ĠdÃ¶r":10865,"Ġwhere":10866,"icherung":10867,"Ġ27":10868,"esp":10869,"Ġbig":10870,"Ġvs":10871,"lli":10872,"Ġfin":10873,"Ã¤her":10874,"Ġzimmer":10875,"Ġgeantwortet":10876,"Ġther":10877,"Ġanna":10878,"Ġred":10879,"Ġallzu":10880,"Ġausweis":10881,"Ġabschluss":10882,"Ġabartig":10883,"Ġnachher":10884,"Ġfahre":10885,"Ġblicken":10886,"gessen":10887,"Ġsoli":10888,"brit":10889,"Ġverlust":10890,"Ġwechseln":10891,"Ġanderswo":10892,"spielt":10893,"fahrung":10894,"Ġkurzen":10895,"Ã¶sung":10896,"Ġstarken":10897,"Ġeinsetzt":10898,"Ġfriedensvertrag":10899,"Ġaufzuhalten":10900,"ĠÃ¤lteren":10901,"Ġinterpretiert":10902,"Ġplakat":10903,"Ġwhich":10904,"kurier":10905,"Ġfundamentalisten":10906,"rÃ¤umen":10907,"Ġgewartet":10908,"Ġfazit":10909,"Ġausnutzen":10910,"Ġausreichend":10911,"-%":10912,"339":10913,"336":10914,"688":10915,"bunt":10916,"fd":10917,"jc":10918,"lehrer":10919,"masch":10920,"ness":10921,"pap":10922,"wagen":10923,"zung":10924,"Ġmade":10925,"Ġ28":10926,"Ġzaun":10927,"Ġeinrichtungen":10928,"Ġgell":10929,"aubt":10930,"Ġti":10931,"Ġtugce":10932,"Ġover":10933,"rollen":10934,"see":10935,"135":10936,"Ġvorstand":10937,"ĠweiÃŁe":10938,"Ġsolle":10939,"ffel":10940,"angaben":10941,"Ġenorm":10942,"egenpresse":10943,"Ġkonzept":10944,"Ġgefeiert":10945,"Ġschulter":10946,"Ġbetreibt":10947,"Ġbedrohen":10948,"dafÃ¼r":10949,"Ġvertrau":10950,"fÃ¤llen":10951,"ĠerwÃ¼nscht":10952,"Ġsonnen":10953,"Ġpatrick":10954,"Ġlappen":10955,"eugnet":10956,"Ġbayer":10957,"groÃŁ":10958,"Ġanwalt":10959,"kriminelle":10960,"Ġlabert":10961,"zeugnis":10962,"Ġkrankenhaus":10963,"Ġangemessen":10964,"Ġzensiert":10965,"Ġkontrolliert":10966,"ĠerbÃ¤rm":10967,"Ġherrschenden":10968,"Ġinternational":10969,"Ġinszeniert":10970,"Ġberuhigt":10971,"Ġeinheimischen":10972,"Ġaugustus":10973,"ĠØ¹ÙĦ":10974,"aq":10975,"bru":10976,"list":10977,"porn":10978,"Ġdoll":10979,"Ġdgb":10980,"Ġacht":10981,"ones":10982,"Ġzau":10983,"Ġloch":10984,"auchen":10985,"Ġschuh":10986,"Ġosman":10987,"ĠauffÃ¤llig":10988,"sendung":10989,"agogen":10990,"Ġmanifest":10991,"beck":10992,"sern":10993,"1420":10994,"imil":10995,"269":10996,"stecken":10997,"artigen":10998,"ĠberÃ¼":10999,"Ã¤uber":11000,"rÃ¤fte":11001,"Ġgestrigen":11002,"Ġbedroh":11003,"Ġkomple":11004,"Ġeliten":11005,"athy":11006,"Ġspiele":11007,"kriegs":11008,"Ġniederlande":11009,"muslimische":11010,"Ġyes":11011,"Ġjournalismus":11012,"ĠgelÃ¶st":11013,"Ġprivate":11014,"temberg":11015,"ĠgewalttÃ¤ter":11016,"Ġderzeitigen":11017,"ĠðŁĻĪ":11018,"Ġkonsequenz":11019,"ĠschÃ¼lern":11020,"Ġvergewaltigen":11021,"Ġverfolgte":11022,"mediathek":11023,"Ġpalest":11024,"sollte":11025,"kenntnisse":11026,"argument":11027,"Ġsignal":11028,"Ġwuerde":11029,"ĠangekÃ¼ndigt":11030,"diktatur":11031,"Ġbraunschweig":11032,"ĠgeiÃŁler":11033,"ĠschÃ¤uble":11034,"%.":11035,"dz":11036,"montag":11037,"mischpoke":11038,"ralitÃ¤t":11039,"Ġditt":11040,"Ġwild":11041,"Ġmont":11042,"Ġmeldungen":11043,"Ġgolf":11044,"Ġviet":11045,"llige":11046,"Ġpig":11047,"itur":11048,"reht":11049,"Ġverfeh":11050,"Ġankommt":11051,"Ġerachten":11052,"Ġsta":11053,"Ġallm":11054,"Ġspaltung":11055,"verantwort":11056,"waschen":11057,"izit":11058,"Ġdurchzusetzen":11059,"Ġhinsicht":11060,"ĠgefÃ¶rdert":11061,"Ġwahrgenommen":11062,"Ġmail":11063,"ĠðŁĺĨ":11064,"warnung":11065,"Ġspringen":11066,"Ġinteressanter":11067,"kriege":11068,"Ġautobahn":11069,"Ø§Ø":11070,"ĠrumÃ¤n":11071,"Ġheul":11072,"ĠkÃ¤me":11073,"Ġwestdeutschen":11074,"Ġoftmals":11075,"Ġangesagt":11076,"Ġbemerk":11077,"Ġamerikanische":11078,"Ġsarkas":11079,"Ġhalbwegs":11080,"Ġkollege":11081,"ĠgrÃ¶ÃŁtenteils":11082,"Ġanerkennung":11083,"Ġsusanne":11084,"ĠerhÃ¶ht":11085,"Ġkorrupten":11086,"ĠmÃ¼tter":11087,"Ġchancen":11088,"Ġbulgar":11089,"Ġhilfreich":11090,"Ġsarkasmus":11091,"423":11092,":-":11093,"gy":11094,"guten":11095,"ox":11096,"Ġmaut":11097,"stÃ¤t":11098,"Ġbad":11099,"Ġkro":11100,"schalten":11101,"schaffen":11102,"Ġgebrochen":11103,"Ġzugegeben":11104,"Ġtina":11105,"Ã¼rk":11106,"indungen":11107,"agte":11108,"Ġwarm":11109,"Ġwarnung":11110,"Ġkanns":11111,"ulff":11112,"fahnen":11113,"Ġkindes":11114,"Ġherbst":11115,"aps":11116,"Ġkrieger":11117,"forum":11118,"Ġparole":11119,"Ġfriedlicher":11120,"ĠgroÃŁeltern":11121,"Ġverkn":11122,"jeden":11123,"Ġfestgestellt":11124,"Ġmittag":11125,"Ġheftig":11126,"ĠtÃ¶chter":11127,"Ġakzeptiere":11128,"ĠablÃ¤uft":11129,",,,,":11130,"Ġadresse":11131,"Ġumsetzen":11132,"Ġverlogenheit":11133,"ĠĠĠĠĠĠĠĠĠĠĠĠĠĠĠĠĠĠĠĠĠĠĠĠĠĠĠĠĠĠĠĠĠĠĠĠĠĠĠĠĠĠĠĠĠĠĠĠĠĠĠĠĠĠĠĠĠĠĠĠĠĠĠĠĠĠĠĠĠĠĠĠĠĠĠĠĠĠĠĠĠĠĠĠĠĠĠĠĠĠĠĠĠĠĠĠ":11134,"Ġtrans":11135,"Ġwussten":11136,"Ġdiskriminierung":11137,"Ġatheists":11138,"ĠangezÃ¼ndet":11139,"Ġdschihadisten":11140,"Ġunwissenheit":11141,"ĠtÃ¤tig":11142,"Ġschilder":11143,"Ġasylsuchende":11144,"Ġjohannes":11145,"Ġstrategie":11146,"Ġstephan":11147,"Ġgesocks":11148,"Ġbzgl":11149,"cq":11150,"like":11151,"show":11152,"taz":11153,"top":11154,"Ġwell":11155,"Ġgy":11156,"iche":11157,"Ġkum":11158,"Ġkack":11159,"Ġeinstellen":11160,"auff":11161,"ĠjÃ¶r":11162,"Ġverr":11163,"slage":11164,"Ġausgeg":11165,"ĠsprÃ¼":11166,"Ġsprecht":11167,"ĠÃ¼berein":11168,"ĠÃ¼bersehen":11169,"ule":11170,"Ġweib":11171,"Ġstehst":11172,"Ġleise":11173,"ruppen":11174,"Ġgerissen":11175,"andere":11176,"Ġentsetzt":11177,"Ġneun":11178,"Ġkoennen":11179,"Ġpavenz":11180,"samen":11181,"werfung":11182,"vorsitzen":11183,"aret":11184,"Ġbehindert":11185,"klÃ¤rt":11186,"Ġschnitt":11187,"ĠdrÃ¤ngen":11188,"Ġkopfsch":11189,"Ġsorte":11190,"ĠreiÃŁen":11191,"Ġnormalerweise":11192,"ĠfrÃ¼hl":11193,"Ġfakeprofil":11194,"Ġlachhaft":11195,"ĠaufklÃ¤ren":11196,"ĠÃ¤rgern":11197,"Ġmissbrauch":11198,"Ġfarben":11199,"Ġgebrauchen":11200,"archiv":11201,"Ġbeteiligt":11202,"Ġberechtigte":11203,"Ġanonym":11204,"ĠfÃ¶rdert":11205,"Ġkonflikte":11206,"nummer":11207,"ĠbenÃ¶tigen":11208,"ĠÃ¼blich":11209,"ĠunnÃ¶tig":11210,"Ġrechtschreibfehler":11211,"Ġneujahrsansprache":11212,"Ġkonfrontiert":11213,"Ġentlarvt":11214,"Ġselbstbestimmung":11215,"Ġerinnerung":11216,"anonymous":11217,"Ġstalin":11218,"ĠtagtÃ¤glich":11219,"ĠmentalitÃ¤t":11220,"ĠkindergÃ¤rten":11221,"ĠstaatsangehÃ¶rigkeit":11222,"Ġhobby":11223,"Ġpavenzinger":11224,"845":11225,"bass":11226,"cms":11227,"lÃ¤ufer":11228,"pra":11229,"papier":11230,"tat":11231,"tote":11232,"vel":11233,"wuchs":11234,"Ìĩ":11235,"Ġits":11236,"Ġgol":11237,"ĠgÃ¼lt":11238,"Ġ260":11239,"Ġdiebst":11240,"Ġfette":11241,"embed":11242,"Ġtz":11243,"Ġschild":11244,"Ġerhalt":11245,"Ġrisk":11246,"Ġronny":11247,"Ġstock":11248,"ielen":11249,"Ġvorstellungen":11250,"Ġabstimmen":11251,"Ġnachkommen":11252,"Ġnachplapp":11253,"Ġgrauen":11254,"Ġgehor":11255,"sport":11256,"azon":11257,"tlicher":11258,"Ġwurzel":11259,"ielle":11260,"Ġbeschn":11261,"dummen":11262,"Ġscheitern":11263,"Ġmario":11264,"Ġleere":11265,"islamischen":11266,"ĠvermÃ¶":11267,"Ġhochachtung":11268,"Ġ800":11269,"Ġverskla":11270,"Ġsystemmedien":11271,"ĠwÃ¼nsch":11272,"Ġerwacht":11273,"Ġhauptbahnhof":11274,"gutmensch":11275,"ĠrÃ¼ckgrat":11276,"ĠrealitÃ¤ts":11277,"Ġjedesmal":11278,"ĠneutralitÃ¤t":11279,"ĠgrÃ¶ÃŁeren":11280,"ĠmerkwÃ¼rdig":11281,"kampag":11282,"marschieren":11283,"politisch":11284,"Ġabsoluter":11285,"Ġobjekt":11286,"Ġkriegstreiberei":11287,"Ġantisemitismus":11288,"Ġstandards":11289,"Ġauswirkungen":11290,"322":11291,"aer":11292,"deu":11293,"feiert":11294,"lw":11295,"tn":11296,"eiter":11297,"Ġsz":11298,"Ġact":11299,"Ġwich":11300,"Ġmischen":11301,"schÃ¼ler":11302,"Ġlehren":11303,"Ġlvz":11304,"ĠschÃ¼rt":11305,"Ġverrecke":11306,"Ġstd":11307,"Ġday":11308,"Ġausnahm":11309,"ilo":11310,"Ġpromis":11311,"Ġunternommen":11312,"Ġbesinn":11313,"Ġgoeb":11314,"Ġgestrichen":11315,"Ġdiskurs":11316,"Ġwortes":11317,"Ġrespektiere":11318,"Ġfrauenkirche":11319,"Ġmagst":11320,"zeugt":11321,"Ġaufgezwungen":11322,"Ġkontin":11323,"mpel":11324,"Ġumsetzung":11325,"Ġherkunftsland":11326,"ited":11327,"Ġkundgebungen":11328,"Ġattentate":11329,"Ġfliegt":11330,"ĠschlÃ¤gert":11331,"Ġarmee":11332,"demonstrieren":11333,"Ġordentliche":11334,"camp":11335,"Ġanerkannt":11336,"ĠprÃ¼fen":11337,"Ġhmmm":11338,"Ġerwachsene":11339,"stempeln":11340,"Ġvollidiot":11341,"Ġgemeinden":11342,"ĠbemÃ¼hen":11343,"Ġkolon":11344,"Ġbewirken":11345,"ĠÃ¼berflÃ¼ssig":11346,"spektive":11347,"Ġerobern":11348,"ĠnÃ¼rnberg":11349,"ĠbitteschÃ¶n":11350,"Ġmedizin":11351,"bÃ¶":11352,"feuer":11353,"kehren":11354,"krank":11355,"mat":11356,"meldungen":11357,"vk":11358,"wÃ¼n":11359,"Ġ33":11360,"Ġveg":11361,"Ġlauft":11362,"inke":11363,"Ã¶pft":11364,"israel":11365,"Ġohr":11366,"Ġerich":11367,"Ġstabil":11368,"ÃŁchen":11369,"ikern":11370,"Ġausmachen":11371,"Ġunterrichtet":11372,"Ġklo":11373,"Ġklop":11374,"Ġechter":11375,"adan":11376,"ĠmÃ¼nd":11377,"Ġleiten":11378,"ĠwÃ¼rzburg":11379,"ebst":11380,"Ġgeschossen":11381,"Ġstrafen":11382,"Ġheist":11383,"Ġlinksextreme":11384,"Ġtrollen":11385,"Ġschneider":11386,"Ġtoleranten":11387,"proteste":11388,"sterben":11389,"Ġreinhard":11390,"Ġ68":11391,"Ġindirekt":11392,"zugreifen":11393,"krut":11394,"ĠunglÃ¼ck":11395,"Ġsteinzeit":11396,"Ġdeutlicher":11397,"Ġkotz":11398,"Ġostdeutschen":11399,"Ġdreist":11400,"europenews":11401,"Ġkompliment":11402,"Ġstatus":11403,"begehren":11404,"Ġstudien":11405,"Ġvergewaltigung":11406,"forderungen":11407,"Ġformulieren":11408,"Ġrecherche":11409,"Ġjahrhunderte":11410,"Ġbonzen":11411,"Ġbetiteln":11412,"Ġschwule":11413,"ĠgroÃŁstÃ¤dten":11414,"ffingtonpost":11415,"Ġursprung":11416,"ĠgefÃ¤lscht":11417,"bewegungen":11418,"#!":11419,"hir":11420,"hem":11421,"lok":11422,"ris":11423,"tod":11424,"vm":11425,"zy":11426,"Ġ________________________________":11427,"Ġsascha":11428,"Ġmad":11429,"staben":11430,"Ġkrau":11431,"Ã¤fte":11432,"reckt":11433,"ala":11434,"arn":11435,"artet":11436,"atsche":11437,"Ġsoeben":11438,"Ġausgen":11439,"Ġaushalten":11440,"Ġmalte":11441,"Ġandererseits":11442,"Ġgehir":11443,"Ġcop":11444,"Ġdurchschnit":11445,"Ġkonf":11446,"Ġtoden":11447,"ĠgrÃ¼nder":11448,"Ġrotz":11449,"Ġdef":11450,"klÃ¤rung":11451,"Ġmenschlichen":11452,"Ġoffener":11453,"skon":11454,"Ġgutem":11455,"Ġjohn":11456,"Ġangewiesen":11457,"Ġveranstalten":11458,"Ġdenkweise":11459,"offener":11460,"packen":11461,"Ġgesichter":11462,"Ġblond":11463,"Ġheilige":11464,"Ġalters":11465,"Ġaufruft":11466,"Ã¤ssig":11467,"Ġmilch":11468,"Ġangelegen":11469,"ĠjÃ¤hrige":11470,"ĠgewalttÃ¤tige":11471,"Ġbundeskanzler":11472,"Ġversammlungsfreiheit":11473,"wahnsinn":11474,"Ġdiversen":11475,"ĠverschwÃ¶rungstheorien":11476,"Ġunruhen":11477,"millionen":11478,"Ġpublikum":11479,"manipulation":11480,"Ã¨re":11481,"wissenschaftler":11482,"Ġjosef":11483,"Ġhilflos":11484,"ĠdÃ¤nemark":11485,"Ġwahrscheinlichkeit":11486,"Ġvietnam":11487,"bande":11488,"frag":11489,"hng":11490,"kus":11491,"chlich":11492,"stÃ¤mm":11493,"sterror":11494,"Ġnetten":11495,"einsatz":11496,"Ġ250":11497,"Ġhinger":11498,"Ġfick":11499,"genossen":11500,"Ġzukommen":11501,"Ġaufforderung":11502,"1945":11503,"Ġread":11504,"154":11505,"ĠÃ¼berfallen":11506,"achteil":11507,"Ġrichtiger":11508,"Ġklarer":11509,"Ġseitdem":11510,"Ġroman":11511,"Ġqual":11512,"Ġsechs":11513,"Ġbeitragen":11514,"Ġdefiniert":11515,"rechnen":11516,"karikaturen":11517,"Ġtuen":11518,"ĠmÃ¤dels":11519,"Ġsichtbar":11520,"begriff":11521,"wurde":11522,"Ġverbreitung":11523,"ĠbegrÃ¼ndet":11524,"ĠgewalttÃ¤tigen":11525,"Ġfassung":11526,"Ġschleichende":11527,"Ġglobalisierung":11528,"Ġaufhetzen":11529,"Ġestabl":11530,"Ġbegegnen":11531,"Ġcorrect":11532,"Ġtobias":11533,"Ġabstammung":11534,"ĠfrÃ¼hling":11535,"!'":11536,"1000":11537,"509":11538,"fans":11539,"hon":11540,"xpa":11541,"Ġsaufen":11542,"iebe":11543,"schade":11544,"alismus":11545,"auschen":11546,"ettet":11547,"ido":11548,"Ġdazwischen":11549,"gezogen":11550,"ily":11551,"Ġimage":11552,"ĠÃ¼bersetzung":11553,"Ġwiedervereinigung":11554,"ĠwÃ¤hle":11555,"adung":11556,"Ġsolang":11557,"Ġhohle":11558,"Ġdanken":11559,"Ġerstaunt":11560,"richter":11561,"Ġbelie":11562,"Ġkinderporn":11563,"Ġkommentiert":11564,"ĠdummschwÃ¤tzer":11565,"Ġgeboten":11566,"Ġgebildete":11567,"Ġjuckt":11568,"Ġscheibe":11569,"Ġlea":11570,"stÃ¤ndigen":11571,"Ġrespektiert":11572,"Ġschwerin":11573,"ĠmuÃŁte":11574,"Ġvergisst":11575,"courage":11576,"Ġbilde":11577,"Ġvergleiche":11578,"ĠoberbÃ¼rgermeister":11579,"Ġaustreten":11580,"ĠfachkrÃ¤ftemangel":11581,"ĠmaÃŁnahmen":11582,"Ġpositiven":11583,"ðŁĴª":11584,"Ġbreite":11585,"ĠverÃ¼ben":11586,"Ġleistungen":11587,"sabge":11588,"Ġcontra":11589,"ographie":11590,"argumente":11591,"Ġantideutschen":11592,"Ġnachzudenken":11593,"iftung":11594,"ĠhÃ¤rter":11595,"bie":11596,"dv":11597,"hÃ¤t":11598,"ĠdrÃ¼ckt":11599,"Ġsha":11600,"Ġwid":11601,"Ġwalter":11602,"Ã¼hren":11603,"Ġgebr":11604,"irak":11605,"andid":11606,"ami":11607,"Ġerr":11608,"agner":11609,"Ġring":11610,"137":11611,"Ġspitzen":11612,"ĠklÃ¼":11613,"Ġanget":11614,"ĠwÃ¤hre":11615,"Ġschwester":11616,"schlacht":11617,"rian":11618,"antast":11619,"Ġneuwahlen":11620,"Ġgleiches":11621,"ĠhintergrÃ¼nde":11622,"Ġvermittelt":11623,"Ġsupermarkt":11624,"ifft":11625,"straft":11626,"Ġvereinbar":11627,"zusammen":11628,"Ġ2005":11629,"Ġempfinden":11630,"fuge":11631,"rechnung":11632,"ĠanzÃ¼nden":11633,"Ġstoppt":11634,"Ġbraunes":11635,"Ġpassend":11636,"Ġpartner":11637,"Ġconfus":11638,"offiz":11639,"Ġbestehende":11640,"Ġsexuelle":11641,"ekut":11642,"????????????????":11643,"Ġhools":11644,"Ġstadtteil":11645,"Ġlibanon":11646,"twitter":11647,"zitat":11648,"ĠgeschÃ¤fts":11649,"Ġmaximal":11650,"Ġerhebt":11651,"Ġhauptsch":11652,"kÃ¼nfte":11653,"Ġhexen":11654,"ĠzusammenhÃ¤nge":11655,"hymne":11656,"lg":11657,"nik":11658,"zÃ¤hlen":11659,"zone":11660,"Ġsame":11661,"ĠwuÃŁ":11662,"Ġii":11663,"stung":11664,"stÃ¼ck":11665,"Ġgeis":11666,"Ġhim":11667,"Ġheid":11668,"Ġkuh":11669,"Ġfig":11670,"Ġlam":11671,"Ġlehnen":11672,"arian":11673,"auÃŁer":11674,"Ġvery":11675,"Ġunqualifiz":11676,"Ġwerner":11677,"bestand":11678,"Ġgrus":11679,"Ġuntert":11680,"Ġkeinster":11681,"rauch":11682,"Ġhinstellen":11683,"Ġherrsche":11684,"ĠverstoÃŁen":11685,"Ġbrauner":11686,"ĠkÃ¶nntet":11687,"Ġgestoppt":11688,"Ġgebets":11689,"ĠgebÃ¤ude":11690,"Ġpark":11691,"Ġ1998":11692,".............":11693,"Ġradikalisieren":11694,"gegendemonstranten":11695,"Ġbenachteil":11696,"Ġmutigen":11697,"lown":11698,"Ġschmerz":11699,"Ġindo":11700,"voller":11701,"arbeitern":11702,"ĠunglÃ¤ubig":11703,"ĠgefÃ¤hrliche":11704,"ĠempfÃ¤nger":11705,"ĠbiÃŁchen":11706,"krÃ¤ften":11707,"ĠreligiÃ¶ser":11708,"chselt":11709,"Ġsteuergeld":11710,"neue":11711,"archie":11712,"Ġinterpretation":11713,"Ġabsichten":11714,"Ġkeinesfalls":11715,"Ġstammtisch":11716,"Ġramadan":11717,"Ġslogan":11718,"Ġmarokko":11719,"!...":11720,"525":11721,"bus":11722,"npd":11723,"rn":11724,"Â»":11725,"Ġdit":11726,"Ġmik":11727,"Ġnik":11728,"anbul":11729,"Ġfang":11730,"Ġpest":11731,"Ġeintreten":11732,"Ġverfahren":11733,"Ġstas":11734,"Ġduden":11735,"Ġauszul":11736,"Ġausreden":11737,"Ġdement":11738,"Ġeures":11739,"Ġhiermit":11740,"Ġabgegeben":11741,"ienten":11742,"Ġunterkunft":11743,"Ġklick":11744,"gerade":11745,"ausbildung":11746,"Ġcome":11747,"Ġgeschissen":11748,"Ġzeitungs":11749,"ĠmÃ¶glichen":11750,"ĠheiÃŁ":11751,"ĠÃ¶z":11752,"Ġmake":11753,"Ġrom":11754,"ĠtÃ¼rkin":11755,"Ġradikalismus":11756,"freu":11757,"Ġmittelme":11758,"Ġeinseitige":11759,"Ġ7000":11760,"ĠlÃ¤cheln":11761,"Ġaufgepasst":11762,"gemeinschaften":11763,"Ġunterschiedliche":11764,"Ġbefindet":11765,"Ġprofile":11766,"Ġabgeordneten":11767,"ĠtrÃ¤nen":11768,"europe":11769,"wÃ¼rdigen":11770,"Ġaltersarmut":11771,"Ġentschuldige":11772,"Ġentschuldigt":11773,"gefunden":11774,"Ġvorurteilen":11775,"Ġtalks":11776,"politischen":11777,"ĠhÃ¶chsten":11778,"Ġvermummt":11779,"Ġwehret":11780,"Ġausgelegt":11781,"ĠanstÃ¤ndige":11782,"Ġkorrekte":11783,"sendungen":11784,"verfolgung":11785,"Ġgysi":11786,"Ġconfusians":11787,"316":11788,"bzw":11789,"kath":11790,"lv":11791,"uq":11792,"vÃ¤ter":11793,"Ġ05":11794,"ĠvÃ¤ter":11795,"Ġgezahlt":11796,"ethe":11797,"ologen":11798,"Ġrate":11799,"bek":11800,"1421":11801,"Ġjawohl":11802,"Ġunterstellungen":11803,"Ġangest":11804,"zubringen":11805,"gere":11806,"Ġchap":11807,"Ġhinnehmen":11808,"rÃ¤cht":11809,"Ġgefangen":11810,"sslich":11811,"Ġexekut":11812,"Ġhelfer":11813,"Ġmorgens":11814,"Ġ!!!!!!!!!!!!":11815,"Ġfreiheitlich":11816,"ĠblÃ¶den":11817,"mohammed":11818,"laubnis":11819,"Ġschauspieler":11820,"Ġhirnlosen":11821,"Ġmehrheitlich":11822,"ĠgefÃ¼hle":11823,"Ġ2001":11824,"Ġtotaler":11825,"Ġfacharbeiter":11826,"ĠdÃ¼gida":11827,"Ġstellst":11828,"Ġ[...]":11829,"Ġpfeifen":11830,"demokraten":11831,"Ġdifferenziert":11832,"Ġjetzige":11833,"ĠergÃ¤n":11834,"Ġergreifen":11835,"ĠmÃ¤chtigen":11836,"ĠempÃ¶rt":11837,"ĠrattenfÃ¤nger":11838,"ĠÃ¤ussern":11839,"adrid":11840,"Ġtouristen":11841,"ĠendgÃ¼ltig":11842,"Ġereignisse":11843,"kriminalitaet":11844,"Ġoriginal":11845,"ĠglaubwÃ¼rdigkeit":11846,"haenger":11847,"335":11848,"439":11849,"bist":11850,"club":11851,"feln":11852,"leist":11853,"xz":11854,"yy":11855,"Ġdid":11856,"Ġwessen":11857,"Ġbischen":11858,"scheiÃŁ":11859,"itische":11860,"itÃ¤re":11861,"irm":11862,"Ġthen":11863,"Ġschaltet":11864,"Ġistanbul":11865,"Ġunvor":11866,"Ġunheil":11867,"Ġerober":11868,"Ġdaheim":11869,"Ġbefo":11870,"unts":11871,"ragend":11872,"Ġabhalten":11873,"!!!)":11874,"okus":11875,"aussage":11876,"ĠwÃ¼rstchen":11877,"Ġmost":11878,"ĠverbÃ¤nde":11879,"Ġsuppe":11880,"Ġgefasst":11881,"super":11882,"Ã¼cksicht":11883,"Ġhinterfragt":11884,"Ġbekehren":11885,"Ġantwortet":11886,"ĠgedrÃ¼ckt":11887,"ĠzurÃ¼cktreten":11888,"korea":11889,"mail":11890,"Ġdrittel":11891,"Ġradikalisierung":11892,"flÃ¼chtling":11893,"Ġgermans":11894,"Ġmilit":11895,"ĠverschlieÃŁen":11896,"1073741829":11897,"eignet":11898,"Ġtake":11899,"ĠfahrlÃ¤ss":11900,"schungel":11901,"ĠjÃ¤hrlich":11902,"ĠjÃ¤hrigen":11903,"Ġrechtsextremisten":11904,"Ġheinz":11905,"mitglieder":11906,"ðŁĺģðŁĺģ":11907,"sicherheit":11908,"ĠtschÃ¼ss":11909,"oretiker":11910,"Ġpolemik":11911,"dadgd":11912,"Ġdittmer":11913,"bon":11914,"hw":11915,"uhr":11916,"enen":11917,"erre":11918,"Ġword":11919,"Ġmisst":11920,"Ã¼cken":11921,"schi":11922,"lla":11923,"llos":11924,"Ġpanzer":11925,"Ġeinigkeit":11926,"arnt":11927,"ĠzustÃ¤ndig":11928,"ĠanmaÃŁen":11929,"Ġers":11930,"Ġergeben":11931,"Ġstruktur":11932,"Ġbefrei":11933,"139":11934,"ray":11935,"Ġgesellschaften":11936,"osoph":11937,"blen":11938,"Ġhope":11939,"Ġbrauchte":11940,"Ġtoo":11941,"Ġbesserung":11942,"Ġeinzus":11943,"Ġque":11944,"Ġtraue":11945,"Ġzweier":11946,"hauptstadt":11947,"Ġversorgt":11948,"extrem":11949,"Ġperspektive":11950,"bedÃ¼r":11951,"geteilt":11952,"Ġermorden":11953,"Ġoberen":11954,"Ġintelligente":11955,"Ġerinnere":11956,"wohnern":11957,"Ġkundtun":11958,"ĠÂ«":11959,"Ġpauschalisieren":11960,"eleak":11961,"ĠfortfÃ¼hren":11962,"wahrheiten":11963,"ĠeingeschrÃ¤nkt":11964,"Ġdurften":11965,"Ġbeherrscht":11966,"Ġangezeigt":11967,"Ġmuselman":11968,"Ġzunehmend":11969,"Ġeintritt":11970,"ĠannÃ¤her":11971,"Ġgegenwind":11972,"Ġverblendeten":11973,"Ġclever":11974,"ĠstrÃ¶mungen":11975,"ĠfrÃ¶h":11976,"'.":11977,"bÃ¼cher":11978,"ea":11979,"gas":11980,"mÃ¼t":11981,"ns":11982,"trotz":11983,"energie":11984,"Ġsenden":11985,"Ġsmart":11986,"Ġkz":11987,"schten":11988,"Ġly":11989,"Ġtreu":11990,"inhalt":11991,"eticker":11992,"ishm":11993,"Ġratte":11994,"Ġbedenklich":11995,"Ġausgesetzt":11996,"Ġwohng":11997,"respekt":11998,"igens":11999,"bla":12000,"key":12001,"ppeln":12002,"Ġente":12003,"Ġeigenem":12004,"erkl":12005,"geleitet":12006,"Ã¤chten":12007,"ĠmÃ¶gliche":12008,"Ġschreiber":12009,"Ġchristlicher":12010,"Ġchristliches":12011,"Ġzeige":12012,"Ġ50000":12013,"ĠgrÃ¶sste":12014,"Ġ!!!!!!!!":12015,"file":12016,"Ġboah":12017,"âĢĿ.":12018,"braucht":12019,"Ġverschwunden":12020,"ativer":12021,"packt":12022,"ĠbefÃ¼rworten":12023,"Ġgebeten":12024,"Ġsympathie":12025,"Ġparallelen":12026,"Ġtrittin":12027,"Ġbekloppt":12028,"Ġsilv":12029,"Ġschicksal":12030,"Ġlinksradikale":12031,"ĠrÃ¤umen":12032,"Ġgnade":12033,"Ġdumpfbacken":12034,"weihnachts":12035,"Ġirrsinn":12036,"Ġtschechien":12037,"Ġwahrnehmung":12038,"sekret":12039,"ĠvermÃ¶gen":12040,"%,":12041,"//":12042,"315":12043,"ritte":12044,"ux":12045,"wolf":12046,"Ġdyn":12047,"ĠnÃ¼tz":12048,"esst":12049,"ĠbÃ¤um":12050,"Ġfangt":12051,"ĠgedrÃ¤ngt":12052,"Ġgejagt":12053,"arsch":12054,"eure":12055,"Ġty":12056,"iers":12057,"mme":12058,"annter":12059,"Ġrekrut":12060,"Ġausm":12061,"105":12062,"Ġgesunde":12063,"Ġbeigebracht":12064,"ĠÃ¼berdenken":12065,"pper":12066,"ausser":12067,"gesagt":12068,"angriff":12069,"Ġdiesbe":12070,"sollen":12071,"flucht":12072,"Ġbegrenz":12073,"Ġgebet":12074,"Ġfalse":12075,"geschehen":12076,"Ġhandlungs":12077,"Ġzahle":12078,"Ġarbeitnehmer":12079,"Ġzweiter":12080,"Ġvertu":12081,"Ġbenennen":12082,"Ġjoey":12083,"Ġstudium":12084,"Ġkatja":12085,"Ġregelrecht":12086,"Ġostdeutschland":12087,"Ã¼chter":12088,"Ġverpissen":12089,"Ġflaggen":12090,"idioten":12091,"Ġalternativ":12092,"Ġspanier":12093,"Ġausbeutung":12094,"Ġinterpretieren":12095,"Ġrala":12096,"kundgebung":12097,"bliebenen":12098,"Ġschlagzeilen":12099,"Ġhunderttausende":12100,"traurig":12101,"Ġsugger":12102,"417":12103,"677":12104,"aend":12105,"db":12106,"dort":12107,"hÃ¼":12108,"poten":12109,"sold":12110,"ÑĢ":12111,"enst":12112,"Ġned":12113,"Ġ29":12114,"Ġ2017":12115,"Ġborn":12116,"Ġvok":12117,"ĠkÃ¼nft":12118,"itas":12119,"ara":12120,"emann":12121,"Ġzugehen":12122,"ĠtrÃ¼":12123,"intern":12124,"Ġversen":12125,"Ġversprechen":12126,"amin":12127,"Ġaufm":12128,"Ġauffassung":12129,"Ġankommen":12130,"Ġdemograf":12131,"ttung":12132,"Ġvorwand":12133,"Ġgegenzug":12134,"Ġumdrehen":12135,"Ġblum":12136,"Ġliefen":12137,"ĠberÃ¼cksicht":12138,"Ġgelingen":12139,"rup":12140,"Ġhinweise":12141,"dieser":12142,"Ġthan":12143,"Ġthose":12144,"Ġbrig":12145,"Ġfinds":12146,"Ġregnen":12147,"Ġfreizeit":12148,"Ġwahrheiten":12149,"ĠkinderschÃ¤nder":12150,"drÃ¤ngen":12151,"Ġzahlreiche":12152,"Ġgedroht":12153,"Ġmenschlich":12154,"Ġvertreiben":12155,"Ġabsatz":12156,"Ġlosgehen":12157,"ĠanfÃ¤ngt":12158,"ausenden":12159,"ÙĦÙĩ":12160,"mond":12161,"Ġunterschiedlichen":12162,"Ġabgeschlossen":12163,"willige":12164,"wÃ¼rdige":12165,"Ġglaubensrichtungen":12166,"karte":12167,"Ġplanen":12168,"faschismus":12169,"Ġnachbarschaft":12170,"Ġedathy":12171,"Ġnetter":12172,"politische":12173,"Ġwachsenden":12174,"bai":12175,"Ġeuropean":12176,"bomber":12177,"Ġhumanismus":12178,"Ġdestabil":12179,"Ġzigeuner":12180,"Ġsenf":12181,"Ġkorrupte":12182,"Ġvordergrund":12183,"Ġabzulenken":12184,"Ġbezweifle":12185,"wachs":12186,"empfÃ¤nger":12187,"antasie":12188,"Ġbrandenburg":12189,"Ġbosn":12190,"Ġbetreffen":12191,"ĠverprÃ¼gelt":12192,"Ġmvgida":12193,"directupload":12194,"Ġindoktrin":12195,"62":12196,"aste":12197,"dt":12198,"darf":12199,"hÃ¤":12200,"iÃ¨re":12201,"ky":12202,"mio":12203,"saus":12204,"srecht":12205,"utet":12206,"Ġdt":12207,"eimer":12208,"Ġmeister":12209,"Ġkalif":12210,"Ã¤glichen":12211,"ĠgeÃ¶ffnet":12212,"Ġanschaut":12213,"Ġerit":12214,"Ġstirn":12215,"1501":12216,"umwelt":12217,"Ġbeihilfe":12218,"065":12219,"vergewalt":12220,"vermÃ¶gen":12221,"oting":12222,"gerichtet":12223,"weichen":12224,"Ġrechtzeitig":12225,"Ġweitergeht":12226,"Ġgelieb":12227,"Ġeigentor":12228,"oglu":12229,"bard":12230,"Ġverletzen":12231,"auton":12232,"ĠpaÃŁt":12233,"Ġirgendwer":12234,"heiko":12235,"Ġsonstigen":12236,"ĠbundeslÃ¤nder":12237,"Ġabseits":12238,"aka":12239,"Ġmutige":12240,"Ø§ÙĨ":12241,"Ġwirtschaftlich":12242,"zeuge":12243,"verbrecher":12244,"Ġ2009":12245,"Ġaustausch":12246,"Ġweihnachtsmann":12247,"ĠbegrÃ¼nden":12248,"ĠschmeiÃŁt":12249,"Ġrussische":12250,"stafa":12251,"Ġvorgeworfen":12252,"ĠerhÃ¶hen":12253,"Ġhistorischen":12254,"wichtig":12255,"widerstand":12256,"meinungsfreiheit":12257,"Ġmindestlohn":12258,"Ġviva":12259,"ĠsÃ¼ndenbock":12260,"elstreifen":12261,"Ġerachtens":12262,"ĠjÃ¶rg":12263,"Ġgoebbels":12264,"115":12265,"700":12266,"bten":12267,"brot":12268,"gm":12269,"hc":12270,"haut":12271,"kass":12272,"langer":12273,"nc":12274,"zip":12275,"ĠÃ¤ngst":12276,"Ġdm":12277,"Ġdschungel":12278,"Ġsinken":12279,"Ġatem":12280,"Ġweinen":12281,"Ġmedia":12282,"Ġmfg":12283,"Ġmadrid":12284,"stirn":12285,"Ġhard":12286,"ask":12287,"Ġbit":12288,"Ġpor":12289,"Ġputz":12290,"Ġderjenige":12291,"Ġsoetwas":12292,"Ġtanz":12293,"Ġverank":12294,"Ġaufbau":12295,"Ġaufgaben":12296,"rote":12297,"Ġhaar":12298,"Ġsieger":12299,"Ġstur":12300,"Ġausgrenzung":12301,"Ġaluh":12302,"umpen":12303,"Ġvorfall":12304,"Ġislamistisch":12305,"ĠumstÃ¤nden":12306,"Ġabgrund":12307,"Ġnachwuchs":12308,"Ã¶rdern":12309,"eutel":12310,"ebte":12311,"Ġlebend":12312,"Ġherkommt":12313,"ptisch":12314,"Ġsubst":12315,"glÃ¤ubigen":12316,"pect":12317,"schwein":12318,"geheim":12319,"Ġangep":12320,"wecken":12321,"Ø§Øª":12322,"Ġbodo":12323,"Ġmerke":12324,"Ġnationalen":12325,"counts":12326,"Ġahnungslosen":12327,"ĠgefÃ¼hlt":12328,"Ġhitlers":12329,"Ġeinwanderern":12330,"Ġmassive":12331,"Ġideologien":12332,"ĠseriÃ¶s":12333,"Ġfanatischen":12334,"Ġzwangsl":12335,"mitteln":12336,"Ġrealistisch":12337,"anwalt":12338,"Ġ----":12339,"Ġscheinheilig":12340,"spektiv":12341,"gsfeld":12342,"ĠerfÃ¼llen":12343,"Ġsubje":12344,"Ġattackers":12345,"ĠandersglÃ¤ubigen":12346,"zitate":12347,"Ġantifaschisten":12348,"Ġanwesend":12349,"Ġgeregelte":12350,"Ġmarcel":12351,"bayern":12352,"Ġschnee":12353,"Ġbildungsferne":12354,"Ġgeschlecht":12355,"kowsky":12356,"polenum":12357,"',":12358,",..":12359,"<<":12360,"av":12361,"allt":12362,"ced":12363,"hÃ¶r":12364,"mÃ¤chte":12365,"rand":12366,"ergeb":12367,"Ġmike":12368,"stop":12369,"Ġundemokrat":12370,"Ġfdj":12371,"Ã¤hn":12372,"Ġeinreise":12373,"altern":12374,"attet":12375,"mmeln":12376,"Ġauffallen":12377,"ageg":12378,"Ġstol":12379,"Ġstumpf":12380,"Ġausg":12381,"Ġausgeben":12382,"Ġausgew":12383,"Ġauszug":12384,"Ġfraktion":12385,"1337":12386,"reibe":12387,"ile":12388,"Ġweitem":12389,"Ġprom":12390,"Ġmenschenrecht":12391,"ĠmuÃŁt":12392,"Ġrechtlich":12393,"Ġallesamt":12394,"rangert":12395,"349":12396,"Ġgereicht":12397,"antin":12398,"antrag":12399,"Ġproblematik":12400,"Ġentdeckt":12401,"Ġverletzte":12402,"Ġkoffer":12403,"Ġbeton":12404,"Ġbedauern":12405,"Ġsonstige":12406,"schweigen":12407,"Ġspaziert":12408,"Ġ98":12409,"Ġwahrheits":12410,"Ġschlimmes":12411,"Ġakadem":12412,"straf":12413,"Ġvergiss":12414,"Ġfaschos":12415,"Ġfaschistische":12416,"krise":12417,"radikale":12418,"Ġ120":12419,"Ġhahahahaha":12420,"eee":12421,"krÃ¤ftig":12422,"Ġholger":12423,"ĠbestÃ¤tigung":12424,"Ġzuwanderern":12425,"Ġmodernen":12426,"Ġkassieren":12427,"Ġschimpf":12428,"Ġtrain":12429,"Ġassimil":12430,"ĠbrÃ¤uche":12431,"ĠðŁĺĤðŁĺĤðŁĺĤðŁĺĤðŁĺĤ":12432,"Ġschily":12433,"Ġvermeintlich":12434,"ĠgemÃ¤ÃŁigten":12435,"ĠbegrÃ¼ÃŁen":12436,"Ġverunglimpfen":12437,"Ġtiefer":12438,"Ġabschlachten":12439,"ĠÃ¼bergriffe":12440,"Ġgekaufte":12441,"Ġmoslime":12442,"Ġarmutszeugnis":12443,"Ġhurensohn":12444,"beteiligung":12445,"russland":12446,"Ġtherap":12447,"bassy":12448,"604":12449,"fx":12450,"Ø´":12451,"Ġ~":12452,"Ġ36":12453,"erei":12454,"Ġsw":12455,"Ġsetze":12456,"Ġgange":12457,"Ġnannte":12458,"eingenommen":12459,"Ġkagida":12460,"schwer":12461,"Ġlars":12462,"auten":12463,"Ġdenker":12464,"Ġunt":12465,"Ġanziehen":12466,"ĠerhÃ¤lt":12467,"Ġsiegen":12468,"ĠrÃ¶m":12469,"Ġstinken":12470,"Ġrechen":12471,"befÃ¼r":12472,"Ġwogegen":12473,"ĠÃ¼berheb":12474,"fair":12475,"Ġstet":12476,"Ġmenschenleben":12477,"Ġmuster":12478,"Ġdarzustellen":12479,"Ġblinde":12480,"Ġschlapp":12481,"artige":12482,"Ġdurchzu":12483,"ollegen":12484,"Ġschwachen":12485,"flÃ¤che":12486,"Ġentzogen":12487,"Ġpast":12488,"ict":12489,"Ġmarg":12490,"Ġkulturkreis":12491,"beleid":12492,"Ã¼ttert":12493,"ĠgrÃ¶ÃŁe":12494,"Ġ4000":12495,"Ġembassy":12496,"Ġletztens":12497,"Ġdaraufhin":12498,"Ġminim":12499,"ĠÃ¼berleg":12500,"prÃ¤sidenten":12501,"Ġschwachkopf":12502,"braun":12503,"Ġvernichtet":12504,"ĠØª":12505,"Ġharry":12506,"Ġinto":12507,"Ġdefinieren":12508,"Ġprotestiert":12509,"ĠauslÃ¤ndischer":12510,"Ġwachst":12511,"Ġbuchstaben":12512,"Ġergebnisse":12513,"Ġkatholisch":12514,"klappen":12515,"Ġweisheit":12516,"Ġstrafanzeige":12517,"raktion":12518,"Ġdauernd":12519,"Ġnennst":12520,"lernen":12521,"ĠmÃ¤rz":12522,"Ġehrenmord":12523,"Ġpraktiziert":12524,"Ġmoralisch":12525,"Ġ-->":12526,"Ġrauchen":12527,"mobile":12528,"veranstaltungen":12529,"Ġbananen":12530,"Ġprofitieren":12531,"liveleak":12532,"ochtimes":12533,"verbrennen":12534,"ĠsÃ¤chsischen":12535,"Ġverleumdung":12536,"Ġdiskreditieren":12537,"Ġzehntausende":12538,"Ġmathem":12539,"Ġhupen":12540,"Ġausgenutzt":12541,"ĠtodenhÃ¶fer":12542,"fressen":12543,"zm":12544,"zelt":12545,"ermann":12546,"Ġick":12547,"stunde":12548,"einwanderer":12549,"Ġhies":12550,"Ġbah":12551,"Ġpfa":12552,"Ġtip":12553,"insen":12554,"igter":12555,"Ġveran":12556,"Ġbefr":12557,"istin":12558,"ĠvorschlÃ¤ge":12559,"Ġimag":12560,"Ġimpl":12561,"Ġabsp":12562,"agentur":12563,"Ġfaden":12564,"Ġrechtlichen":12565,"4500":12566,"gelder":12567,"schlimm":12568,"Ġherrschaft":12569,"Ġflei":12570,"ialismus":12571,"Ġschulbildung":12572,"Ġkindergeld":12573,"wirft":12574,"Ġpleite":12575,"ĠplÃ¤tze":12576,"Ġ.........":12577,"dullah":12578,"ĠbetrÃ¼":12579,"Ġzusammenhalten":12580,"Ġandersrum":12581,"ĠgrÃ¶ÃŁen":12582,"Ġkurd":12583,"Ġ92":12584,"Ġversager":12585,"Ġangebot":12586,"Ġorganisator":12587,"Ġpariser":12588,"Ġnationale":12589,"innenminister":12590,"Ġhamburger":12591,"Ġreichs":12592,"ĠlÃ¶st":12593,"konzert":12594,"Ġkirchensteuer":12595,"handels":12596,"ĠÃ¤ngsten":12597,"Ġversammlungen":12598,"aaaaaaaa":12599,"Ġggf":12600,"spazieren":12601,"Ġfarb":12602,"Ġehrenmorde":12603,"status":12604,"ĠprÃ¼gel":12605,"Ġpotent":12606,"Ġderartige":12607,"Ġpredigt":12608,"ĠdÃ¤mlichen":12609,"ĠdurchgefÃ¼hrt":12610,"produktiv":12611,"Ġbekenntnis":12612,"Ġgeehrter":12613,"Ġfeiglinge":12614,"Ġdoesn":12615,"petenz":12616,"Ġspontan":12617,"Ġkaffee":12618,"Ġtwitter":12619,"Ġsmartph":12620,"Ġverankert":12621,"116":12622,"303":12623,"aah":12624,"baum":12625,"hor":12626,"jauch":12627,"ron":12628,"tal":12629,"Ġsing":12630,"Ġske":12631,"Ġmimim":12632,"stlich":12633,"ĠgÃ¶n":12634,"Ġbanden":12635,"Ġkil":12636,"Ġkant":12637,"Ġficken":12638,"Ġpfe":12639,"Ġeingang":12640,"Ġeinbringen":12641,"atische":12642,"Ġinklusive":12643,"Ġsofa":12644,"Ġsozusagen":12645,"etar":12646,"Ġesse":12647,"Ġvera":12648,"Ġverkommen":12649,"Ġoha":12650,"Ġanpass":12651,"Ġerpress":12652,"Ġrisiko":12653,"Ġstrukturen":12654,"Ġsichern":12655,"Ġrefuge":12656,"Ġausst":12657,"Ġausfallen":12658,"Ġausspricht":12659,"serfahrung":12660,"179":12661,"167":12662,"Ġimper":12663,"ĠÃ¼berzahl":12664,"Ġabitur":12665,"Ġmustafa":12666,"Ġwaere":12667,"Ġgeschichten":12668,"Ġlebende":12669,"flor":12670,"abgesch":12671,"tretern":12672,"ĠâĢĺ":12673,"Ġbester":12674,"Ġwahrnehmen":12675,"ĈĈĈĈĈ":12676,"wobei":12677,"sstra":12678,"Ġgestanden":12679,"Ġbedingung":12680,"swill":12681,"heimen":12682,"Ġhandlungen":12683,"Ġtagess":12684,"Ã¼tzer":12685,"Ġnorden":12686,"Ġansage":12687,"Ġehrlichen":12688,"Ġboykott":12689,"ious":12690,"ĠÃ¼berlege":12691,"redner":12692,"ĠÙĩ":12693,"verband":12694,"Ġdistanzierung":12695,"europas":12696,"muslimen":12697,"ophob":12698,"zulesen":12699,"verdacht":12700,"Ġgerechtfertigt":12701,"Ġups":12702,"Ġdirekten":12703,"Ġvorteile":12704,"dreht":12705,"Ġbalkon":12706,"Ġnadelstreifen":12707,"ĠmaiziÃ¨re":12708,"Ġreflekt":12709,"Ġmahnwache":12710,"revolution":12711,"Ġkatastrophe":12712,"Ġpfeffer":12713,"feier":12714,"gter":12715,"hha":12716,"kw":12717,"ohlen":12718,"ttemberg":12719,"Ġdra":12720,"Ġapr":12721,"Ġwix":12722,"Ġibra":12723,"Ġmau":12724,"Ġgand":12725,"ĠgÃ¼nst":12726,"Ġbreiten":12727,"ngem":12728,"Ġpul":12729,"alarm":12730,"ork":12731,"Ġzun":12732,"Ġthr":12733,"Ġverfehl":12734,"Ġunmensch":12735,"sler":12736,"Ġanl":12737,"Ġerforder":12738,"Ġausw":12739,"Ġaussicht":12740,"Ġumer":12741,"Ġumgeht":12742,"Ġspucken":12743,"Ġkannte":12744,"sprech":12745,"Ġunsach":12746,"Ġkleidung":12747,"Ġdarstellung":12748,"Ġgewisser":12749,"Ġschlam":12750,"Ġdurchgesetzt":12751,"Ġschwimm":12752,"zellen":12753,"Ġgrundordnung":12754,"Ġruin":12755,"Ġgesteinigt":12756,"Ġthematik":12757,"Ġhandel":12758,"stÃ¤ndige":12759,"Ġstimmungs":12760,"Ġhilf":12761,"iftet":12762,"ĠbeitrÃ¤gen":12763,"Ġeinzelner":12764,"Ġgekehrt":12765,"ĠmÃ¼nchner":12766,"Ġignorant":12767,"ĠmÃ¼sstest":12768,"mehrheit":12769,"Ġengstirn":12770,"Ġprivatsache":12771,"Ġzivilcourage":12772,"Ġausdrucksweise":12773,"ĠgeflÃ¼chtet":12774,"Ġnationalsozialisten":12775,"epochtimes":12776,"ĠbrÃ¤uchte":12777,"Ġjahrhunderten":12778,"ĠschlieÃŁe":12779,"gottes":12780,"Ġzustande":12781,"Ġmosk":12782,"Ġgegenwart":12783,"Ġgeehrte":12784,"Ġgewaltbereitschaft":12785,"ĠÃ¼berwachung":12786,"Ġvatikan":12787,"ĠtÃ¶ne":12788,"embedded":12789,"ĠzwangslÃ¤ufig":12790,"308":12791,"549":12792,"dres":12793,"kre":12794,"rund":12795,"rennen":12796,"ukra":12797,"ymp":12798,"star":12799,"Ġbauer":12800,"Ã¤usser":12801,"Ġeinreisen":12802,"eucht":12803,"Ġmitteilen":12804,"Ġanspricht":12805,"ĠanfÃ¼hrer":12806,"Ġbefreien":12807,"beste":12808,"156":12809,"1566":12810,"ĠwomÃ¶glich":12811,"....,":12812,"ĠÃ¼berwiegen":12813,"Ġabd":12814,"ĠweiÃŁen":12815,"verei":12816,"Ġschles":12817,"Ġchild":12818,"Ġbeschm":12819,"ĠbeschÃ¼tzen":12820,"vorstellungen":12821,"Ġbetreu":12822,"Ġdev":12823,"Ġandauer":12824,"Ġernten":12825,"gehoert":12826,"Ġhalal":12827,"Ġerwachen":12828,"ĠnationalitÃ¤ten":12829,"Ġbildern":12830,"Ġauftauchen":12831,"Ġberuflich":12832,"Ġamerikanisierung":12833,"Ġkommunikation":12834,"Ġhingeh":12835,"ðŁĺīðŁĺī":12836,"Ġrechtfertigung":12837,"Ġhervorragend":12838,"magaz":12839,"Ġnegativen":12840,"Ġkonvertiert":12841,"Ġscheinheiligkeit":12842,"Ġgeringsten":12843,"Ġgeklappt":12844,"Ġliberal":12845,"Ġrecherchiert":12846,"Ġniedrig":12847,"ĠÙĦØ§":12848,"Ġ**********":12849,"Ġbeeindrucken":12850,"Ġermordeten":12851,"Ġverwerflich":12852,"Ġflorian":12853,"Ġdiebstahl":12854,"Ġibrahim":12855,"/!":12856,"graben":12857,"het":12858,"kelt":12859,"lad":12860,"nacht":12861,"satire":12862,"xw":12863,"Ġdj":12864,"eisen":12865,"Ġwagner":12866,"Ġgida":12867,"Ġnwo":12868,"anis":12869,"Ġkragen":12870,"scha":12871,"ĠfÃ¤nde":12872,"Ã¤mmer":12873,"Ġlet":12874,"Ġpaz":12875,"Ġpri":12876,"itischen":12877,"atÃ¼rk":12878,"irr":12879,"ĠtÃ¼":12880,"Ġscher":12881,"Ġvergeben":12882,"Ġunendlich":12883,"Ġunfug":12884,"Ġaufst":12885,"Ġankl":12886,"Ġerden":12887,"Ġerwer":12888,"Ġerstellt":12889,"Ġerfurt":12890,"Ġerzeugt":12891,"Ġstroh":12892,"Ġbete":12893,"Ġmanfred":12894,"Ġausgegeben":12895,"Ġfris":12896,"Ġeur":12897,"ometer":12898,"ĠvorwÃ¤rts":12899,"Ġvorstrafen":12900,"099":12901,"anze":12902,"ðŁİ":12903,"Ġuntergehen":12904,"Ġunterlass":12905,"verse":12906,"azu":12907,"Ġbeseit":12908,"Ġecken":12909,"Ġwall":12910,"3638":12911,"Ġgerechte":12912,"Ġverbrechern":12913,"Ġsudan":12914,"Ġbestes":12915,"Ġsicheren":12916,"Ġgrunds":12917,"Ġgleichheit":12918,"schef":12919,"ics":12920,"ĠðŁĺ³":12921,"ĠðŁĺħ":12922,"Ġbedingungen":12923,"Ġpolizeischutz":12924,"Ġpolizeibeam":12925,"Ġquatschen":12926,"Ġzahlreichen":12927,"franz":12928,"Ġtolerante":12929,"koeln":12930,"Ġmusels":12931,"ĠvertrÃ¤ge":12932,"Ġ:-/":12933,"Ġrespektlos":12934,"ryk":12935,"iften":12936,"Ġkonto":12937,"Ġlucke":12938,"Ġtypische":12939,"Ġhirnlose":12940,"Ġbehaupte":12941,"ĠmitlÃ¤uft":12942,"ĠkÃ¶gida":12943,"Ġpflichten":12944,"Ġprofess":12945,"Ġerfindung":12946,"Ġkonkur":12947,"Ġverdammte":12948,"abendland":12949,"huffingtonpost":12950,"ĠÃ¶sterreicher":12951,"Ġclan":12952,"Ã¤Ã¤Ã¤Ã¤":12953,"Ġpraktizieren":12954,"Ġstatements":12955,"Ġantidemokrat":12956,"Ġintellektuell":12957,"Ġverabschie":12958,"Ġvorzugehen":12959,"Ġrandalieren":12960,"Ġsabine":12961,"Ġphilipp":12962,"Ġbeugen":12963,"Ġlengsfeld":12964,"Ġablenken":12965,"Ġglashaus":12966,"sverbot":12967,"ĠermÃ¶glichen":12968,"Ġhijacker":12969,"ĠgÃ¶tter":12970,"ĠunzÃ¤hlige":12971,"Ġlehne":12972,"Ġruhrgebiet":12973,"Ġironisch":12974,"ishment":12975,"301":12976,"422":12977,"bÃ¼r":12978,"job":12979,"jagd":12980,"kern":12981,"nst":12982,"sburg":12983,"endern":12984,"Ġholz":12985,"Ġbw":12986,"Ġbnd":12987,"Ã¼nder":12988,"Ġkreisen":12989,"ĠzÃ¤":12990,"ĠpÃ¤":12991,"Ġinno":12992,"Ġzufolge":12993,"Ġzuwachs":12994,"Ġverlin":12995,"Ġhate":12996,"Ġanja":12997,"Ġrief":12998,"ĠausmaÃŁ":12999,"Ġalger":13000,"Ġvorfeld":13001,"ðŁĻ":13002,"Ġunsicher":13003,"verk":13004,"Ġklapp":13005,"Ġmuessen":13006,"hafen":13007,"ellt":13008,"Ġgelenkt":13009,"Ġwurscht":13010,"herzig":13011,"Ġgerettet":13012,"brut":13013,"Ġflut":13014,"ĠauslÃ¶":13015,"Ġstaatsk":13016,"ĠâĢļ":13017,"Ġheiraten":13018,"sympath":13019,"Ġverlierer":13020,"Ġantipegida":13021,"Ġwahrhaben":13022,"Ġirgendeinen":13023,"Ġexport":13024,"Ġeinzelt":13025,"Ġgedreht":13026,"Ġvertraut":13027,"Ġversiff":13028,"Ġverkauf":13029,"Ġperspektiv":13030,"Ġnationalhymne":13031,"friedlichen":13032,"Ġwestdeutschland":13033,"Ġtreff":13034,"ĠwunderschÃ¶n":13035,"Ġverschwendet":13036,"Ġeven":13037,"Ġbefehl":13038,"Ġablehnt":13039,"Ġabgestimmt":13040,"Ġverschaffen":13041,"Ġverteidigung":13042,"Ġspekul":13043,"sdorf":13044,"Ġhindu":13045,"Ġbeantragen":13046,"Ġbereichern":13047,"Ġlebten":13048,"christian":13049,"Ġvermummte":13050,"Ġmotiviert":13051,"ĠdÃ¼mmste":13052,"ĠÃ¶fters":13053,"Ã¼ttelt":13054,"Ġyears":13055,"Ġunruhe":13056,"Ġgekauften":13057,"wÃ¶rter":13058,"ategorie":13059,"ĠschÃ¤del":13060,"Ġverunsich":13061,"hÃ¤lse":13062,"redaktion":13063,"Ġapril":13064,"838":13065,"=-":13066,"cre":13067,"iot":13068,"kanzler":13069,"kindern":13070,"mas":13071,"pressen":13072,"szen":13073,"xap":13074,"Ú©":13075,"erd":13076,"Ġwettern":13077,"Ġmand":13078,"Ġbisch":13079,"Ġkabel":13080,"Ġferkel":13081,"Ġzyn":13082,"Ġgelle":13083,"arr":13084,"ams":13085,"Ġaufgel":13086,"Ġaufgesch":13087,"Ġaufgegeben":13088,"Ġanbieten":13089,"Ġersetzt":13090,"Ġwies":13091,"Ġstrei":13092,"enny":13093,"ckte":13094,"Ġabdullah":13095,"zufÃ¼gen":13096,"Ġbesoffen":13097,"Ġcr":13098,"Ġdiesel":13099,"herz":13100,"Ġausleg":13101,"Ġobigen":13102,"Ġtunes":13103,"wieso":13104,"ĈĈĈĈĈĈ":13105,"Ġgestiegen":13106,"Ġ1992":13107,"Ġmarcus":13108,"Ġgesellschaftliche":13109,"denkende":13110,"Ġjunger":13111,"gesetzten":13112,"Ġgeistiger":13113,"Ġlutsch":13114,"redigt":13115,"law":13116,"Ġsympathisieren":13117,"behÃ¶rde":13118,"Ġbrandstifter":13119,"Ġwandel":13120,"gespielt":13121,"ĠÙĪØ§ÙĦ":13122,"Ġmenschenverachtenden":13123,"Ġtruppe":13124,"Ġquran":13125,"Ġstichwort":13126,"verschwendung":13127,"ĠarbeitskrÃ¤fte":13128,"Ġunkontrollierte":13129,"ĠÃł":13130,"Ġfreundeskreis":13131,"Ġbewohner":13132,"ĠrumÃ¤nien":13133,")?":13134,"437":13135,"cj":13136,"cra":13137,"ddr":13138,"witz":13139,"zerst":13140,"ĠdrÃ¼ck":13141,"Ġay":13142,"Ġwett":13143,"ĠgÃ¶r":13144,"Ġult":13145,"Ã¼m":13146,"Ġzorn":13147,"Ġlook":13148,"Ġlemm":13149,"Ġpension":13150,"irl":13151,"emin":13152,"Ġtick":13153,"Ġschme":13154,"Ġverschen":13155,"ters":13156,"amotten":13157,"isiere":13158,"eho":13159,"Ġanne":13160,"tschaf":13161,"eilnehmer":13162,"....\"":13163,"edom":13164,"eigentlich":13165,"ĠgewÃ¤hren":13166,"Ġblos":13167,"ĠschlÃ¼ssel":13168,"Ġcenter":13169,"ebel":13170,"rants":13171,"Ġgeringer":13172,"sack":13173,"Ġersticken":13174,"Ġbrachte":13175,"Ã¤ndler":13176,"Ġentziehen":13177,"afe":13178,"samt":13179,"Ġhinterlassen":13180,"gebot":13181,"gebildet":13182,"Ġversuchten":13183,"Ġzahlreich":13184,"Ġbundesland":13185,"islamismus":13186,"islamischer":13187,"Ġvermuten":13188,"Ġverhand":13189,"Ġhalben":13190,"Ġafter":13191,"ublic":13192,"ĠbÃ¶ller":13193,"Ġ1500":13194,"Ġbombard":13195,"ĠÙĥ":13196,"Ġfeindlich":13197,"Ġschlimmeres":13198,"kamer":13199,"Ġwahnsinnig":13200,"Ġschmeissen":13201,"offt":13202,"Ġcarmen":13203,"ðŁĳıðŁĳıðŁĳıðŁĳı":13204,"Ġjenen":13205,"Ġsatir":13206,"Ġnicole":13207,"Ġgewerkschaft":13208,"Ġwilhel":13209,"ĠbemÃ¼ht":13210,"Ġverwechseln":13211,"Ġmaske":13212,"person":13213,"Ġumfassen":13214,"ollektiv":13215,"ĠtÃ¤uschen":13216,"president":13217,"Ġfelix":13218,"Ġaugustusplatz":13219,"Ġkumpel":13220,"ĠdiesbezÃ¼glich":13221,"\"\"":13222,"323":13223,"bane":13224,"hd":13225,"kk":13226,"mc":13227,"opol":13228,"qh":13229,"vg":13230,"val":13231,"Ġ31":13232,"Ġdien":13233,"Ġsur":13234,"Ġsegen":13235,"Ġig":13236,"Ġmaz":13237,"Ġnei":13238,"Ġnight":13239,"Ġhindern":13240,"Ġkul":13241,"Ġfiel":13242,"ĠzÃ¼ge":13243,"Ġlind":13244,"alition":13245,"Ġzustrom":13246,"Ġsoph":13247,"Ġverse":13248,"Ġverweisen":13249,"Ġunbel":13250,"isant":13251,"Ġmitstrei":13252,"rohr":13253,"Ġanzusehen":13254,"Ġerrichten":13255,"agog":13256,"225":13257,"Ġalarm":13258,"ielten":13259,"Ġwarscheinlich":13260,"landet":13261,"imper":13262,"Ġspir":13263,"Ġspinnen":13264,"ĠÃ¼bertragen":13265,"Ġabger":13266,"fakten":13267,"Ġklische":13268,"Ġklauen":13269,"Ġbesorgt":13270,"Ġbeseitigen":13271,"Ġblinden":13272,"Ġwah":13273,"ĠeinfÃ¤llt":13274,"Ġgerede":13275,"Ġmoslemische":13276,"ĠbeschÃ¼tzt":13277,"Ġbetrie":13278,"Ġdeklar":13279,"ĠðŁĺł":13280,"Ġquad":13281,"Ġmannheim":13282,"ĠstrÃ¶":13283,"svert":13284,"experten":13285,"ĠeuropÃ¤ischer":13286,"gruÃŁ":13287,"Ġwichtigsten":13288,"ĠglaubwÃ¼rdig":13289,"verbreiten":13290,"Ġ18000":13291,"ĠweihnachtsmÃ¤rkte":13292,"ĠÃ¤rgert":13293,"account":13294,"Ġaufwacht":13295,"Ġjeglichen":13296,"Ġimmigration":13297,"Ġinfrast":13298,"darsteller":13299,"))))":13300,"gedanken":13301,"ĠkrÃ¤ftig":13302,"Ġrechtsextremismus":13303,"Ġbesatzung":13304,"Ġaggressiven":13305,"Ġschubladen":13306,"ĠbrÃ¤uchten":13307,"Ġerkenne":13308,"Ġparlamentar":13309,"Ġartikulieren":13310,"Ġthorsten":13311,"Ġkalifat":13312,"cicero":13313,"jj":13314,"016":13315,"Ġvas":13316,"Ã¼ckt":13317,"Ġfetten":13318,"Ġfebruar":13319,"Ġeinhaltung":13320,"Ġeinkaufen":13321,"itor":13322,"emeier":13323,"iga":13324,"roth":13325,"Ġanmel":13326,"196":13327,"Ġalban":13328,"Ġbeifall":13329,"Ġabget":13330,"Ġsolls":13331,"2716":13332,"Ġprost":13333,"zucht":13334,"hebung":13335,"Ġmuch":13336,"oku":13337,"Ġleichen":13338,"Ġgelik":13339,"Ġeinerseits":13340,"Ġchi":13341,"Ġmodern":13342,"Ġschwestern":13343,"ĠflÃ¤chen":13344,"ĠverstÃ¶ÃŁt":13345,"Ġentf":13346,"qualifiziert":13347,"ĠtÃ¼ren":13348,"Ġbetont":13349,"Ġgebiete":13350,"Ġfalk":13351,"Ġinsel":13352,"rechtler":13353,"hogesa":13354,"Ġkirch":13355,"Ġzweimal":13356,"Ġoffensicht":13357,"Ġ=)":13358,"ĠgrÃ¶sser":13359,"geholt":13360,"ĠerklÃ¤rte":13361,"Ġversion":13362,"Ġ72":13363,"sprechend":13364,"iefst":13365,"ĠlÃ¶hne":13366,"ĠÃ¤hnlichen":13367,"rotten":13368,"Ġpegidageg":13369,"uuu":13370,"hÃ¶ch":13371,"ĠlÃ¶sungs":13372,"Ġfotograf":13373,"ĠðŁĩ":13374,"Ġimmig":13375,"Ġmitbewohner":13376,"Ġrechtfertigt":13377,"Ġeinwanderungsgesetz":13378,"!!!!!!!!!!!!!!!!!!!!!!!!!!!!!!!!":13379,"Ġschimpft":13380,"Ġbesatzer":13381,"Ġbush":13382,"ueler":13383,"patrioten":13384,"Ġasylantrag":13385,"Ġhomosexuelle":13386,"Ġdenunzi":13387,"ĠÃ¤nderung":13388,"Ġkiffen":13389,"Ġbrandenburger":13390,"Ġschlagzeile":13391,"Ġkorrigiert":13392,"ĠkÃ¼ndigen":13393,"ĠhasserfÃ¼ll":13394,"ĠannÃ¤hernd":13395,"Ġgandhi":13396,"/-":13397,"bj":13398,"brei":13399,"bÃ¤r":13400,"bÃ¼chern":13401,"deine":13402,"gol":13403,"kÃ¶l":13404,"rc":13405,"thread":13406,"Ġask":13407,"Ġweht":13408,"ĠgÃ¤ng":13409,"einem":13410,"Ġhehe":13411,"lliger":13412,"Ġfunken":13413,"ĠnichtwÃ¤hler":13414,"Ġschiebt":13415,"initi":13416,"bergen":13417,"egel":13418,"ames":13419,"Ġunein":13420,"Ġaufrei":13421,"Ġaufkommen":13422,"Ġanmerk":13423,"Ġert":13424,"Ġerzeugen":13425,"Ġrepress":13426,"ĠbeÃ¤ngst":13427,"Ġwerfe":13428,"Ġdeutschunterricht":13429,"gefa":13430,"union":13431,"Ġwolle":13432,"....!":13433,"entlich":13434,"Ġumwelt":13435,"056":13436,"Ġklima":13437,"zustand":13438,"Ġgipfel":13439,"Ġbesucher":13440,"ppchen":13441,"Ġmicha":13442,"Ġblitz":13443,"Ġblenden":13444,"ranger":13445,"Ġgeschrei":13446,"Ġlebendig":13447,"Ġkonform":13448,"quer":13449,"ðŁĳĬ":13450,"feed":13451,"Ġdummkopf":13452,"Ġgovern":13453,"Ġgebot":13454,"drÃ¤ng":13455,"ritter":13456,"gebiete":13457,"Ġtrauern":13458,"hoffentlich":13459,"deswegen":13460,"Ġerfolgreichen":13461,"kaem":13462,"sprich":13463,"Ġvolksbewegung":13464,"fuz":13465,"Ġgeile":13466,"Ġlogo":13467,"Ġbundestagswahl":13468,"Ġkommunismus":13469,"Ġsichtweise":13470,"gesteuert":13471,"Ġmontagsdemos":13472,"Ġaggressive":13473,"Ġzutiefst":13474,"Ġverbrennen":13475,"ĠhinzuzufÃ¼gen":13476,"ĠhÃ¤uf":13477,"Ġzecke":13478,"Ġunschuldigen":13479,"flaggen":13480,"Ġausschalten":13481,"vention":13482,"Ġgnaden":13483,"Ġrhetorik":13484,"Ġscheuklappen":13485,"patriotische":13486,"ĠerschieÃŁen":13487,"Ġrheinland":13488,"Ġlibyen":13489,"Ġmega":13490,"ariante":13491,"ziplin":13492,"634":13493,"758":13494,"don":13495,"hirn":13496,"heuch":13497,"kg":13498,"kasse":13499,"keiner":13500,"kollektiv":13501,"las":13502,"mand":13503,"ny":13504,"viert":13505,"zettel":13506,"Ø°":13507,"Ġsumpf":13508,"Ġwin":13509,"Ã¼bung":13510,"Ġkita":13511,"Ġkeim":13512,"schuss":13513,"Ġeinsicht":13514,"ĠgeklÃ¤rt":13515,"Ġgelandet":13516,"arg":13517,"ettert":13518,"Ġverpflicht":13519,"Ġmitschuld":13520,"agern":13521,"agra":13522,"ague":13523,"2207":13524,"1528":13525,"untern":13526,"Ġbeigetragen":13527,"Ġglot":13528,"Ġdeutschlandweit":13529,"Ġklagen":13530,"âĢŀ":13531,"habt":13532,"Ġschlachten":13533,"izop":13534,"rueck":13535,"552":13536,"Ġwendet":13537,"Ġbelasten":13538,"Ġlinkspartei":13539,"Ġsymp":13540,"Ġwork":13541,"warnt":13542,"Ġlangeweile":13543,"Ġsinnlosen":13544,"feindlicher":13545,"organisationen":13546,"ĠmutmaÃŁ":13547,"load":13548,"aturen":13549,"Ġwahlrecht":13550,"Ġsachlichen":13551,"iefel":13552,"heimat":13553,"Ã¤lter":13554,"Ġschweigem":13555,"Ġpflege":13556,"Ġpropagiert":13557,"795":13558,"ĠwÃ¼ten":13559,"Ġintelligenter":13560,"ĠglaubensbrÃ¼der":13561,"Ġaustritt":13562,"Ġheilig":13563,"Ġblockade":13564,"Ġversammeln":13565,"ĠgetÃ¶teten":13566,"boden":13567,"Ġabgelehnte":13568,"verdÃ¤cht":13569,"ĠhÃ¶rte":13570,"aktuelles":13571,"Ġfirst":13572,"Ġvorhandenen":13573,"ĠsÃ¼dafrika":13574,"korb":13575,"Ġtrauerflor":13576,"Ġanalys":13577,"Ġevangelischen":13578,"Ġdatum":13579,"Ġvermeintlichen":13580,"Ġanschaue":13581,"Ġunbequeme":13582,"Ġtabu":13583,"Ġeinfordern":13584,"Ġmikro":13585,"438":13586,"848":13587,"=\"":13588,"drei":13589,"dazu":13590,"ete":13591,"fra":13592,"hum":13593,"jed":13594,"kÃ¼":13595,"kostet":13596,"lÃ¤sst":13597,"misse":13598,"nÃ¤":13599,"ous":13600,"qf":13601,"rhein":13602,"sig":13603,"xj":13604,"Ġeil":13605,"ĠdrÃ¼cke":13606,
[...]
