#version: 0.2 - Trained by `huggingface/tokenizers`
Ġ Ġ
Ġ "
ĠĠ ĠĠ
" :
ĠĠ Ġ
ĠĠĠĠ Ġ
r e
" ,
t e
t h
ĠĠĠĠ ĠĠĠ
Ġ {
Ġ }
i n
m e
a r
Ġ} ,
t a
â Ģ
o r
t i
o u
o n
c e
. \
c h
Ġ a
s e
s t
d e
âĢ Ĥ
Ġ th
c o
p o
l e
s i
r i
h t
Ġth e
t o
d a
po st
a n
Ġ w
x t
1 5
te xt
ou r
in g
b o
? \
v e
t ri
ar d
Ġ [
ar ch
ti me
a u
re se
i s
rese arch
q research
bo ard
our ce
s ource
a l
th or
da ta
si te
au thor
Ġ" /
me ta
meta data
n Q
co de
tri p
f e
Ġ to
trip code
Ġ" !
Ġ 15
Ġ p
Ġ o
p s
ht t
/ /
> >
g e
Ġ \
n W
n t
Ġ b
a t
u n
htt ps
n ce
Ġ" >>
Ġ s
i t
Ġ f
Ġ c
e r
m a
r o
co m
l l
Ġo f
ti on
Ġ in
f i
h e
n d
te r
2 0
1 3
o w
fe re
Ġ ]
fere nce
Ġ"! !
re ference
1 0
Ġ d
n e
u s
Ġ re
l i
a s
k un
n T
: \
w w
Ġ e
a me
Ġ h
nW h
Ġ T
// \
Ġ C
r a
j p
Ġ S
âĢĤ âĢĤ
Ġ y
Ġ is
in k
Ġa nd
l y
1 8
Ġb e
e d
Ġ A
: //
Ġ m
N C
Ġ P
1 2
re s
e s
n ame
1 6
fi le
o t
1 9
jp g
e n
1 7
NC I
ma ge
m p
V J
m G
x Z
VJ xZ
VJxZ NCI
U S
c t
v i
ht m
htm l
s ta
te d
1 4
l a
Ġ F
Ġ n
c k
i mage
n g
9 0
image s
2 8
n D
R E
3 0
w it
Ġy ou
I N
5 0
wit ter
9 7
post s
Ġ D
2 6
ve r
reference d
a d
Ġa re
r u
c i
n https
l d
3 8
p ng
2 7
ĠĠĠĠ ĠĠĠĠĠ
ĠĠĠĠ ĠĠĠĠĠĠĠ
to p
2 4
5 6
3 6
Ġ (
l ink
3 7
l o
n S
9 4
5 8
n P
Ġf or
Ġ B
i ll
9 8
3 4
A T
Ġ W
Ġ g
H s
j V
J q
Ġ on
ww w
E R
9 6
Ġ M
5 4
Ġ de
g ht
5 7
Ġ H
Ġc on
a tion
n H
O T
0 0
u r
n C
n F
Ġ '
Ġ se
b e
Ġ N
Ġ I
nt witter
O N
Ġw h
de r
ti c
t us
p e
sta tus
th e
i d
me nt
k e
H E
w s
8 8
s s
6 4
Ġ âĢ
ou t
2 9
Ġd o
Ġ t
n A
nWh at
Ġw e
nT he
d i
5 9
âĢĤâĢĤ âĢĤâĢĤ
] \
2 3
c a
n www
n N
Ġ R
nWh y
1 1
n I
u b
i l
o p
Ġw as
5 3
âĢ ¦
Ġ G
t s
âĢ Ļ
Ġ O
Ġh a
an d
Ġ -
Ġth is
p a
4 4
7 0
Ġ po
a te
Ġp ro
u t
n R
n M
i r
6 0
c tion
Ġ me
i g
o re
nT h
f a
! !
8 7
2 2
ne ws
i th
Ġ] ,
E D
Ġth at
OT US
u p
I T
o d
Ġ i
Ġ or
Ġa t
6 6
c c
f or
8 0
y e
b a
L L
2 5
3 3
9 9
e f
n ow
li c
8 4
7 4
Ġ co
m o
Ġ L
Ġa n
O R
n B
Ġw ill
c b
e e
a y
Ġb y
tri ot
er s
o me
A R
on s
ĠT HE
Ġ it
Ġa s
5 5
u re
6 7
e c
Ġ ma
E S
Ġn ot
! \
i c
ar t
Ġ he
ve s
a b
f x
0 4
A N
E N
ub lic
\ "
ou ld
Ġ un
t ro
g o
Ġ ne
e a
on e
9 3
Ġs h
U W
y ye
in e
fx o
op le
e p
p p
u e
th er
triot s
he n
A S
ti ve
6 8
O U
Ġ com
Ġ ch
Ġa ll
5 2
it y
da y
ar y
al ly
I C
a k
m b
tro l
f f
Ġ E
Ġha ve
I S
e ople
t c
9 2
I G
0 7
nWh o
n E
o f
d d
Ġw ith
E C
Ġ &
' s
Ġ k
a m
h i
Ġ le
se d
Ġg o
f b
Ġ st
Ġs ta
0 8
7 8
ro m
n L
20 18
IN G
nW e
Ġy our
ru mp
7 3
le d
/ \
c y
a in
Ġ U
vi de
0 9
0 6
7 6
0 3
r an
si de
b b
Ġd id
li tic
Ġe x
nH ow
o m
n s
Ġ l
nP OTUS
I ON
n G
r ou
n i
Ġp eople
9 5
p or
F O
O W
e g
Ġa b
u l
A L
Ġ ta
nTh ink
re d
ne d
in t
c d
th ing
m s
on g
si on
fi ght
Ġ J
al l
Ġ v
pa triots
u st
patriots fight
4 6
te s
Ġ lo
Ġcon trol
an t
O M
W G
ou s
ci de
se l
Ġthe y
ver y
7 5
Ġwh o
] .\
Ġc an
Ġf rom
i st
4 8
C b
Z s
n Y
jp eg
âĢĤâĢĤâĢĤâĢĤ âĢĤâĢĤâĢĤâĢĤ
bo FO
at ch
tc Zs
Cb boFO
CbboFO tcZs
A K
f c
n J
ĠO F
A C
ar ge
ci al
e b
t y
h o
p i
ĠâĢ ĵ
3 5
3 2
or d
I D
6 9
7 7
Ġf a
ou n
Ġ Y
nD o
d f
3 9
Ġs o
4 0
l le
ĠT O
a c
m an
Ġk now
2 1
Ġc a
8 9
or y
an k
4 7
L E
r y
o se
V Q
htt p
b le
ĠâĢ ĺ
nR e
Ġ si
) .\
A A
x ow
Ġn o
xow AT
o k
Ġ li
Ġp re
B I
b c
in d
e t
g h
c on
n O
p ro
c u
Ġm o
g ain
0 5
Ġw or
Ġ la
âĢ Ŀ
âĢ¦ âĢ¦
i re
in cide
ta ck
a ge
Ġh as
0 2
ti g
V E
l an
nN o
) \
a ted
incide nce
3 1
Ġ IN
m in
Ġa l
ves tig
T R
a f
8 6
le a
Ġa c
s si
Ġ15 5
Ġdo es
T H
i ght
ou se
po litic
ve nt
a e
f o
Ġ j
Ġwh at
0 1
a ck
por t
c ted
Ġ US
Ġw hen
de d
Ġ out
Ġthe ir
ge n
o l
Ġ Q
4 5
or s
Ġ /
Ġ K
ation s
q u
ou nt
i z
Ġ V
d b
Ġ our
Ġ time
Ġ 16
Ġm ore
Ġ ar
Ġ up
Ġab out
1 10
e w
t rump
a st
t witter
Ġd is
nY ou
ig n
Ġ vi
n on
Ġ RE
ment s
7 2
8 5
as on
AK E
Ġa gain
6 5
ow n
I A
d c
8 2
si g
en s
politic s
de n
6 3
w e
6 2
Ġm an
4 9
L AS
Ġun der
en ing
4 3
c f
i m
u ch
n U
u ll
Ġ 20
po l
Ġp ublic
Ġo p
di a
Ġth ink
8 3
S E
b f
Ġw ould
li e
Ġi mp
te n
I L
w er
se s
Ġp ri
9 1
c l
ar ra
Ġat tack
i ch
re n
Ġe n
Ġ 1
me s
E W
ma tion
o ll
re ad
Ġi f
' t
O P
i ve
Ġin vestig
he re
mb er
le ction
arra tive
g an
ĠP OTUS
sel f
or ta
Ġt ru
4 2
p t
re at
.\ "
tion s
ce ss
Ġ15 9
Ġs a
us si
Ġbe ing
go v
res s
7 9
h q
o g
te mp
. "
P b
] ?\
e ar
i a
k ing
] [
i ld
j e
Ġ" ,
Ġth an
4 1
5 1
O J
Ġ us
q b
o h
IT Pb
hq o
qb hqo
Ġse e
f d
Ġwe re
b d
c an
Ġ ri
Ġ =
re side
m on
Ġ15 3
cb ts
orta nt
Ġagain st
a a
Ġ +
y m
Ġ u
ĠY OU
c re
n ing
h at
ti ce
se r
ve d
G E
t u
t ra
ra cy
Ġt ra
i ly
me r
ar k
Ġbe lie
w atch
Ġthe m
RE D
te ll
us h
ĠS T
6 1
ĠC h
nC o
!! !!
Ġ15 8
la y
nThe y
A Y
le v
Ġha pp
R C
Ġ15 4
a re
an on
Ġon e
int on
oll ow
e l
w ak
Ġ fe
âĢ Ķ
out u
WG A
y outu
Ġ _
Ġth ose
ter s
fo x
Ġ day
O V
w ay
ĠN EW
l ow
s h
âĢ¦ .
wak ening
H T
S T
i le
Ġo ver
Ġbe en
IS A
T he
ver n
for mation
A D
Ġme dia
EN T
pi racy
lev ant
1 13
a ve
nW hen
ĠI S
g re
.\" \
Ġbelie ve
nW H
ĠS ta
A M
ing s
Ġd ro
as h
Ġ news
Ġp art
Ġh is
lle r
oh n
d o
ĠI n
N D
ue ller
i ti
s o
in a
o od
Ġn ow
ĠNEW S
an ce
A non
n o
Ġco incidence
ES S
s pe
Ġs ome
ĠT R
ef ine
fox news
ge r
nTh is
Ġman y
g u
nW WG
as s
Ġan y
IG HT
Ġs pe
ire ct
d u
youtu be
a ch
Ġ\ "
nD efine
nM S
7 1
L D
O D
b er
e nt
Ġ >
ta in
ĠP a
Ġ15 50
Ġc or
ĠâĢ ľ
8 1
a ke
h y
Ġthe re
ers on
Ġ bo
st s
i on
i ge
in s
ct s
tic le
t ing
Ġ ke
Ġre levant
a p
Ġ15 88
us tice
Ġpo wer
ut ure
ussi a
e x
w ee
Ġn arrative
a ta
n y
nT HE
AT ION
me ri
ne ss
li p
Ġe very
Ġm ust
Ġa f
fi c
fi cial
lo ck
U R
f ore
r al
u d
Ġ 2
S A
le g
ĠT H
ation al
reside nt
E L
s k
Ġo ther
Ġs up
Ġpro vide
ep ublic
ym ous
i f
Ġb ack
fi r
la ce
co me
ma il
? "
I LL
Ġ15 2
tell ige
tellige nce
p er
y s
fe r
vi l
Ġwh y
Anon ymous
or m
ons piracy
gen cy
l is
q anon
re e
US T
ĠB ank
re ason
âĢ ľ
le ss
time s
Ġh o
ĠT he
Ġon ly
mo c
Ġthink ing
fi ed
1 15
al d
Ġimp ortant
I mage
t on
Ġa d
Ġp lan
nF BI
C lip
board Image
Ġyour self
Clip boardImage
L Y
AT E
il ity
vern ment
w or
ĠF I
U TH
n http
ĠC ON
an ge
Ġb ut
10 7
nI t
Ġv o
Ġpart y
. âĢĿ
E OP
a mp
v ing
Ġ te
ge t
Ġre mo
ĠA RE
Ġse r
Ġcom ing
je ct
EOP LE
l inton
ta l
20 17
10 0
le r
ri ty
Ġwh ich
gan iz
m it
Ġd own
ra p
A E
or g
ou nd
Ġa cc
an s
Ġw ar
un d
Ġc ri
Ġe lection
vi ew
lea se
in es
10 6
mp a
der s
U B
Ġp ast
Ġpro te
Ġat temp
Ġma de
e ws
Ġc ount
ĠW H
Ġi m
Ġsh ould
ti tu
Ġto day
gre ata
greata wakening
i es
!! !\
Ġsta te
Ġwor ld
I V
N IT
O L
i e
te in
al s
at ing
ĠA LL
I M
Ġp ush
ro w
Ġin to
Ġ ce
nI f
Ġhapp ens
âĢĶ âĢĶ
on ald
Ġhe re
âĢĤâĢĤâĢĤâĢĤâĢĤâĢĤâĢĤâĢĤ âĢĤâĢĤâĢĤâĢĤâĢĤâĢĤâĢĤâĢĤ
1 20
A IN
B C
n ti
Ġm is
ĠF AKE
nS A
nI n
Ġgo od
U E
b y
s ing
Ġthe se
Ġ15 7
I F
c al
c us
ame s
ĠP EOPLE
il it
ction s
Ġ16 0
Ġ post
si ons
Ġp erson
ne w
Ġy ear
ome y
one y
Ġch ild
me d
20 20
us se
Ġe vent
ĠF OR
ilit ary
E M
T ION
n K
o ther
Ġin te
Ġsta nd
me mber
ĠD e
ĠW E
Ġj ust
B E
V ER
u m
Ġ ra
fi ce
nH RC
Ġsh ow
) ?\
n n
o s
p art
v al
ĠS en
ĠP resident
nC on
OW ER
O S
ve n
Ġin ter
Ġg u
ES T
ic al
AN D
rou nd
sig ned
usse in
E F
c onspiracy
Ġcom p
nE x
vide nce
ssi ble
Ġri ght
1 12
s p
nW E
Ġpo litic
ig h
hi p
A LL
a th
st ory
da te
Ġe tc
Ġt arge
po se
ĠA meri
ck ing
EC LAS
ord in
sig n
Ġinvestig ation
Ġaf ter
mpa ign
l and
Ġ ter
ĠP R
vi ce
sta nd
nR R
nG od
1 14
T rump
f ul
j o
n ot
Ġs uch
ro ss
as si
nCo incidence
re al
Ġ15 24
Ġin di
Ġd on
ĠF BI
00 0
epublic an
Ġ" [
is m
nF ISA
r on
Ġa u
le ar
er al
Ġre ce
ĠH ouse
Ġcoincidence s
i ce
t or
ti es
ou ght
ou gh
da tion
Ġp ur
he d
ne y
la ck
Ġta ke
O C
c ri
m un
p re
p ri
Ġ r
Ġa ct
90 0
nD OJ
ĠG o
Ġtru th
T ER
Ġf am
20 19
Ġre ad
ur ing
ĠN OT
ea ch
nMS M
' .\
a ct
Ġ15 20
10 5
C H
W e
g s
h ouse
Ġ15 18
Ġs ame
nThe se
rou gh
ong ress
Ġmo st
A G
I R
R e
i de
p ublic
Ġ ro
Ġ ON
Ġe f
ĠW e
Ġne w
Ġpre vent
ĠFI RED
A P
E P
f y
y es
Ġa p
Ġ15 13
Ġin s
ull y
4 28
Ġc re
Ġof ficial
Ġh ow
1 19
a pp
Ġ 4
ve l
Ġo b
ĠC o
ĠB E
ni ted
Ġpolitic al
O G
[ \
g g
le s
Ġre port
Ġ very
in ter
Ġa pp
Ġs u
Ġre al
Ġm oney
US S
nD id
Ġca re
Ġsa fe
ash ing
h ot
v o
Ġ qu
al se
Ġ15 36
Ġf ollow
Ġor der
nB O
ran s
Ġpri or
k s
Ġ15 37
at ter
ra y
âĢĤâĢĤ âĢĤ
ore ign
N N
T S
f t
m y
t in
Ġ @
Ġ15 26
ĠC omey
res sion
der al
AC K
ent ral
p en
r ing
st ru
Ġ[ \
12 6
Ġne ver
Ġla st
c or
ar ticle
Ġa w
Ġth rough
Ġw ant
Ġs he
ĠT reason
Ġcon ne
Ġne ed
Ġu se
U A
k now
Ġ15 6
Ġin formation
Ġe vil
ĠC entral
nNo thing
5 90
T h
p R
r us
u man
th at
se n
le ct
Ġre ason
ĠG od
Ġor ganiz
re ct
Ġw ay
ĠA ND
la ted
RE ED
lo y
ill ary
Ġse x
il leg
Ġevent s
> \
s u
Ġ source
Ġp lay
Ġc l
28 7
Ġl ong
? ?
n ge
w ith
ar r
ti ll
15 0
au se
ĠW ILL
nThe re
ub er
now den
hi te
ĠU NIT
way s
.âĢĿ \
M ER
u al
v ol
re st
me di
Ġ15 64
nt ly
Ġd i
NC E
fb i
cu rity
Ġcor ru
F OR
a w
c UA
l BE
Ġ15 30
58 0
nA t
ĠR e
Ġfa ith
Ġca mpaign
pR cUA
. ",
e ch
g ic
n an
r at
t ru
in ce
Ġs p
Ġh ad
Ġwe e
oun ter
ĠTR UTH
b re
j or
n al
Ġ15 34
Ġf und
ra tion
Ġbe fore
ba ma
ĠCh ina
REED OM
W hat
i ct
Ġ15 38
Ġme et
cc ur
a ce
b ility
t le
v ate
au l
Ġd irect
ay s
Ġsi mp
C E
E X
I VE
c tive
f l
i den
n ons
Ġ name
al le
Ġs ub
Ġe vidence
Ġm uch
19 4
Ġgo ing
ordin ated
D onald
g y
p and
Ġe nd
ĠH e
ĠI M
ye ar
Ġli ke
ashing ton
) ,
1 18
L IC
S cre
f ully
Ġ get
or th
Ġo ccur
nW as
ma in
nN K
Ġpo p
A W
I P
P OTUS
c lo
z e
ne t
âĢ¦ .\
Ġla w
ĠSta tes
MER IC
a vi
b u
ar a
Ġh er
ĠC OM
ĠP OWER
ION S
ist ory
oun sel
Ġmo ve
Ġal ways
8 98
C T
E AR
h ill
n se
w as
or t
po int
da ily
12 7
US SE
la tion
nD e
ĠR ussia
for m
ab le
vide d
tes ti
oun dation
TR OL
!!!! !!!!
Ġsome thing
wee t
tor ney
USSE IN
2 38
i an
o ver
p tion
nt s
ra ge
Ġbe t
Ġm in
ĠD O
ĠM ueller
Ġcon fir
nF ollow
Ġch ange
Ġwor k
Ġunder stand
ĠSen ate
A RE
N OW
d own
g in
i me
po sed
Ġw it
ard s
Ġs ur
Ġc lo
10 8
Ġd uring
ĠT witter
16 4
97 4
tic s
Ġpo si
Ġme an
Ġit s
Ġwith in
Ġop er
Ġday s
ys te
amp le
+ +
5 94
D C
N T
U M
d is
h a
i mp
n a
o le
p df
q ue
v a
Ġa m
Ġth reat
Ġ15 0
Ġb a
it s
Ġfor ce
LL ER
AR T
IC E
nJ ohn
Ġu sed
ĠPa triots
moc rat
Ġattemp t
UE LLER
jo y
A VE
a fe
d y
g ra
i k
i li
ri e
rese nt
nW here
Ġb u
Ġf uture
13 0
ĠC H
30 4
38 0
nS ome
\" \
mb s
we en
Ġdro ps
USS IA
S P
r or
Ġa ss
Ġ15 15
Ġp lace
10 4
Ġre p
ĠS H
nS ta
Ġde fe
ĠN o
âĢ¦ \
mb ers
nE n
Ġac ti
ren nan
og ical
Ġdro p
Ġsup port
Ġyear s
Ġchild ren
Donald Trump
7 94
A IL
W hy
l at
Ġth ought
si s
20 16
en eral
Ġan other
EN D
nJ ames
TH ER
Ġvo te
each ment
ĠUNIT ED
2 37
h am
re am
Ġa bo
bo ok
Ġto p
Ġc ould
es sions
ĠD ep
Ġma ke
âĢ¦âĢ¦ âĢ¦âĢ¦
real DonaldTrump
9 26
u k
u ally
Ġthe n
Ġw ww
Ġ15 29
Ġg ame
54 7
ur re
Ġas se
Ġall ow
ĠPa triot
IV ID
assi fied
Ġfam ily
Ġofficial s
2 96
6 97
S nowden
ar ter
on ger
Ġ15 23
Ġp er
Ġof f
12 4
RE S
27 7
ĠB L
ER S
Ġcon tin
for t
vide o
GE THER
OV ID
ĠSta te
ines s
Ġcount ry
E T
O ST
m or
Ġ 3
le an
Ġ15 44
ll ing
ĠT rump
90 6
28 0
nD C
RE AT
ĠH ussein
ĠR epublican
IT Y
ec u
Ġhe l
AN IC
IG N
nL ogical
Ġl onger
rou p
nti al
5 18
5 24
8 97
O RE
h r
h ic
Ġb ig
Ġf ir
13 6
Ġre ve
li ce
nT ru
ĠC on
ĠC ongress
ra te
17 5
Ġg ive
ĠG O
ate s
Ġne xt
Ġac cess
iti es
Ġau thor
Ġwee k
9 12
9 50
A F
c C
l arge
u res
re t
in ion
Ġ15 53
Ġo w
13 8
ĠS C
ĠA MERIC
nH e
ĠâĢ ¦
nI s
Ġpo s
Ġpo int
nL o
ĠU nited
sel ves
cl u
Ġen ough
Ġho ld
Ġpur pose
Ġqu es
C on
C linton
U T
a be
k en
l s
l ine
r ong
Ġ 10
th s
co mes
le cted
Ġb less
Ġf ight
Ġh im
18 7
ĠP o
17 4
IN T
56 8
ĠW OR
tic al
ss age
59 2
Ġcontrol led
Ġsi g
Ġ16 00
UB LIC
! "
1 16
P E
a led
m i
w ar
ri s
ing ly
ge d
Ġs till
ĠS EC
14 0
ĠD irect
nS C
nTh ank
AR R
medi ate
nEn joy
3 28
5 50
5 26
D o
U P
a triots
i ck
l ing
m ing
m is
n ch
y ou
Ġ illeg
te e
in formation
ch e
Ġ15 16
Ġf ind
Ġf oreign
ĠC linton
18 4
17 6
ci fic
nP ro
nH ave
ĠI ran
ut y
nTh ose
Ġle ar
pro ject
min al
read y
cess ary
ESS IONS
lis h
w ashington
y er
re ed
in telligence
se arch
Ġ15 90
nW ill
it b
com ms
ĠC om
Ġm on
ĠD OJ
Ġde al
nF or
ĠG eneral
Ġch arge
Ġle a
Ġle ak
ĠCON TROL
Ġprote ct
) .
5 27
n V
se c
is h
al th
at ors
Ġd one
Ġh igh
la tions
Ġco lle
ec on
ab out
ord s
ĠY ou
con trol
Ġevery thing
ĠAmeri ca
itb art
9 15
D E
N o
^ ^
m ary
w ill
te l
me n
Ġw atch
un es
Ġf alse
ma g
ra tic
ĠA T
14 7
la w
ĠF IGHT
56 6
Ġde p
57 4
Ġst art
Ġex p
ul t
Ġta l
Ġke y
Ġtarge t
Ġbet ween
/ ?
2 34
9 30
C LAS
D e
P o
Ġ #
Ġ data
th ers
on der
Ġ15 12
Ġre member
Ġbe come
ĠF ISA
37 4
ĠN O
ON G
pe ned
Ġt rans
ef f
go ing
Ġcontrol s
Ġal so
Ġop en
Ġattack s
ny times
mail s
moc ratic
2 97
2 26
2 94
k es
v in
re port
ar m
Ġp ict
10 9
Ġre ally
Ġre lease
nT o
Ġh istory
18 9
19 0
17 7
Ġde signed
op er
EC TION
wor ld
ĠDirect or
a g
c ation
i red
j ustice
u sion
Ġ ti
Ġ testi
si ve
our t
ter m
Ġre c
Ġre lea
19 8
sta nt
24 7
ĠO R
Ġle t
Ġgo vernment
Ġthem selves
Ġke ep
Ġprovide d
titu tion
jor ity
ĠWOR LD
2 90
B O
S M
d on
d comms
h ow
n er
r and
th ink
ce r
at ters
Ġf in
Ġin sta
li ti
nT R
ĠD ECLAS
56 0
ĠN ational
ĠE V
Ġlo gic
Ġca se
ĠV OT
Ġfe ar
nEx pand
Ġread y
Ġmeet ing
Ġsimp ly
project dcomms
2 28
e ver
f rom
o cus
s on
u ck
w ers
al i
Ġb l
Ġs w
ne s
Ġm y
sta te
27 6
Ġme ssage
AR D
Ġne cessary
ens hot
Ġen ti
do cu
Ġim mediate
bre itbart
alle nge
reed om
A B
C C
T HE
t ur
Â ł
me dia
ve ri
Ġb lack
ma tic
20 6
ot s
17 0
50 4
97 9
56 7
pe ct
the hill
nI G
nI mp
Ġco ver
ee p
nG ood
ist s
AC H
ount ry
Ġar ticle
nU K
Ġinvestig ations
mon y
Ġcare fully
IVID ED
. .
3 13
9 34
H illary
e lection
g round
h is
h one
s y
u es
Ġ 8
Ġ 2018
in vestig
le y
ri can
arch ive
Ġf ull
nT ra
ĠC OU
ĠA G
ĠA W
ot ing
17 3
14 3
nP re
ĠB IG
98 4
Ġse t
for ce
Ġco me
Ġma y
Ġcom mun
ĠE L
ns tein
ni or
ul ar
Ġac tive
Ġasse ts
Ġpict ure
N Y
O B
n US
r ussia
Ġ $
Ġ ru
ch i
Ġa ction
is a
Ġs ay
Ġc ru
la te
28 8
26 7
ci es
58 4
ĠW AR
ĠW AS
nF uture
ĠR o
ut m
EC T
Ġv s
Ġlo ok
ĠIN T
Ġvi ew
lock s
3 34
5 14
9 57
E G
O K
U N
X X
w ho
w hat
Ġ gen
te p
ta ke
an y
ge s
Ġf ree
Ġc lean
fi l
Ġre g
Ġm ilitary
14 8
30 8
AT ES
Ġcon s
Ġwh ile
OU T
ak ing
ĠJ ohn
cl inton
Ġremo ve
2 36
5 37
b ile
e xt
k ed
s ure
u se
re me
te ch
an n
Ġp ray
ge st
Ġb ad
Ġin vol
13 7
li ght
Ġe ach
Ġh and
ĠS essions
ĠS ESSIONS
Ġbe comes
30 0
IN A
ad ow
lo si
ĠB rennan
di rect
ba ck
Ġch o
nDo es
Ġsa id
gu ard
Ġremo ved
rap hic
UB ER
Ġinte l
- -
3 37
3 57
C ON
P R
R R
S C
i fe
n bc
n ational
p le
Ġ da
ch o
ch ed
15 4
ve rage
Ġp ut
at ure
10 59
Ġre qu
nT H
Ġbe c
ed ia
ĠP L
90 4
nP o
Ġde part
ĠH uber
Ġse curity
nA ll
nA sk
nE very
Ġk new
Ġfa ct
Ġso on
nRe ad
Ġar ound
Ġ20 16
Ġpri vate
og le
ĠAmeri can
nTru st
ĠAMERIC A
2 58
6 36
6 58
9 38
O VE
a id
b ig
f fe
g i
i se
m m
o b
p lan
y ing
re g
re ate
or n
po ssible
le b
le ep
ge ther
Ġb re
Ġof fice
nd ing
10 98
Ġe lected
ĠS TR
ly nn
ĠA t
ĠA gency
14 6
90 8
ci le
ill ion
54 8
Ġse c
ĠR USSIA
Ġme n
Ġme mbers
up id
AN T
ul ti
Ġta c
Ġknow n
nO n
AM E
Ġhel p
$ $
2 27
5 56
F L
I n
O LL
a de
a ter
o ld
p ar
ar i
ti al
Ġw here
he ad
20 7
13 4
ow er
ĠC LAS
Ġm ight
Ġn on
90 7
97 7
54 4
Ġde sign
OT H
ĠI D
di tion
nN ot
Ġco ll
nB e
Ġdid n
nG O
OC K
Ġr un
sen ate
Ġwit ness
yste m
Ġrelea sed
2 50
B S
E Y
E x
F REEDOM
M UELLER
S ta
_ \
s up
w ard
se cu
po wer
nW atch
Ġh ome
18 8
Ġbe h
vi ous
ci a
38 6
ĠM cC
ĠH USSEIN
nF AKE
nB ut
pp ed
Ġle g
Ġal ready
gan da
ear n
je ction
nWH Y
Ġce ns
âĢĶâĢĶ âĢĶâĢĶ
ĠDe mocrat
Hillary Clinton
3 50
5 22
9 36
9 22
C h
d ing
f fi
g ue
m and
v an
or os
st ro
co ver
an ti
Ġw in
Ġp ic
Ġp lat
Ġc all
ĠC L
ĠA S
12 8
24 6
94 7
Ġde li
Ġse lect
29 9
Ġwe ll
ĠO P
Ġco mes
Ġli ght
Ġtru st
Ġabo ve
Ġcho ice
- _
7 56
H ow
M ENT
P ro
R I
i led
ar s
or ld
ou nce
Ġa ge
st ream
de a
si der
Ġto ld
ps tein
Ġc lear
Ġc urre
Ġre sp
Ġe ver
12 2
nD i
30 2
30 3
97 0
97 8
96 7
64 4
Ġpo ssible
ĠL IGHT
AR Y
Ġch allenge
of ficial
Ġst upid
AL SE
Ġvi ole
Ġtru e
AM P
fil tra
Ġresp on
9 14
9 37
9 58
F AKE
c ca
c lear
l or
l come
s ays
t r
w o
w hite
Ġ tri
in ted
st orm
15 7
Ġre st
18 0
ĠP e
es s
19 7
28 6
IN E
36 8
nS h
94 8
nP ublic
Ġde ath
the ory
88 0
64 0
ca te
11 113
pa ganda
Ġcom ms
ĠE VER
ĠJ ustice
Ġfa il
Ġsi le
ors hip
nU n
ich ae
ussi an
cre t
Ġspe cific
Ġcomp le
Ġaw ake
Scre enshot
econ cile
6 57
9 13
9 10
9 97
C o
D NC
O US
c la
e ri
h as
l der
u mp
u di
Ġ 5
or der
ma s
Ġre f
Ġre main
Ġe xt
Ġe ne
ĠC OVID
18 3
vi sion
Ġn u
26 3
27 0
24 0
94 4
58 8
nP eople
34 3
ĠW IT
54 0
ur y
AR P
ak er
Ġout side
reside ntial
fic ation
ron t
Ġcre ated
Ġcorru pt
aul t
gra m
PE ACH
' \
5 16
5 57
6 88
C Q
I RE
b ri
c s
f in
g ing
p ress
Ġ board
ri t
an ic
ve red
Ġp ay
Ġo thers
Ġf un
20 0
20 2
Ġre por
ĠC ountry
ĠP eople
19 2
28 4
97 3
ĠD E
38 8
nS ec
94 0
Ġfor mer
34 7
nC an
nC IA
Ġdo mes
nR econcile
ssi ons
washington post
sec ut
Ġdep loy
ĠAt torney
ichae l
Ġdomes tic
2 98
? ",
F F
N ews
a cc
h ome
i ons
k er
n mo
p pened
w ik
Ġ 7
Ġa go
is ten
Ġp ar
at or
un der
Ġs ing
Ġc ounter
17 8
50 8
26 0
37 0
ĠM r
ur ham
ĠN SA
ĠI T
Ġha ppened
nM ore
fa re
ab c
Ġst op
ran ts
Ġex pe
ni a
Ġcan not
ID E
nCon trol
ALL Y
Ġindi ct
know n
Ġacti vi
Ġcru mbs
2 57
5 13
6 13
O SE
R ep
a it
b ill
e st
m ueller
r in
w hi
Ġ 19
th is
âĢ ĵ
ch ange
se e
au d
Ġ15 33
nW W
Ġf ound
ll y
nd s
20 4
10 36
us iness
Ġe ng
Ġbe gin
ĠA nons
ĠP ro
ad s
38 9
27 4
nS EC
29 3
Ġt ry
59 3
up pe
Ġun locks
go vernment
Ġgo v
nL earn
Ġno thing
Ġac ross
ĠK NOW
Ġ20 19
ĠIn telligence
UST ICE
Ġte am
Ġser vice
ĠGo vernment
Ġef fe
Ġapp ro
Ġconne cted
Ġcl assified
Ġcorru ption
Ġfund s
Ġclo se
Ġmean ing
Ġpos ted
Ġimmediate ly
Ġbec ause
5 96
7 68
9 27
9 24
= =
S EC
U L
W H
b lo
h er
m ps
n RE
u te
u nt
Ġ code
re w
re sts
ti l
se ssions
de f
Ġ15 17
Ġc ar
Ġc al
us hed
li m
nT O
nT ime
Ġe s
16 7
14 4
30 7
26 9
56 4
nP atriots
ĠB ar
nA re
nN SA
ure d
Ġma in
OW N
iz ed
Ġus ing
Ġhapp ening
sh ow
UR V
Ġcri minal
FOR M
CE O
nDe mocratic
Ġgive n
5 17
E A
F BI
N BC
U RE
Y ou
n RED
ar ing
ti s
on es
Ġa gen
Ġa gency
an i
an ne
Ġto gether
nW ould
at tack
Ġin fl
ter day
10 3
Ġd ark
Ġd if
ĠS P
NC Y
12 9
27 8
24 8
36 6
lo od
Ġfor m
Ġg ain
Ġon going
57 7
ĠH UBER
ĠâĢ Ķ
70 4
ED IA
ba b
OU LD
Ġab ility
nY OU
AC T
Ġsi ck
min ist
Ġtra vel
ĠST AND
âĢ¦. .\
Ġacc ount
Ġins titu
uman ity
Ġpop u
Ġmove ment
mag ine
ĠCOU N
ĠEL ECTION
1 17
2 17
6 00
I E
] ]
a ir
e ded
n unes
s ub
Ġ side
te ri
in de
15 8
20 1
fere nt
Ġre s
Ġm id
Ġm atter
19 3
sta b
30 6
IN K
ver s
37 7
34 0
ĠW IN
ĠW onder
nN ews
53 5
ĠG u
nM is
ir l
Ġme ans
fa ce
OR T
IC AL
Ġst rong
Ġl arge
nRe member
VE Y
tra ct
low er
orm al
Ġstate ment
Ġef fort
Ġob tain
ARR AT
ĠSTR ONG
nDi vided
nTO GETHER
! ",
' ?\
9 18
? âĢĿ
B e
a z
a le
i ke
o bama
p on
Ġ 12
te nt
ce pt
ch ild
si ble
15 2
Ġ15 52
Ġb ro
it or
com ing
Ġin telligence
12 5
res ted
16 0
16 6
38 4
36 7
57 0
ĠH E
Ġse nt
the storm
HE RE
23 2
Ġpro secu
84 0
ĠL o
Ġan ti
EN ING
ea ce
nWe lcome
Ġta ken
Ġli fe
TR Y
af ter
Ġdis cus
ĠST ATES
nWH O
spe cial
du ct
ber t
nTHE Y
ĠTH IS
Ġact ors
stru ction
Ġaw are
ĠIM PEACH
Ġow n
nmo bile
ARRAT IVE
) (
2 56
5 28
= .
I I
I AL
M e
a da
c cess
e ll
f fer
i p
o x
re dd
ar ma
se curity
si le
ri ed
15 3
fe b
Ġ15 80
Ġs ince
Ġc la
20 8
10 66
Ġd ue
Ġd ist
ĠT o
ĠC IA
ĠS ee
ĠA R
ĠA nd
ĠP UBLIC
16 8
19 6
vi du
sta ge
RE E
ci p
27 3
36 5
ĠB iden
98 0
34 4
54 2
OT S
nN O
70 8
nR epublican
lic y
ĠL AW
Ġne t
IS T
Ġex ist
Ġl and
Ġta x
Ġfa cts
ssi er
ssi stant
ym bo
lis hed
Ġter min
nSta y
Ġfir st
Ġques tion
Con f
Ġilleg al
Ġwatch ing
docu ments
nImp ortant
Ġinvol ved
Ġtac tics
nGO OG
stro y
ĠWonder land
+ \
7 50
U ARD
Ġ veri
re ng
ta il
ta ble
or ganiz
Ġa dd
de s
Ġf i
Ġc ame
10 60
us a
Ġe ar
Ġe stab
ĠC hi
ĠS ec
Ġm ind
ĠF R
lo gy
98 6
96 0
54 3
Ġde ep
ur ther
nC h
Ġse n
Ġse nior
il ty
Ġco ordinated
ue nce
AS E
ak s
Ġso cial
ose nstein
Ġla ws
Ġfe el
nSome times
ĠDep uty
ret ary
Ġlea ders
Ġcolle ction
Ġtesti mony
liti co
investig ation
nEvery thing
Ġbeh ind
2 24
7 88
A U
A IT
H ouse
T ACK
W AMP
b al
f it
m ar
n arrative
n archive
q I
y an
te ct
ri ght
ve st
au nch
Ġin ten
13 5
10 64
ra in
ĠA r
ĠA ct
ĠA ssistant
Ġm atters
ĠP RES
ck ed
97 6
26 6
38 2
37 8
94 3
58 5
AT RI
96 6
Ġde mon
nC F
nF ind
ĠN AT
ĠI t
the y
Ġt ur
ĠR epublic
ĠG REAT
pa ce
44 7
Ġpo wers
Ġpro ves
ig in
87 8
ba f
Ġle ad
led ge
Ġlo se
Ġpre side
iz e
Ġ20 20
ark er
AD E
Ġinte rest
ĠON E
Scre en
ART Y
Ġcons piracy
redd it
Ġdemon st
' .
2 53
3 24
9 16
9 28
9 98
A meri
D OJ
F LY
W ho
c ing
e mp
i tion
w here
z z
Ġ Z
Ġ 11
Ġ tell
se t
si tion
si ght
15 6
Ġto o
Ġb lock
at t
20 3
10 1
Ġe mp
Ġh ar
ĠT weet
ĠC A
ĠS URV
Ġy et
ed d
ĠA f
14 2
nD ECLAS
30 9
50 3
50 6
97 5
nP ANIC
54 6
57 8
ĠN Y
29 1
op inion
99 9
mo st
Ġma jority
Ġne eded
Ġsh all
ĠU P
all ow
fc f
ho od
pro be
ssi ve
Ġfe deral
ud ge
Ġser ver
Ġim possible
Ġstate ments
nK eep
Ġrece ntly
Ġap point
Ġdi vided
Ġsp y
Ġlear n
Ġdeploy ed
ĠCOUN TRY
, \
2 29
E E
M S
a i
a fx
d ge
k ers
n LL
n thehill
o ter
o ci
p h
r aud
s ho
u ma
Ġ 6
Ġ 9
Ġ >>
Ġ link
Ġ date
re mo
te nce
in ation
âĢ ĺ
de sta
ri ous
rese n
com p
he st
20 5
li es
Ġe ven
ĠC O
ra ine
ĠS EN
es terday
nD ark
ĠB R
ĠB Y
ĠB arr
Ġg roup
ĠM UST
be c
ĠN OW
pa red
70 6
ig hest
ons titution
Ġma p
art ment
ff b
Ġk ill
Ġle ft
ns ur
AC E
ho lder
Ġ155 37
Ġpri mary
Ġ153 54
ND ER
iti z
spe ed
ĠThe y
Ġte ch
mit tee
Ġrece nt
pen de
Ġ156 26
XX afx
minist ration
qI XXafx
qIXXafx CQ
- \
. .\
2 18
7 37
8 50
B B
H e
S H
e ck
i ms
m ore
p erson
t t
z ok
in ts
on avi
po inted
ri c
our nal
fe deral
Ġ15 09
Ġp ass
nW orth
Ġs ca
Ġs ystem
Ġf ront
er man
ma te
Ġh ard
ĠS e
16 5
ĠD o
ĠD AY
nS T
nS ee
98 7
ĠW ar
ĠW orld
ĠM ORE
ĠH RC
00 6
ĠN ews
ĠN ARRATIVE
ĠG OV
60 3
OR D
Ġcom mon
Ġst ru
om an
nO per
Ġwor king
pt ure
Ġbo th
wee ts
Ġser ve
Ġce r
OS S
Ġindi vidu
ression al
Ġposi tions
Ġba sed
Ġrep resent
Ġdefe nd
Ġtop ic
Ġcharge s
BO OM
Ġlogic ally
matic ally
Ġsile nce
7 59
8 25
9 33
D B
E O
I ED
O F
W IT
X s
] .
a x
a il
b l
b ur
d ro
i da
k a
v y
Ġ 30
re en
in er
in ed
or ies
ce d
ri a
rese r
al f
ma y
12 3
16 3
en a
en ate
ĠF oundation
RE V
50 0
36 4
94 6
58 6
98 3
34 8
ĠW hite
Ġg raphic
96 4
ĠM SM
nH OW
nC NN
ĠO bama
nM ueller
87 6
Ġun til
Ġsh o
Ġwith out
ni ght
Ġlo cation
OM E
Ġfa ke
con om
ĠV IP
Ġop inion
Ġattack ed
Ġspe ech
Ġremember ing
Ġinsta ll
ĠEV IL
ched u
Ġviole nce
Ġcomple te
FORM ATION
Ġdif ferent
ATRI OTS
onavi rus
Ġcer tain
' ve
4 64
9 17
9 25
A GE
D ec
E K
P ORT
S TR
a se
b ut
c nn
c ongress
e mails
j udi
s pi
s afe
ta n
Ġa way
co pe
po ll
ri es
to day
da ted
15 5
fe nse
Ġp resent
Ġb ri
un e
13 3
Ġre tur
Ġy esterday
la g
ĠF AIL
nD O
30 5
38 3
38 7
24 4
56 5
56 9
Ġ( \
nS o
98 5
54 5
57 3
nC om
nF B
Ġdo or
59 5
nN ow
11 19
ĠG OD
70 3
22 5
OR R
cb b
67 7
OU ND
nE U
Ġle vel
Ġsta tes
ul ts
AK ENING
politic al
Ġdis clo
Ġ20 17
do j
Ġback ground
lace holder
wor k
nK now
Ġap pe
Ġsex ual
!!!!!!!! !!!!!!!!
Ġreve aled
Ġtrans fer
ĠVOT E
chi ff
Ġgen er
reng th
, âĢĿ
2 15
2 23
C l
E LL
K E
N ING
T O
b usiness
g un
h ave
i te
k raine
l led
m ig
s ome
u ters
se cret
Ġth ank
source s
Ġ15 74
Ġp ushed
at tle
Ġin fo
20 13
us ti
us lim
Ġre li
li min
ame rican
ĠT AR
ĠC ounsel
ĠS hot
ĠP OST
16 2
ĠF or
ĠF ALSE
90 3
28 9
36 3
ER Y
ĠM ay
Ġde ci
00 8
ke y
53 3
Ġpro of
Ġme ant
87 4
Ġi magine
for ms
for mer
80 3
nB ig
go ogle
93 5
Ġsta ted
ĠU NDER
ran t
Ġex po
Ġta king
nJ C
Ġfa iled
ĠTO GETHER
nO P
Ġwor th
Ġtime s
ĠRE D
ten tion
temp t
GE T
Ġspe cial
Ġke pt
ud ing
Ġacc ord
IF A
Th is
Ġorganiz ed
Ġsource s
ĠHe re
Ġbu ild
ĠDep artment
Ġcontin ue
Ġques tions
Ġtal king
oper ating
leb lower
ĠMcC abe
Ġcurre ntly
Ġtax pa
9 23
I t
N G
O OD
P laceholder
b ye
c ra
e o
e y
e deral
g ate
h an
j ohn
l se
m ies
n IN
p r
u sed
Ġw ord
fe d
fe e
Ġf urther
ma z
ro ther
ĠS WAMP
file s
ĠF REEDOM
ad b
ĠB e
ill s
98 1
34 6
Ġon ce
Ġde stroy
nC or
nF ake
HE EP
nA S
11 20
70 7
fa f
Ġor igin
84 6
74 0
74 8
OR S
nB IG
Ġma teri
Ġhe ar
Ġne ar
OU G
bb c
Ġv al
ID EN
con d
Ġvi si
cl uding
ĠYOU R
gre e
Ġbo ok
fir med
Ġho pe
Ġcri tical
Ġinter view
Ġdon ations
Ġfam ili
Ġmin or
imp eachment
ecu rity
ĠAW AKENING
ulti ple
ffi cking
Ġeng age
Ġinfl uence
2 10
4 27
4 00
7 30
9 59
G ER
I B
I f
U n
b ed
b cd
d onald
f ba
i v
i as
p ass
r ass
s ur
w p
Ġ EN
re lea
te red
st art
po ena
text s
bo dy
Ġ[ +
Ġp hone
Ġb all
Ġf ire
Ġc itiz
Ġin ser
13 9
Ġre sign
ĠA l
12 56
ĠF EAR
50 7
ĠD C
ver al
37 1
58 7
nP lan
ĠB O
ĠB o
Ġg reat
96 3
ĠM EDIA
be t
ĠI s
pe ople
pe cial
the guard
23 3
ca ted
nN ew
11 1
pa re
pa ren
ir d
60 5
for nia
33 3
ĠL E
Ġan s
ĠE X
78 6
ĠU K
om in
Ġl ot
Ġab le
TH ING
we re
nCo mp
low ns
du ce
Ġplan ned
IM G
âĢĤâĢĤâĢĤâĢĤâĢĤâĢĤâĢĤâĢĤâĢĤâĢĤâĢĤâĢĤâĢĤâĢĤâĢĤâĢĤ âĢĤâĢĤâĢĤâĢĤâĢĤâĢĤâĢĤâĢĤâĢĤâĢĤâĢĤâĢĤâĢĤâĢĤâĢĤâĢĤ
Ġgu ilty
EF T
Ġr ally
AP P
gg ie
Ġfollow ing
article s
Ġsp read
Ġfund ing
Ġdirect ly
Ġoccur red
ĠCH INA
Ġreve al
filtra tion
ĠEVER Y
ĠWIT H
nSec retary
Ġsing le
ĠBar low
inde x
ORR UP
theguard ian
2 30
5 25
9 11
C A
G ood
J ustice
K now
O LD
S IS
S ample
W E
a ti
a ther
a red
a cts
b ca
b iden
c ounsel
f da
m ark
u g
v ation
x x
ce nt
Ġa lle
Ġa head
site s
fe ature
Ġ15 86
Ġp orn
Ġp eace
Ġf ar
Ġf all
Ġc au
ro se
20 09
Ġd ire
us ing
Ġre que
Ġe qu
Ġe mails
Ġe conom
ĠT h
ĠT his
ĠC AN
18 5
Ġbe ne
ed b
ĠA L
ĠP M
12 1
17 9
90 5
28 1
nD is
IN D
ci e
56 3
Ġfor ward
ĠW OULD
ĠM e
Ġde vice
57 6
ĠH AVE
Ġcon f
the m
the matically
64 3
64 8
nA l
nA r
Ġwe ak
âĢĤâĢĤâĢĤâĢĤ âĢĤâĢĤâĢĤ
ĠR ussian
ĠG reat
ĠO hr
Ġha ving
60 8
ome n
Ġex posed
rou s
Ġli st
nO ne
Ġdoes n
den ti
The y
nWH AT
ĠCON F
Ġacc oun
row d
Ġter ror
vo id
Ġconfir mation
NT IFA
Ġallow ed
Ġauthor ity
Ġsig ni
Ġlet ter
nTR UST
ann ity
tr zok
Ġeffe ctive
Ġcal led
" \
A t
D m
E VER
N ESS
P age
S e
S t
_ .
a iti
c ti
c ce
c our
c li
e ce
m ilitary
u tion
u en
u ff
w an
or ge
ti sts
ch arge
ch ina
st ri
de c
de part
po sition
an cial
tri bu
Ġp ain
Ġp ull
Ġp aid
Ġs pi
Ġc ash
he l
li ve
Ġe lse
ĠC ounter
ĠS t
18 6
ĠP age
14 1
14 5
28 5
nD IVIDED
50 5
26 8
ci ary
ci ally
lo or
98 8
34 9
ĠW hi
Ġde tail
Ġcon ta
nH ussein
ur ch
Ġse nse
64 7
29 2
Ġdo cu
nA G
23 9
ca mpaign
53 1
ĠG R
44 6
Ġpro paganda
60 4
Ġan n
ĠTHE Y
Ġma ss
Ġcom mit
Ġch eck
ĠE x
Ġlo st
nY our
Ġ155 38
Ġvi rus
ĠRE AL
temp ts
wee k
ĠTH AT
if t
lis m
ler t
app ro
cor onavirus
Ġposi tion
Ġenti ty
OB ER
Ġview point
nTH IS
Pro jection
ĠPe losi
OUS E
secut or
Ġbegin ning
Ġmateri al
2 16
3 10
4 24
8 20
8 96
B A
M IN
M OV
M ueller
R AN
U C
] ,
a eb
b fb
c ar
d id
e ef
f fice
g on
h and
j ec
p b
p lay
r ally
u ly
w ould
w ood
Ġ z
Ġ trip
Ġ er
me et
on don
Ġa ctions
st one
co ll
ri p
an ta
Ġw on
15 9
Ġ15 19
Ġ15 28
Ġ15 22
Ġ15 113
Ġo dd
Ġb ill
Ġb ring
at s
Ġs ce
Ġs ays
it z
Ġc i
Ġc our
Ġc ause
ro om
ll s
20 14
10 96
10 00
Ġre ach
Ġre lated
ĠC EO
ĠA wakening
Ġm ar
16 66
sta ll
ĠD IVIDED
38 5
nS e
94 1
58 2
34 5
AT ED
Ġg round
ĠM ar
ĠM ore
Ġde lay
nC A
nC ON
nF ocus
Ġse veral
ke t
88 7
ĠR ight
âĢĻ .\
pa ge
Ġpro ble
ore a
nTh reat
fa ct
IT ICAL
ĠL ord
cb d
ec d
Ġma ssive
68 6
IC K
IS C
nL et
Ġyour s
cd f
Ġlo ve
AC Y
arge t
Ġj usti
Ġar rested
og rap
][ \
Ġri sk
mer gency
ĠST ATE
nCo ordinated
ATION S
Ġsup p
Ġremo val
Ġprote cted
ĠWH AT
Ġpur su
Ġro le
nBO OM
Ġconne ction
tru mps
Ġsimp le
avi d
Ġwit nes
dis clo
Ġam ong
Ġacti v
mor row
ecu tive
Ġti ming
ĠINT EL
Sta te
Ġleg al
Ġcens or
Ġplat forms
Ġene mies
Ġagen cies
Ġaware ness
arma c
ymbo lism
REV ENT
+ "
4 36
4 58
8 95
< <
B L
H RC
N SA
T here
W s
_ _
c le
c da
c all
c ism
e fe
f ree
m id
n ES
o ck
p residential
u ses
w AA
Ġ posts
re c
re view
te st
ta tion
or k
ou d
on ight
Ġth ings
po litico
si a
si c
ri dge
Ġto ok
Ġp ub
Ġp uppe
Ġs te
Ġf rie
er ry
Ġin clu
Ġd ra
ne my
Ġre fer
Ġe mail
ĠT ER
ĠC or
ĠS o
ĠS uch
ĠS AF
19 5
US H
ck down
26 17
ru ce
36 2
nS t
nP ower
Ġg irl
ĠM o
ĠM IL
Ġde cl
57 9
Ġcon vi
Ġcon duct
OT E
nC onspiracy
be l
29 5
Ġt y
nA nd
59 9
ĠR osenstein
nI T
80 7
99 3
84 3
84 7
84 8
nB o
ic ally
Ġhe ld
ine se
68 2
06 3
nG OD
ong ressional
AC TS
ho to
nO r
min ation
ĠV ERY
Ġar rests
nU se
Ġimp eachment
Ġhapp en
Ġdro pped
Ġany one
ex p
sk ed
ler s
Ġattemp ting
ĠWH O
Ġperson al
Ġright s
Ġtarge ted
Ġter m
428 0
stru ct
ace book
Ġforce s
ĠAT TACK
Ġenti re
bri ef
Ġpopu lation
pende nt
rother hood
ĠCounter intelligence
ograp hy
' ll
2 20
4 76
5 38
5 98
7 20
7 53
8 99
A nd
C F
C IA
F K
F U
J ack
P a
V EST
b la
b ad
c dd
f ca
f isa
l f
o e
s us
w hy
z a
Ġ research
re por
re lated
Ġa cts
ri st
da f
da m
Ġw he
ve ill
au di
is s
fe f
Ġ15 89
Ġp eri
Ġo ld
Ġf oundation
10 97
Ġd ir
nT witter
Ġh ighest
ĠS oros
ĠS ecurity
ĠA n
ĠP OL
ĠP ARTY
16 1
ĠF B
26 4
ru pt
37 6
94 5
98 9
AT H
Ġg ot
96 5
96 8
ĠM UELLER
nH UM
00 1
00 7
ur ance
ur sing
ĠN ew
64 1
Ġt wo
nA s
nA US
nA LL
nA nons
nA lice
23 1
23 5
ĠR yan
nI D
ĠO UR
ir st
fa c
fa e
66 6
25 5
33 9
74 7
ĠL EFT
Ġas si
67 3
EN S
Ġun de
AS T
68 9
Ġch ar
52 1
ĠE pstein
Ġst ar
nL isten
73 9
cd b
cd c
ĠJ ames
Ġknow s
nO pen
âĢ¦âĢ¦ .\
nNo te
Ġal one
ĠK now
ĠRE P
we ll
ser ve
Ġtra in
Ġtra ck
Ġsome one
ger s
ny post
Ġplan e
Ġte st
nIn formation
IF IED
nCon ne
nGod speed
pre vent
Ġact ually
app y
illeg al
nAt tack
tru e
Ġabo lish
Ġbig gest
mis sion
Ġcharge d
ĠAG AIN
ARP A
Ġsen tence
ĠTAR GET
Ġtaxpa yer
veill ance
' re
0 17
4 09
A I
A V
B D
B F
B re
D ep
F or
H ussein
N O
O Y
T o
W o
] ?
a mber
c is
c ourt
e le
e ed
h uman
p ers
p resident
s ol
v is
w ords
Ġ X
Ġ ge
Ġ END
Ġ" \"
re y
re ve
re uters
ta ge
ta lly
Ġth ing
to m
da l
an g
Ġw al
Ġw ait
Ġto morrow
Ġp h
Ġp rin
Ġs m
Ġf ocus
ro p
Ġin de
Ġin side
fi re
li ed
Ġe nt
Ġh arm
ĠC ORRUP
ĠF REE
50 2
ru ption
36 9
nS now
94 9
ĠB aker
AT TER
ER AL
nF ED
be b
ĠI II
ON E
Ġt onight
di ction
ĠG UARD
pa st
44 4
Ġpo licy
nR ed
nM a
nM o
60 7
fa ther
87 7
22 1
66 7
for ts
80 6
Ġco verage
Ġit self
Ġsh ut
AS ON
Ġcom b
07 3
hi story
08 3
ĠU kraine
ĠJ USTICE
ac ri
nU NIT
Ġpublic ly
Ġsa ve
Ġ158 90
AD OW
no logy
ĠTR UST
Ġcor rect
ud y
ĠTH REAT
Ġsup por
Ġwar fare
ie ld
IM E
Ġmis sile
Ġrece ive
900 14
Ġap pointed
Ġcre ate
rus ted
Ġorganiz ation
Ġorganiz ations
loy ment
Ġconfir m
Ġclo sed
mocrat s
nLo ok
control led
Ġinsta lled
Ġbl ind
-- --
Ġcoll usion
Ġplat form
official s
Ġrespon sible
IRE CT
WIT TER
Ġexpo sure
paren cy
Ġann ounce
Ġodd s
VEST IG
2 12
3 30
4 26
4 57
: :
D D
D V
D k
D ECLAS
F E
I ES
J C
L et
N S
P S
Q anon
R AIN
U p
V AA
a h
b an
d ce
d de
d cc
d cb
e vidence
f fa
f all
g a
g ged
h ar
j eff
l ines
n c
r ame
Ġ ran
me nd
le x
si tive
da b
da n
15 04
ve lo
al y
Ġs po
Ġs cope
Ġc ra
Ġc ut
Ġc atch
Ġc oun
Ġc ross
com ments
com mun
fi li
10 58
10 68
Ġre view
li ke
as ter
ra ham
ly ing
ed f
ĠA nti
ĠA CC
19 9
la st
50 1
24 3
nP S
nP OWER
ĠB ill
96 9
ĠM EM
ĠM edia
Ġde le
Ġde ad
Ġde cide
ĠH uma
ĠH OUSE
Ġcon tribu
Ġse aled
be ing
ĠI G
pe ti
88 8
Ġwe b
di c
nN Y
ĠO IG
and ler
44 5
70 5
Ġpro mo
Ġpro cess
Ġme mber
80 4
25 2
33 5
Ġco operating
AR K
Ġhe ad
pp ing
hi m
Ġst ory
Ġsta ge
bb d
Ġex ample
Ġsi t
Ġli ve
Ġ16 03
Ġdis co
Ġsee king
vern ments
nMS NBC
ber ate
Ġad van
wor ks
Ġmis sing
EM Y
act ly
Ġro gue
Ġef forts
Th ink
?? ??
ĠCOM M
Ġchange d
Ġhim self
INT ON
tee le
Ġmon th
Ġmon ths
Ġleak s
adow s
nbc news
FL INE
Ġspecific ally
face book
ĠSEN ATE
Ġcitiz ens
Ġporn ography
Ġprin cip
acri fice
7 54
7 00
8 94
? ]\
H uber
I OR
R o
S ome
T ru
T est
U nited
a ca
a ction
b ly
c AA
d da
i ves
l ta
m il
o ps
r s
r ings
s he
t rans
u li
w eb
y ria
z ed
Ġ daily
re lease
te ad
th en
th od
in tel
ar ded
on d
ce ed
Ġa wakening
st ood
le ad
da tes
Ġw omen
our s
Ġ15 93
Ġ15 76
Ġ15 114
Ġp ress
Ġs low
Ġs leep
Ġc ounsel
ne g
Ġe mb
Ġh uman
ĠS IGN
Ġbe tra
res sive
19 69
sta mp
Ġn ight
Ġn ational
28 3
nD on
30 1
ĠD NC
ver sion
27 2
27 9
27 98
36 0
37 3
lo g
lo bal
54 49
ĠH umanity
ĠH aiti
Ġcon tract
nH appy
nF IGHT
Ġse rious
Ġwe nt
di es
44 0
nM I
87 9
Ġor gs
Ġan ons
Ġas ked
67 9
04 0
93 1
Ġsh ort
92 13
nE O
of fice
78 3
03 2
Ġex change
75 164
nJ ust
ho ld
35 1
Ġfa ce
Ġpre vious
Ġ155 380
Ġj o
Ġar mor
Ġup on
Ġdis c
im ing
ses sion
Ġen ter
Ġinvestig ate
Ġsee k
ENT S
so cial
ap se
Ġ1588 44
Ġvo ter
Ġcri me
ven tion
ĠCOM ING
Ġconfir med
ĠCon trol
Ġtesti fy
ĠVOT ER
Ġdepart ure
OTH ER
ess age
Ġactivi st
Ġactivi ties
Ġaccount s
nMis sion
ĠFR OM
rass ley
depart ment
nHUM A
velo p
) ?
0 70
3 56
4 59
5 12
7 26
7 96
8 26
8 92
9 20
B RE
C B
C omey
D r
E Z
F T
F ARE
I mp
J ohn
L U
M ar
M AIL
N I
T witter
V IL
a fc
a gain
b s
b t
b or
b es
c ult
e de
e ter
f oundation
g ot
g roup
h ack
i cide
k y
m illion
m ichael
n ly
n EN
o mber
p l
p x
p lace
s tic
s ay
v ance
w n
w ing
y ers
Ġ ties
Ġ" âĢľ
te nd
ta bility
ou ble
se nt
de vin
ri ca
an ded
Ġb lood
Ġs us
it tle
Ġc r
ro bert
ll ow
13 2
Ġh ide
ĠT hat
ĠC R
ĠC an
ĠC ourt
ĠS ch
ĠA B
ĠA M
ĠP USH
12 59
17 1
vi e
ĠF ran
ĠF VEY
ĠD ID
ĠD EF
ad c
38 1
56 1
Ġ( /
58 3
98 2
34 2
AT CH
Ġg rand
ĠM on
Ġde si
ĠH AS
ĠH app
00 2
nC ri
nC LAS
be a
ĠI ns
id US
64 6
Ġdo ing
Ġt ran
Ġt weet
and s
Ġpro vi
nM e
ir s
ore d
87 2
IT AL
ĠL aw
OR Y
cb c
ĠTHE M
55 2
55 5
67 1
Ġma king
Ġma thematically
ab ility
go od
93 9
Ġcom mand
ff f
fb b
Ġsta ff
09 1
09 5
Ġl aunch
Ġlo cal
eb f
ac arter
89 20
Ġli ves
Ġpre pared
cu se
Ġwor ks
Ġal ong
Ġj ustice
qu es
SE L
Ġen force
Ġsee m
ile aks
ĠIn ter
ĠIn tel
Ġany thing
ach el
fore ign
ud get
ĠTH OSE
Ġplan es
ĠFI RE
Ġvo ice
ĠWH IT
Ġce nt
cal led
Ġra ce
ordin ation
nGod father
mun ition
inter view
Ġsu ccess
Th ank
nAt tempts
Ġ150 96
Ġfir m
Ġpos session
UP ID
ĠCom mittee
liti ci
Ġcommun ity
ĠWAR FARE
ĠPL AY
ĠAmerican s
Ġbre ak
ulti mate
nOn ly
Ġpic s
Ġene my
home news
Ġindict ment
Ġindict ments
Ġtry ing
== ==
unt ing
Ġdark ness
Ġprosecu tion
Ġestab lished
Ġpreside nt
resen ted
chedu le
relea ses
omber g
' m
7 36
8 54
8 60
9 54
A J
C arter
F ox
H A
I KE
L o
M r
M SM
N OT
O OK
P P
P atriots
R OP
W AA
[ [
a fa
a vy
b all
e ca
e mail
g op
h igh
l t
p ed
s te
s cri
t reason
u gh
u mer
v SA
v ince
w all
y our
Ġ 18
Ġ ultimate
on y
se x
se nior
Ġth reate
15 1
au gh
fe ct
Ġo pp
nW HERE
Ġb read
un ter
Ġs tep
Ġin cluding
he ll
he alth
ow dy
10 2
Ġd ri
Ġd ump
Ġre tain
Ġe ns
ĠT ra
ĠT IME
ĠC LE
ĠS up
ĠS trzok
Ġis su
18 2
ĠA UTH
ĠA CT
ĠP lan
12 84
12 68
sta nce
ĠF ight
28 04
ĠD EM
ĠD urham
ĠD OWN
27 1
lo s
nP ri
nP ray
Ġfor ms
ĠB ut
ĠB ACK
AT T
ER T
96 1
96 2
ĠM ilitary
ĠM OST
ĠH APP
nH as
nH ouse
Ġse cond
be lie
tic ular
88 2
Ġwe ap
nN ext
nI SIS
Ġwas n
53 9
44 3
44 8
70 2
70 9
nR o
nM ilitary
nM essage
Ġi denti
66 5
cc d
99 2
84 9
ĠL i
ĠL OG
cb f
ome stic
art y
ab ly
AN Y
ea f
Ġk ind
Ġst rength
ĠU N
bb f
ns a
rou d
46 3
48 6
ĠOF FLINE
VE L
Ġ155 36
Ġj ury
Ġimp act
can dal
Ġtra cking
ĠST ART
Ġprote ction
Ġattemp ts
Ġmis take
nCon firmed
pri ate
ĠGo v
inter net
Ġsu ffer
USS S
know ingly
tru th
EX T
ara acarter
Ġthreat s
ORE IGN
ĠGO OD
ths child
Ġlear ned
Ġarticle s
ĠWAS H
EG AL
Ġreg ard
Ġsec ure
Ġrun ning
Ġcens orship
Ch ina
Ġrest ri
1036 61
Ġinstitu tions
Ġdemonst rate
limin ate
OUG H
nComp are
rose nstein
Ġproble ms
Bre aking
5 19
5 97
6 94
6 80
7 55
8 14
8 57
9 175
A X
A nons
B G
D z
D AY
E ED
E NCE
F reedom
G od
P L
S enate
T ho
T EST
U K
] _
a po
a ec
a ae
b df
b ia
b lock
d m
e ld
e ba
e very
e orge
f uture
f lynn
h ad
i ta
i sed
i ving
m ic
n the
n orth
n nypost
w ord
Ġ x
Ġ video
re et
in te
in fo
ar l
ar ies
or ts
ce c
ce e
ch an
Ġa void
de p
co lle
co ordinated
ve re
ve ment
al ity
Ġ15 14
Ġ15 32
Ġp ers
Ġs al
Ġs che
Ġs acrifice
it ing
Ġf o
Ġf il
Ġf ully
Ġc ir
er o
er y
20 9
Ġd ig
ne ver
ĠT here
ĠC onstitution
ĠS EE
ĠA N
ĠP ANIC
16 77
19 1
la ws
ĠF L
ĠF lynn
90 2
50 9
ĠD ay
ĠD ec
ĠD ES
24 1
24 2
24 9
lo ad
lo mon
nP R
Ġfor get
ĠW W
ĠM a
ĠH ar
ur p
nC ross
Ġse en
ĠN ame
pe ace
Ġt re
nA non
23 10
ca se
ĠR IGHT
Ġpro ject
Ġme thod
87 3
Ġat torney
80 2
74 89
Ġas k
ab b
04 2
\" >
ff c
IS M
Ġgo es
Ġst ring
Ġst rate
08 5
78 2
78 9
Ġl ine
95 1
Ġcan di
AK ER
ĠOF F
32 1
Ġso cie
pro tect
Ġmo de
Ġla te
TR OLL
Ġac cept
Ġ155 15
Ġar gu
ens orship
Ġattack ing
je cts
Ġtra de
Ġevery where
ĠTH AN
Ġwar rant
Ġcri mes
ĠWE EK
pri l
AG A
IR ACY
Ġcre di
gg le
Ġsur round
Ġposi tive
SP IRACY
ĠBL ESS
Ġlea der
Ġrec ord
Ġsw allow
Ġrequ ire
Ġrequ ired
plan ned
ĠID EN
Ex ample
white house
Ġpar ticular
blo gs
tis m
ĠHE RE
Ameri ca
emp loyment
Ġretur n
mig rants
Ġorigin al
stri ke
Ġstar ted
TROLL ED
0 97
0 54
0 53
3 14
3 92
4 20
4 50
4 67
4 03
5 30
6 20
7 10
8 38
8 56
A r
B o
C al
C BS
D F
E B
F C
F acts
G EST
K Y
N EW
P T
P NG
R ed
S h
S up
S ara
U U
W hen
X g
a ded
b ro
b lack
c ons
c urre
e vent
e losi
f un
i et
j ust
k ill
l ush
m uch
n USSS
w are
w ide
x s
y nch
Ġ image
Ġ" _
in sider
ta h
ch anne
Ġa lert
st leblower
de st
de ath
de mocrats
Ġthe ory
da e
Ġw onder
is ter
Ġto tal
Ġp en
Ġp age
Ġp lease
Ġp ati
Ġp roud
ge nt
Ġb an
Ġb attle
Ġs ure
ma jority
ma kers
ro lling
Ġin iti
ter ms
20 15
10 86
10 82
10 63
ne l
ne ed
Ġre lations
Ġe yes
Ġh ouse
ĠS pi
ĠS AP
ĠS yria
ĠA non
Ġm arker
ĠP ATRIOTS
12 60
12 49
en g
17 2
14 80
ĠF oreign
Ġn ormal
nD ate
nD irect
ĠD EC
26 2
ad d
ci l
ci ous
27 5
24 5
nS H
58 66
nP lease
nP anic
Ġfor med
ĠB rotherhood
Ġg ra
57 1
57 2
ĠH illary
ĠH annity
Ġcon side
Ġcon cer
nC S
nF in
nF OR
be en
ĠN ation
ĠN EVER
tic an
HE N
88 6
Ġdo g
di cal
âĢĤâĢĤâĢĤâĢĤ âĢĤ
11 16
53 27
ĠG L
ĠG AME
ĠO r
ĠO UT
ĠO ffice
70 1
Ġpo ints
Ġpro gram
fa m
Ġi de
74 6
74 9
ĠL e
Ġan aly
nB u
nB ack
nB arr
ĠTHE IR
Ġhe ads
pp er
ff d
nE nd
nE yes
hi ps
08 2
76 5
ran ted
om s
nG o
rou ps
Ġab sol
red it
nY es
AC C
eb d
Ġfa st
df d
Ġca pa
89 1666
47 2
Ġsi ze
Ġli mit
BI L
ĠIN VESTIG
Ġal ter
lea ders
ĠK orea
Ġ16 02
ast le
Ġvi o
Ġpri son
cl assified
Ġ159 97
ser va
Ġtra fficking
Ġfe w
sh a
spe ct
Ġaf fili
Ġelection s
Ġinter ference
Ġgu ys
sp y
ALL S
ĠPR OT
ĠGo vernments
CH INA
ĠON LY
gg ression
NN AN
nge rous
Ġsub poena
ĠCOM E
Ġam munition
Ġ150 98
296 4
RES S
ĠBL OCK
Ġ1544 6
ĠPo desta
Ġsig n
Ġhigh ly
^^ ^^
men tal
nTR UTH
docu ment
tech nology
Ġcoll apse
dea ef
Ġcurre nt
abc fb
Ġdiscus sed
organiz ations
Ġestab lish
ĠChi ef
Ġtur n
Ameri can
Ġappoint ment
sho oting
Ġindividu als
PORT ANT
american s
ĠEVERY THING
Ġeconom ic
Ġconta ct
bla ir
Ġperi od
Ġassi st
90014 11
Ġsit ting
Ġprincip les
ĠHapp iness
idUS K
Ġabsol ute
# \
0 55
2 14
2 11
3 19
4 13
7 17
7 97
7 64
7 29
7 44
7 25
8 16
8 19
9 55
; \
A Z
A ll
A NCE
D a
D i
F B
F D
K NOW
M atter
N ED
N arrative
P K
P ANIC
S IFIED
U D
U NT
X Y
[ -
] :\
b and
b fa
b cb
c de
c to
c fa
d ca
d bc
f cc
f ind
f its
g if
i ted
l ue
m cca
p y
p it
s per
t arget
u c
u ary
w ashing
Ġ 0
Ġ 13
Ġ 90
Ġ texts
Ġ" #
Ġ" @
re ts
th reate
Ġa ir
po ses
da d
da cted
Ġw an
is on
is ted
Ġp lea
Ġp atter
Ġp sy
>> >
>> \
Ġb rou
at tempt
Ġf la
Ġc lock
er ridge
ma ke
he s
10 50
Ġre com
Ġre pe
Ġre gain
ĠS ICK
18 1
ed c
ĠA ID
Ġm ank
Ġm ultiple
ĠP ut
19 34
mp eo
nD NC
nD EF
RE AD
RE ASON
26 5
ad ministration
ld ren
lo cal
nS pe
nP er
ĠW hat
Ġg row
ĠM E
ĠM S
54 1
Ġde struction
ĠH ow
nH uber
ur pose
nF ull
Ġse nd
be e
ĠI RAN
the ories
88 4
Ġdo cs
Ġdo ssier
nThe n
ca b
ca e
ca re
ĠR ep
nI nsur
53 2
ĠO VER
ĠO CT
Ġpo ssi
Ġpo litici
nM IL
60 6
news week
80 5
80 9
ba c
ef d
mo tion
mo ves
mo lle
ĠL ife
OR ITY
nB ill
ee b
Ġby pass
AN G
AN SP
93 2
Ġsh ills
Ġsh ift
Ġch amber
ĠE yes
07 8
dd b
am iner
Ġsta ble
nL OVE
73 54
AL K
46 5
Ġlo gs
48 9
nJ FK
ID ENT
Ġca pture
nRe levant
Ġsi tu
Ġno tice
Ġli ber
con tent
pro secutor
cu sed
lan g
af d
Ġj ob
ĠV ITAL
Ġman date
Ġunder stood
Ġinvestig ating
Ġ153 27
ser t
Ġtra dition
Ġ158 66
ĠSta nd
ĠTR UE
if y
Ġ152 30
ton y
Ġad min
LY NN
mit ted
Ġattemp ted
ĠWH Y
titu te
Ġ157 66
Ġtarge ting
IR M
Ġins ur
Ġins tead
Ġneed s
580 13
ĠRe serve
Ġmeet ings
Ġname s
ĠHe ad
Ġlike ly
ĠDO ES
Ġoper ations
afe ty
rie nce
Ġass oci
ĠBL M
Ġcontin ually
Ġauthor ities
Ġ1553 13
ĠAMERIC AN
Ġhold s
law yer
ali fornia
Ġbl ame
Ġblack mail
nTra ck
force d
NY T
Ġru le
Ġgen eral
nTH INK
ĠDemocrat s
Ġage nts
Ġrepor ts
Ġexpe rience
air man
Ġdist ri
ĠSec rets
ĠAf rican
Ġstru ggle
ida nce
judi ciary
nKnow ledge
Ġfamili ar
730 7489
Ġresign ations
nPlan ned
ĠBO OM
Ġaccoun tability
Ġspi ri
MOV ED
coll usion
Ġdir ty
ĠPOL ITICAL
nAttack s
ĠAnti fa
Ġprovi ding
Carter DC
Ġopp one
Facts Matter
Sara CarterDC
ĠSpi rit
Ġbrou ght
Ġmank ind
ĠOCT OBER
) )
0 88
0 80
3 12
3 16
3 54
3 25
4 97
4 56
4 34
4 68
6 12
6 17
6 26
7 18
8 24
8 00
8 29
C ED
C om
E b
F ollow
F ISA
G OOD
H USSEIN
H erridge
I Z
I NCI
I LE
R ussia
S o
T ra
T IC
T hat
T AIN
V s
W w
W WG
] "
] ]\
a ad
b r
b de
c ru
c ity
d le
d ba
d fb
d fc
e ma
f ce
f ad
f be
f db
g rity
i x
j s
m ith
o ff
p g
p ts
r un
s m
s hip
u de
v C
w in
w hen
x aminer
y ond
y xs
Ġ *
Ġ ve
Ġ site
Ġ 17
Ġ temp
in to
in di
in fl
ta ges
ta gon
ti fied
on or
st ing
de b
de e
po p
an e
Ġw rong
Ġw ords
Ġw ife
fe c
Ġ15 10
Ġ15 35
Ġ15 77
Ġ15 63
Ġp l
nW L
nW AR
Ġs pace
Ġf le
Ġf ore
Ġf ired
Ġf reedom
Ġof ten
Ġd uty
Ġre duce
li fe
li ef
Ġe cho
ame rica
Ġh umanity
nWh ich
ĠC l
ra ted
ĠS h
ĠS nowden
ĠA ll
ĠA ss
ĠP ublic
ĠP residential
res pon
19 91
en ti
17 64
US A
14 9
la in
ĠF ederal
ĠF loor
Ġn ation
90 1
90 00
28 2
ĠD EP
ĠD avid
Ġare as
ci st
nS R
94 2
ĠB EL
AT S
ĠW ho
ĠW ashington
Ġg ave
ĠM IS
ĠM ike
ĠM ANY
54 9
54 76
Ġde di
Ġcon clu
nH USSEIN
ur s
ur der
nC L
nF ight
Ġse cret
Ġse lf
ĠN ATION
ON A
the ir
64 5
ca a
ca go
ĠR ich
nI ran
ĠG ood
ĠO n
ĠO LD
and y
44 9
Ġpro mi
nR ef
60 1
60 9
fa a
cc b
for med
mo s
nB L
ome d
AR M
67 8
Ġma s
Ġma kes
04 5
04 9
AN GE
Ġun employment
ea led
ea gan
Ġsh are
92 1
07 6
am ily
Ġle ss
fb c
fb d
73 5
Ġl ines
Ġl isten
Ġl ittle
rou te
Ġv ali
Ġv oting
Ġlo g
75 15
Ġso le
LE ASE
pro of
Ġla bel
âĢĿ \
age ment
nNo tice
gen eral
ĠK en
Ġvi a
Ġvi g
ĠRE C
sig ns
Ġ159 13
Ġri ots
Ġ153 56
ser s
tu al
ĠST UPID
el s
nMS DNC
ins tein
fic ult
Ġprovide s
fir m
Ġcount s
Ġmis sion
Ġgu ard
Ġgu ide
assi fication
cri minal
Ġtruth s
Re al
Ġob vious
vo ter
Ġ156 27
Ġdi vision
Ġdirect or
Ġwork ed
va cy
va sion
Ġba sis
Ġforce d
ili d
nSome thing
ĠCongress man
ĠPo st
Ġleak ed
Ġcolle ctive
No v
Ġkey words
Ġfin ancial
Ġcommun i
Ġcommun ic
Ġactive ly
cho ol
ĠPL AN
Ġdepart ures
$$ $$
Ġwitness ing
sup port
Ġdeli berate
Ġviole nt
Ġext reme
ĠWIT NESS
Ġrepor ted
ĠDE AL
secut ors
wik i
IDE NCY
whi ch
def ault
Ġcar ried
Ġes se
Ġagen da
ĠSP Y
Ġres ults
Ġlarge st
?âĢĿ \
Ġcla ims
Ġtermin ated
Ġveri fy
Ġear ly
Ġinten ded
nST AY
nOper ators
Ġindividu al
Ġdeci sion
bet ter
Know ingly
Ġbene fits
uen za
Ġer ror
Ġbill ions
Ġcour se
rec ord
Ġpub lished
Ġinclu de
Ġty p
nNY T
ĠAB OUT
Ġcent ral
Ġregard ing
Ġpati ent
serva tive
PK ia
molle tt
ANSP ARE
ema ilid
yxs PKia
( (
/ #
/ ",
0 15
0 66
2 19
2 59
3 97
3 94
3 98
3 29
4 10
4 18
4 17
4 30
4 87
4 07
4 95
6 55
7 16
7 14
7 28
7 58
7 66
7 95
8 13
8 22
A s
B ill
C D
C R
C a
D W
E V
E h
F ree
F ALSE
G o
I s
I OUS
L e
L og
M is
N AT
P g
S OUT
W k
X k
Y OU
a co
a ff
a cd
a tican
b arr
b ili
c nbc
d ra
d ff
e da
e mergency
f dd
f df
f alse
g gest
h alf
h unter
j ournal
k ins
l ter
n ter
n tally
p ut
p und
p ression
s ue
t wo
u ge
u mb
u tes
u clear
u tah
x y
x im
y a
y b
y al
z y
re f
re ci
me ar
ta ker
or tion
or ow
or ders
ti ma
Ġa live
st op
de nce
Ġth row
po licy
le vel
le ft
si bility
ri or
ri ch
ri ving
an a
Ġw a
Ġw oman
ing ton
tri es
is tan
Ġp reser
Ġb att
Ġf ig
Ġf raud
Ġf rame
Ġc ourt
ma ins
ro ad
Ġin f
nd ict
10 67
10 77
li st
li er
as y
as ons
nT arge
nT reason
ĠC ongressional
ĠC alifornia
ra q
Ġis n
Ġbe st
Ġbe yond
ĠA D
ĠA pp
ĠA BC
ĠA NTIFA
ĠP RE
ĠP REVENT
12 15
12 58
12 55
17 90
US E
ct ure
ĠF U
ĠF OREIGN
90 9
ĠD IS
ĠD IR
26 1
Ġ( +
37 33
lo ads
nS AT
nS enate
nS HEEP
AT ER
ĠW ANT
ĠW ATCH
Ġg ranted
Ġde lta
ĠH o
ĠH UM
ĠH UNT
Ġcon stant
nH AVE
nC he
nC OR
nC ould
nC OM
nF anta
be fore
ĠI F
ON S
pe cted
id den
88 1
64 2
nA BC
ca f
nN AT
op en
Ġ- \
Ġpo lice
Ġpro ba
nR ussia
ir ls
60 2
fa ke
IT S
IT ARY
Ġat ta
cc c
33 1
84 1
84 5
74 5
nB C
Ġhe alth
AN ITY
ea a
Ġsh ot
AS H
Ġch i
ĠE lection
IG INT
nE VIL
dd c
Ġle ave
Ġgo ver
08 6
73 2
Ġta sked
int ons
ĠJ an
AK ING
nJ A
nJ USTICE
ĠY ork
40 94
ac f
89 1
47 9
ok s
nO ur
Ġla ter
ĠUS A
ount y
Ġdis se
IL D
Ġsa le
Ġ153 57
cre ts
ĠCh urch
Ġ154 13
Ġ154 14
Ġ154 36
el ta
spe ech
spe cific
spe cially
Ġcor por
fic ant
ral lies
Ġ152 38
Ġad ded
Ġdown fall
Ġprote sts
Ġpush ing
IF IC
cal i
Ġra ther
nEx pect
land s
ĠPR OVID
Ġindi cted
AG SOUT
ĠBE ING
Ġsafe guard
Ġ156 34
Ġcl ass
year s
main stream
testi mony
Ġoper ation
imp ortant
imp ression
que nce
Ġrep lace
âĢ¦âĢ¦âĢ¦âĢ¦ âĢ¦âĢ¦
Ġbig ger
nTru th
clu sive
Ġfight ing
Ġexp lo
Ġtal k
Po litic
Ġrec ords
nTra ce
ĠRo gers
direct ly
Ġmen tion
FL AGSOUT
Ġtri ed
nSh all
Ġfail ure
Ġfun ded
wik ileaks
Ġeffe ct
Ġcar ry
Ġmain tain
Ġside s
ip edia
IST ORY
Ġadd ress
ĠNY T
Ġ>> >
remo val
ĠMay or
nBig ger
Ġaccord ingly
maz on
maz ing
Ġvisi t
Ġans wer
Ġcau ses
Ġreque st
rowd strike
Ġdocu ments
jec ted
meet ing
Ġpursu ing
Ġwitnes sed
ATH ER
Ġunde rage
Ġdisc redit
apo re
Ġstring er
Ġcredi bility
BIL ITY
cto ber
uc ci
ĠMS DNC
INCI DE
nCOR ONA
' ?
' ]
) ]
) ",
. ?\
0 50
0 58
0 34
3 58
4 16
4 37
4 96
4 74
6 10
6 87
7 13
7 98
7 57
8 15
8 30
9 19
9 56
? )\
A BC
B ut
D l
D id
D ARPA
F uture
I O
N ot
O X
O f
S S
T A
T u
T ime
U TION
U CH
U CT
W orld
_ /
a af
a ctions
b dd
d cd
e mb
e vin
j ul
m ine
n cy
p ing
p ter
p ub
r one
s w
t v
t one
u ght
u lation
u ish
u tists
y le
Ġ %
Ġ reference
Ġ 100
re ach
te cted
th y
th reat
th row
ta p
ta te
ti ves
ti mi
ou th
on line
ce b
ce s
ce ns
ch a
ch inese
Ġa ud
Ġa gree
se al
se lect
co pter
po sing
Ġw ave
fe n
Ġ15 126
Ġ15 288
Ġp as
Ġp resented
nW ith
Ġs on
Ġs cre
Ġs yste
it ors
Ġf it
Ġf lag
Ġc ust
er gy
ma cy
Ġin form
13 17
13 06
10 95
10 72
Ġd ie
Ġre gu
Ġre mains
li z
li gh
li copter
as cism
nT iming
Ġe specially
Ġh ours
ĠT ime
ĠC ar
ĠC lowns
ĠS O
ĠS pecial
Ġis o
Ġbe gan
ĠA d
ĠA ra
ĠP re
ĠP en
ĠP ru
ĠP UR
ĠP aul
ĠP arty
12 28
res sed
17 74
ct ing
vi d
ĠF OUND
ĠF ACTS
ĠF acebook
ĠF LYNN
ĠD i
24 34
Ġ( &
Ġ( âĢĺ
nS he
nS essions
nS tep
94 96
nP a
nP urpose
ĠB lack
ĠW R
96 697
ĠM uslim
ĠM ATTER
Ġde vil
ĠH IG
Ġcon du
nH o
nH OT
nH istory
nC H
Ġse lling
ĠN K
ĠN OV
ĠN orth
ON D
Ġwh ist
Ġdo c
Ġt reat
nA MERIC
nA NTIFA
ca c
nN arrative
11 13
11 10
nI F
Ġpro ven
fa irs
cc f
33 2
Ġco sts
Ġco lor
AR S
Ġhe ave
AN S
go gue
Ġsh it
Ġsh ared
Ġsh ield
ine t
52 24
IG ENCE
EC ESS
Ġle ast
Ġle verage
Ġsta y
78 5
nL isa
73 1
06 5
bb b
Ġex ten
Ġex actly
ul k
Ġta ught
ĠJ eff
Ġv ari
75 36
ho o
77 7
39 1
Ġso l
ac ti
nRe mo
nRe view
Ġno tes
nO hr
Ġmo ment
Ġmo vie
Ġal most
ount s
110 6
ĠRE AD
85 1
Ġunder way
nU nited
Ġ20 15
Ġop tics
ĠCh rist
ST E
Ġover sight
ance s
no ther
Ġspe ed
ber g
Ġthere fore
ud ges
Ġsup posed
fir st
Ġ152 28
rap h
IM ARY
ĠDe fense
OS ED
Ġtarge ts
ĠPR O
Ġro ad
Ġsafe ty
stru ctions
stru ctive
FOR CED
Ġsub ject
Ġend s
Ġbet ter
Ġmin utes
++ ++
ha ps
na gogue
Ġ150 99
gra ms
Ġass ault
lat te
IVID E
Ġilleg ally
ag ing
Ġsay ing
Ġlook ing
Ġpray ing
Ġpray ers
direct or
1059 19
Sta tes
âĢĶâĢĶâĢĶâĢĶ âĢĶâĢĶ
Ġcall s
ĠCL INTON
Ġdeli ver
Ġdeli vered
nSh ould
Ġdeath s
Ġnu mbers
ĠDE EP
wik ipedia
Ġpar ti
Ġcounter moves
1036 96697
Ġappro ved
Ġmain stream
Ġinstitu te
Ġpopu lations
IE VE
Ġnet works
usa today
nCh ina
ĠAct ing
ĠPRES IDENT
ĠPRES IDENCY
Ġlead ing
remo ve
Ġsca re
bur gh
Ġbri ef
Ġlevel s
ELL IGENCE
Ġproof s
Ġaccord ing
cra ft
Ġbook s
Ġfamili es
Ġminor ity
Ġreque sts
Ġequ al
Ġsce nes
Ġci vil
Ġjusti fication
Ġactiv ity
Ġpuppe t
repor ted
ĠREP UBLIC
Ġsentence d
Ġwal k
ĠCORRUP TION
Ġdele ted
peti tion
Ġadvan tages
mil ar
neg ade
again st
ĠMon day
ĠCLE AR
Ġweap ons
ĠLi ber
103661 19
Ġsche mes
Ġsocie ty
Ġargu ment
Ġrelations hip
Ġconside red
ĠPROT ECT
washing tone
Ġplea ded
Ġpossi bly
Ġspiri tual
ĠBEL IEVE
orow itz
nFanta sy
ECESS ARY
washingtone xaminer
' d
. ,
0 26
0 38
0 56
2 54
3 17
3 22
4 38
4 66
4 99
4 78
5 20
5 36
5 23
6 24
6 34
6 59
6 84
7 74
7 67
8 58
9 53
B R
C ensorship
D A
F A
F IRE
G A
J P
M on
M cC
M EDIA
N on
N ew
O bama
O ICE
P M
P ublic
P ARTY
Q U
R USSIA
R osenstein
S D
S UR
T C
U Y
U wAA
V o
W as
W hite
W ALLS
a si
a tive
b ing
b be
b ba
b dc
b ans
d fa
d og
e pstein
f ull
f und
f rie
f raud
g n
g ation
g ni
g ion
i j
i er
i res
i tal
l in
n ation
p hoto
r c
r d
r as
s a
s al
t weet
u ri
u ro
u ed
u lated
w r
w al
w oman
Ġ 24
Ġ ur
Ġ 25
re ction
re ally
th an
th ood
in o
in stall
in sert
or ists
ou dest
ce f
ch ive
Ġa ka
st or
de red
Ġth ous
Ġth ough
po ints
le t
le man
da c
an ies
Ġw ins
Ġw ish
ing apore
ing uish
Ġ15 56
Ġ15 87
Ġp e
Ġp ra
Ġb ra
Ġb ank
Ġb ias
at ures
un i
Ġs k
Ġs um
Ġf our
Ġf low
Ġc ab
Ġc ities
com mon
ll a
Ġin v
Ġin cre
Ġin filtra
ter min
20 11
13 1
10 12
Ġd ic
us ual
Ġre signed
li ct
as ing
Ġe le
Ġh it
ĠT i
ĠT ur
ĠT ech
ĠC F
ra id
ra tes
ĠS er
ĠS ER
ĠS ING
ĠS tein
ĠS afety
ĠA F
ĠA NY
NC LU
ĠP AY
ĠP UT
ĠP ries
12 76
16 00
ot us
ct ory
vi ation
la ke
ĠF ED
ĠF orm
ĠF reedom
ĠF ACT
ĠF ISC
Ġn ature
ck s
90 90
nD if
30 93
50 94
97 1
97 30
ĠD AT
ĠD EL
ĠD IRECT
ad f
ad y
ad ness
ci pa
27 73
56 2
37 2
37 5
lo se
nS ymbolism
58 9
nP ATRIOTS
ĠB ri
ĠB RE
ĠB ARR
ĠW hy
Ġg irls
ER N
ĠM ON
ĠM AJ
Ġde f
Ġde fin
Ġde structive
ĠH OW
nH igh
nC l
nC BS
nF EAR
nF irst
be ast
tic ally
the daily
88 9
64 9
Ġt rusted
nThe ir
59 30
nN G
nN ormal
ĠR ed
il ant
ĠG erman
ts burgh
Ġ- >
44 2
nR USSIA
nM oney
87 5
22 2
Ġi dea
Ġor ders
Ġat tention
ba se
ĠL OVE
Ġan on
ee k
Ġas leep
55 1
67 6
Ġma jor
Ġhe ard
ves ted
04 6
Ġcom m
Ġcom ments
day s
07 1
Ġst ock
Ġst rings
06 9
76 9
Ġex pand
Ġex ists
Ġab use
Ġab uses
Ġta kes
ĠJ r
ĠJ udge
Ġlo c
Ġlo ss
oun cil
Ġso ld
Ġca st
bc f
con ne
con tin
TR UTH
Ġac ce
Ġ155 26
fo llow
Ġj udge
Ġj ournal
ol ve
ĠK EY
iz ation
iz ards
Ġar rest
110 67
Ġdis information
Ġdis cover
Ġvi tal
we ar
Ġimp each
ten tial
oll y
Ġtru ck
Ġ153 28
ĠST RE
ĠCh ris
Ġ154 16
gre en
do cs
do ssier
ass ination
Ġbo y
Ġpower ful
ata n
Ġevery one
ud den
fer s
moc racy
Ġad ministration
ĠFI R
ĠCON TROLLED
Ġvo tes
Ġ157 67
Ġ160 27
Ġstand ard
Ġinter net
Ġgu y
Ġpolitic s
Ġau th
OC T
cri me
ĠWe st
inter nal
Ġreal ity
vo te
Ġshe ep
Ġorganiz ing
Ġplay ers
ĠIM PORTANT
Ġsur v
Ġoper ated
Ġplace d
Ġdefe at
547 64
Ġcontin ues
ĠGO OG
ĠâĢ¦ âĢ¦âĢ¦
Ġhold ing
INT EL
ĠSEC UR
nFor mer
De cide
nTo day
uck le
Ġsw ord
state ments
Ġmessage s
nGood bye
sy nagogue
EG UARD
ann ounce
Ġda ngerous
Ġtac tic
ĠOP EN
ĠPe ter
Ġsile nt
nUn known
Ġext ra
Ġnu mber
Ġexpe nd
Ġgain s
ĠELECTION S
ale ed
Ġtermin ation
Ġfi x
Ġfi res
Ġinten si
resen ta
Xs AA
judi cial
nCom ms
Ġdisclo sure
!!!!!!!!!!!!!!!! !!!!!!!!!!!!!!!!
some thing
Ġbuild ing
Ġval ue
Ġdire ction
Ġdevice s
Ġterror ism
Ġsigni ficant
Ġmar ket
Ġfrie nd
Ġfrie nds
ĠTER M
nSt art
Ġconvi cted
nConne ct
ĠAGAIN ST
reve al
Ġinde ed
nUNIT ED
ĠACC ESS
Ġcontract ors
Ġshort ly
Ġjo in
SEL F
ĠWHIT E
ĠMa ggie
curre nt
Ġwonder ful
pit tsburgh
Ġpolitici ans
Ġsitu ation
Ġvig ilant
Ġesse ntial
ĠWATCH ING
Ġproba bility
Ġcorpor ations
cali fornia
timi dation
Ġwhist leblower
ĠPries tap
thedaily beast
( \
/ "
0 59
0 33
3 15
3 95
4 19
4 60
4 93
4 39
6 90
6 28
6 50
6 74
6 93
7 99
8 10
8 17
8 90
8 27
8 55
8 39
A ggression
B ar
B ig
B arr
C S
C an
C TION
D T
D og
D urham
F ire
F ascism
G u
H ar
I ATE
L i
L ES
M y
M ay
M IL
O ct
O AB
P ARE
Q Anon
S O
S en
T T
T UR
T rip
W OR
W atch
W orth
W OOD
X Q
Y ES
a cb
b cc
b ff
b ject
b orn
c au
c fc
d be
e cb
e tc
g or
g ive
g ress
i b
i ction
i ous
i med
l aunch
n ursing
p top
r ince
s po
s ca
t U
u it
v or
w aleed
Ġ |
Ġ OTHER
th ought
th ony
in sta
in ction
me t
ar cis
or se
or ning
or dan
ti z
ti tle
on age
ch ris
se ts
Ġth read
Ġth ree
po desta
po tism
si mp
an sion
an el
Ġw ire
Ġw ake
?\ "\
ve mber
Ġ[ #
fe ed
Ġto ol
Ġ15 91
Ġ15 41
Ġp ie
Ġp anic
Ġp hoto
Ġo pened
ge nts
nt y
Ġb illion
un day
Ġs candal
Ġs udden
Ġf ought
ma sk
ro ll
ro ws
Ġin filtration
fi g
fi red
fi eld
ter n
20 12
13 16
10 80
us band
Ġre q
Ġre pa
li ck
Ġe limin
Ġe vince
Ġe asi
ĠT ake
ĠT EST
ĠC ross
ra ble
ĠS ile
ĠS PE
ĠS HEEP
ed ded
ed ition
Ġm illion
ĠP ress
ĠP lay
12 70
12 47
es pon
es potism
16 9
17 76
14 13
la ined
ĠF D
ĠF ox
Ġn ursing
90 46
30 25
IN FORMATION
97 12
ĠD OM
ĠD ROP
ĠD espotism
ver t
ru st
ru gs
38 15
Ġ( '
37 64
nS S
nS ay
nP ain
nP eter
Ġfor got
34 1
AT TACK
Ġg one
Ġg ather
ER R
ĠM arch
ĠM ark
ĠM AGA
Ġde e
Ġde als
Ġde mand
Ġde viation
57 5
57 04
ĠH ISTORY
ĠH orowitz
Ġcon sider
ur al
nF lynn
nF VEY
Ġse par
be ll
ĠN AME
the se
id s
HE ST
88 3
88 25
29 50
Ġdo ll
nA F
nA pp
nA ctions
âĢĤâĢĤâĢĤâĢĤ âĢĤâĢĤ
nN on
ĠR i
nI m
op es
ĠO ne
ĠO bject
Ġpro ve
ut side
nR ep
nM Z
nM ay
nM any
60 291
fa b
!! \
80 1
ba ch
ef b
lic it
84 2
74 36
ĠL ight
ĠL IF
nB ad
nB lack
nB uckle
cb s
ee c
ĠTHE N
67 2
Ġma il
Ġhe ll
Ġhe aring
AN K
go ti
AS K
AS S
68 5
52 19
52 30
ĠE U
dd d
2018 0
06 1
06 2
ran ge
Ġex isted
Ġl oudest
Ġv ol
Ġlo ckdown
cide nt
75 10
75 26
pi red
pi onage
77 1
Ġsi milar
ind ow
Ġmo bile
Ġla ying
ĠIN FO
ĠIN FORMATION
Ġ155 16
Ġ155 25
ack age
ĠK ILL
db d
Ġup date
Ġvi ctory
ĠRE MOVED
65 1
cf d
Ġop position
83 58
Ġpri vacy
Ġen ergy
read ing
Ġ159 50
Ġ159 98
Ġus urp
mon th
ser ver
Ġ158 97
Ġ158 92
The se
AD S
ass ment
Ġbo dies
ins urance
ral ia
leg al
ĠTH INK
Ġ152 27
Ġho stage
Ġad dition
Ġad vance
Ġacc u
ders on
NIT Y
nIn filtration
IF Y
Ġ160 33
VER Y
ĠSen ator
ĠPR IOR
Ġdon ated
pri vate
EP T
Ġsu ffe
Ġsafe gu
cor rect
Ġconne ctions
Ġevil s
150 56
tru st
nal y
Ġsub version
Ġget ting
EAR N
Ġsur veillance
Ġbu ck
IGN ED
Ġow ns
ĠâĢ¦ .
war ning
Ġlear ning
Ġprotect ing
ĠAT T
ĠFIGHT ING
Ġtal ks
Ġfin ally
uck er
tur ley
veri fied
ĠAW AKE
chi ef
Ġclean ing
light s
Ġda ugh
nPo ssible
nRead y
reg ular
reate st
ari ably
anti fa
Ġchallenge d
nUn der
whi le
Ġeng ine
blo g
blo omberg
attack s
ĠSP EC
ĠGu ards
az i
ell ow
Ġcla im
ĠAR TIC
ĠAnd rew
Ġfi ction
right s
Ġpreside ntial
chedu led
Ġappe ar
sur veillance
ĠLE VEL
Ġans wers
Good bye
Ġbene fit
cli ps
Ġpain t
ĠSt orm
ĠWhi le
UC K
jec tive
Ġpursu it
Ġwitnes ses
Ġpuppe ts
4280 189
brief ings
FU LL
Ġwhe never
nID EN
nMo ves
mend ment
ĠCOMM AND
Tru th
Imp ortant
nMe mes
ques tion
Ġenforce ment
Ġens ure
ĠSup reme
Ġissu es
ĠLOG IC
Sup pression
fun ded
ĠOr der
fam ily
nBack ground
ACC ESS
ĠBLOCK ADE
Ġpatter n
Ġdistri bu
Ġve hic
Ġcommuni cate
Ġpatient s
xim ity
ndict ments
ĠHUM ANITY
INCIDE NCE
Tu be
Ġaud its
Ġcondu cted
nAMERIC A
uro pe
Ġinv ariably
nDif ficult
ĠFIR ST
Dog ma
arcis si
Ġevince s
ĠLIF E
Ġusurp ations
) "
) ).\
+ ",
0 20
0 19
0 36
0 94
0 96
0 60
3 27
3 36
3 59
4 15
4 12
4 29
4 84
4 55
4 06
5 29
6 18
6 19
6 27
6 29
6 95
7 24
7 70
7 87
7 84
7 92
8 18
8 59
8 11
< \
A US
A sk
B N
B ER
B IG
C N
C OV
C NN
D L
D P
D b
F IL
F oreign
J T
J ames
M an
M id
O H
P resident
P anic
Q R
R S
U cAA
W AR
W here
a way
b da
c ou
c ould
c fb
c ating
c ountry
d fe
e nce
e nd
e be
e ts
e ab
f de
f fic
g ins
g rassley
i o
j ack
j ury
l as
n X
n j
n v
n re
n der
n wikileaks
o o
o thers
p at
p ted
p aul
r ating
s ame
s la
s um
u a
u me
u ts
u ris
v ated
w ea
Ġ ~
Ġ https
Ġ 50
Ġ rap
re public
te am
te ous
te rest
in side
in vol
in ions
ta x
ta li
on ly
Ġa gg
se en
st ar
st on
de m
de cl
co l
si ent
ri sing
Ġthe rap
Ġw ater
15 59
15 03
15 05
tri o
tri ke
arch es
is k
al leg
Ġ15 174
Ġ15 170
Ġp ure
Ġp aw
Ġp ick
Ġo ps
nW in
Ġb ur
Ġb order
Ġb usiness
Ġb rain
at torney
un ker
Ġs la
Ġs ymbo
Ġs lush
Ġs cheduled
it ch
Ġf ile
Ġc ou
er ing
ro ops
Ġin timidation
fi able
he aring
ter nal
ter ror
20 10
10 56
10 99
10 01
us al
Ġre d
Ġre sources
Ġre asons
li a
as ters
as px
nT ri
Ġe lder
Ġe asy
ĠT est
ĠT weets
ĠC ri
ra ction
ĠS he
ĠS ome
ĠS chiff
Ġis sue
Ġbe gun
ĠA sia
Ġm urder
12 74
res pect
res ults
16 46
19 73
17 18
17 14
17 23
vi sed
vi ews
14 34
14 44
14 48
ĠF F
ĠF ake
Ġn omin
90 57
nD ec
30 58
ĠD ON
26 34
ci tiz
27 79
56 28
36 1
37 9
37 78
58 01
nP UBLIC
Ġfor th
ĠW AY
Ġg lobal
Ġg iving
Ġg reatest
ER O
ĠM id
ĠH al
ĠH ON
ĠH ome
Ġcon text
Ġcon tain
nH illary
nF ear
nF alse
ĠI P
ĠI f
ĠI LL
ĠI nsur
ON STR
pe l
pe t
the ma
ke nd
ke ep
HE L
ws j
out s
Ġt reason
nA M
nA P
nA ny
nA nother
Ġwe alth
di o
59 96
nN ever
ĠR U
ĠR IS
ĠR eagan
11 12
11 192
nI magine
ĠG owdy
âĢĻ \
ĠO ctober
Ġha th
and om
Ġpro grams
Ġpro ximity
nR eg
nM ar
nM ake
nM ichael
ir ror
Ġme t
Ġme as
nTh at
!! "
87 20
87 36
IT Z
Ġat tend
66 2
ba a
25 1
99 1
99 5
ef c
ĠL a
ĠL ondon
ĠL OOK
nB ruce
Ġas king
Ġas signed
Ġma ch
ic s
ab use
04 7
go vern
ea m
68 3
OU RC
Ġall ies
52 58
nE vil
dd f
Ġgo ld
Ġst reet
Ġsta kes
78 63
nL OG
ING LY
nWe ll
ĠU BL
litic al
ns y
Ġl an
nG ame
nG raphic
95 56
ms nbc
ĠJ on
ĠJ udi
ust omed
46 1
ist or
nJ o
nJ im
nJ ustice
ID GE
77 2
40 1
ĠTO DAY
Ġca pt
ok ed
gh teous
pro paganda
Ġmo le
86 5
Ġ155 18
ĠUS SS
ĠK im
ĠV atican
ĠV OICE
Ġtime line
Ġar m
Ġar ri
Ġup dated
110 70
Ġdis posed
Ġdis cer
ĠRE L
ĠRE S
nU p
Ġop posing
SE TS
Ġinvestig ators
Ġtru ly
42 56
Ġ159 37
Ġri gged
Ġri ghteous
Ġ153 30
GE NCY
tra st
ĠCh inese
ĠCh andler
Ġ154 37
Ġ154 67
Ġfe et
sh adow
ĠSta ff
iti macy
ĠTR ANSPARE
OD Y
Ġbo x
Ġbo ss
ATE G
Ġser ved
100 16
Ġacc ustomed
Ġwar ned
Ġ157 64
Ġ160 20
Ġstand ing
ĠDe mocratic
ĠWE AK
Ġra te
part y
Ġinter nal
ĠPR IMARY
vice s
real clear
pri mary
Ġact or
Ġact ual
ĠGo ogle
TER M
Ġ1520 7
Ġ1520 70
105 97
Re post
Ġhow ever
ĠCo mp
ĠCo leman
Ġreport ing
Ġsu ggest
rans parency
Ġshe wn
Ġplay ing
Ġdi ed
FOR T
Ġwee ks
bre ak
Ġname d
ĠIM M
Ġoccur ring
over sight
108 64
Ġmean ings
UM P
ha ir
Ġba se
Ġbu ried
SP ECT
Ġ1515 90
Ġ1515 38
ĠSH OW
ĠSH ADOW
nSta te
nSta nd
ĠNo v
Ġ1544 658
Ġhel ps
nHe re
nLo ckdown
Ġsig ned
ick i
Ġfind ings
nPro of
econ om
Ġtrans parency
oper ation
Ġfin ance
Ġsw amp
THE Y
ues day
nPre vent
Ġru lers
Ġcru mb
Ġcons titution
CON SPIRACY
nPo st
gi ance
plan s
Ġbre ach
Ġdesign ated
OTH ERS
ĠMcC ain
ffi ci
MENT S
Ġage nt
Ġtri g
ump tion
rit ten
Ġpay ment
Ġpay ments
IDE NCE
Rep orts
whi stleblower
uppe ts
]] ?
inde pendent
Ġres olve
ada m
Ġear th
Ġtur ned
edd it
ph p
onstitution al
bl ue
bur g
mig ration
Ġreli gi
OUG HT
ĠYOUR SELF
IB LE
bed in
Ġball ots
Ġinser t
Ġinser ted
ĠAl waleed
1256 66
Ġspread ing
Ġalle giance
Ġdire cted
cour age
uff ington
charge d
Ġz one
Ġjusti fy
Ġactiv ated
ĠTER MIN
ĠSAF EGUARD
exp lo
Ġabolish ing
Dep t
Ġge ts
Ġwait ing
Ġph ones
diction ary
nUNIT Y
Ġreceive d
Let ter
Ġcontribu tions
dic table
Ġdisco very
Ġdisco vered
trans cri
nEN EMY
Ġcr ash
ĠDEF END
Ġdesi red
nCri tical
Ġtran sient
Ġthreate ned
Ġpers ons
ĠThere fore
ĠFL AG
nPR OM
Ġcandi date
channe l
ĠINVESTIG ATION
Ġpsy che
7354 957
Ġoppone nts
Ġfle sh
ĠAss oci
ĠWITNESS ED
Ca pture
ĠFU LL
Ġchi ef
Ġdisse mination
Politic s
ĠPru dence
STE IN
Ġpra c
Ġdic tate
ĠStein bach
ĠDAT A
olly wood
OCT OBER
Ġintensi fy
Ġsuffe rable
Ġelder ly
ĠJudi ciary
Ġdiscer n
) :\
) ]\
. [
0 13
0 14
0 24
0 23
0 11
0 67
0 92
2 287
3 90
4 98
4 54
4 25
4 04
4 52
4 21
5 10
5 54
6 30
6 38
6 56
6 96
6 64
6 33
6 31
7 90
7 93
8 36
8 53
8 44
9 94
9 96
9 29
? ?"
A re
C K
C L
C oll
D c
E EP
G L
G O
G S
G reen
K im
M C
M a
N ow
N unes
O INT
P eople
P OWER
P elosi
R T
S Y
S chiff
T IN
T OP
T ech
W O
W hi
W el
W HERE
Y Z
_ [
a ee
a mb
a fb
b i
b ar
b ce
b fe
b us
b fc
b ird
c r
c ounter
d s
d bb
d om
d nc
f man
f dc
g ame
h ard
h ur
h ate
h illary
i co
i en
i ses
j so
j ames
k i
l u
l au
l ong
l ondon
m od
m ust
m ind
m uslim
n Z
n q
n as
n ger
n ari
n ormal
o lic
p resent
p late
r r
r ussian
s n
s ch
s hips
t re
t ly
t ty
t reat
t weets
t rusted
u ke
u ties
u zz
u fact
v ous
w a
w on
w ards
w ise
w ater
Ġ ill
Ġ 44
Ġ EST
Ġ round
re m
re ly
re cted
re ater
th ough
in cluding
me ssage
me nia
ar rested
ta nce
or ida
ti re
ti an
ou g
ce a
ch ie
Ġa id
Ġa chie
st yle
de al
de li
co gni
le ak
si ze
ri gin
da nce
Ġw all
Ġw ritten
Ġ[ &
nQ ues
fe cted
Ġ15 73
Ġ15 62
Ġ15 5866
Ġp ath
Ġp lead
Ġp rone
Ġp ackage
Ġo ath
nW HEN
Ġb ran
Ġb orn
Ġb udget
Ġs an
Ġs un
Ġs way
it t
Ġf re
Ġf ive
Ġc y
er ke
er vous
ma ss
ma ggie
ro te
ro bor
Ġin formed
fi den
13 24
13 91
fere d
10 28
10 34
10 39
Ġre cuse
li cies
nT rolling
Ġe lect
Ġe motion
Ġh or
Ġh unting
Ġh istor
ĠT ho
ra el
ĠS teele
ĠS atan
18 03
Ġbe lief
ĠA s
ĠA dam
ĠA bedin
Ġm arches
ĠP OS
12 67
12 48
12 566
res ses
19 50
en cy
vi ole
la pper
ĠF alse
Ġn orm
90 14
90 997
28 17
28 27
nD ep
nD RAIN
RE G
RE M
ĠD a
ĠD on
ĠD IVIDE
ad or
Ġare n
ru z
38 14
38 23
38 73
27 70
56 74
37 37
lo ss
nS u
nS en
nS ub
nS ally
nS afe
nS oros
nS ealed
94 70
58 07
nP ast
nP ush
nP lay
nP EOPLE
nP AIN
ĠB y
ĠB ILL
ĠW ill
ĠW ith
ĠW AVE
Ġg lor
Ġon es
ĠM I
ĠM c
ĠM ID
ĠM AP
Ġde n
Ġde ce
Ġde pe
Ġde ni
Ġde ser
Ġde cla
Ġde bt
ĠH unting
Ġcon se
Ġcon tent
Ġcon sent
nH un
nC hi
nC lowns
nF ee
nF ire
nF amily
Ġse arch
Ġse ries
ĠN unes
ĠI I
ON LY
pe losi
the orists
Ġdo min
nA W
nA dm
di f
di gi
59 1
59 26
23 26
ca de
nN P
ĠR IG
il led
op hi
ĠG eorge
âĢĻ ?
pa triot
44 1
Ġpo tential
Ġpro secutor
nR T
nM B
nM on
ir an
ir ing
Ġme mo
ig ration
fa cts
!! !",
87 43
up loads
IT ION
od y
Ġat ten
66 1
66 8
ba it
ef t
ef fort
74 2
Ġco vered
Ġco ordination
ĠL ea
ĠL OSE
ĠL IB
ĠL ynch
ee fe
!\ "\
Ġhe art
ab f
04 8
AN GER
Ġun i
Ġun less
tro lling
tro duce
ea e
ue l
AS ED
Ġch ain
52 57
IC T
ĠE d
IS S
IS TS
07 7
07 9
nE lection
of t
EC H
Ġst ri
Ġsta tu
rom ised
nL ea
nL ight
2018 04
03 9
ran g
ns araacarter
nG u
ni e
ni ffer
FO RE
Ġab road
ĠJ ack
ĠJ oe
Ġlo sing
48 2
âĢĤâĢĤâĢĤâĢĤâĢĤâĢĤâĢĤâĢĤ âĢĤâĢĤâĢĤâĢĤâĢĤâĢĤâĢĤ
nJ K
nJ eff
pi tal
69 1
69 58
ĠY our
ĠY ates
40 2
lle ct
ac tive
ac cess
man n
Ġknow ing
Ġpre v
nO p
pro ves
05 11
âĢ¦âĢ¦ \
nNo body
Ġ155 24
Ġ155 29
Ġout come
45 1
ĠK e
ĠK orta
Ġar rows
ĠRE G
ĠRE M
ĠRE LEASE
82 20
Ġwould n
cl oud
orta nce
Ġ159 18
Ġ159 30
ear ly
51 19
51 17
mon ths
Ġ153 90
Ġ153 24
aa a
cre enshot
tra fficking
ark ers
ĠCh airman
Ġ158 99
Ġ154 18
way pund
sh ut
sh ore
ĠIS IS
do ing
Ġsome times
ber ts
ent ry
Ġbo mb
ige st
ex clusive
Ġback ed
Ġback up
Ġ152 94
lis ten
ree ts
Ġho le
Ġad op
Ġplan s
wor thy
107 70
ans wer
Ġwar rants
Ġcount y
Ġim migrants
IM IN
âĢĤâĢĤâĢĤâĢĤâĢĤâĢĤâĢĤâĢĤâĢĤâĢĤâĢĤâĢĤâĢĤâĢĤâĢĤâĢĤ âĢĤâĢĤâĢĤâĢĤâĢĤâĢĤâĢĤâĢĤ
Ġinte rests
Ġra cism
ĠSen ators
Ġcomp any
cking bird
Ġter ms
jo e
Ġau tists
OC R
Ġr ing
Ġread ing
Ġread iness
Ġins till
Ġcre ation
119 7
gg ing
Ġapp lied
Ġapp reci
Ġreal ms
Ġcare ful
Ġprior ity
cor n
Ġshe lter
Ġconne ct
Ġplay ed
ĠUNIT E
FOR CE
ech o
bre aking
fl orida
ĠIM P
was hed
Ġmin ute
gin ia
Ġsur pri
dis appro
ha se
na z
Ġba il
ĠCH ANGE
SP Y
Ġass assination
nSta ge
697 6
Ġfir ing
nLo cation
Ġilleg als
ĠCom mand
Ġmon itor
Ġexp anded
Ġkey stone
Ġ1512 84
ag le
Ġrec ru
Ġrelea ses
ĠOR IG
Ġfin al
ĠEV ENTS
ARD S
nTra cking
OB AL
late st
ECT ED
148 15
SC I
Ġbec ame
ĠPL ACE
nPo litico
reg ard
Ġmen tal
Ġhelp ing
OLL OW
ĠCLAS SIFIED
Ġbeh alf
âĢĶâĢĶâĢĶâĢĶ âĢĶâĢĶâĢĶâĢĶâĢĶâĢĶ
Ġwin ning
Ġrespon se
937 8
cla im
cla ims
Ġnu clear
Ġappro priate
Ġes ca
OWN S
bab ly
Ġmid dle
ĠWIN S
Ġbro ther
Ġdiscus sion
Ġnet work
Ġcame ra
Ġear lier
Ġleaders hip
AU D
mar ket
ĠAr my
ĠRepublic ans
Ġhar vest
ĠAf fairs
sho oter
ĠBR ING
nOper ation
dro p
reser vation
876 3764
Ġsho oter
spi ed
ĠFAIL ED
nCom ing
business insider
Ġreli gion
Ġdeci sions
gate waypund
nIN FORMATION
Ġhear ings
Ġinterview ed
Ġresign ation
bet ween
ĠEX P
Ġeconom y
nDis information
Ġaccoun table
Ġsigni fi
Ġeffective ly
Ġ15538 06
ĠRight s
Ws AA
Ġste ps
Pa pa
Ġge o
ĠCORRUP T
---- ----
Ġannounce d
Ġannounce ment
Ġcoun tries
uli ani
then tic
Ġemb edded
Ġbetra ys
9213 294
ĠFran ce
ĠIns pect
==== ====
Ġultimate ly
Tho se
lomon Reports
Ġmethod s
nFin ally
leaders hip
idUSK BN
Ġfla ming
nDEF CON
Ġgrow th
ILE NCE
br ary
Ġdedi cated
Ġtyp ically
ĠApp le
Ġgover ned
Ġmention ed
ĠAra bia
ĠFOUND ATION
ĠDi vision
Ġheave nly
Ġexten sion
ĠREAD Y
ĠLiber ty
McC abe
frie nd
Ġele ments
Ġloc ations
ĠSECUR ITY
Ġforgot ten
uris diction
11192 107
Ġrighteous ness
realclear politics
Ġreligi ous
nPROM OTE
Tech no
Wel come
jso lomonReports
fiden tial
ĠKorta n
gatewaypund it
' )
) /
* \
- [
/ -
0 12
0 90
0 57
3 38
3 55
4 70
4 80
4 33
4 31
6 54
6 60
6 52
6 92
7 38
7 11
7 60
7 22
8 69
9 52
A H
A d
A ID
B Y
B rennan
B IDEN
C or
C hi
C OM
C OME
D Y
D u
E very
E ric
F ake
F ocus
F UL
F VEY
G W
G reat
G eorge
H S
H Y
H v
I ran
J ordan
K ey
N K
P re
P RES
R epublic
R OUGH
R BG
S J
S te
S pe
T E
T v
T armac
U w
W ith
W AY
X U
a ed
a ba
a ac
a ide
a gree
b in
b ra
b ank
b db
c ad
c be
c ut
c ff
c oun
c ry
c ash
c ross
c ongressional
e ps
e ven
f ly
f ted
g ressional
h it
h ani
h uffington
i or
i pe
i ded
i um
i uliani
l b
l ind
l ders
m al
m ory
m oney
m Xs
n x
n am
o logy
p f
p m
p lo
p rom
p ush
p hone
r t
s ted
s sion
s titution
s tep
s araacarter
t w
t ary
u thor
u ter
v ity
x W
y ork
ð Ł
Ġ .
Ġ :
Ġ 29
Ġ 22
re lation
te es
te ction
te mber
te nding
in tention
ar re
ar at
ar ret
or ing
or ity
ch allenge
ch lor
Ġa li
Ġa mendment
se y
se ss
st r
de ad
de ep
de sign
de ls
co very
co vered
po lice
ri day
an ons
15 44
15 06
bo mbs
bo wers
tri ck
Ġ[ '
arch ives
is la
is hed
al so
fe ar
fe ss
Ġ15 99
Ġ15 95
Ġ15 49
Ġ15 194
Ġp it
Ġp hi
Ġp ap
>> >\
ge orge
Ġb ird
at the
Ġs chedule
Ġf lood
Ġc am
Ġc ult
er a
ma de
ma king
ma jor
ro d
ll o
Ġof fer
Ġin vest
Ġin vasion
Ġin structions
fi res
he ar
ter ally
20 05
20 02
10 57
10 23
10 48
10 35
Ġd ou
ne ll
Ġre spect
nT armac
Ġe ye
ame ron
ame ric
nWh ile
ĠT AKE
ĠC ir
ĠC oll
ĠC OV
ĠC OLL
ĠC ounty
ĠC ouncil
ĠS pe
ĠS CH
ĠS UP
ĠS mollett
ly nch
18 28
Ġbe lt
ed u
ĠA ir
ĠA ust
ĠA lex
ĠA CTION
Ġm ill
Ġm od
ĠP E
ĠP reside
ĠP ART
12 20
12 64
es ted
16 97
ot tom
19 18
en ter
17 15
17 48
US ION
ct or
vi le
vi ser
14 19
14 88
la tes
ĠF e
ĠF eb
ĠF riday
Ġn ervous
90 96
90 40
nD ist
nD IRECT
RE NT
30 50
30 40
wit ness
50 56
97 2
97 50
97 73
ĠD L
ĠD ir
ĠD iv
26 93
ver si
ci sts
38 83
27 14
27 84
36 69
lo omberg
nS how
94 37
58 1
nP RE
ĠB EN
ĠB rand
ĠB AIT
ĠB IDEN
98 33
34 80
AT ING
ĠW hen
Ġg roups
96 06
ĠM an
54 58
Ġde b
Ġde velop
Ġde scri
ĠH is
ĠH OR
ĠH EAR
Ġcon gressional
nH UBER
nC M
nC R
nF REEDOM
Ġse ll
Ġse crets
ĠN ow
ĠN ON
ĠN ECESSARY
pe at
the re
out side
29 26
Ġdo ors
Ġt roops
nA n
nA meri
nA naly
Ġwe ight
nN OT
nN one
nN et
nN BC
nN OB
ĠR UN
ĠR achel
ĠR yb
il ot
op h
53 28
ĠG J
ĠG reen
ĠG PS
ĠG raham
âĢĻ .
ĠO per
Ġha ck
pa th
70 74
Ġpro be
Ġpro secutors
Ġpro bably
nM ike
nM arker
nM OAB
Ġme mes
Ġme mory
ore an
fa cc
87 1
87 64
87 35
87 62
66 3
66 9
ye t
ba e
25 20
99 99
lic al
Ġco er
ĠL au
ĠL ARP
nB ar
nB order
ers hip
67 5
67 94
ec f
art in
ab y
04 23
AN N
EN ATE
Ġne g
Ġne goti
one tary
93 26
Ġsh ill
OU D
OU NT
Ġcom ment
Ġch ess
IC IAL
ĠE F
ĠE O
nE VERY
am ucci
hi stor
Ġgo vern
Ġgo spe
fb f
Ġst ream
Ġst ories
Ġst reets
08 1
78 1
nL ast
nL aw
06 00
03 1
03 5
Ġex pose
ns on
Ġl ow
nG ive
ni ck
OW ITZ
ul led
AL E
Ġta p
ĠJ UST
ĠJ uly
Ġlo cate
ous ly
75 27
Ġwho le
AK S
nJ B
arge ted
oun der
man da
Ġca mp
Ġca ses
nRe main
Ġno body
ok ing
Ġli e
Ġpre ci
Ġpre di
con f
con cer
con duct
nO ver
pro cess
Ġmo ves
Ġla be
86 3
lea der
lea red
fo ld
Ġj udges
gen cies
ol ton
ol ution
ĠK ing
ĠK EEP
qu ery
ĠV ir
db f
Ġtime stamp
Ġup dates
110 90
110 84
ast plate
Ġdis ap
Ġdis mis
Ġvi cti
85 36
sig ning
we st
Ġman ip
im migrants
IL ENT
Ġinvestig ated
Ġ159 52
oh nson
fd ca
Ġri se
Ġ153 59
Ġ153 55
hat ter
tra te
ĠCh uck
Ġ158 64
Ġ158 93
Ġ158 906
Ġ154 15
sh ould
Ġover throw
Ġdro pping
gu age
gu idance
Ġspe nt
Ġspe ak
Ġthere after
Ġbo dy
Ġbo mbs
Ġke eps
ap ter
wee ted
nTHE RE
Ġaf raid
lock ed
UR RENT
leg round
leg raph
Ġser ves
Ġwar ning
Ġcri sis
106 13
titu de
IF F
cal ler
Ġ160 13
Ġ160 29
ĠFOR CE
nK ey
um ps
Ġinter national
EF ITS
Ġcomp romised
Ġter ri
stand ing
assi fy
Ġpur poses
pre lim
pri or
Ġr andom
act ing
Re ad
Ġro ll
Ġap pare
Ġ1513 72
Ġ4 70
Ġob struction
ĠCo C
Ġreal ize
Ġqu ick
cor rupt
Ġthrough out
loy ed
Ġcl assification
nThere fore
medi um
Ġwee kend
avi ly
898 1413
daily caller
Ġunderstand ing
down load
Ġoper ate
Ġbu y
âĢ¦âĢ¦âĢ¦âĢ¦ âĢ¦âĢ¦âĢ¦âĢ¦
ĠBL ACK
ERS ON
Ġcontin ued
ET T
Ġhel met
Ġauthor ized
ĠPo mpeo
Ġ1600 27
Ġ1600 88
Ġ1516 67
nPro jection
washington times
ĠCom mission
nV OTE
ĠYou Tube
Ġexp ansion
Ġ1512 44
Ġopen ly
ag ate
Ġti cking
Ġti tle
Ġlet ters
ĠEV ENT
ĠEV IDENCE
nes ses
tur n
nImp eachment
rican e
ĠBIG GEST
Ġru ling
ĠRo bert
UN ES
XX mXs
Ġreg ards
Ġpray er
CON F
national review
Ġrequ ested
nPo litical
Ġbre astplate
Ġsec ured
$$ $
Ġmight y
ĠCL OSED
Ġclear ly
Ġchallenge s
nUn ity
Ġext inguish
557 3
Ġfun ction
nControl led
Ġappro ach
Ġappro val
Ġcode name
show s
Ġinfl uenza
ĠWIN NING
Ġbro ken
Ġprosecu te
Me mo
ĠAR M
Ġtermin ate
organiz ation
ĠChi ldren
Ġsen sitive
AIT ORS
Ġdemonst rates
zz feed
Ġemp ha
ph ones
ĠBR IDGE
pende nce
ĠWar fare
ĠGOV ERN
Ġstru cture
OSS IBLE
dro ps
Ġgener als
Ġdestroy ed
Ġengage d
Un known
ĠEN EMY
relea sed
rose anne
cie nce
Ġterror ist
St orm
cour ts
uen tial
charge s
ĠWhi taker
Ġdetail s
Ġconta cts
Ġdocu ment
appro priate
car amucci
Ġsce nari
Ġci vi
Ġcour age
ĠCEO s
nCON TROL
Ġsupp ression
disclo sure
895 1677
call s
ĠSAF E
nOr ganiz
brief ing
Ġwhe ther
ĠAn thony
Ġchar ac
pers ons
Ġent ry
Ġcomb at
Ġcomb ination
Ġsuppor ters
VAA A
ga tive
jeff rey
Ġpromo te
Ġpress ure
log ical
Ġprevious ly
BRE NNAN
Imp eachment
ĠSch umer
ĠIns titute
Ġtran sition
ĠInter net
Lo ok
PP OINT
ball ot
Ġrestri ctions
Tho mas
Ġsal vation
Ġfo cused
Ġfil ing
Ġstrate gic
Ġstrate gy
event s
nSH ADOW
nGo ogle
Ġcapa city
Ġlimit s
Ġaffili ation
XY AA
Ġrecom mend
nPer haps
Ġassoci ated
Ww AE
js Tv
Ġpromi se
Ġlisten ing
tima ted
ana fort
Ġwa ist
Ġfig ure
nTarge ts
nCOM M
Ġfit ted
Ġiso lated
nRemo val
JP G
ĠSER VER
ĠAF TER
NCLU DE
cipa ted
ĠMAJ ORITY
Ġdefin ed
ĠGerman y
WOR K
ib lical
lick bait
ĠSile nt
nApp ly
Ġbuck led
Ġdaugh ter
arcissi sts
ĠHON OR
Ġmeas ures
Ġlan guage
Ġconstitution al
ffici ent
Ġprac tice
uzz le
erke l
nFee l
digi tal
Ġstri ke
George Papa
huffington post
arat us
Ġphi los
americ as
ĠBEN EFITS
ĠHOR OWITZ
nNOB ODY
ĠRyb icki
Ġgospe l
jsTv XXmXs
% ]\
) -
, \"
. )
/ ?\
0 16
0 28
0 37
0 64
0 29
0 44
0 68
0 52
3 20
3 18
3 96
3 53
3 99
3 52
4 14
4 90
4 53
4 22
4 75
6 15
6 16
6 37
6 70
6 22
6 127
6 154
7 19
7 73
7 174
8 28
8 37
8 64
9 90
9 184
? __
A Q
A n
A AR
A nti
B lack
B ACK
B iden
C O
C it
C astle
C hair
D O
D X
D j
D IS
E J
E d
E AL
F og
F REE
F ederal
F sur
H O
I nsur
J B
J an
K eep
L isa
M o
M ichael
M adness
N R
N ever
N ext
O n
O OM
P ast
P ower
P OSE
P REVENT
Q u
R ef
R achel
S ch
S ec
S ING
S trzok
T WITTER
U ND
U ILD
W W
W ake
X cAA
] -
^ \
a v
a ea
b M
b ias
b rotherhood
b ulk
c ard
c tic
c ba
c lean
d r
d ar
d ue
d omestic
e m
e ne
e fa
e ye
e bb
e lected
f k
f ter
f la
g irl
h ind
i ans
i os
i ric
j m
j v
m k
m t
n m
n ore
n video
n pr
o mo
o qu
p as
p ull
q ft
s ter
s ystem
s chiff
s chool
t x
t light
t tom
u th
u ser
u han
v ard
v able
v oting
z ing
Ġ ,
Ġ text
Ġ metadata
Ġ 14
Ġ rou
Ġ 21
ģ \
ĵ ģ\
Ġ" (
re lla
te grity
th ank
th read
in al
me an
ar is
ar lie
ta king
ta mpa
or ry
ti sh
ou los
on us
ce n
ce dc
ce eefe
Ġa ng
Ġa ims
se cond
de fe
de ns
de ni
de ms
de lay
de mocratic
de pendence
co re
co tt
co vid
po ch
le ts
ri ct
ri ots
an other
Ġw ri
Ġw rote
15 748
ing er
bo ve
tri x
au st
is o
is ing
author ized
fe de
Ġ15 21
Ġ15 43
Ġ15 287
Ġ15 1000
Ġp le
Ġp are
Ġo cca
nW ILL
Ġb low
Ġb rie
Ġb orders
un ning
Ġs wee
Ġs ymbolism
Ġs mear
it ler
it ude
Ġf ly
Ġf loor
Ġc ro
er ri
ro gue
Ġin c
Ġin coming
he ld
20 48
13 37
13 98
ow ned
10 37
10 33
10 74
10 07
10 08
Ġd uly
Ġd uties
ne ar
us k
us an
Ġre spe
Ġre ject
Ġre dacted
li an
li ze
as ure
nT ake
nT arget
nT WITTER
Ġh ot
Ġh alf
Ġh onor
Ġh usband
ĠT ELL
ĠT WITTER
ĠT REASON
ĠC a
ĠC y
ĠC au
ĠC HE
ĠC ity
ĠC ALL
ĠC ameron
ra i
ĠS al
ĠS am
ĠS UB
ĠS ara
ĠS ET
ĠS OURC
18 40
Ġbe low
ĠA mb
ĠA lice
ĠA BO
ĠA wan
ĠA pril
Ġm atch
ĠP ri
ĠP er
ĠP ak
ĠP ower
ĠP DB
ĠP erry
ĠP otus
ĠP ERSON
12 10
12 26
12 24
es per
name d
19 15
19 46
vi a
vi si
vi ron
vi sible
sta tion
sta tes
14 28
14 08
14 39
la im
ĠF UN
ĠF lag
ĠF ather
ĠF OX
Ġn ull
Ġn ice
ck et
ng raham
90 12
90 50
90 24
28 05
nD ig
nD ata
nD urham
nD ouble
RE ST
30 80
30 99
IN ATION
50 69
97 44
97 60
ĠD an
ĠD onald
ĠD NI
ĠD elta
26 88
ad op
ad viser
ru ary
ci li
38 88
27 36
27 40
24 23
56 58
37 54
37 59
lo ok
nS pi
nS leep
nS pecial
94 88
94 64
94 68
94 78
94 47
58 00
58 39
nP ut
Ġfor mation
ĠB en
ĠB AD
ĠB ruce
98 12
98 24
98 60
34 88
34 95
Ġg reater
96 69
96 65
ĠM in
ĠM en
ĠM ATER
54 88
Ġde sper
ĠH igh
ĠH OLD
Ġcon ce
Ġcon servative
nH uff
00 9
ur n
nC O
nC linton
nC omey
nC OVID
nF act
nF reedom
nF IRE
Ġse ven
Ġse ize
be y
be hind
ĠI ndictments
der n
the gatewaypundit
88 02
29 56
29 34
Ġt w
Ġt un
Ġt witter
Ġt rou
Ġt ree
Ġt weets
nA N
nA dd
nA mazing
nN ight
nN EW
ĠR R
ĠR es
nI R
op tics
53 36
âĢ¦ "
ĠG roup
âĢĻ )
ĠO W
44 16
Ġpo or
Ġpo se
Ġpo inted
Ġpro du
Ġpro jection
Ġpro ceed
nR BG
nR isk
nM r
!! !
87 19
87 25
87 51
22 16
22 90
ED GE
Ġor g
Ġor dered
for bes
25 16
25 38
33 98
74 1
mo on
mo vement
ĠL og
ĠL OS
ĠL OST
ĠL AST
OR IOUS
nB y
nB rennan
nB ob
nB loomberg
ee t
55 50
55 206
Ġma sk
04 1
AN ON
\" .
Ġun rest
go ld
Ġne gative
ea c
ea st
one st
93 10
93 94
Ġsh a
Ġsh adow
Ġsh adows
OU N
Ġcom petition
Ġhave n
92 28
92 53
07 5
nE X
nE vidence
nE nemy
Ġk ing
Ġk ick
Ġle vers
Ġsta ke
Ġsta tis
08 9
nL ARP
nL ike
73 56
73 59
73 584
ain t
ain stream
ĠU p
ĠU ran
ĠU ni
ran k
Ġex pen
Ġex ecu
eg al
ned y
cd ceed
cide ntally
75 1
75 14
75 57
48 1
nJ ason
ho lders
pi zz
Ġso vere
man y
Ġknow ledge
47 1
LE AD
ry ing
nRe search
Ġli terally
Ġpre vention
pro gram
pro fit
cu m
05 1
Ġwor se
Ġla ptop
âĢ¦âĢ¦ ..\
age d
Ġhas n
02 23
min der
Ġal gor
TR OY
Ġ155 19
ĠUS ED
ĠQ Anon
ĠV S
ĠV eter
Ġ16 04
Ġ16 000
110 88
110 68
ign al
Ġvi ews
72 14
62 57
Ġman ufact
bf d
Ġpri ce
91 12
Ġ159 12
Ġ159 36
Ġsa w
Ġu ser
cre ase
Ġtra ffic
Ġbelie ved
ĠST AKE
ĠST OP
Ġ158 974
Ġ154 38
Ġ154 99
Ġ154 68
low ers
ST IT
ile s
AM ER
AM IL
so on
OD AY
Ġcor ps
ap an
ex posed
ex ecu
ex ecutive
ĠTH OUGHT
EL OS
EL COME
Ġother wise
fir mation
Ġ152 50
Ġho tel
wor king
107 56
und red
Ġcri min
106 50
mpa ct
IV IS
IV ATE
BC EA
Ġmis s
Ġpost ing
nK evin
Ġinte llect
Ġshow ed
val ue
OS URE
EST IC
Ġcomp anies
sp an
jo int
Ġindi cate
Ġdon or
ron ger
cri sis
cri tical
mun ity
Ġact ing
TER S
public ly
Ġins urance
Ġob jective
ĠCo de
inter val
Ġsu cce
Ġsu icide
Ġfollow ers
Ġ1537 40
sen ators
?? ?
?? ?\
with in
arr assment
ĠUNIT Y
Ġdi vi
580 15
nAt tempt
Ġfaith fully
ĠIM AG
net t
bu ild
Ġher o
898 2
hill tv
daily mail
Ġsur vi
Ġclo ser
yste ms
++ +
++ +\
ĠCH AIN
SP EC
Ġass ured
Ġass umption
ĠSH OULD
794 3
547 66
Ġallow s
Ġreve lation
ĠSC IF
nLo ss
Ġ10 1
war ned
Do D
Ġlea ving
^^ \
Ġexp lain
De vin
Po st
294 9
228 2
Ġbl itz
Ġsw ing
.. ..
election s
ĠBIG GER
nUS A
nUS E
ĠWAR S
ĠRo thschild
Ġview points
Ġfree ly
Ġclean ed
Ġreg ion
OUT E
PR O
cho logical
1059 18
Ġrequ ires
mm igration
OTH S
OTH ING
nGO OD
OCK WORK
Ġrun s
Ex pand
sup reme
secu tion
Ġhome s
van augh
stro ying
ĠAS S
Ġclear ance
880 1840
eri fied
Ġrepor ter
Rep ort
uppe t
UL T
UL AR
her ald
Ġcal m
nTime stamp
Ġtravel ing
air craft
sub poena
child ren
Ġbro ke
Ġdiscus s
Ġcla imed
ĠAR OUND
Ġveri fied
Ġveri fication
tail s
organiz ed
ĠChi cago
ĠFR AUD
Ġfeel ing
Ġinterest ing
Ġinterest ingly
ĠZ ucker
Ġtell ing
Ġemp iric
Ġhar ms
ĠNY C
ai i
Ġlink s
person nel
Ġsca red
ĠSe ction
ĠWar locks
ORD ERS
825 16
ax well
dro xy
spi es
nSo cial
Ġdisclo sed
Ġappe al
Ġappe ars
ĠFor mer
Ġexpo sing
NG TH
nCor rection
Ġval id
Ġvisi tor
Ġball ot
mark s
Ġfall s
ĠCAN NOT
ĠAL WAY
Ġconf lict
nAl so
nAr chive
Ġpull s
hel ter
nThreat s
disclo sed
rec ords
Ġdra ft
ĠMIL ITARY
nAnd rew
exp lained
struct ure
sus pect
ĠAn derson
ENS OR
For mer
Ġph ra
nMa jority
DV T
Ġcra ving
commun ic
ĠMEM ES
Ġ1603 30
Ġadvan tage
Some times
ĠSIGN ERS
75164 58
FT NR
ĠCan ada
ĠWHIT AKER
scri bd
Ġissu ed
ĠDEM ONSTR
nPri mary
belie ve
Ġkind s
Ġrestri ct
ita tive
ĠDES IGNED
peace ful
Ġtre nd
Ġsurround s
053 1391
NEW S
PT FTNR
Sh all
Ġiniti ated
Ġdog ma
ĠGL ORIOUS
Ġide ology
Ġanaly sis
Ġaffili ated
document cloud
idUSK CN
Da ily
mcca in
Ġwan ted
Ġrecom men
Ġrepe ated
1934 23
Ġliber al
Ġinsur gency
Vs AA
Ġfore ver
9000 594
urs day
nCL INTON
ĠNATION AL
Ġmas ters
ĠSPY ING
Ġbatt les
ĠHUNT ED
nChe ck
Ġatta ch
mine nt
Ġregu lations
liz ation
ligh ted
nShe ep
ĠWR AY
Ġvari ous
Ġparti cip
Ġbrief ing
QU AL
Vo AA
Ġthous ands
Ġpe nding
Ġbra ve
Ġsk in
ĠPUT IN
ĠBRE NNAN
ĠMON EY
resenta tive
judicial watch
Ġpie ce
Ġelimin ated
espon se
ĠDOM ESTIC
nIm possible
Ġaccu rate
Ġsafegu arded
ĠARTIC LES
terest ing
invol ved
Ġagg ressive
citiz ens
ĠHal per
ĠHome land
thema tical
ĠREL IG
ATEG IC
ĠIMM ED
ĠAssoci ate
Ġbran ch
maggie NYT
ĠTho mas
90997 95
uthor ity
ðŁ ĵģ\
intention ally
chlor oqu
hear ings
Ġmill ions
nAnaly ze
oph ical
ĠEF FORT
Ġquick ly
Ġphilos ophical
Fsur v
Wake Up
Ġbrie fed
ĠABO VE
ĠMATER IAL
Ġdesper ate
nHuff Po
ĠUran ium
pizz agate
Ġalgor ith
ELOS I
BCEA O
Ġintellect ual
Devin Nunes
Ġempiric ism
droxy chloroqu
ĠALWAY S
% ]
0 84
0 21
2 13
2 142
3 11
3 189
3 1066
4 73
4 77
5 15
5 58
5 34
5 59
5 53
6 11
6 99
7 34
7 23
7 80
7 76
7 966
8 12
8 67
8 31
9 194
> [
? [
A ss
A wakening
A ny
A UTH
B ri
B ack
C ri
C US
C onspiracy
C hatter
D R
D S
D g
D an
D is
D EN
D EF
E U
E a
E nd
E lection
G OD
G eneral
G ANG
H IC
H OLD
I ER
I ATION
J une
J uli
J DVT
K V
K ILL
L ER
L ife
M J
M c
M ilitary
M edia
M aster
O ne
O ur
O IA
P H
P AC
P AIN
R od
S U
S po
S ee
S hot
S essions
S oros
S pecial
S ingapore
T M
T V
T om
T reason
U ES
U AA
U ALLY
V OTE
W ar
W wAA
X W
Y P
] (
] :
_ ^
a q
a der
a ire
a Po
a mazon
c m
c arter
c urs
c onstitutional
d w
d ri
d ark
d uring
d faf
e ad
e cc
e liminate
e poch
f ar
g ar
g ch
g al
g ations
h ou
h id
h app
i at
i am
i mpact
k im
m ight
m ultiple
n w
n or
n da
n time
n VJ
n ad
n AT
n and
n ate
n ded
n was
n ONLY
o te
p res
p ushed
r ors
r ror
s ti
s an
s un
s hi
s till
s oros
s teele
s candal
s creenshot
t z
u h
u ce
u ded
u late
w ant
w ire
y y
z ra
Ġ !
Ġ ?
Ġ meta
Ġ 28
Ġ 27
Ġ 05
Ġ 31
Ġ ign
Ġ 187
Ġ vested
Ġ ERR
re sign
re dacted
te ned
th ose
th ree
th rough
in ten
in ning
in iti
in clu
in vest
me nti
ar n
ar ation
ar les
ta nt
ta kes
or al
or ary
or tra
or ance
or igin
ti ps
ou ch
on going
ce lle
Ġa board
Ġa mp
Ġa mazing
se as
st in
st rate
st udy
de l
de cla
de fense
le nt
le aks
si ders
si les
si stance
Ġthe ater
to ol
da tions
da ctions
an der
an ging
Ġw indow
15 88
15 89
15 02
tri b
al ware
author ity
fe atures
Ġ15 25
Ġ15 1116
Ġp ill
Ġp ulled
Ġp ortra
Ġo il
ps y
ge ry
nW ar
nW ELCOME
Ġb it
Ġb ul
at red
at nick
un k
un ned
un ish
un usual
Ġf ine
Ġc ard
Ġc reat
er t
ma p
ma tes
ma ssive
com mit
Ġof fl
Ġof fen
Ġof fered
Ġin fe
Ġin struct
Ġin troduce
Ġin appropriate
fi E
fi x
fi es
fi cially
nd y
20 50
20 00
20 22
20 62
13 14
13 70
13 60
13 93
13 09
10 17
10 30
10 38
10 46
10 65
10 9496
Ġd ream
Ġd ouble
Ġd igest
ne n
ne ys
Ġre ci
Ġre con
Ġre vol
li ber
li brary
as k
nT op
nT ransparency
Ġe m
ame nd
Ġh on
Ġh ur
Ġh anded
Ġh idden
Ġh onest
ĠT X
ĠT UR
ĠT ASK
ĠT uesday
ĠC amp
ĠC AMP
ĠC lines
ra ce
ra ise
ĠS A
ĠS ex
ĠS OME
ĠS KY
ĠS IGINT
18 14
18 38
18 25
18 07
18 46
Ġbe long
ĠA cc
ĠA lle
ĠA gain
ĠA lert
ĠA BILITY
ĠA uthority
Ġm irror
Ġm alware
ĠP H
ĠP h
ĠP AIN
12 38
12 36
12 85
12 83
es ti
es la
16 96
16 35
19 16
19 27
19 78
19 47
en ry
17 03
17 85
vi rus
sta ff
sta nti
14 58
14 76
14 32
14 45
14 72
la ved
la cal
la dy
ĠF ALL
ĠF IND
ĠF EED
ĠF lake
ĠF UCK
Ġn or
ng ine
90 56
90 54
90 74
90 08
28 20
28 19
28 36
28 96
28 54
28 67
nD ates
nD ARPA
nD rop
RE AM
30 94
30 69
IN ER
50 29
97 14
97 29
97 80
97 35
ĠD ea
ĠD ist
ĠD ISC
26 30
ver se
ver sight
ru e
ru g
ru mbs
38 12
38 04
27 74
27 05
27 41
24 38
24 39
56 96
36 11
36 75
37 20
37 00
lo aded
nS p
nS er
nS et
nS low
nS ile
nS NOW
nS ESSIONS
nS EPT
nS trate
94 28
94 56
58 20
58 26
58 24
58 58
nP art
nP elosi
ĠB C
ĠB ig
ĠB EC
ĠB less
ĠB IR
ĠB ias
98 18
98 56
98 34
34 96
34 68
AT IC
ĠW WG
ĠW HERE
Ġg un
96 37
ĠM O
ĠM Z
ĠM ee
ĠM OD
ĠM ichael
ĠM UCH
ĠM artin
ĠM onetary
54 64
54 66
Ġde v
Ġde riving
ĠH ill
ĠH ab
ĠH ea
ĠH CQ
Ġcon di
Ġcon fidential
nH is
nH and
nH int
nC ar
nC ounter
nF ast
nF ired
nF ederal
nF acebook
nF OIA
Ġse at
be st
be at
ĠN on
ĠN arrative
ĠN EXT
ĠN azi
ĠN UNES
ĠI raq
Ġwh om
Ġwh ite
pe y
the epoch
Ġt ough
nA nti
nA bility
nA pril
Ġwe ar
Ġwe lcome
59 38
23 20
23 119
ca st
ca pa
ca tes
ca bal
nN OTHING
ĠR C
ĠR ay
ĠR OS
ĠR ACE
ĠR eddit
11 14
nI ron
nI RAN
il s
op inions
53 24
53 978
ĠG EN
ĠG IV
ĠG reg
ĠG lacal
âĢĻ ?\
ĠO B
ĠO S
pa y
pa ck
70 30
Ġpo lls
Ġpro per
Ġpro fit
nR ace
nR andy
nM arch
nM edia
ore st
fa st
fa ir
87 22
22 98
IT E
Ġi te
Ġor ig
66 37
cc ffb
for d
for man
80 8
80 83
LL C
ef ore
lic ation
84 63
74 50
Ġco incide
mo ted
OR M
nB ottom
Ġwill ing
ee a
ee e
ĠTHE RE
55 94
ure au
!\ "
Ġhe avy
Ġhe licopter
04 3
Ġun cover
Ġun ited
Ġun fold
ea ed
93 95
Ġsh own
Ġsh unned
AS C
68 96
OU P
OU R
Ġch ose
52 37
ĠE n
ĠE IGHT
ĠE vil
ĠE mergency
ĠE nemy
ĠE agle
IS IS
92 12
92 38
07 27
nE YES
nE rror
Ġgo al
Ġgo als
fb cdb
Ġst ood
Ġsta tion
Ġsta ting
78 66
nL V
nL ong
nL ist
nL EARN
73 550
vide nt
vide os
76 00
ran ce
bb y
Ġex ec
Ġex ecutive
om ney
nG reen
ni us
95 58
por tion
Ġta ble
ong rat
ĠJ AIL
ĠJ ohnson
46 59
Ġlo cked
75 56
75 37
48 5
âĢĤâĢĤâĢĤâĢĤâĢĤâĢĤâĢĤâĢĤ âĢĤâĢĤâĢĤ
eb c
ho le
oun ded
ĠY ET
39 16
39 57
ĠTO P
89 56
47 36
LE FT
nRe lations
Ġsi x
Ġno te
Ġpre p
nO ther
nO utside
pro mo
pro vide
Ġmo ther
Ġmo ving
05 23
âĢ¦âĢ¦ .
âĢ¦âĢ¦ âĢ¦
age nt
ĠIN IT
TR UST
86 2
lea ve
Ġac comp
Ġac cidentally
Ġ155 17
Ġ155 28
Ġ155 287
Ġj ail
Ġj urisdiction
ol in
ol ved
qu al
ĠV I
Ġour selves
Ġar ti
Ġup coming
Ġdis ruption
ĠRE ASON
ĠRE TUR
49 1
cf de
Ġ20 13
Ġop ening
ren thood
Ġen tered
OP ER
ussi ons
51 20
can ce
!!!! !\
Ġ158 94
Ġ154 19
Ġfe ed
Ġover see
The Justice
do c
ĠIn vestig
no thing
ĠTR ACK
ĠTR AVE
Ġ1550 8
Ġcor robor
hy si
ap ps
Ġ1588 30
leg ally
ĠTH ROUGH
Ġsup press
Ġback channel
come y
ILL EGAL
per t
Ġho st
ĠThe se
ĠThe ir
115 0
Ġad mit
107 1991
Ġvo ters
Ġser ving
106 18
106 84
IM PEACH
Ġce ase
120 30
120 29
nIn ter
Ġgood s
Ġ157 57
Ġ157 53
IF T
cus al
EM PT
EM BER
Ġstand s
Ġra pe
Ġra tes
Ġra dical
Ġra cist
Ġshow s
nn oun
ĠSen ior
Ġinter cept
Ġgu ards
nEx act
ath an
Ġtake over
OC US
cri mination
act ually
Ġ1520 35
105 96
105 970
Re member
ide o
Ġro om
ĠWe iner
Ġprevent s
fy ing
yes terday
Ġ1513 87
Ġob jects
ĠCo incidence
inter cept
Ġapp ly
Ġapp aratus
vo at
Ġqu ality
Ġ1536 70
pen tagon
cor ded
cor ruption
Ġuse ful
know ledge
sen sitive
Ġreason ing
su res
Ġplay book
medi c
Ġ1564 50
aw are
ĠRe member
iden tified
Ġsub si
Ġoccur s
clo sed
ĠCOM P
ARE NESS
108 38
Ġoper ators
++ \
dis cus
Ġam ount
Ġba sic
ik i
ĠSH IFT
Ġdefe nse
Ġdefe nds
END ING
Ġasse t
Ġper cent
Ġper fect
ET ING
mor ning
IGN ATION
897 6
Ġow l
Con trol
INT ELLIGENCE
550 3
nPro paganda
control lers
No thing
Ġfalse hood
law makers
Ġtal ked
/? __
term ine
BO X
think ing
276 14
nTra itor
ĠAW AN
nPre pare
Ġru les
ĠINT O
ĠINT ELLIGENCE
Ġhand s
Ġhand ling
CON TROL
658 55206
556 9
ĠCLAS S
sup er
350 07
ĠAS SETS
ĠOP P
756 0523
nSh adow
Ġcomple ted
Ġref ute
Ġremain ing
Ġext inction
fin ancial
acc ount
abc news
Ġexpe ri
ait ing
ĠPro of
ĠPro tect
Ġgov t
ĠKNOW N
Ġ1517 07
NBC News
Ġinstitu ted
vers ation
nMis sing
Ġ1552 17
Ġprosecu ted
ĠLo ve
ell ie
1066 8220
ĠPUBLIC LY
Ġdeep er
Ġfeel ings
Ġhar der
allow s
remo ved
comp any
ĠCO ORD
bec ause
ĠDo ssier
nOper ations
OSS IER
Ġtopic s
Ġsilence d
ax ios
bl ank
reser ve
may or
Ġgraphic s
tan ic
gun ship
gun ships
Ġreli able
nBig gest
Ġtaxpa yers
nCor ruption
ĠEN OUGH
ĠIs land
Ġreveal ing
Ġalle gations
feature d
Ġfall ing
nAl ways
St art
hel p
Ġcommit tees
ĠEx ecutive
MOV AL
Ġz ones
Ġz ero
Ġreach ed
Ġmar ried
Ġground s
Ġproble m
686 30
Ġcensor ing
436 9669
<< <\
efe c
mid t
Ġpub lish
ĠSo lomon
ĠMo ckingbird
Ġty pe
And rew
Pa triot
audi o
AST LE
Ġchar ging
Ġtrack s
Ġtest ing
nConne cted
Wo AA
ele c
vis or
Ġinde pendent
Ġent ren
nMa thematically
Ġshut down
Ġsuppor ted
RAIN E
Ġspo ke
Ġcross ing
commun ities
Ġreview ing
Ġdead ly
Ġdecide d
peti tive
dda c
she ep
Ġsleep ing
Ġenter ing
Ġtestify ing
cult ure
ĠFran cis
Ġlaunch ed
ques tions
Fox News
WAA A
Ġens laved
ĠACT IVE
ĠDEM OCR
nPri vate
block ing
inte rest
colle ctive
Ġ1514 06
Ġ1532 56
ĠAN OTHER
channe ls
rolling stone
ĠSAP s
1249 15
Ġconcer ns
ĠGL OBAL
nBu ild
Ġvio lations
Ġvio late
KNOW N
KNOW INGLY
find s
sper ry
Ġwan ts
ĠAID S
ĠPut in
ĠRep ort
nInsur gency
ĠLife Log
indi ct
Ġ1510 46
ĠCl own
ĠCl intons
Ġconclu sions
ĠGood latte
Ġlog ical
ĠREC ORD
Ġcommunic ation
$$$$ $$$$
ĠDEAL S
(( (
015 141
bili ties
ya hoo
ĠHo ly
Ġatta ched
specific ally
quence s
threat s
cens orship
Ġagree ment
Ġpas sed
ĠPUR POSE
ĠHIG H
ĠHIG HEST
Ġsol ution
ĠChrist mas
dog matic
Ġcab inet
Ġinfiltra te
ĠSING LE
ĠDEL TA
Ġjournal ists
ĠSTRE NGTH
Ġfix ed
tU fiE
simp ly
Ġsudden ly
Ġeasi ly
Ġdee med
Ġsepar ate
Ġdoll ars
Ġsimilar ities
FULL Y
Ġdistribu tion
QR V
WAR NING
paul sperry
republic an
trio tism
Ġcou ple
nTri sha
Ġnomin ee
ĠILL EGAL
ĠRU LE
nLOG ICAL
nJo sh
Ġmole sting
ĠTRANSPARE NT
econom y
Ġtrig ger
transcri pts
leak ed
nQues tion
Ġcy cle
ĠPOS IT
viole nce
nHun ters
Ġdomin ance
nAW AN
dif ferent
ĠIMP LIC
Ġbail out
Ġsignifi cance
bra ms
arret t
Ġpap er
ĠSCH IFF
lynch ing
ĠAust ralia
ĠPreside ncy
nPRE PARE
ĠHEAR D
ĠRUN S
6794 35
histor ic
nGive n
ĠGOVERN MENT
nOrganiz ed
nore direct
deni es
Ġpare nts
Ġocca sions
ĠCau cus
Ġnull ify
cili ties
nSpi der
Ġmanufact uring
STIT UTION
AMER IC
IVIS ION
droxychloroqu ine
curs or
gch q
iat uri
celle nt
Ġportra y
Ġoffl ine
ĠTUR NS
ĠCamp bell
ĠClines mith
ĠAlle n
ĠDist rict
ĠHab erman
Ġcondi tions
theepoch times
ĠGlacal one
ccffb ce
73550 98
TheJustice Dept
ĠTRAVE L
Ġfalsehood s
65855206 1001
' )\
( '
) _
, $$$
0 10
0 18
0 98
0 287
3 26
3 93
4 88
4 92
4 32
4 138
4 804
5 176
6 23
6 53
6 25
6 21
6 566
7 15
7 33
7 78
7 547
7 560
7 643
8 70
8 66
8 68
8 246
? ]
? ].\
A m
A ct
A AL
A nge
A IGN
B Z
B ay
B ERS
C M
C r
C OD
C ongress
C AP
C lowns
D U
D p
D s
D on
D NY
D NI
D oug
E k
E pstein
E nemy
F rom
F ull
F AIL
G U
G V
G a
G ES
G UST
G rassley
G iuliani
H H
H W
H is
H OM
H uma
I ns
J ust
J im
J oh
J eff
J USTICE
J uly
K D
K K
K e
K EY
K arl
L ynch
M K
M M
M P
M il
M AS
M BS
M arker
M att
M usk
M ainstream
N ight
O O
O b
O OR
O ID
O FF
O ffice
O nly
P D
P ER
P ain
P AY
P EOPLE
P lease
P aul
P OST
P UBLIC
P hone
P PR
R AM
R ussian
R udy
R OTHS
S m
S AT
S ub
S ep
S IG
S ide
S tep
S WAMP
S hell
S ealed
S IGINT
S trike
S ENATE
S caramucci
S helter
T Y
T i
T y
T weet
U NITY
V ES
V OID
W Y
W ould
W all
W inning
X c
X IV
Y EAR
Z Z
[ [\
] '
] /
a j
a ab
a sed
a iled
a hoo
b rennan
b order
c K
c at
c as
c ame
c ur
c ure
c cer
d ni
d oll
d ism
d urham
d omin
e u
e li
e ther
e vil
e urope
e vident
f as
f cb
f ound
g as
g ave
g rand
g owdy
h on
h uma
i ers
i ble
i pt
i ance
i cking
i raq
j a
j w
j an
j ones
k o
k ow
k ind
k new
k orea
l k
l r
l v
l on
l van
m g
m ul
m mer
n at
n news
n END
n just
n abcnews
o c
o v
o po
o ters
o mas
p k
p ink
p ic
r g
r regular
s am
s low
s ave
s aid
s cru
s mollett
t weeted
u la
u mon
u rious
u sic
v k
v s
w K
w h
w l
w ild
x html
y nn
z o
z er
Ġ ?\
Ġ referenced
Ġ 00
Ġ 23
Ġ 40
Ġ 01
Ġ que
Ġ archive
Ġ route
Ġ rallies
Ġ OTHERS
Ġ" >
re p
re ce
re par
re place
re fers
re peat
te sts
th ed
in ing
me rous
ar ms
ar ound
ar ian
ta ken
or a
or ig
or row
ti ally
ti red
ou l
ou az
ce leb
ce pts
ce nter
ch le
ch amber
ch apter
Ġa ggression
se p
se aled
se rious
se crets
de le
de signed
de gree
de lta
de mic
Ġth us
co hen
co incidence
po mpeo
le nn
si ck
ri an
ri sh
Ġthe me
to o
da a
da af
an ts
an cy
an ia
an demic
Ġw ik
Ġw aking
xt reme
15 80
15 84
our ne
ve y
ard ian
au har
is tic
al m
al ing
Ġ15 92
Ġ15 85
Ġp a
Ġp ortion
Ġp ilot
Ġp uzzle
>> >>
ge nius
nW IN
nW izards
nW SJ
Ġb ia
Ġb ulk
Ġs qu
Ġs wear
Ġf ame
Ġf uck
Ġf uel
Ġf inger
Ġc ur
Ġc ity
ma le
ma her
ma sked
ro berts
com b
com ple
com mittee
ll ion
ll ions
Ġin vi
Ġin cident
fi ling
he res
he avy
20 30
20 36
20 58
20 54
20 57
20 75
20 078
13 44
13 83
13 526
ow ed
ow ns
10 24
10 25
10 84
10 09
10 76
10 3733
Ġd rugs
ne xt
ne so
ne umon
us code
us ka
us hes
Ġre lay
Ġre ven
Ġre cused
Ġre cogni
Ġre signing
li ves
as hed
nT ash
nT ext
nT eam
nT ODAY
Ġe ith
Ġe du
Ġe val
Ġe liminate
Ġh un
Ġh unt
ĠT V
ĠT er
ĠT op
ĠT AX
ĠT ECH
ĠC he
ĠC OR
ĠC ol
ĠC reat
ĠC ath
ĠC arter
ĠC ASE
ĠC astle
ĠC URRENT
ra ct
ĠS L
ĠS w
ĠS te
ĠS AT
ĠS IM
ĠS AVE
ĠS how
ĠS tep
ĠS AME
ĠS audi
ĠS mith
ĠS unday
ĠS ALE
Ġis land
18 57
18 23
18 67
Ġbe ar
ĠA DV
ĠA brams
ĠA PPR
ĠA VOID
Ġm ig
Ġm orning
NC ES
ĠP at
ĠP AC
ĠP ast
ĠP rince
ĠP OSSIBLE
ĠP ELOSI
12 17
12 14
12 57
12 73
12 69
es tern
es pionage
16 53
16 44
16 33
19 17
19 96
19 64
19 76
19 39
19 40
19 86
19 49
en able
17 97
17 36
17 04
17 63
17 644
ct uary
sta n
sta y
sta ntly
14 38
14 36
14 94
la cing
ĠF in
ĠF ive
ĠF ATHER
ĠF AMIL
Ġn arcissists
ng le
90 13
90 98
90 60
90 25
90 33
90 89
90 31
90 114
28 16
28 09
28 48
28 35
28 89
nD avid
nD ARK
nD esper
RE N
30 07
30 48
Ġyou ng
IN S
IN VESTIG
50 88
97 26
97 59
ĠD R
ĠD S
ĠD is
ĠD ig
ĠD AM
ĠD AG
ĠD omestic
26 10
26 28
26 27
26 56
26 33
26 92
ad vice
ci te
ci on
ci enti
38 19
38 53
38 06
38 32
27 97
27 87
27 45
top ic
24 15
24 10
24 16
24 37
24 25
56 20
56 14
56 24
56 66
56 80
56 69
36 73
link ed
37 30
37 76
37 46
lo ve
lo ye
lo cation
nS m
nS ource
nS ame
nS ho
nS ound
nS imp
nS KY
94 50
94 43
94 124
58 53
58 04
nP rom
nP eace
nP uppets
Ġfor um
ĠB in
ĠB ur
ĠB art
ĠB UT
ĠB ASED
ĠB ORDERS
ĠB ourne
ill ing
98 30
98 57
98 64
98 67
98 72
34 24
34 98
34 04
AT FORM
ĠW o
ĠW ed
ĠW HEN
ĠW ALK
ĠW eek
ĠW ien
Ġg la
Ġg reen
Ġg ives
Ġon line
96 15
96 16
96 96
96 05
ĠM Y
ĠM s
ĠM ary
ĠM atters
ĠM OVE
ĠM ADE
ĠM erkel
54 22
Ġde vo
Ġde termin
ĠH K
ĠH IT
ĠH itler
Ġcon tra
Ġcon dition
Ġcon vince
00 3
00 00
00 66
00 07
00 76
nC lickbait
nC rumbs
nF ail
nF acts
nF iction
Ġse ts
Ġse ction
Ġse nding
Ġse vere
ĠN at
ĠN ot
ĠN SC
ĠN EED
ĠI nd
ĠI mp
ON T
HE D
88 99
88 76
88 48
64 57
64 00
64 05
64 81
29 13
29 18
29 12
29 53
29 99
29 55
29 95
nA d
nA RE
nA ccess
Ġwe ren
di m
di cted
di fied
di date
di stri
59 92
23 27
23 24
23 25
23 21
ca af
nN ame
nN OW
nN EVER
ĠR od
ĠR omney
11 112
11 130
11 136
nI denti
nI mmigration
il ar
op a
53 17
53 50
53 26
âĢ¦ \"\
ĠG ame
ĠG auhar
âĢĻ ).\
âĢĻ ),
ĠO f
and ra
Ġ- -
pa id
pa yer
70 29
Ġpo ol
Ġpo licies
ate mal
Ġpro g
ut ing
nR esponse
nM ON
nM OV
nM EM
nM ORE
nM atters
nM itt
60 83
Ġme me
Ġme dical
Ġme rely
ig an
87 24
87 53
87 48
22 19
22 97
22 54
Ġor gan
Ġor che
80 19
80 82
LL A
25 97
33 30
33 237
84 66
mo m
mo ve
mo ved
mo dels
ĠL et
ĠL OCK
ĠL INE
Ġan im
OR N
nB ring
55 36
Ġma gn
Ġhe avily
ab or
ab ed
AN NITY
EN ED
\" "
\" âĢ¦
Ġun ali
Ġun mask
Ġun verified
go es
Ġsh aring
pp y
ue en
ther n
68 1
Ġcom mittee
Ġch atter
Ġch anne
52 28
52 26
52 34
ak ers
mb ling
mb rella
ĠE ACH
ĠE FF
ĠE TC
ĠE QUAL
92 90
nE ach
nE pstein
Ġwith dra
Ġk illed
am i
am ong
hi b
Ġst o
Ġst ress
Ġst orm
Ġst reng
Ġsta ges
nL P
nL ess
nL eft
73 52
73 53978
ĠU n
76 38
03 98
ran king
ran ny
Ġex pect
om ination
Ġl au
nG ot
rou tes
ul ating
AL S
ĠJ en
ĠJ ournal
ĠJ une
all s
46 57
Ġlo ck
Ġlo ves
Ġlo cated
48 21
âĢĤâĢĤâĢĤâĢĤâĢĤâĢĤâĢĤâĢĤ âĢĤ
âĢĤâĢĤâĢĤâĢĤâĢĤâĢĤâĢĤâĢĤ âĢĤâĢĤâĢĤâĢĤ
atch ing
fc fa
nJ P
nJ an
nJ oe
ho st
ho ps
ho lly
pi re
ord ing
69 10
69 544
Ġfa ther
Ġfa vor
oun tain
ĠY EAR
40 93
ac ted
man der
man ual
Ġknow ingly
Ġca p
ank s
nRe tain
nRe fer
nRe lease
Ġsi r
AA B
AA G
Ġno tified
ok er
ok es
Ġli ving
Ġpre pare
Ġpre tty
con ference
con dition
con tract
con fig
nO nce
nO ld
nO IG
pro per
pro secutors
pro gress
Ġmo bili
Ġwor ship
age n
02 37
lan der
ĠIN S
ĠIN V
ĠIN SC
min ating
Ġal arm
TR ATION
86 25
Ġ155 174
TH INK
Ġj ump
01 13
ĠUS E
gen er
ol as
ol der
ĠQ anon
ĠK ey
qu ate
iz ing
Ġar med
ĠRE Q
ĠRE ALLY
ĠRE TAIN
dc f
43 30
Ġthink s
Ġimp ortance
ten ment
Ġpri vile
Ġen joy
Ġen courage
Ġen viron
42 26
Ġ159 20
Ġ159 10
Ġ159 906
Ġ159 374
Ġsa ving
ear s
51 15
OJ ECTION
Ġus ually
Ġsee ing
Ġ+ /-
Ġu sers
tu dy
tra ck
mer s
!!!! \
Ġfe llow
Ġfe male
âĢĶ âĢĵ
OV AL
sh it
sh ot
âĢ¦. .
ST EM
ST AND
ENT ION
Ġpart n
no te
no chle
ĠTR UMP
gu ide
gu ilty
Ġspe aking
Ġspe nding
tain ed
tain ment
ĠPa renthood
ins ur
ex pose
ex poses
ex pected
ex ico
Ġ152 58
Ġ152 280
ĠCON N
ĠCON STITUTION
Ġte nd
tal k
tal king
ler ts
ound s
Ġcri tically
106 188
Ġim migration
Ġim minent
OL UTION
ĠALL OW
ĠALL EG
IM IT
IM ATE
Ġce nter
âĢĤâĢĤâĢĤâĢĤâĢĤâĢĤâĢĤâĢĤâĢĤâĢĤâĢĤâĢĤâĢĤâĢĤâĢĤâĢĤ âĢĤâĢĤâĢĤâĢĤâĢĤâĢĤâĢĤ
nti ally
Ġmis sed
Ġmis conduct
nIn teresting
Ġ157 75
Ġ160 15
Ġinte nt
Ġinte grity
ĠDe al
ĠDe moted
Ġshow ing
os a
nCon f
OWER S
ven ted
Ġgu idance
AND ID
Ġcomp one
Ġcomp uter
nEx cellent
112 3
jo b
Ġdon ate
ron fman
Ġau thentic
lear n
lear ance
Ġrece iving
tor neys
pre v
pre pared
Ġfam ous
CH Q
Ġ1518 05
Ġ1513 92
428 06
428 02
119 629
Ġob li
ĠCo hen
ĠCo operating
ĠBE EN
ĠBE FORE
vo tes
Ġ1536 0
Ġfollow ed
stru cted
know ing
Ġway s
loy d
Ġsex ism
Ġcl oud
?? ?"
vol ution
Ġ1564 02
aw aii
Ġsp ying
Ġ1534 28
Ġ1534 37
alle ged
Ġend owed
118 03
AW AY
clo se
nDe ad
238 2
Ġconfir ming
Ġoper ational
Ġoper ator
594 3
594 9
dis asters
imp each
na mo
que st
Ġ150 93
ili ti
380 64
Ġ1515 3
ĠNo thing
ĠNo vember
lat form
sis ted
ĠDep t
uk es
Ġasse mb
Ġoff shore
524 87
hr s
ĠCon trast
Ġweek ly
Ġow ned
nHe nce
ĠâĢ¦ âĢ¦
ĠâĢ¦ ..\
Ġpos sess
nLo cked
Con ne
ĠPo pe
550 8
Do c
mis sions
che ck
Ġ1516 33
176 27
nV erified
sec ure
Ġhigh light
Ġhigh lighted
Ġcolle ct
men ted
Ġdep uty
Ġstart ing
198 36
ĠOR G
ever al
ali tion
state ment
nImp ressive
hone st
investig ations
nPre dictable
Ġset ting
chi cago
957 6
ext reme
Ġinvol ve
Ġinvol vement
Ġhand ler
back s
Ġda re
Ġdepart ment
nEvery one
Ġfact ual
Ġfact ually
reg ion
Ġbre aking
Ġoffice r
1098 294
227 94
FL UE
In telligence
OLL ETT
head s
OCK ADE
sup por
sup posed
Ġhome land
Ġleg is
anti trust
Ġtrust worthy
Pro tect
Ġrespon sibility
Ġtri bal
Ġrest ore
880 24
Co incidence
mas king
Ġref use
183 16
Ġnu merous
fin al
rit ory
Ġrepor ters
home s
Ġservice s
WH O
WH Y
WH AT
nTime line
Ġes tima
ĠBar ack
ani um
ĠâĢĶ -
nYOU R
Ġres ort
Ġmid terms
face s
Ġlarge r
ale rie
ĠHE ADS
ĠLo st
Ġanti cipated
ffer s
Ġveri fiable
Ġmind s
ĠAr ticle
ĠPRES ENT
Ġtur ning
Ġblock ade
ĠUP D
MS DNC
Ġlink ed
ĠCO INCIDENCE
ĠSEN IOR
Ġstru ct
ka vanaugh
Ġsho oting
Ġcomplete ly
STR UCT
spi tal
safe ty
safe guard
Ġbri bes
Ġretur ned
Ġretur ning
Ġdisclo se
nKnow ing
Ġtransfer red
Ġgener ation
ĠCounsel or
pr int
1120 2282
Ġvisi ting
Ġminor ities
start ing
ĠBo ard
ĠBo oker
ĠIs rael
paren thood
ĠLE AD
omin ator
ĠEVERY WHERE
ati ves
Ġalle ged
Ġcau ght
Ġequ ate
ĠTh ink
ĠMe mes
ĠCONF LIC
Ġsigni fy
At tack
cli ffe
Ġspi der
ĠWhi stleblower
Ġcommit ted
meet ings
anta namo
Ġ1519 00
Ġreach ing
nSe th
nSe lect
ĠMar ine
ĠMar ia
disclo se
Ġinclu ded
2617 682
ĠMo yer
Ġdecl assified
Ġdecl ined
Ġconvi ction
ĠATTACK S
And y
CF R
repor ter
iss a
ĠREP RES
To day
ele nochle
vis ory
Ġwal king
Ġsm u
Ġsm art
Up dated
Ġspo tlight
Ġcra zy
Ġcontribu tion
dic ta
lead ing
Ġemb arrassment
velop ment
BRE LLA
Mar ia
hack ed
Ġvoice s
HA HA
ped ophi
ste ps
your self
augh ter
Ġdri ve
ĠTra cking
ĠCLE AN
ĠSup er
ĠACT IV
ĠPlan e
ATT LE
ĠHAPP ENING
Ġsecond s
belie vable
Ġweap on
nRo thschild
Ġidenti ty
103661 190
mic ro
inte g
Ġsacrifice s
Ġdig ging
ĠDES TROY
ĠOFF ICE
ĠOFF ICIAL
Ġmode l
Ġsurround ing
Cal led
Red uce
Xg AA
death s
spect or
AZ ON
threate ns
threate ning
Ġfla gs
Ġrepe at
nInsur ance
Ġjob s
Ġ15866 58
IRM AN
Ġinsur gencies
Ġoppone nt
Com ing
IZ E
So ccer
Tra itor
Ġtemp le
infl uence
infl uential
respon se
ĠDEP L
Ġdedi cate
ĠRich ard
Ġpromi ses
Ġmas ses
Ġvali dation
Ġvali dated
Real ism
Ġcollective ly
Ġcommunic ations
record ing
Ġpreser ve
Ġpreser ving
Ġbatt leground
Ġinf low
nTarge ted
ĠAD MIN
ĠPROVID E
Ġexplo it
sw amp
seal ing
Ġsyste matic
ligh tenment
ĠAd ministration
ĠPre vention
ĠPen tagon
ĠMATTER S
Ġtreat ing
FIRE WALLS
SD NY
SUR ANCE
SUR GENCY
White House
Ġsum mary
Ġincre asing
Ġinfiltra ted
ĠFACT UALLY
nCl own
Ġacce ssible
Ġjudge ment
announce ment
XQ AA
cau ght
insta gram
8825 205
ĠRi ders
cbs news
Ġvehic le
Ġvehic les
FIL TRATION
Man date
OH N
nder ing
sum mit
1505 59
Ġpaw ns
Ġsla very
ĠSome thing
Ġmach ines
govern or
nsy lvan
ĠRES IGNATION
nUp date
Ġfinance d
Coll ins
bar ack
cr ash
won t
Ġachie ve
deli berate
rigin al
Ġbelief s
Ġnorm ally
ĠMID TERM
Ġden ominator
Ġdeni ability
Ġdeser ts
Ġconse quences
nChi ldren
nMon th
nOp tics
ĠKe ith
ĠREM OVE
disappro val
Ġmonitor ing
Ġesca pe
market watch
ĠBRING S
ĠInspect ors
Ste ve
str zok
bombs hell
fess or
Ġdou bt
ĠSUP PORT
Ġmod s
nAmeri ca
8762 904
nLaw makers
ĠVir ginia
Ġvicti ms
Ġappare nt
Ġcharac ter
Ġang ry
Ġswee p
ĠPak istan
adop oulos
ĠLOS ING
LEAD ING
ĠVeter ans
Ġcrimin als
ĠIMAG INE
ĠASS IST
Ġphra ses
ĠDEMONSTR ATE
Ġparticip ating
ĠIMMED IATE
Ġalgorith m
trib une
ĠCAMP AIGN
esti mony
ĠFALL ING
nStrate gic
ĠBIR D
nHand le
ĠGEN ERAL
ĠGIV EN
forman ce
Ġcoincide ntally
ASC ISM
Ġchose n
ĠINIT IATE
Ġaccomp lish
hysi cal
105970 58
ĠIMPLIC ATES
COD E
Karl uska
PAY ER
XIV M
ether lands
Ġbia sed
neso ta
neumon ia
nTash ina
Ġeith er
ĠCreat or
ĠCath olic
94124 12
ĠWien er
nMOV IE
Ġmagn itude
Ġunali enable
Ġstreng ths
holly wood
ĠINSC OM
ĠCONSTITUTION AL
Ġestima tes
nsylvan ia
Karluska P
' ,
) ].\
. '
. -
. )\
. '\
0 87
0 206
0 125
3 106
3 204
4 140
4 943
4 874
5 105
5 974
5 973
6 14
6 98
6 32
6 39
6 146
7 12
7 75
7 21
8 23
8 33
8 32
8 113
8 277
A l
A dd
A RED
A BE
A cti
A dam
A ngle
B j
B u
B y
B ob
B lue
C v
C ar
C AN
C ross
C ONG
C iv
C USE
C ruz
C OUN
C olin
D I
D Q
D Z
D f
D ER
D ay
D ES
D EL
D EM
D AG
D IR
D IVIDED
D OWN
D avid
D rop
E le
E AM
E lf
E liminate
F R
F W
F in
F eb
F ight
F und
F ACT
F ISC
F ACTS
F acebook
F irst
G H
G r
G en
G ING
G roup
G raphic
H G
H J
H OW
H ave
H igh
I AN
I EF
I ngraham
J I
J W
J c
J ong
J FK
J oe
J OY
K I
L B
L T
L ea
L ast
L ESS
L AND
L ogical
L ike
L EDGE
M R
M W
M in
M arch
M AA
M ark
M AGA
M eet
N L
N EXT
O g
O q
O hr
P c
P ri
P lan
P ap
P UT
P sy
P residential
Q Q
R G
R ec
R epublican
R ole
R DP
R OUTE
S ca
S hi
S et
S ESSIONS
S URV
S pace
S ymbolism
S teele
S ystems
S kow
T w
T ext
T weets
T REASON
T eam
U Q
U NIT
U kraine
V L
V Y
V c
V i
V r
V z
W S
W V
W ER
W AP
W ASH
Y h
Y z
[ +
[ ]\
] âĢĻ
] ].\
a S
a ef
a ving
a adb
a faf
a sia
a bove
b iz
b rand
b rain
b dab
c ary
c fef
c ounty
c rowdstrike
d or
d rew
e L
e j
e al
e mer
e men
e nemy
f our
f is
f ran
f cd
f reedom
f urther
f lag
g ab
g ae
g reat
g row
g ames
g ges
g lobal
g roups
g raph
h Y
h m
h u
h v
h arm
h idden
i i
i to
i vil
j ci
j udge
l ot
l ash
l ass
m n
m iti
m atter
m nly
n h
n to
n con
n we
n ap
n cing
n opes
o J
o tes
o val
o va
p U
p d
p j
p ur
p hi
p anic
p rin
p reservation
q q
r X
r Z
r n
s ar
s qu
s uch
s ses
s king
s aw
s ince
s ort
s leep
s cope
s cience
t ts
t ue
t Eliminate
u x
u ing
u ms
u mber
u cking
u lations
v g
v ors
v ault
w d
w i
w ind
w ash
x g
x ie
y L
y z
z l
z en
Ġ 70
Ġ ES
Ġ /\
Ġ sites
Ġ version
Ġ reservation
re qu
re fer
re member
re main
re sources
re signs
te x
th es
th ia
in as
in filtra
in filtration
in siders
me mo
me mbers
ar an
ar ts
ar gu
ar row
ar my
ar ify
ar dens
ta b
ta pped
or ker
or dance
ti ss
ti ff
ou hani
ou fla
on a
on ce
ce o
ce ption
ch el
ch urch
ch andler
ch illing
Ġa de
Ġa po
Ġa da
Ġa ide
Ġa verage
se miti
st ination
st rength
st rated
de mocrat
de stroy
Ġth ird
co ordination
po sitive
le hold
ri ff
ri am
ri ved
ri sk
da ngerous
an o
15 10
15 14
15 37
15 70
15 09
15 82
15 42
bo tage
?\ "
arch y
au ce
rese nce
is tered
al a
Ġ"/ \
nQ u
fe tal
fe instein
fe ssion
Ġto wards
Ġ15 45
Ġ15 82
Ġ15 900
Ġ15 127
Ġ15 906
Ġ15 116
Ġ15 286
Ġ15 270
Ġp ed
Ġp atriots
Ġp lain
Ġp hase
Ġp ipe
Ġp ushes
Ġo k
Ġo we
ge nce
ge nd
nW R
nW AS
Ġb in
Ġb al
Ġb rand
Ġb ury
Ġb aker
Ġb last
Ġb rings
at ar
at lan
at torneys
un s
un te
un less
Ġs in
it aries
Ġf al
Ġf lo
Ġf ill
Ġf ul
Ġf light
Ġc lip
Ġc leared
ma x
ma ps
ma tive
ma gin
ro ps
ro gation
ro bby
ll i
Ġin sider
Ġin struction
Ġin put
Ġin mates
fi ll
nd is
nd ous
20 99
20 84
13 20
13 94
13 88
13 04
13 913
10 14
10 44
10 70
10 55
10 75
10 40
10 47
10 31
10 43
10 974
10 567
Ġd umps
ne cessary
us y
us ter
us courts
Ġre public
Ġre take
Ġre cover
Ġre tali
Ġre dactions
Ġre cusal
Ġre corded
li te
li mit
li vest
li gence
as pel
nT e
nT i
nT ed
nT rump
nT om
nT wo
nT est
Ġe vasion
Ġh ire
Ġh um
Ġh undred
Ġh atred
ĠC ab
ĠC NN
ĠC ARE
ĠC DC
ĠC arl
ĠC lapper
ĠC learance
ra it
ra ctions
ĠS Y
ĠS a
ĠS u
ĠS HE
ĠS il
ĠS IT
ĠS IG
ĠS um
ĠS UM
ĠS ystem
ĠS ARS
ĠS ingapore
ĠS DNY
18 10
18 26
18 98
18 00
18 66
18 227
Ġbe gins
ĠA Z
ĠA utists
ĠA PPOINT
Ġm ic
Ġm arkers
NC H
ĠP D
ĠP i
ĠP ER
ĠP ol
ĠP OP
ĠP erman
ĠP rior
ĠP uppet
ĠP ENDING
12 13
12 12
12 16
12 50
12 54
12 78
12 42
12 81
12 567
res h
res olution
es se
es us
es pe
es son
16 64
16 59
16 23
16 99
16 48
16 43
19 97
19 57
19 60
19 04
19 157
en tal
17 13
17 27
17 24
17 94
17 54
17 60
17 66
17 67
17 08
17 78
17 46
vi ties
sta tic
14 16
14 78
la ine
la times
la bel
ĠF un
ĠF ire
ĠF ile
ĠF ree
ĠF REED
ĠF ired
ĠF irst
ĠF OLLOW
ĠF orest
Ġn one
Ġn ations
Ġn avi
Ġn omination
ck i
ck now
90 94
90 29
90 59
90 76
90 95
90 32
90 82
90 246
90 503
28 26
28 25
28 07
28 76
28 47
28 45
28 49
nD ES
nD ue
nD rops
RE L
RE EN
RE AL
RE MOVED
30 74
30 08
30 76
30 85
30 42
IN FO
IN TS
IN ALLY
IN ATED
IN STEIN
IN SURANCE
50 18
50 97
50 34
50 70
50 80
50 48
97 24
97 34
97 64
97 74
97 78
97 76
97 32
97 02
97 45
97 83
97 120
ĠD EN
ĠD own
ĠD ark
ĠD ian
ĠD eep
ĠD ONE
ĠD ARK
ĠD ANGER
26 15
26 13
26 16
26 00
26 60
26 08
26 35
26 82
26 287
26 177
ver ted
ad ian
Ġare a
ru th
ci as
38 20
38 18
38 37
38 64
38 99
38 09
38 42
27 24
27 00
27 44
27 35
27 69
27 49
24 17
24 57
24 70
24 48
56 15
56 12
56 60
56 32
56 47
36 19
36 26
36 58
36 06
37 13
37 50
37 24
37 52
37 86
37 72
lo go
lo ved
nS P
nS w
nS po
nS al
nS ur
nS up
nS IS
nS IG
nS am
nS TR
nS ince
nS old
nS ystem
nS tr
nS audi
nS ILENCE
nS ignal
nS tudy
nS everal
94 94
94 44
94 73
94 39
94 40
94 82
58 10
58 90
58 36
58 25
58 99
58 74
58 92
58 77
58 41
nP g
Ġfor ming
ĠB ro
ĠB ra
ĠB ad
ĠB ay
ĠB AN
ĠB OM
ĠB ack
ĠB LAS
ĠB ush
ĠB el
ĠB ob
ĠB URE
ĠB lood
ĠB ANK
98 87
98 73
98 48
34 30
34 97
34 64
34 29
34 33
34 07
34 06
34 21
34 47
ĠW L
ĠW uhan
Ġg an
Ġg as
Ġg rie
Ġg rew
Ġg rant
Ġon board
96 12
96 24
96 67
96 83
96 91
ĠM X
ĠM y
ĠM ur
ĠM ack
ĠM ich
ĠM aster
ĠM ARK
ĠM AX
ĠM atthe
ĠM exico
54 08
54 85
54 63
Ġde ta
Ġde ter
Ġde ny
Ġde pendent
Ġde serve
Ġde mocracy
Ġde stination
57 27
57 44
57 77
57 62
ĠH ER
ĠH OP
ĠH ATE
ĠH AND
ĠH ollywood
ĠH awaii
Ġcon so
Ġcon test
Ġcon vention
Ġcon trolling
Ġcon versation
Ġcon stantly
nH E
nH ar
nH ard
nH ighest
nH annity
nH ANNITY
00 94
ur l
ur anium
nC are
nC ongrat
nF F
nF R
nF oreign
nF OREIGN
nF OLLOW
Ġse ason
be f
be come
ĠN or
ĠN uclear
ĠN uke
ĠN ancy
pe nd
pe ter
pe tu
the atlan
ke ts
88 90
88 50
64 73
29 38
29 25
29 32
29 39
29 2310
Ġt rump
Ġt armac
nA CC
nA void
nA utists
di ct
di ble
59 27
59 36
59 29
59 35
59 32
23 56
23 36
23 58
23 98
23 34
23 52
23 95
23 118
ca in
ca des
ca pture
nN ational
nN ice
ĠR u
ĠR ome
ĠR AC
ĠR ice
ĠR OOM
ĠR ouhani
il t
il ton
op position
53 13
53 14
âĢ¦ ",
âĢ¦ ."
ĠG OW
ĠG rassley
âĢĻ ]\
ĠO pen
ĠO utside
Ġha cked
pa ti
pa pers
44 84
44 67
44 95
44 48
44 86
70 70
70 86
70 768
Ġpro to
Ġpro duct
Ġpro jected
Ġpro stitution
nR ub
nM id
nM ary
nM AKE
nM ax
nM uslim
nM ultiple
nM orning
ir th
60 59
60 48
60 32
60 267
60 244
Ġme r
Ġme ss
Ġme rit
!! !"
87 94
87 58
87 63
87 526
22 13
22 22
22 21
22 984
up date
IT T
IT AKER
Ġat tending
66 13
66 30
66 26
66 00
66 65
cc be
cc up
for um
80 28
80 37
80 92
ba sed
ba fc
LL ARS
25 59
33 27
33 94
lic ations
lic iting
84 70
74 3
74 223
Ġco st
Ġco ord
Ġco operation
mo tions
mo ving
ĠL ew
ĠL ast
ĠL OC
ĠL IVE
ĠL IKE
ĠL EARN
ĠL egal
nB E
nB R
nB et
nB IDEN
nB lue
nB DT
nB lind
nB UILD
nB usy
ome rang
AR A
Ġas sign
55 28
55 29
67 98
ec ause
Ġma trix
Ġnot ing
art z
ab d
ab uses
ab ortion
04 77
EN GE
Ġun lock
Ġun ite
Ġun related
Ġun disclosed
Ġun redacted
ea fee
93 97
93 98
93 99
93 948
Ġsh ap
Ġch e
Ġch urch
Ġall iance
IC ES
ĠE ar
ĠE MAIL
ĠE urope
ĠE ngine
Ġhave ns
IS H
92 98
IG HEST
07 2
nWho ever
nE vent
of fen
Ġk id
am id
am mer
hi de
Ġle d
Ġst ra
Ġst ronger
08 66
78 44
nL e
nL i
nL ink
nL ay
nL EFT
73 593
cy ber
ain ts
06 64
06 304
76 1
76 2
76 37
ran ging
Ġex h
Ġex tend
Ġex cuse
om ar
Ġl is
Ġl uck
nG S
rou nded
ni ca
95 17
95 11
Ġab or
ul tra
AL YZ
int ru
ms n
ĠJ A
ĠJ ust
ĠJ udges
46 17
46 24
tes ted
Ġlo yal
ant led
ous ing
75 276
fc ca
AC TION
eb be
pi ent
32 24
ID ER
69 24
69 56
69 59
77 71
77 9057
Ġfa ir
oun dations
39 28
39 98
39 59
Ġso liciting
40 29
ĠTO OK
21 14
89 54
89 23
ank a
ank ing
47 58
47 88
LE AR
LE VEL
nRe tur
Ġsi mul
Ġno ted
Ġli es
Ġli mi
Ġli ability
Ġpre y
Ġpre ten
et ting
con clu
con firmed
con servative
nO f
pro test
pro tected
pro tests
cu lated
cu lation
cu omo
Ġmo b
Ġmo ved
âĢ¦âĢ¦ âĢ¦.\
âĢ¦âĢ¦ âĢ¦..\
age r
age s
age nts
02 3048
31 16
31 134
ĠIN D
ĠIN SPECT
TR IP
af fili
86 00
Ġ155 112
Ġ155 164
Ġ155 267
TH IS
fo ia
fo cus
port rait
Ġout rage
gen der
ol f
ĠQ ueen
qu iet
iz on
ĠV eg
ĠV oter
Ġar ms
110 7
110 9
110 700
110 450
Ġdis gu
Ġdis charge
Ġdis honest
ign itaries
Ġvi d
ĠRE V
ĠRE PORT
ĠRE SPECT
72 20
72 26
65 18
82 10
63 26
we nty
62 10
62 14
Ġman agement
49 13
49 16
49 11
im mediate
im migration
nU ni
Ġ20 12
Ġ20 11
Ġ20 01
Ġop tion
Ġop pose
Ġop posed
83 13
83 57
Ġimp le
Ġimp ris
ten tially
Ġpri mar
cl intons
ich olas
Ġen ab
Ġen rich
oll s
ive d
.\" "
Ġ159 14
Ġ159 24
ussi e
og ue
ia h
41 15
41 19
oh r
Ġsee ms
can not
can ada
Ġ153 270
ym ore
Ġu ti
Ġu nt
GE TS
tra il
Ġtra ce
Ġtra itor
mer riam
ush ner
ĠST EAL
nCo mb
Ġ158 68
lev ance
Ġ154 53
Ġ154 196
el se
âĢĶ -
âĢĶ \
âĢĶ -\
âĢ¦. .\"\
âĢ¦. .?\
Ġover all
Ġover seas
113 2
ĠIn c
ĠIn tegrity
ESS AGE
spe lling
ass ador
Ġspe nd
du cation
Ġ1550 38
Ġ1550 44
Ġ1550 78
Ġ1550 85
Ġ1550 428
Ġcor p
Ġcor onavirus
Ġcor relation
81 19
erson al
Ġbo at
Ġbo ts
Ġbo ttom
ins titute
ins ane
ins burg
ap pe
ap pened
Ġ1588 447
Ġpower less
ex pert
ny mag
ATION AL
Ġaf firm
EL AND
sk i
Ġsup er
Ġsup pose
fir ms
Ġ152 287
Ġ152 304
per ry
orm ous
Ġad mitted
wor ked
ĠCON SPIRACY
107 24
107 567
amp les
Ġte ns
Ġte ach
Ġte sts
Ġte legraph
Ġremo te
Ġremo ving
100 15
100 10
AE E
Ġacc us
Ġwar s
ines ses
106 19
mpa th
Ġprote st
Ġim munity
Ġce leb
âĢĤâĢĤâĢĤâĢĤâĢĤâĢĤâĢĤâĢĤâĢĤâĢĤâĢĤâĢĤâĢĤâĢĤâĢĤâĢĤ âĢĤâĢĤâĢĤâĢĤâĢĤâĢĤ
120 8
Ġmis takes
nIn vestig
nIn tel
nIn correct
Ġ157 98
Ġ160 26
Ġ160 270
Ġperson nel
nK ILL
Ġra cists
part ner
Ġinter views
Ġgu erri
AND AL
Ġcomp ly
Ġcomp licit
nEx actly
sp read
ALL ENGE
ordin ate
ordin ary
Ġter ritory
ĠPR OG
stand ard
assi ve
Ġ1524 33
Ġindi cating
Ġau to
Ġrece ipt
tor ch
OC IAL
cri minating
pri son
TER MIN
Ġ1518 7
Ġ1518 67
IR AN
Re view
Ġro tation
Ġap ps
Ġ1513 30
Ġins ulated
Ġob struct
ĠCo lle
inter national
inter rogation
Ġsu fficient
Ġ1537 57
tin y
ACK MAIL
126 20
126 93
Ġ156 28
Th reat
that s
sen tence
su ccess
150 68
Ġ1564 4
Ġ1530 4
Ġ1530 06
580 16
ĠRe ad
ĠRe ady
ict ure
Ġ1538 09
Ġsub jects
118 0
Ġpop ular
Ġpop corn
Ġlaw yer
bu zzfeed
898 0
898 8
point ing
238 4
ĠDO OR
ĠDO LLARS
Ġchange s
Ġwork ers
Ġsur face
Ġsur gery
UM ENT
dis information
ha ha
que red
que ntly
va il
ik a
Ġbu ys
Ġbu ying
ĠCH IEF
Ġrep resented
ĠSH IT
Ġacti vate
794 2423
END ED
Ġ1529 10
Ġ1529 36
urre nt
Ġallow ing
296 44
ET Y
518 87
524 8
524 79
897 8
912 36
Ġ1553 38
ĠSC ANDAL
nHe licopter
nHe llo
ĠâĢ¦ âĢ¦.\
UT ISTS
ĠWOR K
Ġ1600 28
war fare
war rants
ĠSEC OND
nThank s
Do cu
ick le
mis sing
mis sile
Ġilleg itimacy
che ll
Ġ1516 40
nPro vide
nPro tect
ĠCom m
nFor ce
nFor ced
Ġleak ing
nV i
nV IP
nV ery
Ġhigh er
DE EP
No te
will iam
men tation
mag az
law ful
Ġexp ressed
ult z
De fense
De mocrats
vin o
Ġpict ures
nTo gether
Ġti ed
Ġrec laim
BO OK
don ations
think progress
nTR AITORS
228 62
Ġsw ift
Ġenti ties
Ġcover tly
his laine
nPre vious
Ġmay or
ĠEL SE
ĠRo th
ECT IVE
ĠINT ENDED
334 4
334 08
514 13
EG ADE
Ġreg ime
Ġreg ister
236 296
reme ndous
Ġcho ose
357 1
PR K
Ġda mage
Ġda nger
Ġprivate ly
658 3
plan e
Ġwhere by
Ġdesign ators
250 16
Sta nd
sup p
power ful
Ġleg ally
Ġleg itimacy
522 1
ffi li
Ġcall ing
ĠCL OCKWORK
ĠAS IA
Ġdeli very
ĠOP s
ĠOP ER
nDi vision
880 26
640 293
11113 70
11113 68
Ġfail s
Ġfail ing
Ġcomple x
Co V
Co de
Co oper
Co ats
cla mation
Ġremain ed
nSec ured
acc used
Ġpar ties
Ġsing ular
Rep Doug
Rep Adam
see k
ĠPro ject
Ġgov s
Ġclose ly
927 66
UL K
nRE TUR
til ity
Ġcar pet
tis an
Ġform ally
600 4
sub reddit
teri or
Ġres ult
Ġmid term
ale x
160 60
ĠLo gan
ĠLo aded
ĠIMPEACH MENT
II I
ĠTo tal
750 9735
Ġadd ressed
1060 88
ĠSec retary
Ġmind set
nCh ange
Ġsocial s
Ġlaws uit
fit z
mar ine
928 2949
FLY NN
FLY ROTHS
ĠZ eal
Ġemp loye
ai res
comp anies
ĠCO NCLUDE
ĠBR AVE
Ġtech n
Ġ15626 34
737 0113
He re
SH IP
Ġsca m
Ġsca le
ĠSe an
825 15
825 1197
OF S
Ġsho es
Ġsho ck
464 05
Ġpresent ing
Ġbri be
nCom mon
Ġdisclo sures
Ġgener ate
Ġgener ates
Cl own
secret ly
secret ary
Ġthank s
ĠTAR GETS
john roberts
nIN SURGENCY
fee der
ĠBe lie
nCor rect
Ġorigin ate
nBIG GER
nBIG GEST
Ġval ues
Ġinser tion
ĠFEAR S
nPlan e
ĠIs la
ĠLE AKS
ĠUK RAINE
Know n
fda dd
xx x
cent ral
ĠTh ursday
ĠMe mos
nAr ticle
ĠCONF IRM
Ġconfirmation s
At torney
Se arch
cour se
cli ck
wan ts
Ġpain ting
ĠSt rong
Ġcommit s
Ġcheck marks
ĠEx ample
310 67
896 266
UC TION
gon fly
play er
Ġbring ing
ĠMar ines
nCON TROLLED
Ġsupp lies
BL OCKADE
Ws AE
mid terms
Ġrefer s
Ġrefer ring
ĠSAF ETY
nSt rength
Ġconduct ing
753 5949
753 5221
repor ts
rist ine
Ġassi stance
AV ES
OY ED
Wo AE
reve als
ang le
Ġph arma
Ġsm all
Ġent rap
nFED ERAL
Ġsuppor ts
:: ::
NS WER
dde dd
Ġspo kes
Ġcoun tered
ĠMEM BERS
Ġcontribu te
Ġweb site
Ġpromo tes
him self
web ster
ĠSIGN IFIC
Ġjo int
Ġdisc ussions
BRE AKING
Dr B
nEN JOY
pl um
Ġblood stream
Ġsus pected
ĠCR OSS
ĠCR ITICAL
ĠAM B
nCri mes
Ġcommand s
Ġthreate n
ERT Y
ĠHAPP ENS
belie ves
Ġidenti fied
Ġsuffer ing
every one
Ġfo ol
Ġfil led
Ġcir cle
Ġcir cum
Ġdig ital
ĠConstitution al
urp hy
Ġcandi dates
UU AA
bro kers
curre ntly
iet nam
Ġbattle field
Ġiniti ate
eng ine
Ġconcer n
Ġconcer ned
nFin al
ĠLe vel
765 34
^^^^ \
UD GE
lue nt
mcca be
Ġair port
Ġpatter ns
1050 3812
nSpe ed
ĠME ANS
ĠME ETING
Ġliber ty
Ġassoci ate
)) )\
468 60
Vs AE
sm all
indi vidu
pop ular
pop ulation
Ġ1563 13
Ġpl ant
ĠMIS S
7515 739
Ġsole mnly
proof s
ĠKen nedy
chool s
Ġdeliberate ly
Ġextreme ly
ANSPARE NCY
728 67
Go v
Mis sing
Xk AA
journal ism
journal ists
pund its
ĠJan uary
ĠPROVID ED
Ġreplace ment
ABC s
Ġscre am
Ġsyste ms
Ġcust oms
Ġcust ody
nPa triot
nHo ly
nCH INA
5224 931
++++ ++++
ĠCLEAR ANCE
ij F
photo s
Ġthous and
ĠTi tanic
ĠTur ns
ĠMON TH
Ġjournal ism
11067 19
ĠChris tian
announce s
MIL ITARY
sca pe
simp le
Ġphoto s
Ġeasi er
ATTACK S
Ġconsider ing
Ġdoll ar
20180 207
Ġvol ume
reading room
ĠTHINK ING
ĠATT EMPT
chief s
ĠSPEC IFIC
COV ER
COV ERT
cou p
jack son
nv s
uts che
wea pon
decl assify
Ġtherap y
Ġbur ning
Ġbrain washed
ĠCri minal
2779 165
ĠMid night
Ġcontain ed
ĠInsur gents
HEL TER
ĠRIS K
ĠLa ws
ĠLa den
ĠJon athan
Ġcapt cha
nProof s
2287 225
TIN UE
sch umer
Ġ1562 94
Ġemotion al
Ġhistor ical
12566 56
REG ULAR
nSu icide
nSub ject
Ġglor ify
Ġglor ious
Ġdecla red
Ġatten dance
ĠLea der
ĠLIB ERAL
ĠLIB ERTY
Ġstatu tes
rang lehold
Ġappreci ate
Ġrecru its
Ġharvest ing
friend ly
agree ments
prom oting
ĠSpe aker
ĠPE ACE
enter tainment
ĠFe instein
ĠFeb ruary
9773 1033
versi ty
9833 343
ĠMan agement
ĠOper ated
8735 172
Ġcoer cion
nBar low
Ġnegoti ations
Ġpreci se
concer ns
Ġdismis sed
Ġterri ble
Ġempha size
Ġscenari o
Ġcivi lian
Anti fa
dar pa
Ġrespe ctive
ĠCALL ED
rai ser
ĠSOURC E
ĠPer kins
visi t
3080 88
Ġconce al
nCO INCIDENCE
ĠRes ort
gold man
Ġkick back
73584 67
ĠUni on
Ġexpen ses
Ġsovere ign
11088 97
execu tives
Ġmiss le
Ġdivi sive
communic ations
Ġaccurate ly
Ġaggressive ly
ĠRELIG ION
WakeUp America
Life Log
PAC ER
_^ _
inclu des
decla re
1502 14
nWar ning
Ġfine st
Ġcreat ing
amend ment
ĠTASK ED
ĠSOME THING
ĠAgain st
nSlow ly
nSile nce
ĠBEC OME
ĠHea ven
5324 130
9212 522
Ġcorrobor ation
discus s
Ġexperi ments
Ġentren ched
ĠDEMOCR AT
ĠPOSIT IONS
AMERIC A
iaturi zed
4804 31
domin ate
Ġwik ileaks
comple te
20078 69
Ġeval u
ĠTAX PAYER
9098 951
nDesper ate
INVESTIG ATION
9759 931
ĠDAM AGE
2797 703
nSho oter
nProm ises
ĠWo jci
Ġgla d
ĠMOVE MENT
Ġdevo tion
0007 201
nIdenti ty
nMEM ES
Ġorche strated
abed ins
Ġchanne l
Ġlau ndering
agen cies
0237 38064
Ġjump start
Ġobli gation
iliti a
chicago tribune
extreme ly
1098294 023738064
ĠCONFLIC T
ĠREPRES ENTS
ĠOFFICIAL S
ĠDEPL OYED
CONG RESS
Colin Skow
Ingraham Angle
LT IMATE
Sca vino
UNIT ED
WAP O
biz arre
ito red
refer ral
tiss ue
Ġade quate
semiti sm
livest ock
ĠPerman ent
Ġnavi gate
90246 27
90503 55
nStr ings
ĠBLAS T
ĠBURE AU
ĠBlood y
ĠMur ray
theatlan tic
nACC ESS
ĠGOW DY
87526 5
8092 585
nRetur ning
110700 94
Ġimpris on
Ġprimar ily
107567 37
Ġguerri lla
ĠPROG RAM
RepDoug Collins
RepAdam Schiff
FLYROTHS FLY
ĠZeal and
johnroberts Fox
ĠWojci cki
1098294023738064 898
! ]\
% .\
' :\
' ].\
' ).
) ."
* *
, -
- .
/ .
0 30
0 27
0 22
0 25
0 99
2 300
3 107
3 580
4 23
4 08
4 580
4 127
4 504
4 578
4 877
5 11
5 194
5 380
5 568
5 363
6 150
6 140
6 189
6 303
6 167
7 000
7 175
7 592
7 200
7 260
7 535
7 803
7 121
7 705
8 34
8 93
8 52
8 35
8 444
9 100
9 138
9 566
9 548
= \
= _
? !
? )
? [\
? !"
A c
A AK
A AC
A IM
A ccess
A lex
A BILITY
A utists
A fter
A IRMAN
B s
B in
B LE
B ion
B order
B AIT
B aby
B onus
C V
C s
C he
C OR
C AS
C AM
C ards
C DC
C OVID
C BA
C lapper
C ASTLE
D d
D q
D y
D ig
D ED
D IT
D OM
D irect
D ream
D ates
D eep
E n
E s
E y
E it
E ASE
E VIL
F G
F Y
F j
F it
F ive
F orm
F act
F ATHER
F ellow
F ounder
F ASCISM
G R
G ED
G OP
G ive
G OV
G HT
G ATE
G PS
G RESS
G DP
H K
H y
H istory
H UBER
H ell
H IND
H aiti
H OUSE
H ugh
I W
I X
I RED
I OD
J H
J K
J e
J f
J z
K J
K R
K g
L N
L S
L u
L ou
L ist
L IGHT
L earn
L ARP
L IST
L ondon
L OOK
M A
M E
M I
M O
M X
M Y
M w
M AR
M AP
M AJ
M OLLETT
N Z
N k
N v
N ation
N ational
N orm
N AME
O h
O p
O r
O OP
O INTS
P N
P O
P V
P i
P m
P er
P res
P en
P ut
P ING
P ress
P ST
P USH
P rince
Q D
Q X
R O
R IG
R eg
R ose
R ight
R IA
R OS
R eagan
R eddit
S W
S p
S ource
S cal
S NOW
S HEEP
S chedule
S KY
T F
T j
T ING
T REM
T argeted
U s
U IL
U ATION
V P
V X
V oter
V UAA
V MAA
W A
W he
W ill
W AT
W AS
W ood
W ALK
X V
Y E
Y AN
Y rc
Y WOOD
Z j
Z ERO
] ",
] ]?\
a T
a ith
a ses
a ily
a ters
a wakening
a eeb
b j
b ation
b ound
b ffb
b attle
b fed
b ruce
b udget
c q
c ta
c fe
c ul
c ord
c ount
c isa
c gi
c ars
c dea
c rowd
c outs
c leared
d R
d x
d z
d ot
d cdb
d rug
e P
e ty
e yes
e zra
f th
f tc
f ara
f ront
f rame
f ounder
f ounded
g S
g V
g po
g ran
g mail
g rap
g gs
h s
h ab
h annity
h ours
i al
i sion
i Phone
j R
j U
j on
j ared
j ussie
k d
k h
k m
k ir
k han
k illed
k ushner
l M
l ou
l atch
l ings
l aration
m u
m w
m cc
m ons
m ich
m ming
m atters
m antled
n is
n OR
n can
n youtu
n why
n uclear
o th
o ge
o li
o ath
o ccur
o cs
p un
p ure
p lea
p tions
p ark
p lease
p anel
p latform
q G
q W
q ing
r U
r au
r ush
r ze
s f
s r
s html
s om
s ys
s ale
s pace
s mear
s unday
s oft
t k
t ta
t our
t ons
t argeted
t rying
u f
u ps
u ted
u tions
u med
u able
u ced
v K
v U
v V
v c
v h
v ins
w N
w Z
w ri
w and
w ake
w rap
w rong
w ired
w edd
w omen
w atnick
x U
x l
x n
x on
y l
y ms
z i
z p
z s
z es
z ins
z ero
z ania
z vins
Ġ ou
Ġ tripcode
Ġ images
Ġ 36
Ġ 37
Ġ ment
Ġ ir
Ġ 33
Ġ 99
Ġ 02
Ġ ten
Ġ ?"
Ġ" :
Ġ" ::::
re z
re source
re as
re levant
re itbart
te cts
th ird
th omas
in c
in ch
in en
in ea
in qu
in form
in ner
in crimination
me l
ar p
ar ant
ar ry
ar ily
ar tial
ta g
ta nd
ta ne
ta ly
ta ted
ta pe
ta nts
or ter
or ner
ti st
ti ro
ou thern
on nie
ce l
ce ll
ce cb
ce ssi
ce du
ch airman
Ġa cknow
se ct
se mi
se par
st ring
st ole
st ars
st ories
de v
de bb
de rage
de mand
de mocracy
de tails
Ġth ru
co o
co sta
co ding
po site
po ssi
po tentially
le te
le nd
le asing
le stin
si o
ri gh
ri ors
ri tage
ri gged
ri fying
Ġthe hill
to ck
to ld
to ok
to wer
da nt
da ni
an cing
Ġw ild
Ġw ide
15 97
15 34
15 54
15 23
15 22
15 55
15 46
15 48
ing le
bo y
bo th
bo ston
ve il
ve led
ve ni
ve ning
tri but
tri xxx
Ġ[ [
Ġ[ âĢĺ
arch ist
au g
rese t
is n
is ly
is su
is tence
board s
al t
al ty
al ive
al ities
al lies
al ja
fe a
fe ec
Ġto ward
Ġto wn
Ġ15 97
Ġ15 57
Ġ15 46
Ġ15 75
Ġ15 47
Ġ15 115
Ġ15 100
Ġ15 120
Ġ15 112
Ġ15 105
Ġ15 289
Ġ15 1120
Ġp ig
Ġp ays
Ġp ls
Ġp edd
Ġp icking
Ġp andemic
Ġp hysical
Ġp neumonia
ge o
ge y
nW or
nW IT
nW ife
nW ater
nW ait
nW ATER
nW ASH
nW aPo
nt ouch
Ġb ar
Ġb ast
Ġb ound
Ġb ounce
Ġb rass
Ġb ands
Ġb ureau
Ġb irth
at ta
at ten
at temp
un ch
un can
un til
un ited
un popular
Ġs r
Ġs y
Ġs li
Ġs ky
Ġs kill
Ġs cru
Ġs lander
Ġs aints
it ness
Ġf ra
Ġf ield
Ġf lex
Ġf lu
Ġf ucking
Ġf oundations
Ġc at
Ġc ure
Ġc ia
Ġc ures
Ġc rowd
ma dd
ro g
ro tt
com mi
com petition
ll ison
Ġof fense
Ġof ficially
Ġin ef
Ġin fer
Ġin correct
Ġin capa
Ġin criminating
fi ci
fi fth
he ard
ter mination
20 28
20 56
20 37
20 96
20 88
20 44
20 60
20 33
20 67
20 07
20 06
20 95
20 69
20 85
20 63
20 49
20 277
13 13
13 12
13 90
13 58
13 96
13 00
13 66
13 73
13 03
13 75
13 31
13 43
13 79
13 114
13 175
13 912
13 933
ow s
10 15
10 13
10 10
10 94
10 87
10 73
10 32
10 69
10 79
10 276
10 504
Ġd ia
Ġd ots
Ġd ignitaries
ne hi
ne ath
ne ls
ne eded
Ġre in
Ġre du
Ġre new
Ġre form
Ġre classified
Ġre treat
Ġre tire
Ġre lates
li mp
li day
li fied
li zz
li gent
as so
as hes
as sets
nT G
nT al
nT ry
nT im
nT REASON
Ġe d
Ġe vol
Ġe ternal
Ġe lite
Ġh y
Ġh ers
Ġh int
Ġh uge
ĠT T
ĠT ri
ĠT ax
ĠT EAM
ĠT reas
ĠC ard
ĠC lock
ĠC iv
ĠC ruz
ĠC ENSOR
ĠC ANDID
ĠC ivil
ra dio
ra structure
ra chel
ĠS E
ĠS an
ĠS ep
ĠS IS
ĠS AY
ĠS EL
ĠS old
ĠS pace
ĠS har
ĠS ILENCE
ĠS ILENT
ĠS torch
ĠS OCIAL
ĠS MOLLETT
ĠS couts
ĠS outhern
Ġis lands
18 15
18 18
18 54
18 64
18 68
18 78
18 73
18 02
18 72
18 42
18 364
Ġbe coming
ed be
ĠA J
ĠA m
ĠA HE
ĠA bd
ĠA GE
ĠA cts
ĠA NN
ĠA cti
ĠA GENCY
ĠA manda
ĠA NSWER
Ġm ur
Ġm ark
Ġm usic
NC ER
ĠP ar
ĠP an
ĠP US
ĠP AR
ĠP uppets
ĠP OINTS
12 18
12 97
12 96
12 95
12 77
12 31
12 72
12 43
res timated
es tab
name s
16 27
16 34
16 88
16 60
16 87
16 84
16 83
16 997
19 20
19 14
19 36
19 59
19 74
19 52
19 92
19 35
en te
en courage
17 88
17 53
17 84
17 69
17 843
NCI NG
US MC
vi r
vi cti
sta ble
sta ges
sta mps
ted lie
14 20
14 17
14 14
14 23
14 87
14 07
14 95
14 43
14 71
14 803
la ptop
la dim
ĠF IC
ĠF usion
ĠF AIT
ĠF ARM
ĠF amily
ĠF OCUS
Ġn ukes
ck lace
ck ets
90 17
90 26
90 58
90 88
90 66
90 84
90 52
90 78
90 03
90 77
90 86
90 45
90 10724
28 18
28 30
28 59
28 87
28 66
28 84
28 68
28 03
28 95
28 02
28 42
nD en
nD ay
nD ave
nD eep
nD rain
nD rugs
nD aily
RE C
RE CT
RE MOVAL
30 18
30 14
30 97
30 24
30 98
30 64
30 11
30 55
wit ch
IN ING
IN ION
IN AL
IN NING
50 90
50 36
50 98
50 64
50 60
50 22
50 33
50 74
50 52
50 06
50 39
50 47
50 65
50 41
97 28
97 36
97 33
97 93
97 48
97 77
97 63
97 79
97 912
97 328
ĠD id
ĠD ent
ĠD EST
ĠD OC
ĠD ani
ĠD ARPA
ĠD ouble
ĠD HS
ĠD OSSIER
ĠD PRK
ĠD uncan
26 18
26 36
26 29
26 87
26 80
26 52
26 03
26 02
26 43
26 61
ad o
ad ler
ad mit
ru les
ci en
ci ble
ci vil
ci ple
38 30
38 38
38 24
38 94
38 29
38 59
38 67
38 35
38 85
27 50
27 38
27 27
27 56
27 37
27 54
27 39
27 47
27 72
27 978
top ian
24 13
24 58
24 66
24 99
24 02
24 72
24 62
24 81
56 18
56 17
56 34
56 54
56 88
56 64
56 84
56 73
56 76
56 03
56 46
56 65
56 83
36 17
36 36
36 54
36 44
36 99
36 93
36 43
36 71
37 12
37 96
37 55
37 68
37 73
37 81
37 593
lo op
nS L
nS O
nS ch
nS top
nS hi
nS im
nS el
nS ex
nS SA
nS till
nS par
nS eri
nS ky
nS edition
nS niffer
94 18
94 12
94 26
94 57
94 11
94 87
94 66
94 75
94 77
94 91
94 79
94 878
94 0511
58 15
58 50
58 56
58 37
58 64
58 87
58 84
58 08
58 03
58 40
58 72
58 82
58 49
58 91
58 42
58 71
nP L
nP M
nP h
nP ure
nP aw
nP ort
nP REVENT
nP ics
Ġfor give
ĠB B
ĠB u
ĠB er
ĠB row
ĠB EST
ĠB erman
ĠB ang
ĠB efore
ĠB ronfman
ĠB rze
98 17
98 90
98 94
98 00
98 29
98 07
98 77
98 86
98 240
34 66
34 99
34 77
34 65
34 83
AT OR
ĠW in
ĠW ALL
ĠW izards
Ġg lo
Ġg od
Ġg mail
Ġg rate
96 14
96 50
96 38
96 53
96 84
96 46
96 47
96 02
96 42
96 6637
ĠM K
ĠM el
ĠM UR
ĠM ILL
ĠM axwell
ĠM ESSAGE
ĠM urphy
54 10
54 36
54 25
54 84
54 07
54 03
54 77
54 05
54 82
54 343
Ġde ck
Ġde position
Ġde stroying
Ġde menti
Ġde termine
Ġde cades
57 00
57 74
57 02
57 41
ĠH O
ĠH er
ĠH OT
ĠH IS
ĠH ACK
ĠH uman
ĠH UN
ĠH IDE
ĠH unt
ĠH ighest
ĠH ARM
Ġcon su
Ġcon form
Ġcon dem
Ġcon quered
nH y
nH ea
nH el
nH ired
nH umanity
nH APP
nH OLD
00 5
00 38
00 84
00 48
00 89
00 65
ur ricane
nC HE
nC ome
nC lear
nC arter
nC ORRUP
nC ensorship
nC astle
nC rowdstrike
nC lose
nC urrent
nF ree
nF light
nF ACTS
nF OX
nF rank
Ġse lected
be half
ĠN Z
ĠN e
ĠN et
ĠN avy
ĠN AZ
ĠN ellie
ĠN icholas
ĠI R
ĠI NC
ĠI NCLUDE
ON Y
ON ES
the red
id d
id ly
ke st
ke pt
ke ys
88 5
88 00
88 53
88 06
88 81
88 330
ss a
ss ment
64 16
64 44
64 84
64 74
64 77
out sider
29 90
29 22
29 93
29 92
29 508
Ġdo main
Ġt res
Ġt wenty
Ġt remendous
nA J
nA c
nA ust
nA gain
nA IR
nA ctive
nA CT
nA verage
nA PPOINT
nA fter
nA uth
di st
di cu
di vision
di rected
59 20
59 10
59 12
59 37
59 98
59 99
59 51
59 304
23 16
23 38
23 91
23 120
23 917
ca ta
ca pi
ca ses
nN e
nN unes
nN PR
nN eed
nN ATIONAL
ĠR T
ĠR ad
ĠR ec
ĠR ho
ĠR ALLY
ĠR oman
ĠR ATS
ĠR YAN
ĠR onnie
11 18
nI P
nI mage
nI ts
nI CE
nI gn
il der
op ing
op her
53 16
53 38
53 98
53 54
53 22
53 35
53 277
53 257
53 33408
ĠG e
ĠG OP
ĠG AIN
ĠG CHQ
ts y
ĠO K
ĠO U
ĠO ct
ĠO val
ĠO NCE
Ġha te
Ġha mmer
and rew
pa in
pa per
pa trick
44 98
44 96
44 44
70 90
70 50
70 37
70 59
70 76
Ġpo l
Ġpro file
Ġpro jects
Ġpro xy
Ġpro portion
nR C
nR ig
nR ight
nR IP
nR achel
nR unning
nM W
nM AY
nM ass
nM UELLER
nM cC
nM erry
nM anafort
ir t
ir y
ir ts
ir ty
ir rors
60 18
60 96
60 29
60 25
60 33
60 61
ore gon
nTh y
nTh ought
fa ba
fa vor
87 90
87 34
87 67
87 92
87 78
87 69
22 17
22 26
22 27
22 94
news ob
ED ITION
up py
up loaded
IT IES
Ġat tribu
66 53
66 52
80 56
80 34
80 54
80 25
80 79
80 930
80 357
80 31134
ba tants
LL ING
25 94
25 226
33 13
33 19
33 97
33 99
99 30
99 26
99 906
ef ff
ef bb
lic on
84 24
84 04
84 21
84 31
74 18
74 37
74 60
74 33
74 74
74 75
Ġco hab
mo di
mo vie
ĠL ine
ĠL ong
ĠL iz
ĠL im
ĠL ia
ĠL ONG
ĠL isa
ĠL INK
ĠL AU
ĠL ORD
ĠL OSS
ĠL eft
ĠL OUD
Ġan xie
Ġan ymore
Ġan archist
nB ri
nB ur
nB el
nB ridge
nB iblical
Ġwill fully
cb cd
ee ed
ee ting
ers pace
AR CH
ons or
Ġas ser
55 12
55 27
55 24
55 56
55 59
55 23
55 135
67 15
67 80
67 82
67 83
Ġma gic
Ġma thematical
ic it
Ġhe at
04 53
04 33
04 68
04 92
04 1846
AN IZ
EN TR
EN STEIN
Ġun do
Ġun sealing
Ġun pun
Ġun stable
tro ll
tro versi
go og
Ġne ut
Ġne cessi
ea p
ea th
93 18
93 38
Ġsh op
Ġsh ining
ther board
ther ace
AS A
AS SETS
68 13
68 32
68 69
Ġcom petitive
Ġch a
52 13
52 97
52 56
52 189
IC H
ak es
ĠE m
ĠE ner
ĠE ric
IS E
92 19
92 96
07 17
07 52
nE d
nE motion
nE asy
nE motions
of ten
dd dc
EC E
Ġk no
Ġk ids
am ar
am atters
hi bi
Ġle ads
fb ff
Ġst ranglehold
Ġsta tus
Ġsta ged
Ġsta ffers
08 13
78 58
78 54
78 59
78 25
nL AT
nL IB
nL ynn
2018 0223
nWe re
nWe alth
73 94
led ged
09 27
09 23
06 27
76 29
76 53
76 39
03 18
side red
bb db
bb bd
Ġex tent
Ġex emp
Ġex ternal
Ġex istence
om ian
ns ual
Ġl oud
Ġl augh
Ġl isted
nG reat
nG rand
nG lobal
rou hani
ni sts
95 38
95 29
95 25
95 979
OW ING
Ġab used
Ġta sking
cd cc
ong qing
ĠJ R
ĠJ ury
ĠJ apan
ĠJ arrett
46 2
46 9
46 16
46 93
46 647
Ġlo ose
Ġlo gged
75 17
75 38
75 24
75 34
75 570
75 1646
Ġcan cer
Ġcan cel
ist ration
âĢĤâĢĤâĢĤâĢĤâĢĤâĢĤâĢĤâĢĤ âĢĤâĢĤ
AK ES
nJ une
nJ uly
nJ OHN
nJ UDGE
AC A
eb ate
eb cb
pi o
pi te
pi ece
pi cious
35 15
35 28
35 57
35 22
32 10
32 19
32 23
69 38
69 94
77 64
Ġfa cilities
oun tability
ĠY T
ĠY ear
ĠY ellow
ĠY emen
ĠY orker
nDo pey
39 50
39 26
39 25
lle s
ac ross
man uel
21 13
21 12
89 17
47 00
47 53
LE EP
LE NCE
ble m
nRe al
nRe cent
Ġsi ts
).\ "\
AA E
AA f
Ġli ft
Ġpre fer
Ġpre par
Ġpre cursor
BI LE
ind ing
ind man
et z
gh an
gh ai
gh isla
con se
con tain
con sider
nO b
nO ff
nO LD
pro ven
pro ceed
pro stitution
pro clamation
cu it
cu res
Ġmo ti
Ġmo ments
Ġla g
Ġla yers
VE HIC
lan ey
lan dest
31 15
ĠIN TER
min i
min ate
Ġal tered
Ġal though
Ġal titude
TR ACTION
TR UCTION
86 38
86 55
lea ves
Ġ155 114
Ġ155 124
politic ally
fo ot
Ġout sider
ol ff
ĠQ UES
45 37
45 29
ĠK ills
ĠK NEW
ĠK orean
ĠV ote
ĠV ideo
ĠV alerie
Ġour s
Ġ16 01
Ġar range
Ġar ranging
110 8
110 013
Ġdis po
Ġdis reg
Ġdis play
Ġdis rupt
Ġdis mantled
ign ore
non profit
non yms
72 263
85 29
65 28
65 54
IA NCE
82 27
63 20
63 98
we red
we iner
Ġman aging
43 56
cf da
cf dad
nU ntouch
Ġ20 04
Ġ20 08
Ġop inions
83 588
SE A
Ġimp ro
Ġimp ressive
ten ing
IL ES
Ġpri de
cl ub
arra khan
Ġen acted
Ġ1 15
Ġinvestig ative
42 59
pt or
cess arily
Ġ159 96
Ġ159 207
Ġsa vi
Ġsa ved
79 10
79 18
][ +
][ -
je ws
41 17
fd sys
can didate
Ġri ch
Ġri dicu
Ġ= \
Ġ153 566
Ġ153 574
Ġ153 386
Ġ153 564
aa ee
Ġ+ +
Ġ+ ++
Ġu ses
Ġu mbrella
cre ate
cre dible
tra de
tra cking
Ġtra il
Ġtra gic
mer t
Ġbelie ves
ĠST ORM
61 20
61 13
61 12
nCo ordination
!!!! "
Ġ158 26
Ġ158 940
lev in
wak en
Ġ_ [
fox business
sh ills
sh adows
ST ART
Ġover ri
ENT ER
ENT IAL
113 794
113 3189
do or
ĠIn dependence
iti mate
so bi
so omian
ance d
no v
no versight
Ġsome how
ĠTR AP
gu ay
gu antanamo
ass an
Ġspe lling
ach mann
OD EST
ber al
Ġ1550 6
Ġ1550 67
Ġcor ner
Ġcor rected
81 16
hy droxychloroquine
Ġthere of
ap tain
ap pointed
Ġ1588 6
Ġ1588 13
Ġ1588 28
Ġ1588 96
Ġ1588 116
ex pand
ex actly
ex cuse
ex ington
ny t
Ġaf fect
ficial s
lock down
UR ING
ational security
EL Y
EL ECTION
Ġback ers
fir ing
Ġ152 288
Ġ152 384
Ġ152 2804
per ts
per cent
Ġho sti
115 4
115 80
Ġimportant ly
Ġad vo
Ġad minist
Ġad vers
Ġad vised
Ġplan ning
ĠCON GRESS
107 57
107 87
107 22
107 73
107 840
Ġvo ted
amp a
Ġte le
Ġte en
Ġte net
Ġser vers
100 17
100 154
AE T
AE q
Ġacc um
Ġacc used
ans as
und it
106 347
Ġprote cts
Ġim pose
titu tes
Ġworld wide
OL ITICAL
IM PORTANT
Ġce n
âĢĶâĢĶ âĢĵ
âĢĤâĢĤâĢĤâĢĤâĢĤâĢĤâĢĤâĢĤâĢĤâĢĤâĢĤâĢĤâĢĤâĢĤâĢĤâĢĤ âĢĤâĢĤâĢĤ
âĢĤâĢĤâĢĤâĢĤâĢĤâĢĤâĢĤâĢĤâĢĤâĢĤâĢĤâĢĤâĢĤâĢĤâĢĤâĢĤ âĢĤâĢĤâĢĤâĢĤâĢĤ
120 4
120 297
Ġmis siles
nIn side
nIn fo
nIn stall
nIn crease
by pass
Ġ157 644
Ġ157 706
Ġ157 677
Ġ160 30
Ġ160 157
new york
2020 1014
Ġevent ually
ĠFOR MER
ĠFOR GET
EM IES
EM PL
nK NOW
ĠWE RE
BE HIND
VER S
Ġra re
Ġra ise
Ġra dio
nn ounce
nn ationalsecurity
os se
os pital
part ly
nCon trolling
Ġinter fere
Ġinter pre
AND LER
Ġcomp ed
nEx plo
112 14
112 35
sp ying
ĠPR IDE
ĠPR IVATE
ĠPR OPER
assi stance
nCoincidence s
real ity
Ġ1524 27
ron ic
Ġau di
Ġrece ptor
pre dictable
pre tty
pri ze
900 171
2019 03
105 23
105 975
105 963
CH AIN
CH ILD
We st
Ġ1518 04
Ġ1518 72
AG LE
Re sources
Re negade
Re minder
Ġprevent ing
Ġ1513 90
Ġ1513 317
Ġins ulate
428 14
Ġcre ates
119 0
119 1
119 877
119 769
Ġob ser
ĠCo ie
gg led
Ġapp lying
Ġsu ms
Ġsafe ly
vo x
Ġqu iet
Ġ1536 6
Ġ1537 2
Ġ1537 22
ray ing
NN ING
Ġ1526 190
ACK AGE
ring e
126 87
126 74
cor ner
Ġconne cts
Ġ156 38
Ġ156 263
590 3
590 4
590 93
sen se
Ġorganiz e
loy ing
Ġsex ually
su do
su icide
su ggest
su gges
Ġcl ues
with out
150 1697
150 6481
rest ri
medi amatters
Ġ1564 24
Ġ1564 024
Ġdi vide
Ġdi min
Ġ1530 24
580 1012
ĠRe form
ĠRe negade
ĠRe volution
nan cy
bre ach
jor dan
Ġ1534 377
ict or
aul ts
CE G
fl u
alle n
alle y
alle ts
alle ls
Ġsub mitted
Ġend ure
Ġend orse
118 5
118 0433
AW NS
AW ARENESS
ze era
bu ck
ara h
ara de
Ġher self
ĠCOM MS
daily dot
testi fy
108 24
Ġoper atives
yste matic
594 4
UM AA
UM BRELLA
dis aster
va da
Ġam ounts
Ġ150 985
gra ham
ili es
ĠCH ALLENGE
ĠCH AIRMAN
ĠCH ANDLER
304 80
Ġ1515 27
Ġ1515 47
ĠSH ORT
ĠSH OWERS
nEn ough
794 9
Ġthought s
sis ter
237 4
âĢ¦âĢ¦âĢ¦âĢ¦ âĢ¦..\
uk raine
Ġ1529 30
Ġ1529 25
Ġasse ssment
296 58
Ġ1523 23
Ġper formance
277 9059
Ġ1544 65
280 99
518 900171
524 82
897 66
897 8083
ĠCon ne
ĠGO ES
Ġauthor itative
912 96
950 5
AF B
Ġ1553 136
nHe art
UT URE
abe th
Ġsig nal
Ġ1600 1337
116 924
mi x
mi ami
war s
war ted
ĠSEC RE
ĠSEC URE
mis information
nch s
che cked
Ġ1516 34
Ġfind s
176 34
nPro tected
nPro blem
ĠIran ian
lish ment
Ġ1590 07
ĠCom ms
ĠCom mer
Ġmon opo
527 4
sec ured
mag a
Ġexp ress
Ġkey word
/? #
/? /
930 3
930 2889
De vice
Po pe
Po sobi
Ġ1512 50
Ġtrans cri
Ġtrans pired
Ġtrans pire
297 7
294 4
nTo ol
190 88
nTR ANSPARENCY
Ġbl ue
nes day
Ġmy self
AB B
CC ABE
THE M
Ġblack out
504 80
934 5841
ĠCOU LD
173 2221
143 56
ĠEL ECTED
NY C
Ġru led
Ġlook s
ĠINT ENT
957 3778
OK E
ext rem
Ġinvol ving
Ġhand le
back ground
337 1
357 5
PR OVE
PR IOR
1059 1766
nTH ANK
ĠPL ATFORM
ffe d
gi um
plan ning
leb lowers
Ġbre aks
Ġsec uring
In fl
OLL YWOOD
par allels
907 1309
ĠID ENT
Ġcoll ision
Ex change
ĠMcC ord
Ġcens ored
Ch ris
ĠCL OWNS
ĠOP INION
756 1132
FAKE WOOD
lor ia
Ġrest oring
nSh aring
880 23
657 2
997 6
ump h
ump tions
mas ter
Ġref lection
Ġref lect
Ġref uge
557 8
bri tan
bri tish
Ġpay ing
ĠDE AD
acc ounts
home land
508 13
260 10
Ġexpe cted
Ġindict ing
513 1
513 3
bill maher
whi taker
âĢĵ \
see king
Ġ1533 14
ĠKNOW S
ĠKNOW INGLY
ĠKNOW LEDGE
924 4
UL ATION
nRE AL
Ġcal culated
nTime stamps
Ġes pionage
Ġhappening s
Ġdif ficult
ĠSP READ
129 52
Ġgain ed
577 66
ĠCOUN SEL
sub stanti
teri a
ĠGu ard
ĠGu atemal
tract ors
Ġobtain ing
Be ing
ĠLo ok
ĠLo Bion
Ġown ership
)( \
Me i
Me mes
Me adows
ip ed
Ġ1580 57
Ġ1580 88
1066 8
1066 84
Ġdist ur
Ġdist inction
Ġdist raction
ĠTo gether
ĠAnd re
cip her
542 30
708 52
Ġexist ing
750 98
Ġadd resses
des pite
1060 9
1060 8751
usa o
ĠFR ONT
Ġdeep ly
nCh arter
Ġfeel s
AIT I
House Of
right wing
Ġinten tion
1064 50
1064 9665
1064 4330
ĠAr mor
ATRI OT
Ġpreside ncy
emp le
ĠZ ERO
Ġtell s
Ġemp ane
Ġemp loyed
Ġhar bor
Ġhar assment
Ġkill s
Ġ15354 98
Ġtech nology
He alth
SH ARE
SH ADOW
person al
federal ist
Ġ1509 5
Ġpass ing
erman y
ĠDo D
nST AND
nST UPID
006 54343
603 36
ORD INATED
Ġrepresent ing
Xs AE
Ġcertain ly
STR AT
STR IKE
STR ATEGIC
Ġbri dge
nDO ES
Ġbackground s
Ġtransfer s
Ġ1574 70
usti fy
ĠRED DIT
923 98
cra zy
cra mbling
fed s
ĠBe ij
nCor rupt
ORS I
Ġnear ly
Ġval uable
427 2
959 9824
ĠEN G
Ġcitiz en
ĠBo oms
ĠIs lands
ĠEX CUSE
omin ee
âĢĤâĢĤâĢĤâĢĤâĢĤâĢĤâĢĤâĢĤâĢĤâĢĤâĢĤâĢĤâĢĤâĢĤâĢĤâĢĤâĢĤâĢĤâĢĤâĢĤâĢĤâĢĤâĢĤâĢĤâĢĤâĢĤâĢĤâĢĤâĢĤâĢĤâĢĤâĢĤ âĢĤ
âĢĤâĢĤâĢĤâĢĤâĢĤâĢĤâĢĤâĢĤâĢĤâĢĤâĢĤâĢĤâĢĤâĢĤâĢĤâĢĤâĢĤâĢĤâĢĤâĢĤâĢĤâĢĤâĢĤâĢĤâĢĤâĢĤâĢĤâĢĤâĢĤâĢĤâĢĤâĢĤ âĢĤâĢĤâĢĤâĢĤâĢĤâĢĤâĢĤâĢĤâĢĤâĢĤâĢĤâĢĤâĢĤâĢĤâĢĤâĢĤâĢĤâĢĤâĢĤâĢĤâĢĤâĢĤâĢĤâĢĤâĢĤâĢĤâĢĤâĢĤâĢĤâĢĤâĢĤâĢĤ
âĢĤâĢĤâĢĤâĢĤâĢĤâĢĤâĢĤâĢĤâĢĤâĢĤâĢĤâĢĤâĢĤâĢĤâĢĤâĢĤâĢĤâĢĤâĢĤâĢĤâĢĤâĢĤâĢĤâĢĤâĢĤâĢĤâĢĤâĢĤâĢĤâĢĤâĢĤâĢĤ âĢĤâĢĤâĢĤâĢĤâĢĤâĢĤâĢĤâĢĤâĢĤâĢĤâĢĤâĢĤ
ĠWITH IN
ĠWITH OUT
WE ET
WE INER
mark ers
ug ust
ĠAL ERT
nAr menia
Ġweak en
Ġweak nesses
rowd Strike
ece e
hel ping
ĠSt art
Ġdocu mentation
ĠGR IP
ĠGR OUP
Ġcheck s
Ġcheck ers
ĠEx port
Ġ15538 04
hand ler
coll uded
Ġ1528 84
Ġsce ne
Ġci ted
1096 72
nSe arch
345 58
Ġdelay ed
nCON F
Ġsupp ly
Ġsupp lied
Ġsupp lying
Ġamong st
<< <<
call ing
mid dle
sic ally
Ġinclu des
ĠCor ney
ĠCor ker
ĠMo dified
Ġdecl as
Ġconvi ct
nBo ard
nBo omerang
Jack Posobi
bla ze
sus pected
376 20
Ġchar ms
ĠTARGET ED
president s
Ġcomb ined
FE RE
FE INSTEIN
ah m
ga vin
Ġran ks
commun ity
1058 18
1068 5
aster n
ĠACC OUNT
Ġdele te
Ġdead line
Ġdecide s
Ġpromo tion
Ro om
Ro thschild
Some thing
Tru st
aca f
Ġbetra y
Ġbetra ying
2798 428
Ġcontract or
office rs
75164 70
75164 80
75164 76
hold s
356 2
726 62
796 5569
826 19
Mar ina
michael beat
nEN OUGH
say ing
vance s
Ġcr ashes
ĠCR ISIS
ĠCan adian
Ġdesi res
nCri me
ĠTHEM SEL
good latte
ĠInter ference
ĠPLAY ED
Ġbreak down
Ġdri ving
ĠDEM S
Ġsecond ary
nRo ger
nRo bert
Ġidenti fy
ĠUN KNOWN
Breaking NL
857 2434
bia sed
every thing
ita tus
ita tions
nthe federalist
north america
dep uty
dep loying
colle ge
colle ction
Ġ1514 01
laws uit
ĠFL OOR
ĠDec laration
ĠHar ris
ĠHar wood
ĠHar vard
ĠTHAN K
Ġcredi ble
Ġswallow ed
Ar ticle
Bo om
Cal if
Sup er
Xg AE
Ġban ned
eng aging
ĠDEC K
ĠDEC L
ĠDEC RE
Ġgra vity
Ġconside ration
Ġide as
Ġanaly zed
nBu zzfeed
nBack channels
ĠINVESTIG ATIONS
ĠPROT ECTION
2964 247
^^^^ ^\
American s
Di vision
Ġair craft
nSpe lling
nSpe aker
ĠHow ever
ĠRep resentative
nInsur gents
Ġpolitici an
ALK ING
Ġtradition al
Tra f
TIC S
run ning
run therace
Ġtemp tation
Ġtemp orary
infl uenza
Ġfle e
Ġfore knowledge
ĠSh adow
respon d
enti re
ĠDEP T
ĠMIS LEADING
ĠMIS INFO
Ġconclu de
nRef usal
nBL M
nBL UE
ARM A
Ġshare holders
7515 984
Ġ15356 68
Ġcommuni cated
Ġcentral ized
DW S
DW Yrc
Mis sile
Wk AA
aco b
put in
uclear ization
yb erspace
1067 2058
ĠAD M
ĠAD AM
ĠFU ND
Ġchi ps
Ġgover ning
4094 697
ĠPROVID ES
Ġreplace d
Ġcarry ing
058 5274
358 80
IO LENCE
Time stamp
outh piece
Ġpas ses
liz abeth
ĠCar roll
nPa trick
nHo stage
Ġheave n
ĠPRO OFS
reported ly
ĠCLEAR LY
ĠPROTECT ING
322 5317
Mon day
Mon key
UY AA
sal on
ino is
let ter
uni form
ĠSer vice
ĠSer vices
ĠSER V
9730 851
ĠMAJ OR
nCl assified
Ġsold iers
contin ues
ĠSTRE AM
!!!!!!!!!!!!!!!!!!!!!!!!!!!!!!!! !!!!!!!!!!!!!!!!!!!!!!!!!!!!!!!!
Ġfriend ly
Ġjoin ing
Bar tiro
Fire wall
Gu ardian
Sen ator
give n
launch ing
sca le
Ġthread s
Ġtool s
Ġpie ces
Ġphoto grap
Ġrepa y
ĠSPE ECH
ĠSPE LLING
rust worthy
nPain t
ERR Y
Ġsepar ation
nBlack water
Ġvol unte
7526 032
Ġ15897 40
Ġadvance d
Ġ16033 34
Ġsafegu ards
ĠSPEC IAL
ĠARTIC LE
ĠStorm y
Mid term
pat ory
pat ton
sla m
sum mer
wea ken
Ġrap ing
trio tic
alleg ation
alleg ations
Ġsymbo l
Ġsymbo ls
Ġcou p
1099 1748
1099 2036
ĠCri sis
Ġforth coming
ĠMid year
ĠInsur gency
nAM AZON
Ġwealth y
ĠRU NNING
ĠRIS E
Ġmach ine
govern ors
nsy nonyms
msnbc s
Ġmole station
Ġarri ve
ĠTRANSPARE NCY
ĠComp any
Ġsuggest ing
nStand ard
ĠTERMIN ATE
transcri pt
Ġdiscern ment
2287 348
Ma ggie
amb ia
nq z
sn opes
treat ments
Ġill icit
message s
Ġsan ctions
Ġsun set
Ġhor rifying
Ġhistor ic
nDep t
ĠBILL ION
ĠMID YEAR
Ġdece ption
Ġdepe nds
ĠEd ward
ĠYour self
Ġ15529 517
ĠREG AIN
Ġadop tion
IMIN AL
Ġsurpri se
Ġsurpri sed
disappro ve
naz ism
-------- --------
ĠInspect or
======== ========
Chi ld
COM MS
Hv U
PRES ENT
Spe ech
Uw AE
XU AE
aide s
coun tries
challenge s
Ġcam oufla
major ities
Ġoffer ing
ĠCir cle
ĠCir cuit
ĠColl usion
ĠCOV ER
ĠCOLL ECTION
ĠCOLL USION
ĠPE OC
1918 879
witness ing
Ġdeb ate
Ġdevelop ments
ĠLau ra
ĠLau fman
ANN EL
ĠEO s
ĠJUST IFY
Ġlabe led
Ġlabe ling
11084 671
Ġdisap pe
Ġdisap pointed
Ġmanip ulation
Ġterri fied
ĠBLACK OUT
CONF IRM
Ġfunction al
Ġscenari os
Ġcourage ous
Chair man
DIS INFORMATION
HO LY
Insur ance
Insur gency
Lisa Mei
Sec retary
pas ses
Ġrou ted
fede rate
Ġple asure
Ġblow ing
Ġcro oked
ĠPERSON AL
REST S
ĠMin ority
nFIRE WALLS
Ġtun ed
Ġtrou b
Ġtrou ble
nAN ONS
nIR REGULAR
ĠOW N
Ġmask s
ANON Baby
Ġsha res
Ġsha pe
nEX TREM
Ġstatis tical
Ġsucce sses
??? ?\
build ing
SPEC IAL
ĠZucker berg
Ġrecommen dation
Ġrepeated ly
7966 374
Any one
Bri ef
DEF CON
Tom Fit
hid ing
happ ens
Ġign orance
ĠERR ORS
inten ded
Ġbul let
unish ment
Ġoffen sive
109496 21
Ġrecon cile
Ġrevol ves
Ġhon ored
Ġhur t
1814 286
ĠFUCK ING
ĠDea ths
ĠMO BILE
ĠMOD EL
Ġtough er
ĠROS ENSTEIN
ĠOB TAIN
Ġprofit ing
8722 105
Ġite m
ĠEn lightenment
Ġexec uting
7556 505
7537 521
nRelations hip
promo te
Ġ15419 65
Ġoversee ing
Ġsubsi dies
8976 111
Control led
indict ments
HOM ELAND
Rudy Giuliani
Sep tember
Ti mes
cas ted
eu ver
pk g
rece ived
sep tember
Ġ1585 24
Ġinvi ted
Ġreven ue
ĠCURRENT LY
ĠSL AVE
ĠSIM P
ĠAPPR OVAL
Ġmig rants
ĠFin ancial
ĠFAMIL Y
9089 362
REN EGADE
2627 887
cienti fic
nSimp le
9830 300
Ġcondition al
distri bu
11136 641
nMON EY
Ġorgan ically
5234 560
ĠJen kins
proper ty
ĠKey stone
Ġenviron ment
Ġpartn ers
insur gency
IMIT ED
Ġassemb ly
Conne cted
17627 46
ĠORG ANIZ
FLUE NCE
supposed ly
ĠArticle s
Ġalleged ly
Ġsmu ggled
Maria Bartiro
pedophi lia
ĠCLEAN ING
integ ration
4140 1764
6146 10
Pap adopoulos
Psy chological
fis c
gae ta
hv per
nap news
oJ bM
tex as
thes un
tiff s
nQu iet
Ġ15127 00
Ġflo ors
Ġretali ation
nTom orrow
Ġhum or
ĠCab inet
ĠCarl in
ĠSil ver
ĠPi per
ĠPER IOD
espe cially
5048 60
97120 63
ĠDown er
ĠDark ness
3750 1086
nSpo oks
nSal ary
ĠBro kers
ĠBAN NED
Ġgrie vances
ĠHOP E
nHar ris
nCongrat ulations
pati ent
nMid terms
nMax ine
ĠLOC AL
Ġshap ing
nLe verage
nLay ers
Ġlis tened
Ġabor tions
intru sions
Ġsimul tane
Ġlimi ted
Ġpreten ses
ĠIND ICT
ĠINSPECT OR
8600 308
nComb at
Ġprotest ors
91236 15
fitz patrick
Ġemploye es
82515 72
76534 67
ĠMONTH S
** *\
6150 1774
6303 277
Hell o
WALK AWAY
cul patory
kir k
latch y
wedd ings
zins ki
zvins ky
Ġment or
cedu res
semi tic
righ tening
boston herald
isly ak
alja zeera
Ġpig gy
madd ow
commi tee
fici ency
nehi to
limp se
asso ci
ĠTreas ury
ĠAHE AD
estab lishment
tedlie u
ladim ir
ĠFIC TION
ĠFAIT H
97912 46
ĠDEST INATION
37593 59
nShi ft
nSim ilar
nSel f
ĠBrow n
ĠBrze zinski
Ġgrate ful
Ġdementi a
nHAPP Y
ĠRho des
newsob server
uploaded files
Ġcohab iting
ĠLim itations
ĠLia ison
Ġanxie ty
Ġunpun ished
troversi al
goog les
Ġnecessi ty
ĠEner gy
hibi tions
751646 9
nJUDGE MENT
ghisla ine
landest ine
ĠINTER FERE
ĠQUES TION
Ġdisreg arded
nUntouch able
113794 87
ODEST A
Ġhosti le
107840 96
100154 09
nnationalsecurity action
nExplo re
116924 1
miami herald
britan nica
ĠLoBion do
HouseOf Cards
Ġempane led
ĠBeij ing
JackPosobi ec
michaelbeat ty
ĠTHEMSEL VES
BreakingNL ive
DWYrc nehito
TomFit ton
MariaBartiro mo
Ġsimultane ously
$ \
& \
' ]?\
) '
) :
) )\
) ]?\
) âĢ¦.\
) ]?
+ ]\
, "
, '
. ?
. ]
. _
. ."
. âĢĵ
/ [
/ _
/ _\
0 386
0 166
0 707
0 576
0 745
2 974
2 104
2 547
2 190
3 23
3 380
3 574
3 374
3 247
3 567
3 948
3 980
3 309
4 94
4 35
4 974
4 173
4 644
4 540
4 274
4 366
4 570
4 903
4 981
4 941
4 373
4 032
4 082
5 900
5 138
5 560
5 154
5 134
5 368
5 204
5 293
5 101
6 35
6 380
6 137
6 967
6 343
6 168
6 244
7 27
7 52
7 91
7 194
7 548
7 978
7 540
7 178
7 370
7 248
7 366
7 383
7 111
7 349
7 783
8 21
8 280
8 574
8 109
8 944
8 158
8 543
8 607
8 002
9 104
9 140
9 574
9 177
9 170
9 567
9 299
9 202
9 293
9 593
9 945
: :\
= /
= /\
? _
A f
A q
A ED
A AS
A ust
A gency
A lice
A UT
A gent
A ATS
A cting
A ffili
B M
B P
B Q
B T
B V
B m
B ra
B AT
B EC
B UR
B ARR
B AB
B ASE
B ruce
B udget
B olton
C P
C i
C j
C HE
C IG
C ast
C TS
C OLL
C ASH
C rowdstrike
C URRENT
D K
D M
D h
D t
D ra
D ate
D ef
D one
D efine
D ays
D ROP
D omestic
D js
D UCT
D IVIDE
D JT
D HS
D OSSIER
D IVISION
D STRIKE
E g
E j
E o
E t
E ar
E ye
E LD
E TS
E agle
E REST
E lon
F M
F S
F g
F w
F ly
F ER
F il
F ind
F ALL
F alse
F EAR
F oundation
F ish
F lood
F raud
F lag
F OUND
F lowers
F rance
G J
G g
G REAT
G OF
G INS
G host
G UMENT
H C
H I
H P
H Q
H R
H V
H m
H o
H ome
H ING
H AND
H uman
H AVE
H ammer
H AITI
I h
I ma
I nd
I lle
I ron
I ANS
J F
J R
J S
J l
J ul
J et
J udge
J ared
K C
K at
K ED
K ING
K OW
K erry
K evin
K orean
L I
L P
L R
L V
L ee
L OW
L ap
L aw
L isten
L aunch
L IKE
L ATT
L Ww
L OBAL
M N
M f
M at
M US
M ore
M ni
M ich
M ap
M AE
M AIN
M ike
M ail
M uslim
M ANY
M ASK
M anafort
M axwell
M uh
N F
N q
N ON
N ata
N orth
N ARRATIVE
N EVER
N EED
N Pg
N ECESSARY
N arcissi
N arcissists
O ld
O ut
O IG
O per
O OL
O mar
O wr
O nReady
P F
P G
P X
P ur
P art
P ol
P ark
P lay
P DB
P ATRIOTS
P otus
P olls
P inch
P orter
Q G
Q T
Q g
Q o
Q v
Q proof
R B
R D
R M
R Y
R i
R y
R OT
R OR
R SE
R IGHT
R onald
R AP
R USS
R ITY
R OCK
S L
S X
S Z
S c
S x
S er
S ally
S im
S ave
S ex
S ince
S leep
S ite
S ecurity
S audi
S ky
S py
S OURC
S ILENT
S usan
S KI
T Q
T Z
T z
T ri
T ur
T ON
T BA
T emple
U l
U se
U AL
U GE
U CC
U KE
U ZZ
U FACT
V e
V q
V indman
W m
W ed
W rap
W ray
W eek
W ARDS
W atnick
X G
X o
X v
X y
X PH
X MAS
Y A
Y J
Y K
Y L
Y X
Y our
Y ING
Y XsAA
Z A
Z S
Z T
Z W
Z n
Z ero
[ #
[ '
[ ..
\ ",
] /\
a go
a cy
a ders
a head
a void
a eaa
b W
b n
b it
b ted
b low
b row
b ring
b illion
b att
b rother
b cbd
b ands
b ffd
b ureau
b Owr
c in
c ory
c onstitution
c fee
c dec
c fae
d v
d one
d ust
d bbc
d sw
d oug
d owns
e H
e h
e ti
e vi
e lle
e lect
e leb
e abc
e lim
e fee
e instein
f Z
f lo
f ts
f low
f reed
f arm
f dea
f cbb
f loyd
g le
g ri
g lo
g ment
g ore
g ned
g man
g ina
g ade
g rants
h R
h our
h aa
h ance
h its
h uk
h onor
h stan
h appened
i la
i ver
i der
i ca
i pped
i cate
i vers
i had
i wr
i licon
j th
j AA
j ew
j im
j ud
j ured
j udy
j fk
j okes
j dsw
k j
k in
k istan
l m
l ame
l ating
l ara
l fare
l ined
l aughter
m ot
m ys
m oting
m arker
m munition
m urder
m atthe
n b
n f
n k
n it
n be
n ay
n ated
n ses
n als
n what
n ature
n this
n they
n but
n sic
n ONE
n insider
n find
n uke
n dailycaller
n pas
n uscode
n thia
n static
n foia
o ing
o ct
o ig
o ice
o dic
o bey
p E
p Z
p in
p an
p he
p ra
p hy
p ha
p hic
p edia
p her
p licit
p tance
p iring
p ilot
p reserve
p raying
q g
q o
q s
r F
r ink
r ss
r int
r ty
r rests
r ban
s U
s d
s g
s l
s or
s co
s ong
s way
s ought
s ax
s anta
s free
s acrifice
s care
s niffer
s arah
s ystematic
t S
t ti
t US
t ut
t rou
t real
t Shelter
t jdsw
u B
u is
u ine
u ade
u sers
u omo
u Cr
v T
v v
v ak
v ings
v px
v ador
v jv
v ows
w y
w z
w ch
w he
w ed
w id
w AR
w ave
w ald
w ish
w ipe
w AAR
x c
x z
y F
y nam
y Mc
z D
z K
z Q
z h
z ation
z il
z one
z hou
Ã ©
Ġ )
Ġ q
Ġ 60
Ġ !!
Ġ LL
Ġ art
Ġ 52
Ġ 32
Ġ 43
Ġ 42
Ġ 51
Ġ ??
Ġ 300
Ġ 302
Ġ 502
Ġ lying
Ġ videos
Ġ reset
Ġ" "
Ġ" ***\
re si
re nt
re he
re gain
re lay
re gu
re tain
re signed
re lations
re cia
re present
re cogni
re tired
te ar
te le
te ed
te en
te ns
te nts
te ering
te bin
th i
th ru
th ous
in se
in direct
in fin
in put
in directly
in col
in thema
in troduce
in spector
me W
me ter
me tro
me mes
me ans
me adows
ar o
ar on
ar ity
ar ac
ar med
ar ling
ar rests
ar menia
ar tand
ta c
ta le
ta ct
ta ni
ta tions
ta sk
ta ctic
ta blaze
or ris
or cade
or ado
ti er
ti us
ti ci
ti ful
ti ming
ti fication
ou red
on ing
on er
on politics
on ion
ce nce
ce ne
ce fa
ce fb
ce cd
ce ae
ce ssive
ch or
ch ess
ch arlie
ch ristine
Ġa mb
Ġa lerts
se nd
se lling
se dition
se attle
se veral
se quently
st y
st le
st ra
st rong
st upid
st ock
st rings
st ude
st unning
st leblowers
de fa
de af
de pt
de cess
de leg
de sk
de als
de pendent
de velop
de termin
de vices
Ġth warted
co at
co ok
co ie
co ls
co verage
co lor
po tus
po tential
po licies
le n
le cts
le aking
le rated
si x
si as
si ans
si bilities
ri k
ri ve
ri sed
ri age
ri ties
ht inen
to f
to l
to tal
to morrow
da v
da ce
da mage
da cb
da ee
da cy
da ms
da fd
da mental
post ing
an H
an Q
an ted
an aly
Ġw ing
Ġw is
Ġw ra
Ġw ed
Ġw ick
Ġw ives
Ġw izards
Ġw olf
Ġw iped
xt u
15 20
15 19
15 28
15 26
15 57
15 00
15 64
15 60
15 07
15 75
15 39
15 83
15 71
15 100
15 232
our g
bo x
bo ll
bo ss
bo mb
bo ttom
tri c
tri llions
Ġ[ -
Ġ[ âĢ¦
Ġ[ \"
Ġ[ [[
arch ical
time nt
au t
au th
au gu
au sible
au tiful
is ses
is matic
is tent
is cons
is tani
al al
al ter
al one
al ong
al ler
al tern
author itative
code s
fe ab
fe af
fe bd
Ġto ll
Ġ15 11
Ġ15 39
Ġ15 124
Ġ15 140
Ġ15 193
Ġp in
Ġp res
Ġp ause
Ġp ani
Ġp anel
Ġp lacing
Ġp resence
Ġp assive
Ġp unishment
Ġo ccup
>> [
ge red
nW all
nW ire
nW ashington
nW onder
nW ATCH
nW itness
Ġb id
Ġb led
Ġb lan
Ġb unker
Ġb aby
Ġb rush
Ġb unch
at u
at y
at in
at ti
at ur
at ory
at tra
at tention
at tempts
at cliffe
un it
un ity
un known
un seal
un verified
un believable
un proven
Ġs ou
Ġs ink
Ġs od
Ġs ong
Ġs port
Ġs war
Ġs oft
Ġs niffer
Ġs cience
Ġs cat
it u
it le
it mo
it self
it ures
it arian
Ġf ro
Ġf ol
Ġf ood
Ġf reed
Ġf iled
Ġf oe
Ġf lying
Ġf rust
Ġf luent
Ġc ate
Ġc ull
Ġc rap
Ġc ards
Ġc lickbait
Ġc urious
er archical
ma d
ma ch
ma thematical
ro t
ro le
com ment
com mo
com menti
ll ings
ll usion
ll inois
Ġin cl
Ġin ject
Ġin take
Ġin fected
Ġin cite
Ġin structed
Ġin spector
Ġin dust
Ġin evi
fi gh
fi dence
fi teering
he y
he nce
he avily
he ritage
nd ocs
ter ri
20 94
20 87
20 80
20 08
20 46
20 89
20 01
20 83
20 71
20 129
20 603
20 225
13 19
13 34
13 64
13 53
13 87
13 67
13 45
13 65
13 82
13 41
13 934
13 350
13 914
ow d
ow l
Ġ] ]\
10 19
10 54
10 53
10 22
10 78
10 21
10 02
10 45
10 110
10 62
10 580
10 950
10 227
10 967
10 298
10 565
10 346
10 1096
10 992
10 086
10 8358
10 8719
Ġd ry
Ġd war
Ġd uck
Ġd ying
Ġd rug
Ġd inner
Ġd ynam
ne th
ne nd
ne ts
ne vada
ne ider
us am
Ġre si
Ġre ly
Ġre la
Ġre now
Ġre ass
Ġre org
Ġre bu
Ġre signs
Ġre jected
Ġre insta
Ġre covery
Ġre sistance
Ġre tweeted
Ġre leasing
Ġre engaging
li x
li ving
li hood
li zed
li gion
li days
as se
as king
as sess
nT ac
nT rans
nT emp
nT rip
nT uesday
nT urn
nT estimony
Ġe t
Ġe st
Ġe go
Ġe ast
Ġe mergency
ame d
Ġh our
Ġh id
Ġh ub
Ġh ards
Ġh yste
Ġh ired
Ġh ug
Ġh rs
Ġh oping
nWh ist
ĠT ed
ĠT om
ĠT ight
ĠT app
ĠT rans
ĠT WIT
ĠT IES
ĠT ransparency
ĠT YP
ĠT rue
ĠT estimony
ĠT ruth
ĠT rott
ĠT song
ĠT alal
ĠC S
ĠC ro
ĠC RE
ĠC ub
ĠC ho
ĠC ohn
ĠC onspiracy
ĠC OL
ĠC AP
ĠC ards
ĠC OST
ĠC REAT
ĠC AB
ĠC reate
ĠC URE
ĠC ell
ĠC ENS
ĠC rowdstrike
ĠC ARDS
ĠC yberspace
ra w
ra il
ra tive
ra tions
ra cle
ra dical
ra cist
ra ising
ra eli
ĠS K
ĠS U
ĠS W
ĠS ur
ĠS ally
ĠS ENT
ĠS till
ĠS aud
ĠS oci
ĠS han
ĠS AV
ĠS ky
ĠS mear
ĠS UCH
ĠS outh
ĠS EAL
ĠS cott
ĠS ystems
ĠS HELTER
ĠS EDITION
Ġy o
Ġy ield
ly graph
18 90
18 34
18 96
18 44
18 52
18 09
18 32
18 63
18 366
18 0423
Ġbe at
Ġbe loved
ĠA re
ĠA id
ĠA ction
ĠA lan
ĠA ny
ĠA my
ĠA nge
ĠA bu
ĠA FF
ĠA lly
ĠA ccess
ĠA CR
ĠA mazon
ĠA mendment
ĠA UTISTS
ĠA costa
ĠA nnounce
ĠA CTS
Ġm oral
Ġm ilitia
ĠP hi
ĠP ain
ĠP ark
ĠP ush
ĠP lace
ĠP lease
ĠP rin
ĠP eace
ĠP REV
ĠP aris
ĠP icture
12 19
12 27
12 29
12 53
12 32
12 86
12 82
12 63
12 115
12 112
12 114
12 592
12 584
12 334
12 578
res ort
res ult
res olved
es olved
16 14
16 50
16 26
16 24
16 29
16 22
16 80
16 55
16 09
16 06
16 03
16 32
16 39
16 01
16 948
ot y
ot ings
19 90
19 24
19 94
19 00
19 88
19 80
19 08
19 75
19 21
19 05
19 31
19 62
19 527
19 313
19 25226
en the
en ters
en cies
17 28
17 30
17 34
17 22
17 80
17 95
17 47
17 238
17 237
17 146
17 163
NCI L
US C
US ING
US MIL
ct ors
vi i
vi o
vi se
vi es
vi et
vi val
vi sibility
vi lian
html story
sta gram
sta ging
14 15
14 90
14 57
14 64
14 70
14 22
14 99
14 93
14 46
14 05
14 86
14 61
14 81
14 590
14 130
14 912
14 516
14 446
14 651
la b
la ve
la be
la ins
la gs
la bor
la del
la sio
ĠF our
ĠF AR
ĠF ord
ĠF ren
ĠF ollow
ĠF ORE
ĠF ish
ĠF arm
ĠF ront
ĠF raud
ĠF AST
ĠF AV
ĠF eld
ĠF iction
Ġn at
ng oing
90 20
90 38
90 36
90 53
90 70
90 04
90 07
90 06
90 69
90 43
90 130
90 915
90 947
90 980
90 998
28 15
28 10
28 97
28 37
28 98
28 70
28 74
28 46
28 63
28 83
28 71
28 277
28 708
nD A
nD r
nD ON
nD ire
nD own
nD onald
nD uring
nD NI
nD omestic
nD elta
nD igest
RE Y
RE CUS
30 34
30 00
30 67
30 09
30 31
30 45
30 62
30 49
30 900
30 162
IN ET
IN ITION
50 10
50 57
50 04
50 92
50 07
50 02
50 428
97 10
97 18
97 19
97 38
97 54
97 53
97 87
97 25
97 52
97 09
97 75
97 39
97 89
97 49
97 794
97 950
97 904
ĠD il
ĠD IG
ĠD IV
ĠD ream
ĠD ates
ĠD ick
ĠD JT
ĠD IVISION
26 20
26 12
26 26
26 24
26 94
26 53
26 55
26 39
26 21
26 31
26 79
26 174
26 575
ver ge
ver ting
ad ing
ad get
ad vance
ru mb
ci d
ci ties
ci rc
38 90
38 98
38 34
38 95
38 46
38 48
38 89
38 72
38 504
38 001
38 8082
27 90
27 58
27 96
27 64
27 60
27 66
27 04
27 93
27 68
27 07
27 76
27 86
27 708
27 706
24 96
24 54
24 64
24 84
24 68
24 07
24 34558
56 16
56 90
56 36
56 00
56 33
56 67
56 04
56 77
56 89
56 05
56 86
56 85
56 91
56 79
56 71
56 177
56 276
56 537
56 2749
36 94
36 98
36 00
36 74
36 76
36 01
36 85
36 65
36 79
36 129
Ġ( $
link s
37 19
37 27
37 29
37 87
37 09
37 06
37 21
37 89
37 518
37 540
lo gan
lo gs
lo gin
lo oks
lo ppy
nS y
nS te
nS an
nS ave
nS nowden
nS hill
nS ick
nS econ
nS pace
nS cope
nS chiff
nS ecurity
nS ICK
nS chedule
nS hell
nS andy
nS trike
nS creenshot
nS ENATE
nS orry
nS itu
94 14
94 60
94 74
94 55
94 04
94 08
94 76
94 03
94 386
94 678
58 18
58 94
58 88
58 59
58 22
58 67
58 46
58 75
58 02
58 31
58 62
58 79
58 238
58 176
58 944
58 933
nP H
nP en
nP ay
nP ak
nP age
nP AY
nP ap
nP resident
nP aul
nP ara
nP hone
nP DB
nP hase
nP ersonal
nP ickle
Ġfor ums
ĠB UR
ĠB each
ĠB ower
ĠB order
ĠB rin
ĠB lower
ĠB ell
ĠB ASE
ĠB eck
ĠB READ
ĠB olton
ĠB iblical
ĠB east
ĠB ible
ĠB akers
ĠB ULK
ĠB UIL
ĠB lasio
ill o
98 10
98 19
98 27
98 96
98 88
98 70
98 22
98 74
98 46
98 35
98 05
98 65
98 82
98 42
98 237
98 218
34 20
34 10
34 37
34 57
34 84
34 78
34 73
34 39
34 49
34 51
34 384
AT OM
ĠW AKE
ĠW ray
ĠW ARR
ĠW ife
ĠW omen
ĠW aPo
ĠW iki
ĠW atching
ĠW aters
Ġg ar
Ġg ri
Ġg ue
Ġg ift
Ġg rip
Ġg amb
Ġon to
ER TION
ER TS
ER ALLY
ER FUL
96 20
96 97
96 54
96 00
96 44
96 07
96 48
96 49
96 504
96 273
96 239
96 2320
ĠM u
ĠM is
ĠM al
ĠM IN
ĠM ED
ĠM AN
ĠM OU
ĠM ac
ĠM AKE
ĠM ake
ĠM AIN
ĠM OS
ĠM AND
ĠM any
ĠM att
ĠM arty
ĠM AKING
ĠM adness
ĠM OAB
ĠM asters
ĠM irrors
54 15
54 94
54 54
54 29
54 60
54 99
54 09
54 06
54 40
54 89
54 86
54 41
Ġde pt
Ġde leg
Ġde spi
Ġde terior
Ġde coding
Ġde codes
57 96
57 70
57 60
57 66
57 33
57 84
57 06
57 03
57 21
57 45
57 83
57 51
ĠH y
ĠH int
ĠH OM
ĠH atch
ĠH ens
ĠH im
ĠH AD
ĠH istory
ĠH old
ĠH OME
ĠH older
ĠH aspel
ĠH orner
ĠH urricane
ĠH OLLYWOOD
Ġcon sp
Ġcon cept
Ġcon tempt
Ġcon tested
Ġcon troversial
Ġcon fidence
nH ive
nH uman
nH onor
nH idden
nH ollywood
nH aving
nH IGHEST
OT U
OT AL
00 90
00 97
00 27
00 23
00 22
00 33
00 39
00 21
ur ban
nC ho
nC DC
nC lean
nC HA
nC hair
nC laim
nC ASTLE
nF ord
nF ALSE
nF ront
nF REE
nF ACE
nF OUND
nF LYNN
nF iring
nF OCUS
nF ailed
nF resh
Ġse ssions
be ri
be da
be ne
be cc
be ef
be ae
be cecb
ĠN AR
ĠN ight
ĠN el
ĠN BC
ĠN ice
ĠN ature
ĠN az
ĠN ominee
ĠI m
ĠI CE
ĠI NCLU
ĠI ngraham
ĠI llinois
ON ENT
pe c
pe ri
pe ll
pe pe
pe nding
the less
the apo
the intercept
the cary
the verge
ment ID
ke k
ke vin
88 30
88 60
88 32
88 71
88 328
88 297
88 276
88 4736
88 5992
ss ad
64 97
64 26
64 88
64 70
64 22
64 25
64 06
64 03
64 89
64 02
64 740
out come
29 10
29 19
29 97
29 33
29 35
29 374
29 258
29 253
29 9464
29 25016
Ġt weeted
nA B
nA L
nA ge
nA ss
nA cc
nA men
nA PR
nA mazon
nA bove
nA mmunition
Ġwe ake
di g
di anne
di rection
di rt
di rty
59 56
59 11
59 53
59 93
59 31
59 288
23 14
23 55
23 39
23 107
23 281
23 10523
ca ble
ca pt
nN ARRATIVE
nN EXT
nN WO
nN iki
nN XIVM
ĠR O
ĠR ing
ĠR en
ĠR ally
ĠR ING
ĠR ac
ĠR ose
ĠR ound
ĠR onald
ĠR os
ĠR OG
ĠR ise
ĠR anking
ĠR ahm
11 17
11 11
11 120
11 119
11 118
nI B
nI S
nI nd
nI LL
nI ns
nI lean
nI ndictments
nI RS
nI rregular
nI taly
il and
il ler
op hy
Ġwas te
53 15
53 20
53 10
53 18
53 25
53 52
53 92
53 39
53 253
âĢ¦ ].\
âĢ¦ âĢĿ
âĢ¦ .\"
ĠG en
ĠG ive
ĠG mail
ĠG eo
ĠG roups
ĠG ANG
ĠG ATHER
ĠG lenn
ĠG insburg
ĠG loria
âĢĻ âĢĻ
ĠO O
ĠO ver
ĠO ur
ĠO versight
Ġha ir
Ġha cks
and um
pa w
pa ges
pa cs
pa kistan
44 13
44 22
44 80
44 92
44 07
44 62
44 81
44 4272
70 56
70 88
70 87
70 66
70 52
70 78
70 73
70 75
70 40
70 89
70 49
70 71
70 334
70 370
Ġpo pe
ate ly
ate ver
ate keep
Ġpro spe
Ġpro tract
Ġpro duce
Ġpro gress
Ġpro bation
Ġpro cedures
Ġpro moting
Ġpro fiteering
ut ter
ut down
ut tx
nR ally
nR aw
nR ole
nR ussian
nR udy
nR ATS
nR esolved
nM A
nM c
nM y
nM or
nM al
nM ID
nM ack
nM ark
nM ap
nM OS
nM ASS
nM ISS
nM ental
nM CCABE
ir al
ir us
60 13
60 17
60 50
60 34
60 74
60 47
60 63
60 62
60 43
60 91
60 238
60 313
60 274
60 156
Ġme di
Ġme mor
Ġme mos
Ġme ets
ig ni
ig nty
ore tta
fa x
fa il
fa ec
fa ea
fa ac
fa bf
fa ils
fa cilities
87 98
87 23
87 80
87 46
87 65
87 79
87 227
87 924
87 918
87 3823
22 28
22 38
22 56
22 59
22 944
news om
ED A
up stream
up dated
up load
IT Q
IT ERALLY
od d
Ġi magin
Ġat titu
Ġat tire
Ġat tribut
66 94
66 25
66 55
66 93
66 86
66 85
66 51
66 81
66 900
for get
80 23
80 60
80 74
80 93
80 39
80 62
80 556
ba y
ba go
ba cd
25 14
25 30
25 27
25 56
25 23
25 52
33 16
33 28
33 37
33 23
33 22
33 35
33 958
99 28
99 36
99 37
99 57
99 33
99 31
84 36
84 34
84 23
84 93
84 32
84 72
74 14
74 58
74 34
74 96
74 87
74 52
74 06
74 85
74 62
Ġco l
Ġco re
Ġco ps
Ġco ol
Ġco oking
Ġco ordinate
mo ment
mo ke
mo bile
ĠL OT
ĠL AR
ĠL IA
ĠL ive
ĠL IV
ĠL AND
ĠL AP
ĠL ET
ĠL EGAL
ĠL esson
ĠL IMITED
ĠL ITERALLY
Ġan chor
OR OS
nB P
nB ra
nB iden
nB illion
nB aker
nB unker
nB olton
cb ss
cb ca
cb cf
cb fca
ee cb
ee ab
AR AM
AR GES
55 18
55 38
55 34
55 25
55 237
55 518
55 257
55 960
ure Drop
67 12
67 27
67 96
67 23
67 70
67 68
ec fd
Ġma th
Ġma xim
art ure
Ġhe s
Ġhe el
Ġhe aded
ab be
ab les
04 20
04 27
04 62
AN ONS
EN SE
EN EMY
\" ",
\" \"
ould n
Ġun le
Ġun it
Ġun its
Ġun official
Ġun cons
Ġun locked
Ġun constitutional
Ġun aware
Ġun sealed
Ġun expected
Ġun lawful
Ġun substanti
tro it
Ġne cklace
Ġne cessarily
93 27
93 54
93 29
93 266
Ġsh if
UW wAA
ine nt
AS ION
68 58
68 23
68 11
68 6405
Ġcom pe
Ġcom pared
Ġcom mission
Ġch an
Ġch at
Ġch ance
Ġch airman
Ġch anging
52 10
52 14
52 27
52 96
52 53
52 948
IC Y
IC ALLY
IC IE
ak en
ak hstan
ff fd
ĠE M
ĠE AR
ĠE very
ĠE LE
ĠE vent
ĠE vidence
ĠE CON
ĠE arl
ĠE YES
ĠE ducation
ĠE manuel
ĠE AGLE
ĠE phe
92 10
92 26
92 24
92 34
92 57
92 192
92 344
92 2075
92 11803
IG RAN
07 10
07 39
07 89
nE H
nE P
nE tc
nE mails
nE xtreme
of fense
of journal
of fers
dd y
dd da
Ġk it
am ing
am bo
am ination
hi erarchical
Ġgo vernments
fb is
fb be
fb bed
Ġst ing
Ġst uck
Ġst ars
Ġst udy
Ġst range
Ġsta bility
Ġsta mps
Ġsta tut
08 00
08 29
78 38
78 36
78 29
78 70
78 52
78 21
78 51
nL ET
nL oud
nL IKE
nL egal
nL amar
nL uis
2018 05
ING S
nWe ndy
73 12
73 28
73 50
73 58
73 594
73 528
73 583
cy cle
ĠU T
ĠU nse
ĠU sers
ĠU LTIMATE
09 12
06 17
06 58
06 59
06 87
76 3
76 24
76 31
76 526
76 533
03 17
03 59
side by
bb bc
Ġex it
Ġex er
Ġex por
Ġex cept
Ġex pired
Ġex oner
Ġex cessive
om y
ns wer
Ġl b
Ġl ur
nG et
nG eneral
nG UN
nG reg
nG AME
nG raham
nG owdy
nG ene
nG REEN
nG ermany
nG LOBAL
ni k
ni ta
ni tial
ni xon
95 37
95 110
por n
por tation
FO LD
FO CUS
OW DSTRIKE
Ġab sor
ul ses
AL D
AL ING
AL ERT
Ġta g
Ġta pe
Ġta sk
Ġta nge
Ġta ste
cd be
cd cb
thing s
ĠJ ose
ĠJ ason
ĠJ im
ĠJ ob
ĠJ ones
ĠJ UD
ĠJ ustify
Ġv ast
ust ody
46 37
46 88
46 91
46 5930
tes ters
Ġlo ad
Ġlo ses
Ġlo gin
75 18
75 239
75 362
75 14356
Ġwho se
Ġwho ever
48 3
48 29
48 99
48 52
48 92
nY ES
nY ahoo
nY ears
AK ED
fc fc
nJ eb
nJ apan
AC F
AC R
AC ON
AC HE
AC ATE
arge nt
eb us
eb cd
eb faf
ty pe
ho pe
ho ff
ho ok
ho ax
ho spital
pi cture
35 10
35 37
32 18
32 16
32 97
69 12
69 16
69 14
69 36
69 588
77 15
77 17
77 30
77 68
77 79
Ġfa cial
Ġfa ctions
oun ted
df de
df fa
df df
39 97
39 36
39 52
Ġso il
Ġso ber
40 36
40 66
40 8743
ĠTO CK
ac ce
ac de
ac fe
ac fc
man ded
man agement
21 18
Ġca res
Ġca red
Ġca pit
Ġca lend
89 52
89 592
47 16
47 25
47 84
47 52
47 75
47 5660
LE G
LE T
LE BL
LE TE
LE AKS
ĠâĢĺ \
nRe ve
nRe ality
nRe tweet
nRe vised
nRe peat
nRe turn
nRe location
Ġsi ght
AA j
AA s
Ġno table
Ġli ed
Ġpre ening
Ġpre pped
Ġpre vented
bc fe
ind uced
et ween
gh azi
con n
con ta
con text
con vi
con trast
con fidential
con firmation
con firms
con sidered
nO ut
nO VER
nO ffice
nO rigin
nO ngoing
pro file
pro du
pro secu
pro jected
pro secution
pro fession
cu late
cu lly
Ġmo tion
Ġmo dern
Ġmo vies
05 10
05 592
Ġla ck
Ġla test
âĢĿ "
âĢ¦âĢ¦ âĢ¦\
02 96
VE E
nNo v
ĠIN STRUCT
min us
min ister
TR A
TR ACT
TR AGE
TR UMP
af ca
af fected
86 17
86 252
Ġac ted
Ġac qu
Ġac commo
Ġ155 2018
Ġ155 194
Ġ155 240
Ġ155 363
TH OD
ae Vr
port land
ĠUS ER
Ġout comes
Ġout cry
Ġout lets
ol ina
ol ating
ol ph
45 14
45 38
45 94
45 22
45 240
ĠK ar
ĠK ate
ĠK ING
ĠK ong
ĠK EK
ĠK AV
ĠK evin
ĠK ANS
ĠK islyak
qu all
ĠV P
ĠV e
ĠV ice
ĠV ault
ĠV alley
ĠV IOLENCE
db de
Ġup rising
110 30
110 34
110 00
110 29
110 44
110 526
110 438
110 5115
110 5041
Ġdis pro
Ġdis cre
Ġdis place
Ġdis info
Ġdis respect
Ġdis crimination
ign atures
Ġvi sion
Ġvi ral
non disclosure
ĠRE LE
ĠRE SP
ĠRE MOVAL
72 18
72 28
72 38
72 24
72 94
85 59
85 137
65 56
65 36
own ership
82 15
82 28
82 38
82 57
82 11
82 3069
ens aco
63 9750
63 3864
Ġman dated
Ġman aged
Ġman euver
49 12
49 56
LAS H
Ġunder took
Ġunder neath
43 10
43 17
43 97
43 11
cf fa
im um
nU NDER
nU kraine
ull i
ull ah
Ġ20 10
Ġ20 09
Ġ20 03
Ġ20 05
pol ish
Ġpublic ation
Ġop ens
Ġop tical
Ġop posite
Ġthink ers
83 570
SE Q
SE T
SE PT
SE ARCH
bf cb
Ġimp ly
Ġimp artial
Ġimp ulses
IL IATION
Ġpri vy
91 19
91 17
arra ge
ich ert
ren cy
Ġen act
Ġen cry
Ġen ormous
OP S
Ġinvestig ates
lection s
42 12
42 90
Ġ159 27
Ġ159 287
Ġ159 147
Ġ159 346
Ġsa les
Ġsa botage
79 56
79 36
og y
temp le
temp orary
ear lier
41 13
41 18
41 150
41 159
51 13
51 16060
51 14516
fd fe
bd cc
bd bb
bd bc
can s
Ġri gging
mon d
mon itor
Ġ153 568
Ġ153 567
Ġ153 288
Ġ153 573
Ġ153 245
Ġ153 2630
ser tion
ser ted
ser vice
ser vices
ser zh
tra in
tra itor
tra cked
Ġtra veled
watch ing
tell o
ĠST AF
ĠST ATIONS
ĠST UD
ĠST ARS
ĠCh air
nCo ver
nCo vert
Ġ158 13
Ġ158 12
Ġ158 19
Ġ158 973
lay er
Ġ154 277
Ġ154 146
Ġ154 5327
Ġfe l
Ġfe ll
Ġfe tus
Ġfe lt
fox x
OV ES
sh ine
ST OP
ST ATE
ST ALL
ile y
Ġover time
Ġover ly
Ġover reach
The ir
The Great
AD A
113 7
113 1247
113 0125
gre g
nWH ITE
do omed
ĠIn fo
ĠIn formation
ĠIn stall
ĠIn visible
ND ED
no ose
no sis
ESS ENTIAL
spe ak
spe lled
spe llings
ĠTR IP
ĠTR AITORS
gu arded
gu ised
ass ange
ass assination
Ġany where
Ġspe aks
ach esla
OD NI
ber y
tain able
ĠPa ine
Ġ1550 18
Ġ1550 24
Ġ1550 60
Ġbo t
ins com
ins ula
Ġke ys
ap r
ap ters
ap point
ap ane
Ġ1588 8
Ġ1588 78
Ġ1588 77
Ġ1588 300
Ġ1588 525
ex as
ex press
ex tend
ex hib
ex istent
wee ting
ny ou
ny region
nTHE SE
nTHE IR
ral ian
SA FE
leg it
ĠTH REE
EL EC
EL ECTED
sk y
Ġsup re
Ġback ing
Ġback room
Ġ152 34
Ġ152 308
Ġ152 506
per kins
per jury
ys core
fer ing
orm ies
lis a
less ly
Ġho spital
115 2
115 9
115 8720
115 625
115 8853
Ġad vice
Ġad mi
Ġad ults
Ġad vis
ATE FUL
wor th
wor se
ĠFI ELD
ĠCON V
107 58
107 84
107 96273
107 55960
Ġvo cal
Ġte e
100 2693
100 8463
100 2643
100 14651
100 34384
mit chell
Ġdown loads
rap id
AE J
AE a
AE i
org ia
ound ing
Ġacc ordance
Ġwar ns
Ġwar locks
Ġcri tici
106 34
106 00
106 88
106 33
106 335
ĠWH IST
ĠWH ILE
ĠWH ICH
ies cence
IV AL
IV ERY
IM ES
IM IC
IM ONY
Ġce ll
âĢĤâĢĤâĢĤâĢĤâĢĤâĢĤâĢĤâĢĤâĢĤâĢĤâĢĤâĢĤâĢĤâĢĤâĢĤâĢĤ âĢĤ
âĢĤâĢĤâĢĤâĢĤâĢĤâĢĤâĢĤâĢĤâĢĤâĢĤâĢĤâĢĤâĢĤâĢĤâĢĤâĢĤ âĢĤâĢĤ
120 0
120 9
120 76
120 69
120 1236
Ġmis spelling
nIn telligence
nIn structions
Ġgood bye
by an
Ġ157 36
Ġ157 574
Ġ157 976
Ġ160 105
Ġ160 140
Ġ160 303
Ġ160 152
Ġ160 203
Ġperson ally
new ly
2020 0511
ĠFOR G
EM P
nK EK
nK KK
Ġinte gra
Ġstand by
ĠDe v
ĠDe velopment
ĠDe utsche
ĠDe laney
ĠWE INER
um ar
Ġra mp
Ġra ised
Ġra ided
nn a
os wal
val i
nCon text
nCon tin
nCon firm
nCon tact
ven atti
Ġinter rupt
Ġinter cepts
Ġgu ise
Ġgu ilt
AND A
EF F
Ġcomp rised
nEx ample
nEx ecutive
112 2995
112 3074
112 4578
sp in
sp ring
Ġpolitic ally
ath on
sign al
sign als
ĠPR AY
ĠPR IV
ĠPR OS
ĠPR OC
ĠPR OVE
ĠPR OUD
ĠPR OJECTION
114 96
114 95
114 5669
jo sh
Ġ1524 5
Ġ1524 18
Ġ1524 58
Ġ1524 70
Ġ1524 67
Ġ1524 190
Ġ1524 337
Ġindi visible
Ġdon t
000 20
Ġau dio
tor ies
Ġpur sue
cri mes
cri tically
pre vious
pre pare
pri me
pri vacy
900 2939
ĠGo ld
ĠGo vern
2019 2
ĠNOT HING
act or
act ors
act blue
Ġ1520 3
Ġ1520 594
Ġ1520 557
Ġ1520 704
Ġ1520 638
105 12
105 977
105 947
105 978
CH ANGE
CH ANNEL
We ndy
gs c
gs yan
Ġ1518 0
Ġ1518 3
Ġ1518 50
Ġ1518 38
Ġ1518 257
Ġ1518 054
AG AIN
AG ENTS
AG ROS
AG ANDA
IR ST
Re lease
Re ady
public ations
Ġro ot
Ġro lls
Ġro oms
AP ORE
AP HIC
Ġ1513 14
Ġ1513 226
Ġ1513 918
Ġins titution
Ġcre w
119 569
119 2327
app le
app lication
Ġob ject
ĠCo oper
ĠCo ats
ĠCo alition
gg y
inter sect
Ġapp les
Ġapp lication
Ġapp lications
Ġapp recia
Ġsu it
Ġsu ed
Ġcare er
vo cating
Ġqu arter
Ġqu alities
Ġ1536 3
Ġ1536 5
Ġ1536 27
Ġ1536 60
Ġ1536 08
Ġ1536 357
Ġ1536 708
Ġfollow s
Ġprior itiz
Ġ1537 56
Ġ1537 46
ray ed
NN Y
my ths
tin ues
Ġ1526 0
Ġ1526 53
Ġ1526 496
pen ded
126 13
126 92
Ġlast ing
cor robor
Ġaw aiting
Ġwant ing
Ġshe l
590 1
590 7
590 07
590 3522
sen ger
loy al
Ġplay s
Ġplay er
Ġ1564 467
Ġdi plo
Ġdi ligence
Ġ1530 20
ĠRe st
ĠRe al
ĠRe ichert
Ġfaith ful
rat cliffe
tru cture
Ġsp in
nal so
Ġ1534 00
ration al
Ġbefore hand
ict ures
Ġ1538 70
Ġ1538 60
Ġ1538 76
ace a
ace b
tle ment
tle ments
EX W
Ġsub stanti
Ġsub contract
Ġend ing
ĠIM MIN
118 6910
118 1185
IP AD
clo sure
clo pedia
net works
Ġlaw makers
avi or
avi er
ĠCOM ES
ĠCOM BAT
EAR CH
nse arch
127 59
nDe lay
nDe velop
nDe mocracy
nDe cipher
!!!!!!!! !!!!\
238 3
238 6
ian a
ian ts
over s
over throw
Ġmin iaturized
Ġsur rounded
108 0066
108 70370
974 9642
Ġoper ates
594 6
dis tance
ha sis
na il
que nt
va tican
Ġ150 960
Ġ150 964
130 23
130 87
ĠCH ARGES
304 5932
Ġass urance
Ġass ume
Ġ1515 04
Ġplace s
Ġplace ment
Ġrep resentative
ĠSH OT
Ġdefe ated
Ġdefe nder
ĠNo lan
END ANGER
237 6
book er
Ġcould n
âĢ¦âĢ¦âĢ¦âĢ¦ \
âĢ¦âĢ¦âĢ¦âĢ¦ .\
926 3
926 3495
urre ction
Ġ1523 29
Ġ1523 118
Ġ1523 316
Ġper mitted
Ġper haps
Ġper jury
Ġper petu
Ġoff set
124 1306
124 2682
277 37
277 22
277 3040
277 2439
277 0076
ĠBL UE
ĠBL IND
Ġcontin uing
ĠState ment
OST AGE
Ġ1544 0
Ġ1544 47
Ġ1544 467
906 5069
280 5214
518 1
518 920
524 7
897 7
897 27
hr tablaze
lice nses
ĠCon firmed
ĠCon yers
ĠCon servative
ĠCon sequently
ĠCon tinues
175 54
912 3
912 9177
950 4
950 7
950 8
AF TER
AF TS
large st
ret z
ret ur
ret urn
Ġ1553 53
Ġ1553 55
Ġ1553 550
Ġow ner
138 13
138 21
nHe y
ĠâĢ¦ âĢ¦\
ĠâĢ¦ âĢ¦..\
nLo cal
Con firmed
UT DOWN
ls on
ĠPo e
ĠPo litico
174 742
Ġ1600 02
116 2
116 8
116 9112
116 9138
war ns
ĠDirect ors
ARR Y
328 5
328 9
550 49
526 49
526 1217
Do S
Do es
Ġ1516 56
Ġ1516 328
Ġforeign ers
184 2740
184 2655
nPro te
nPro ject
intelligence r
Ġ1590 34
Ġ1590 60
ĠCom mander
ĠCom itatus
Ġmon day
Ġmon itored
Ġdeal ing
nFor cible
ĠCONTROL S
nV ice
nV ideo
nV oice
Ġcolle ge
915 6
DE A
DE RED
will som
men ded
men tally
ĠAT L
147 64
law yers
Ġdep ression
930 155
CLAS SIFIED
Po int
Po ssible
Po lice
Po desta
Ġ# \
Ġ1512 844
ĠFISA s
374 70
297 8
226 0
226 8
294 0
294 67
294 7705
109 54
nTo tal
oper ate
world wide
Ġrec all
247 19
ĠOR GS
ĠOR DER
ĠOR DERED
290 8
don or
don ate
don ated
Ġfin ed
Ġfin ished
Ġfin ancing
Ġinsta gram
nTR UE
560 25
ĠVOT ES
ali cious
Ġbl ank
docu mented
AB LE
CC P
media ite
veri fiable
206 60
170 20
170 2926
nImp ortance
Ġcover s
Ġcover t
nGood latte
.. ]:\
313 1
313 74
313 1643
934 6566
investig ated
investig ating
investig ators
nTra vel
nTra itors
ĠCOU RT
ĠCOU RSE
ĠAW ARENESS
173 1991
Ġset up
ĠEL IM
Ġpicture d
Ġ$ ).\
Ġru lings
chi p
Ġaction ed
ĠRo om
ĠRo yal
ĠRo berts
ĠINT EG
ĠINT EREST
Ġview ed
334 0
514 4
514 1276
EG ALLY
UN ACY
XX X
who se
who le
Ġclean se
Ġreg ular
236 3
236 4
236 7
537 3
use ofjournal
ann cou
ann igan
Ġhand led
337 2
CON TIN
PR IMARY
PR OJECTION
SC IF
nbc newyork
Ġda tes
cho logy
Ġput ting
nTH OSE
ĠPL EDGE
nPo lice
Ġdepart ments
258 9
658 2
big gest
ffe ct
ffe ctive
mm ar
reg on
Ġoffice s
1098 7910
ĠSTR ATEG
ĠSTR ATEGIC
908 2216
908 3671
548 157
ANT IFA
Ġhelp ed
227 22
556 5
FL ESS
In car
In stall
par ts
par tisan
134 24
Ġdesign ate
Ġcoll uded
nBe ing
250 9
Ex ec
sup pression
188 30
ĠMcC ar
Ġleg itimate
350 1
350 504
522 5
522 5094
522 5131
936 1
936 3
936 346
936 472
922 1
922 280
922 559
Ch rist
van na
cover s
cover t
ĠCL OCK
ĠCL AIM
ĠAS D
128 571
299 53
756 3
756 08
756 1023
756 1162
Pro tection
970 54
967 123
AMP LE
Ġrespon ding
Ġrespon sibilities
914 474
958 5
958 655
clear ly
lor able
lor ida
tr au
Ġtri al
Ġtri llion
Ġtri angle
Ġtri umph
Ġrest rain
nUn usual
Ġcomple tion
eri c
eri k
has pel
Ġref used
Ġref usal
Ġref lects
263 3643
944 2462
343 156
516 2
bri tain
fin ned
fin ance
fin ances
Ġfun ny
284 7844
284 7730
973 94
ĠDE V
ĠDE ATH
388 588
940 267
940 2538
secut ing
298 46
acc user
nmo therboard
Ġpar ts
under mine
Ġcounter intelligence
178 44
Ġstop ping
Ġexpe nding
513 9
613 3
613 082
Rep Matt
Rep Mark
mueller s
Ġ19 30
Ġ19 99
see ks
Ġ1533 15
Ġ1533 926
ĠPro cess
ĠPro jection
ĠPro paganda
ĠPro hibitions
Ġmeaning ful
596 6583
927 9
924 2
UL TRA
WH ITAKER
Ġ1517 46
Ġ1517 45
Ġ1517 85
Ġcar ries
Ġes cor
144 21
144 8466
307 96
ĠBar soomian
show ing
show ed
517 6626
tis tic
ani el
103 54
103 92
Ġdif ference
278 9525
366 60
Ġform al
Ġtravel s
Ġpopu late
sub si
sub ject
sub mit
sub marine
Ġmid night
340 441
ĠGu ang
ĠGu inea
ĠGu tier
nMis sions
Ġobtain ed
az akhstan
Ġ1552 34
Ġbro ad
Ġbro thers
Ġbro ader
232 5405
Ġprosecu tes
Ġlife bo
Ġdiscus sing
bert arian
528 00
Me To
sile nce
Ġ1580 40
Ġcla iming
Ġdist ort
Ġdist inguish
ĠTo day
ĠAR T
ĠAR GUMENT
ĠAnd res
344 09
708 90
IST RESS
Ġland scape
Ġquestion ing
documents ingle
750 5871
Ġadd s
ĠSec ret
986 29
urther more
224 4
788 7
788 9726
788 3619
AU GHT
AIT OR
Ġinten tions
135 34
1064 8
rain ed
ĠAr menia
ĠAct ors
266 17
Ġtur ns
ĠGREAT EST
878 27
Ġdemonst ration
Ġdemonst rated
916 8917
928 5
998 8982
Ġemp loyment
ĠAf ter
ĠAf rica
ĠAf raid
Ġappoint ments
MS NBC
ph il
sho oters
Ġlink ing
ĠCO INCIDE
Ġtech no
737 1635
850 2
850 7
person ally
Ġ1509 50
Ġpass word
ĠSe lect
ĠSe lling
ĠSe attle
ĠDo pey
nST OP
nSee ing
ĠGOV S
759 3759
759 9887
ka h
Ġsho cked
night s
conom y
925 2334
AGE NCY
but tal
but tons
congress man
safe ly
573 93
1119 2944
OUND S
doj s
Ġtransfer ring
Ġgener ally
Ġgener ations
Cl as
Cl ark
Cl assification
Cl intons
gun man
Ġreli ef
ĠFor ce
903 36
Ġdeci sive
nOP EN
923 1
cra ck
han op
john card
nIN FILTRATION
pr ince
ĠBe tsy
nCor relation
1120 0023
Ġmateri als
427 8743
400 06
Un related
bcd b
bcd c
fba a
iv m
ĠEN ACT
ĠEN EMIES
Ġcitiz enry
ĠAl ter
ĠAl so
507 87
ĠBO ARD
ĠBO OK
963 55
Ġans wered
ĠEX AMPLE
âĢĤâĢĤâĢĤâĢĤâĢĤâĢĤâĢĤâĢĤâĢĤâĢĤâĢĤâĢĤâĢĤâĢĤâĢĤâĢĤâĢĤâĢĤâĢĤâĢĤâĢĤâĢĤâĢĤâĢĤâĢĤâĢĤâĢĤâĢĤâĢĤâĢĤâĢĤâĢĤ âĢĤâĢĤâĢĤâĢĤâĢĤâĢĤâĢĤâĢĤâĢĤâĢĤâĢĤâĢĤâĢĤâĢĤâĢĤâĢĤâĢĤâĢĤâĢĤâĢĤâĢĤâĢĤâĢĤâĢĤ
APP ER
230 55
525 5
WE AK
counsel s
ug ged
xx xx
Ġalle gation
Ġcau sed
ĠTh anks
nDis regard
nDis guised
Ġconf usion
Ġconf used
nAl ready
nAl most
nAr my
At tempts
Se quence
cti ves
cli mate
wan ted
Ġpull ing
ĠGR ANT
ĠGR AV
ĠGR ATEFUL
ĠGR APHIC
Ġcommit ment
ĠEx plicit
Ġ15538 07
appro ved
216 25
424 2
820 0021
896 069
hand ling
pb s
play ed
Ġer ase
Ġer rors
coll apse
Ġ1519 19
Ġ1528 73
Ġ1528 86
Ġ1522 290
1096 6484
1000 9
1000 9310
nSe als
ĠMar go
nCON SPIRACY
nCON TINUE
disclo ses
Ġlegal ity
436 58
BL M
BL ACKMAIL
Ġste el
Ġdra fted
ĠCor p
ĠCor in
ĠCor si
2617 535
2617 647
nSt ring
Ġdecl ine
nBo mb
nBo ards
nBo mbs
063 58
nOr der
exp ansion
Ġentire ly
476 136
476 229
899 9886
FU wAA
FU NDED
Ġresearch ing
iss ue
Ġperi odic
1097 2547
ĠAn nie
ĠPOL ICE
ĠPOL ICY
nAs sets
Ġunde tected
Ġchar ismatic
ĠREP L
nConne ction
409 2602
Dep artment
ele communications
ĠX YZ
reve lation
reve aled
Ġsm aller
Ġharm ful
806 1432
nLook ing
Ġblind ly
426 6938
457 5
:: ::\
Dk W
VAA E
ban ned
ban ning
dcc c
har vard
Ġran ge
Ġran ked
Ġcoun ties
Ġcoun cil
1068 3601
ĠACC EPT
ĠMEM E
ĠMEM O
ĠMEM OS
Ġdele tes
nNY C
Ġpromo ted
Ġhead lines
ĠCOMM UNITY
Ġmonth ly
Ġprincip al
894 571
894 401
Ro bert
dda d
trans fer
web site
thod s
Ġ1576 38
ĠSIGN ING
279 90
2798 328
log ies
office r
hold ing
ĠControl led
070 90
459 1
796 6693
CB M
Dr q
pl ot
Ġsus picious
Ġcr ush
ĠSch midt
ĠSch ultz
ĠDEF INITION
Ġdesi re
ĠHapp ening
ĠInter national
foreign assistance
Ġcent re
interview ed
Ġsuccess ful
Ġsuccess fully
Ġ15096 55
Ġ15096 47
litici ans
736 1503
860 37
954 786
Lo st
Lo ve
ped o
ste pping
Ġdri ver
Ġdri ves
Ġretain ed
ĠTra itor
ĠAUTH ORITY
ĠPlan ned
1268 96
2804 887
2804 843
2804 728
2804 815
nPri or
nPray ing
ĠHAPP EN
nHas pel
ĠLOG S
ĠUN FOLD
ĠGov s
755 5466
755 5010
PL AY
PL ACE
block ade
dm v
nthe intercept
Ġx yz
dep loyed
dep lorable
Ġpers ua
Ġpers uade
Ġsal t
Ġsche ming
Ġsacrifice d
Ġcir c
Ġcir cus
ĠPANIC KING
1677 9
nPR O
Ġtre ach
Ġtre nding
2310 449
2310 672
Ġcandi dacy
Ġsocie tal
Ġaccept ing
Ġsurround ings
Ġparticular ly
Ar chive
Cal ler
Sh adow
bro ken
Ġpen dant
Ġpen alty
gent ina
1082 3421
1063 27
need s
1249 16
add ow
nSH OW
Ġgra de
Ġgra ve
1116 248
ĠGL ORY
ĠOUT CR
fam ilies
Ġide als
ĠLe vin
Ġanaly ze
nBu y
nGo v
Ġcapa ble
Ġcapa bilities
BIL IZE
ĠINVESTIG ATING
Ġ15997 88
sha pe
2964 303
Ġsign ers
Ġsign als
717 5039
764 3842
764 3557
764 2793
XY AE
find ings
mcca ins
Ġ13 526
threate n
Ġpsy chology
nDEF END
READ Y
Ġgrow ing
ĠME THOD
cab inet
Ġpossi bility
motion al
Ġsitu ational
Ġliber als
Ġ15327 21
Ġtradition ally
Ġinsur gent
58013 99
ĠBOOM S
Ġspiri ts
325 36
325 370
cru mbs
dfb fa
ix el
off s
Ġ1577 64
Ġpl ot
Ġpl ugged
Ġspace s
ĠAll ies
ĠAss ange
1764 595
ĠDEP END
5476 324
5476 642
Ġconclu ded
nCL OWNS
nCL OCKWORK
Ġsecret ary
nBL IND
Ġvali date
ĠKen neth
Ġvig or
ĠREC ALL
Ġ15356 69
voter fraud
Ġcommunic ating
ĠWITNESS ING
Ġtyp ical
066 1
259 9937
407 2499
Bill C
CR IMINAL
DW uttx
EV l
Le an
Le htinen
Mis sion
NAT SEC
Wk AE
YOU R
dra gonfly
umb nail
yal ty
ref use
stop ped
rich ard
Ġwa ves
Ġfig ures
Ġframe d
Ġinf rastructure
ndict ment
ĠPRE P
ĠPREVENT ED
1790 063
ĠDIS INFORMATION
ĠHo tel
nCOM MS
nCOM PARE
open secrets
Ġhealth y
4094 606
Ġ15436 37
âĢ¦âĢ¦âĢ¦âĢ¦âĢ¦âĢ¦ âĢ¦.\
Politic al
Ġmaintain ed
emb ed
Ġreference s
Ġ15126 94
nWith out
Ġsyste matically
Ġinform ant
Ġregu lated
ĠSO LE
Ġiso late
ĠAd visor
ĠAra b
ĠPen nsylvania
ĠPen insula
ĠPru itt
1228 489
2434 543
nPa triotism
ĠWR WY
nHo pe
OND ERFUL
5224 96
5224 943
ĠJeff rey
Ġvari able
7536 175
Ġsol utions
acti vate
acti vated
acti vity
nRemo ved
1106 7052
ĠChrist opher
Ġ15228 80
Ġ15228 74
Ġparti ally
Ġparti cipa
Ġbrief ings
ĠREPUBLIC AN
056 57766
322 54
624 28
Mon th
UY S
bba fe
fund s
fund ing
fund raiser
frie nds
lin ing
Ġur ge
Ġur gency
Ġur gent
Ġ1587 140
uni versity
Ġcab al
ĠTi beri
ĠTur gal
ĠANY THING
ĠFED ERAL
9090 122
9090 923
3093 270
ĠDEL AY
Ġdef lect
Ġdef ault
base ment
conne ction
conne ctions
contin ued
Ġacce pted
Ġacce lerated
follow ing
11067 747
Ġdiscover ing
Ġimpeach ed
ĠChris ti
Ġ16027 78
ĠGOOG LE
ĠSECUR ING
Ġextra ct
Ġextra dition
Ġextra ordinary
resenta tives
799 1220
890 74
Bar ack
Big ly
Big ger
Fire fox
Gu ide
Har ris
Li bs
May or
SO ON
Watch ing
gor ized
insta lled
orse y
Ġ1541 18
tern ity
ĠTEST IMONY
ĠSPE AKER
espon ding
ĠDOM AIN
ĠDROP S
3815 97
3815 64
Ġgather ings
5704 151
bell ion
2950 600
nBad ge
cbs local
ĠKILL S
Ġaccu ser
15056 2661
naly sis
regular ities
Ġengine er
Ġappear ances
Ġdistribu te
529 35
BIG GER
Mid year
Mid night
gins burg
nX i
nj meW
Ġrap ed
Ġrap idly
republic ans
tax payer
Ġagg ra
star buck
decl aration
col um
Ġtherap ist
Ġtherap ists
alleg ing
Ġpaw n
Ġpick ed
Ġbur ned
Ġsla ve
Ġfile s
terror ist
terror ism
ĠShe a
1434 062
1444 682
1444 808
1448 140
1448 537
ĠDON ATE
2634 794
5628 42
ĠIP s
ĠIP hone
ONSTR UCT
Ġtreason ous
nAP ART
nAny one
5996 14
nReg ime
nMar tial
8736 100
nLOG IC
9556 56
9556 41
Ġarri ved
Ġarri val
10016 273
10597 679
ĠIMM IGRAN
10864 179
econom ic
adam goldman
ĠTERMIN ATION
ĠTERMIN ATED
explo re
explo de
664 06
929 9777
CK M
CL OWNS
Dc Z
GO OG
SY STEM
Whi le
bus inesses
fdc f
hur ricane
hate ver
nZ ERO
normal ize
tre nd
Ġill usion
Ġachie ved
nQues tions
Ġsan ction
Ġsan ctuary
Ġfre qu
Ġcy ber
1028 408743
Ġhor ror
1803 16
viole nt
Ġnorm ies
9014 560
2817 197
REG AIN
REM EMBER
ĠDa ily
2770 117
nPlay book
ĠMc Master
Ġdece ive
Ġdepe nd
Ġdepe nding
Ġdecla re
Ġconse nsual
nFire works
dif ference
2326 287
ĠRIG GING
ophi les
8743 5998
Ġatten ded
Ġuni form
Ġchain s
5257 078
Ġstatu te
nLea k
nLea ks
5117 543
Ġadop t
10770 198
naz i
naz is
SPY ING
6976 144
âĢĶâĢĶâĢĶâĢĶâĢĶâĢĶâĢĶâĢĶâĢĶâĢĶ âĢĶ-\
âĢĶâĢĶâĢĶâĢĶâĢĶâĢĶâĢĶâĢĶâĢĶâĢĶ âĢĵ\
9378 157
9378 645
ĠEXP OSURE
AID S
Du J
GW V
HY VEE
Pre decess
PRES IDENT
Republic ans
Spe aker
agree ment
coun ties
nx ivm
prom inent
arre ll
Ġali gned
dead ly
design ated
Ġ1549 984
1057 113
1035 1032
nell ie
ĠCouncil man
ĠSpe nding
ĠAir port
nDist raction
nDist ract
nDist ractions
nShow time
ĠBAIT ED
Ġdeb unk
Ġdevelop ment
Ġdescri bed
nCR OSS
nAn ne
Ġneg ated
nEVERY THING
7527 533
nRemain der
ĠKing dom
Ġvicti m
Ġmanip ulating
nKey word
Ġappare ntly
ETT ING
$$$ ,$$$
ĠARM Y
Ġempha si
Ġcivi lization
nCOMM AND
Ġpractice s
422 15
9184 301
CO ORDINATED
Mo vie
UND ME
ene mies
Ġtext ing
defe nd
Ġwri ting
aust ralia
iso lated
Ġrespe cted
ĠCa pital
ĠCy nthia
ĠCHE ATED
ĠSUB VERS
ĠSOURC ES
ĠAmb assador
Ġmatch es
1915 880
9012 303
2805 130
2805 156
3888 22
9464 56
9468 613
5800 566
5800 988
ĠBen ghazi
nAN ALYZ
nNEW S
nIR ON
ĠOW NED
4416 5029
ĠLog ic
ĠLog ically
5550 547
OUN TS
Ġking dom
Ġstatis tics
7359 370
73584 30
Ġexpen se
Ġexecu tives
Ġsovere ignty
cum ba
7214 82
7214 979
9112 106
Ġsucce ed
Ġdivi sions
8982 146
Ġsurvi ve
Ġsurvi vors
54766 15
ĠRothschild s
ULT URE
Ġvalid ity
Daily Caller
ĠRELIG IOUS
9194 23
Ass oci
Juli an
KV wAAR
Mc Master
Spo ok
aq tUS
dri ve
san ders
sun g
ĠERR OR
resign ations
Ġamp lified
strate gy
1589 52
psy ch
psy chological
Ġbul lets
Ġinfe rior
1314 29374
1393 295
1046 2376
1065 10034384
Ġdream s
Ġreci ted
Ġreci pient
liber al
Ġem power
ĠSex ually
1814 299
1825 27
Ġbelong s
1472 580
ĠFEED ERS
2867 131429374
ATIC ALLY
ĠMO BILIZE
nCar ol
nAnti cipated
23119 80
ĠROS ATOM
Ġite ms
9238 347
Ġtable ts
nRelations hips
promo tes
ĠVI EW
ĠVI OL
Ġarti facts
ĠRETUR NED
5120 32
ĠInvestig ation
Ġsuppress ing
Ġadmit s
10618 114
medic ine
Ġsubsi di
ĠCOMP LETE
10838 075
27614 27
27614 74
ĠOPP ONENT
ĠCOORD INATION
ĠRECORD S
Ġportray ed
7547 44165029
7560 746
7643 247
Ange l
CAP E
GV g
Ga etz
Joh nBrennan
Ke yscore
Lynch Tarmac
MM zl
OFF ICIAL
Sm all
Step hen
Ty ranny
doll ar
dism iss
fas cist
nat ural
wild fires
Ġque ll
repar ations
Ġpa triotism
Ġsqu are
Ġcur rency
comb at
103733 514
Ġrecogni zing
Ġhun g
Ġhun ted
ĠChe ck
ĠCol umb
ĠShow ers
ĠStep hanop
17644 53
9033 161
9033 572
90114 82
ĠDR AFTS
ĠDig ital
2633 258
2745 58
2425 560
9443 193
ĠBart on
ĠWed nesday
9605 242
ĠMary land
Ġdetermin es
nFail ure
Ġsevere ly
ĠImp eachment
8848 58
8848 33
11130 372
ĠOf ficials
Ġ-- >
Ġprog ression
Ġprog ressive
Ġanim al
Ġanim als
ORN EY
abor ation
ĠEFF ICIE
Ġwithdra w
Ġwithdra wal
Ġsto cking
nJan uary
ĠYEAR S
4093 224
AAG XPH
Ġmobili ze
ĠINS ERTION
ĠINV ASION
THINK ING
Ġprivile ged
ĠCONN ECT
ĠALLEG ATIONS
ĠALLEG IANCE
Ġcompone nt
Ġcompone nts
1123 269
Ġ151805 37
11803 90
5943 535
5508 181
19836 63
Ġlegis lation
ĠUPD ATE
ĠUPD ATES
Ġstruct ural
ĠLEAD ERS
Attack s
dicta bly
ĠSuper micro
ĠACTIV ATED
ĠACTIV ITIES
Soccer m
Steve Scal
ĠGENERAL S
0206 161
5973 29
Acti vities
Bj Sc
COUN TRY
DIR TY
Fin ally
Fund s
Lea ks
Plan ned
PUT IN
aS d
brain washed
emer ging
grow ing
ncon firm
phi a
sar gsyan
squ are
sleep ers
infiltra te
aran teed
argu ments
destroy ed
riff in
ano i
1582 23
Ġ15286 90
Ġped o
Ġplain tiffs
Ġpipe line
nWR WY
Ġsin ister
max well
robby starbuck
ndis covered
1055 967
10974 389
nTe mps
Ġhundred s
ĠCARE FULLY
18227 27
19157 74
ĠFun eral
9732 365
ĠDEN IED
2616 942
26177 44
cias useofjournal
nSP OOK
nSup er
3406 95
Ġgan gs
ĠMatthe ws
Ġdeny ing
Ġconso lation
pend itures
2925 189
ĠRu le
ĠRAC HEL
Ġproto cols
nRub ber
8758 27
22984 10
ĠLew is
nBUILD ING
Ġassign ment
9397 872
93948 15
Ġche at
ĠEar th
nEvent s
offen sive
Ġexh aust
omar osa
3224 486
ĠVeg as
110450 57
Ġdisgu ise
Ġimple ment
Ġenab ling
Ġ15924 36
Ġuti lized
Ġaccus ation
mpath iz
TERMIN ATION
8988 292
5248 193
52479 57
8978 368
Docu mentID
nForce ful
nVi sibility
magaz ine
ĠRoth child
51413 23
Ġregister ing
236296 0
nRETUR N
Ġtechn ically
ĠBelie ve
ĠIsla mic
ĠSIGNIFIC ANCE
Ġcircum vent
ĠLevel s
individu als
ĠMISS ILES
weapon ized
Ġprecise ly
Ġimprison ment
4127 84
9566 740
Bin ney
COR P
Dig ital
MAJ ORITY
eP no
qG GVg
wrong doing
zs xtu
inform ant
arant ine
separ ate
lestin ians
dani el
veni ent
Ġ1575 30
Ġpedd ling
Ġinef ficiency
Ġincapa ble
13912 98
Ġrein force
nTal king
Ġed its
Ġevol ve
ĠTri llion
ĠCANDID ATE
rachel chandler
ĠSEL FLESS
ĠSold ier
1842 592
ĠANN OU
ĠActi vate
ĠPUS HED
ĠPAR TS
1687 9606
vir ginia
ĠFOCUS ED
9078 239
97328 89
ĠDani els
3885 28
nSpar row
nSeri ous
nPh ones
nPREVENT ION
Ġglo be
ĠMK ULTRA
ĠMel issa
ĠMUR KOW
ĠMILL IONS
ĠHer ring
nHea vy
nHel p
nCORRUP TION
ĠNet work
idd ler
29508 20
nAust ria
nAPPOINT MENT
59304 21
nNe cessary
nIgn orance
ĠOU TS
nMAY day
Ġattribu tion
modi fy
ĠLAU NCH
Ġasser tive
ENTR AL
Ġneut ral
nEd ward
Ġkno ck
nLIB ERAL
Ġexemp tion
Ġexternal ization
Ġloose ly
7517 509
Ġprepar ing
ghan istan
proceed ings
Ġmoti vated
VEHIC LE
Ġsavi or
11580 14
Ġadminist rative
10773 246
Ġteen age
Ġcen ters
EMPL OY
Ġaudi ence
201903 13
105963 16
sugges ted
Ġdimin ish
ictor ia
29658 95
52482 13
89766 11
ĠConne ction
ĠCommer ce
Ġtranscri pts
extrem ism
ĠIDENT IFIED
26010 52
ĠGuatemal a
106684 33
Ġdistur b
109672 34
Ġbetray ed
Ġphotograp hed
Ġvolunte er
patton oswal
Ġcamoufla ge
nEXTREM E
ĠSIMP LY
ĠSilver man
ĠINDICT MENTS
associ ate
ĠINTERFERE NCE
5293 564
6137 96
8944 67
Affili ate
BAB Y
Djs njmeW
GOF UNDME
HAND S
Lap top
LATT E
Mni BjSc
Narcissi st
Pinch uk
RUSS IAN
UCC I
[.. .
brow se
haa retz
huk ov
jth nx
npas tebin
praying medic
tjdsw qGGVg
uCr A
vjv zsxtu
wy vjvzsxtu
wid th
yMc Vq
incol n
inthema trixxx
arac ters
artand history
charlie kirk
desk top
determin ed
cook ies
Ġwis dom
Ġwed ding
Ġwick ed
iscons in
altern ate
Ġpani cking
Ġoccup ants
Ġbid der
atur day
Ġsod omy
Ġsport ing
Ġswar m
Ġscat tered
Ġcate gorized
commenti sfree
Ġincl ine
10580 991
10565 54
101096 71
10086 70
Ġdwar f
Ġdynam ic
neider man
Ġrela tive
Ġrenow ned
Ġhyste ria
ĠTsong as
ĠCRE ATE
ĠCOST S
ĠCAB INET
ĠCENS US
ĠSENT ENCE
ĠShan ghai
ĠSAV ING
ĠSEAL ED
18366 21
180423 1201236
ĠAFF ILIATION
ĠACR OSS
ĠPain ter
ĠPrin ciple
12115 60
12114 93
12334 58
19313 88
17146 30
14446 32
labe led
ladel phia
ĠFren ch
ĠFORE VER
ĠFAV OR
90130 27
90947 66
90980 44
RECUS AL
30900 8899
ĠDil ution
27706 54
56177 24
94386 56
ĠBUR IED
ĠBeck er
ĠBUIL T
ĠWiki Leaks
96504 10
962320 823069
ĠMED ICAL
ĠMAN UFACT
ĠMOU TH
ĠMAIN TAIN
Ġdeterior ate
ĠHens arling
nCho ice
nFACE BOOK
nFOUND ATION
ĠNel son
theapo thecary
88328 82
64740 25
29253 98
nAPR IL
Ġweake ned
23107 20
capt ured
nILL EGAL
nIlean a
5325 292
âĢ¦âĢĿ ]\
ĠGATHER ING
Ġprospe rity
nMID TERM
60313 62
87924 65
Ġattitu des
Ġattribut ing
ĠLAR GEST
ĠLIA BILITY
ĠLAP TOP
ARAM UCCI
Ġmaxim um
Ġuncons cious
Ġunsubstanti ated
ĠELE MENTS
ĠEphe sians
Ġstatut ory
73594 08
76526 92
76533 16
sideby side
95110 97
69588 44
Ġcapit ulation
Ġcalend ar
475660 518920
produ cts
profession als
05592 2636
Ġacqu iescence
Ġaccommo dation
aeVr MniBjSc
45240 30
ĠKANS AS
85137 989
ensaco la
639750 689
nUNDER STAND
41150 84
ĠSTAF F
ĠSTUD IO
achesla v
appoint ment
apane se
Ġadmi ration
10796273 940267
mitchell vii
Ġcritici zed
106335 15
ĠWHIST LEBL
nContin ue
1192327 52
Ġapprecia tive
ĠIMMIN ENT
Ġassurance s
1241306 98
5261217 12
willsom mer
ĠINTEG RITY
anncou lter
ĠSTRATEG Y
RepMatt Gaetz
RepMark Meadows
ĠGuang zhou
ĠGutier rez
MeTo o
ĠCOINCIDE NCES
johncard illo
ĠGRAV ITY
Ġpersua sion
ĠOUTCR Y
ĠMETHOD S
DWuttx KVwAAR
Ġparticipa te
ĠIMMIGRAN TS
adamgoldman NYT
1028408743 309008899
Predecess or
$$$,$$$ ,$$$
ĠSUBVERS IVE
nANALYZ E
aqtUS Jc
106510034384 6031362
754744165029 565
MMzl YX
ĠEFFICIE NCY
SteveScal ise
ĠMURKOW SKI
pattonoswal t
1804231201236 55
DWuttxKVwAAR aSd
! )
! .
! ),
! âĢĿ\
# #
# #\
% +
% \
& \"
' ]\
' âĢ¦.
( -
) ][
) ?"
) âĢĶâĢĶ
) >\
) _\
) ],
+ )
+ [
+ ?\
, _
, âĢĻ
- ?[
. ]\
. âĢĻ
. )?\
. âĢĻ\
/ +
/ @
/ .\
0 93
0 107
0 194
0 906
0 136
0 140
0 147
0 947
0 204
0 269
0 704
0 546
0 706
0 387
0 244
0 985
0 179
0 563
0 988
0 993
0 502
0 221
0 888
0 606
0 601
1 177
1 170
1 173
2 568
2 109
2 177
2 146
2 306
2 203
2 133
3 138
3 592
3 276
3 504
3 173
3 977
3 386
3 947
3 270
3 240
3 540
3 388
3 167
3 307
3 193
3 367
3 155
3 185
3 988
3 292
3 264
3 989
3 360
3 962
3 18316
4 11
4 198
4 584
4 308
4 904
4 970
4 564
4 535
4 166
4 273
4 960
4 546
4 603
4 946
4 387
4 569
4 2013
4 233
4 333
4 231
4 673
4 132
4 702
4 849
4 886
4 5476
4 777
4 772
4 12952
4 16779
5 110
5 106
5 140
5 109
5 177
5 170
5 137
5 302
5 303
5 978
5 593
5 367
5 196
5 348
5 345
5 2310
6 580
6 108
6 136
6 175
6 584
6 544
6 644
6 183
6 944
6 129
6 704
6 193
6 166
6 153
6 196
6 546
6 603
6 545
6 595
6 981
6 371
6 111
6 268
6 385
6 243
6 279
6 609
6 921
6 17020
7 150
7 906
7 136
7 574
7 189
7 177
7 904
7 967
7 508
7 204
7 593
7 704
7 365
7 542
7 244
7 935
7 346
7 333
7 141
7 647
7 582
7 521
7 30480
8 106
8 974
8 136
8 138
8 584
8 544
8 188
8 967
8 644
8 388
8 940
8 260
8 201
8 367
8 208
8 273
8 943
8 447
8 586
8 964
8 305
8 573
8 608
8 446
8 599
8 301
8 902
8 321
8 1249
8 172
9 380
9 547
9 277
9 136
9 247
9 143
9 134
9 907
9 168
9 542
9 565
: [
; )"
> /
> (-
? ?\
? /\
? ]?\
? ][
? )?\
? ]?
A O
A j
A u
A w
A x
A ra
A mG
A ER
A ir
A pp
A EC
A EW
A mber
A EL
A IR
A IP
A bu
A pr
A sia
A sked
A pril
A manda
A nalysis
B f
B g
B l
B q
B v
B z
B ge
B ro
B ow
B la
B ad
B ED
B ES
B AS
B ran
B ID
B AA
B el
B ueller
B BC
B BE
B atter
B DC
B AF
B RI
B rit
B usiness
B RAIN
B ODY
B lu
B ottom
B locked
B iblical
B UILD
B ert
B efore
B ORN
B aS
B ecause
B tk
B achmann
B etween
C I
C Y
C c
C our
C us
C ame
C ome
C AR
C ity
C of
C OW
C LE
C are
C ounter
C IP
C ounsel
C ole
C FF
C NBC
C onstitution
C DB
C ORRUP
C alifornia
C ounts
C ouncil
C onstitutional
C tw
C ENSOR
C ANDID
C LEAR
C REC
C ampa
C EFF
C ARRY
D v
D w
D ow
D la
D AN
D ist
D AA
D et
D nO
D ark
D el
D AD
D AM
D UB
D nK
D ron
D comms
D nV
D IRECT
D RAIN
D FT
D dca
D elta
D EPT
D nj
D fk
D MP
D xn
D eath
D HQ
D aniel
E e
E i
E l
E q
E r
E AC
E ast
E mer
E RED
E AD
E du
E ach
E EL
E BC
E IVE
E lls
E mergency
E ATH
E BD
E QUAL
E zra
E ngine
E ducation
E llison
E conomy
F Z
F i
F l
F s
F u
F z
F un
F ct
F ED
F ee
F AR
F AK
F ast
F IGHT
F ans
F isa
F ECT
F lynn
F lower
F MS
F BB
F ather
F eed
F amily
F lake
F EGUARD
F USION
F inal
F AMIL
F AAB
F lash
F INALLY
F IRED
F aith
F UTURE
F IRST
F urthermore
G B
G M
G X
G Y
G d
G e
G x
G y
G z
G et
G reg
G old
G irl
G UARD
G erman
G Wo
G raham
G lobal
G MAIL
G rr
G race
G CHQ
G ardens
G etting
G insburg
G hislaine
G PO
G INNING
G UYS
H U
H a
H d
H i
H x
H ot
H US
H IN
H ER
H OT
H ea
H IS
H IG
H ear
H ATE
H IVE
H UN
H ob
H old
H OOD
H appy
H anded
H unter
H UNT
H orowitz
H orse
H ollywood
H ote
H older
H aspel
H IGHEST
H assan
H ospital
H zK
I H
I a
I c
I d
I g
I k
I m
I o
I r
I AT
I EW
I ANT
I ENTS
I raq
I wAR
J M
J Q
J V
J X
J o
J r
J u
J er
J en
J OU
J ason
J UST
J ACK
J ail
J IZ
J AH
J arrett
J esus
K H
K M
K P
K a
K f
K q
K x
K ing
K en
K EL
K IM
K NEW
K yle
K lk
K INS
K BM
L K
L O
L f
L v
L ink
L es
L US
L AT
L ate
L arge
L ord
L ight
L AIN
L OG
L IVE
L ECTION
L ECT
L OCK
L ess
L OME
L OND
L OSURE
L vk
L IMIT
M F
M T
M Z
M q
M s
M u
M er
M ad
M ut
M ind
M IA
M AY
M other
M OST
M ORE
M atters
M any
M EA
M ICAL
M ADE
M ultiple
M erry
M ATTER
M WAA
M olly
M GL
M ISS
M arkers
M EMBER
M Ds
M ouaz
M BRELLA
M LN
M eeting
M orris
M Hd
N B
N H
N c
N e
N f
N h
N l
N n
N at
N go
N one
N SC
N iv
N FU
N ix
N etherlands
O E
O ri
O nce
O ING
O no
O LY
O ath
O pen
O OTS
O ctober
O wl
O riginal
O racle
P U
P W
P e
P f
P l
P op
P ED
P OR
P ay
P ic
P ak
P AK
P ush
P ass
P SA
P EL
P su
P ort
P ART
P ET
P ECT
P ale
P eace
P AST
P RESS
P DT
P XQ
P ICT
P OSSIBLE
P OSURE
P OLITICAL
P ACKAGE
Q A
Q V
Q Z
Q d
Q t
Q ING
Q The
Q AE
Q ara
Q Ar
Q Storm
Q atar
R X
R d
R l
R t
R es
R AT
R and
R up
R ay
R ae
R iz
R ich
R AY
R ion
R um
R OC
R UN
R econcile
R yan
R MS
R ats
R ock
R Xk
R IMIN
R AID
R uth
R iso
R HJ
R xg
R uns
R ogue
R RESTS
R atcliffe
R esponding
R HzK
S I
S V
S u
S an
S un
S he
S ame
S ER
S ur
S IT
S am
S pi
S ID
S aa
S tu
S IGHT
S ound
S CH
S aw
S imp
S IGN
S UN
S cho
S RI
S OME
S han
S ather
S ICK
S yria
S mith
S UwAA
S eek
S unday
S cott
S ignal
S nopes
S HELTER
S ilicon
S moke
S quall
S tories
T K
T a
T x
T er
T en
T op
T AR
T ea
T one
T ry
T im
T ower
T WIT
T EK
T Ws
T iming
T EXT
T AX
T aco
T ucker
T ODAY
T NZ
T WEET
T pZ
T EMP
U I
U O
U Z
U g
U k
U LL
U RED
U TER
U pon
U GUST
V C
V F
V K
V R
V j
V n
V t
V IP
V ICE
V ARD
V ox
V cAA
V atican
V io
V erified
V dw
V alerie
V ladimir
W B
W C
W D
W L
W N
W Q
W T
W X
W g
W y
W al
W iz
W AKE
W ash
W ald
W inter
W atters
W ARD
W ife
W ars
W EE
W ELL
W ATCH
W HEN
W hid
W INNING
W olff
W anted
W hatever
X r
X BOX
Y H
Y M
Y a
Y j
Y k
Y o
Y u
Y x
Y Cb
Y AA
Y et
Y OP
Y ates
Y esterday
Y fac
Y ahoo
Y vk
Z J
Z w
Z eb
Z TE
Z ej
[ ]
] )
] >
] .âĢĿ
] >\
] >>>
] *\
] âĢ¦âĢ¦âĢ¦
_ #
_ (
a K
a V
a ps
a ma
a pe
a mo
a thing
a pol
a ren
a val
a gg
a ha
a its
a fort
a eff
a ali
a cies
a ffb
a lert
a cdf
a cist
a mos
a acf
a lerts
a waken
b F
b G
b U
b V
b Y
b h
b z
b on
b ally
b ran
b ust
b ry
b ush
b ara
b bab
b bec
b ced
b fff
b server
b unker
b ki
b XYAA
b ronfman
b Nk
b wN
b inding
b arrage
c A
c G
c n
c x
c si
c one
c ant
c lip
c als
c arr
c ause
c ators
c arm
c feb
c ffb
c ats
c rop
c fff
c bee
c run
c ounts
c adf
c ouncil
c DT
c pf
c ussions
c Es
c landestine
c ustody
d H
d g
d j
d p
d in
d ou
d bab
d rip
d beb
d ouble
d fbb
d bbf
d riving
d rugs
d unk
d owd
d orsey
e M
e Q
e ci
e der
e AE
e val
e nds
e bab
e baf
e edd
e adb
e faf
e edb
e fac
e abb
e mine
e motional
f g
f m
f v
f re
f red
f ting
f lip
f fort
f light
f ury
f lood
f baf
f dec
f loor
f lying
f adc
f cbc
f peace
f fered
f inger
f tist
f ledged
f arrakhan
f ringe
f rightening
f LWw
f lix
f FMS
g D
g N
g P
g c
g m
g q
g r
g t
g w
g de
g ge
g ay
g ary
g ist
g ical
g ime
g ag
g raphic
g az
g ric
g rant
g rass
g ranted
g irls
g aby
g limpse
g nosis
g iants
g Fct
g bwN
h c
h h
h z
h or
h al
h ub
h all
h ous
h VE
h ren
h ler
h ines
h uber
h uen
h irs
h usband
h opes
h undred
h mert
h ophy
h annigan
i I
i Y
i q
i site
i ru
i mo
i of
i ser
i bility
i que
i ris
i tation
i rish
i wash
i huen
j M
j P
j c
j g
j j
j r
j y
j our
j un
j er
j om
j ali
j ug
j uli
j urisdiction
j arret
j av
j ski
j len
k F
k P
k T
k X
k Z
k c
k k
k ri
k ore
k ay
k AA
k ok
k gre
k SA
k ids
k rem
k orean
k MA
k ansas
k iller
k Rxg
l L
l N
l S
l p
l it
l ant
l ous
l ory
l den
l sh
l pR
l ittle
l itch
l arry
m I
m P
m X
m Y
m c
m h
m q
m bo
m art
m ni
m atch
m ilit
m usse
m ik
m ichae
m ize
m att
m arty
m irror
m nx
m nick
m Bs
m Mf
m vT
n l
n in
n de
n post
n un
n ct
n for
n ye
n OU
n of
n very
n ast
n non
n oh
n are
n ake
n ins
n pre
n app
n that
n with
n aw
n hill
n cs
n def
n people
n ug
n human
n web
n ATT
n black
n bank
n dead
n thread
n itude
n virus
n voat
n heavy
n ukes
n arrow
n nymag
n thinkprogress
n click
n ATTACKS
n visit
n civil
n fitzpatrick
n metro
n aut
n kek
o st
o co
o fe
o it
o ly
o es
o the
o ke
o ss
o int
o AA
o gh
o sh
o van
o ats
o tage
o ah
o ccup
p G
p I
p L
p n
p q
p ti
p board
p es
p ill
p tic
p pe
p one
p mb
p rou
p rus
p ute
p wr
p ics
p james
p unish
p resence
p allets
p Sx
q K
q X
q a
q p
q v
q ani
q dm
q proof
q FW
q FEAR
r Q
r T
r b
r m
r li
r ary
r ren
r ussi
r ines
r gy
r nc
r web
r florida
r hon
r Graphic
s L
s th
s ke
s ons
s sed
s AA
s cre
s LD
s amp
s und
s hed
s lated
s nowden
s late
s hel
s mid
s audi
s chedule
s lush
s outh
s atan
s mann
s timated
s cott
s helter
s lander
s ounds
s witch
s crambling
s cientific
s cumba
s TEK
t C
t G
t R
t X
t led
t ory
t ry
t ors
t ting
t ree
t How
t bur
t une
t armac
t rey
t doc
t traitor
t Associ
t Nl
u w
u z
u be
u pa
u ous
u lie
u sen
u its
u mbers
u tee
u ries
u lates
u fficient
u ania
u topian
u ffed
u HI
u sias
u atu
v F
v W
v d
v n
v r
v u
v ul
v As
v okes
v XsAE
w H
w J
w P
w Q
w g
w j
w q
w co
w en
w ut
w times
w AE
w atter
w abe
w ife
w ai
w hel
w ield
w ix
w indow
w rote
w artz
w olff
w isconsin
x C
x E
x P
x X
x p
x v
x w
x Jq
x ic
x ious
x ico
x YE
y B
y S
y Y
y d
y j
y t
y ce
y da
y ard
y ra
y ad
y ong
y ap
y sen
y patriot
y Jordan
y corrupt
y arn
y rian
y ranny
y lizz
y acheslav
y NFU
y gD
y rgy
z I
z V
z f
z is
z ue
z hen
z man
z et
z iz
z ie
z os
z ech
z ik
z ucker
z pf
z XW
z BT
z Eo
Â §
Â °
Â ·
Ã ¡
Ġ .\
Ġ ing
Ġ ll
Ġ ly
Ġ 97
Ġ 26
Ġ 98
Ġ 34
Ġ id
Ġ 87
Ġ 80
Ġ 74
Ġ 55
Ġ ves
Ġ 73
Ġ 76
Ġ 75
Ġ 39
Ġ 45
Ġ 65
Ġ 49
Ġ 41
Ġ row
Ġ 247
Ġ ..
Ġ 146
Ġ 303
Ġ 145
Ġ 0600
Ġ ^\
Ġ ^^\
Ġ reserve
Ġ lynching
Ġ ???"
Ġ tested
Ġ utter
Ġ ESSENTIAL
Ġ Â§
Ġ" '
Ġ" +
Ġ" ?
Ġ" âĢĶ
Ġ" _.
re r
re le
re nce
re com
re op
re ut
re ak
re ald
re ject
re ctions
re land
re gg
re my
re que
re ling
re ade
re cent
re cuse
re ques
re lief
re asons
re vised
re conf
re dactions
re cusal
re corded
re routes
re quest
re brand
re oty
te ls
te neg
te legraph
te station
te thered
te nets
te ctives
th a
th al
th ur
th old
th seal
th ics
th olic
th ians
th usias
in f
in y
in fe
in vi
in der
in ic
in den
in dia
in ich
in come
in nc
in fam
in timidation
in fected
in sey
in structed
in jured
me me
me to
me nce
me ow
me ss
me ant
me mor
me tt
me ga
me mos
me asure
me thods
me xico
ar us
ar as
ar im
ar ia
ar rest
ar son
ar range
ar issa
ar izon
ar kest
ta ps
ta ll
ta ng
ta ine
ta lis
âĢ ¢
or i
or sed
or ant
or ded
or tu
or ger
or lock
or ities
or test
or ious
or ority
or othe
ti o
ti res
ti ous
ti more
ti ah
ou sta
ou ns
ou hy
ou ise
ou china
ou tage
ou lter
on to
on na
on enti
on athan
on taine
ce t
ce de
ce ec
ce cf
ce land
ce nse
ce yda
ch ing
ch er
ch es
ch ain
ch ran
ch iz
ch ile
ch ance
ch arter
ch arm
ch air
ch ai
ch arles
ch inas
Ġa ler
Ġa part
Ġa va
Ġa iming
Ġa vg
Ġa vail
Ġa waken
se th
se le
se an
se ll
se es
se ction
se ason
se lected
se ries
se vere
st ine
st rump
st arter
st uff
st reet
st ronger
de C
de nt
de es
de ck
de ci
de cd
de cf
de fd
de bd
de sh
de nts
de struction
de bfb
de bt
de classified
de termine
de tti
de troit
Ġth y
Ġth irst
Ġth umbnail
co t
co v
co st
co lo
co pa
co ord
co operating
co py
co ordinate
po si
po ps
po pe
po ol
po cri
po liti
po ised
po oked
po sted
po ckets
le ted
le mate
le gend
si m
si st
si tions
si fied
si ding
si milar
ri te
ri et
ri cted
ri gue
ri cs
ri gade
ri tius
ht on
Ġthe ories
Ġthe orists
to bf
to mi
to ward
da le
da fe
da ll
da bb
da df
da bf
da pt
da mer
da su
da hur
da wi
da ddy
post olic
an na
an them
an cially
an thony
an nett
an archy
an zania
an uatu
an xious
Ġw o
Ġw are
Ġw ise
Ġw ires
Ġw aged
Ġw estern
xt raction
15 15
15 90
15 38
15 24
15 98
15 96
15 53
15 25
15 33
15 74
15 93
15 68
15 32
15 40
15 65
15 113
15 640
15 557
15 269
15 377
15 585
15 998
15 911
15 643
15 9450
15 8980
15 7768
15 26617
our n
ing De
bo t
bo ot
bo ld
bo ca
bo ys
bo ater
bo dies
ve rity
ve hic
ve ils
ve restimated
tri st
tri ed
ard ust
ard ner
ard inal
ard detroit
Ġ[ :
Ġ[ @
au ge
au er
au ra
au ci
au sed
au thentic
au sted
au ritius
rese nts
is and
is land
is lation
is hes
is rael
is hops
source d
al ia
al ways
al ready
al report
al arm
al most
al tered
al istic
al ogue
al upa
al timore
al isand
data brief
author ities
meta ble
nQ nD
code d
fe w
fe ma
fe nd
fe ba
fe ff
fe eb
fe tz
fe lli
Ġto tally
Ġ15 1
Ġ15 96
Ġ15 107
Ġ15 104
Ġ15 978
Ġ15 586
Ġ15 739
Ġ15 1068
Ġ15 735
Ġ15 20180
Ġp b
Ġp m
Ġp un
Ġp atch
Ġp iz
Ġp ron
Ġp ledge
Ġp acts
Ġp orts
Ġp alm
Ġp uppy
Ġp allets
Ġp aused
Ġo be
Ġo bey
Ġo pio
Ġo verestimated
ps on
ge on
ge ts
ge ria
nW ea
nW ind
nW OULD
nW AIT
nW indow
nt ra
nt ous
Ġb us
Ġb and
Ġb one
Ġb ake
Ġb ath
Ġb ought
Ġb io
Ġb akers
Ġb inding
at ted
at ry
at tis
at via
un a
un ted
un ci
un di
un light
un official
un sus
un controlled
un employment
un mask
un seen
un fold
un locked
un named
un aware
un masking
un sealing
un lawful
un nels
un ately
un documented
un veils
Ġs at
Ġs wit
Ġs ke
Ġs now
Ġs mo
Ġs ys
Ġs cri
Ġs ort
Ġs na
Ġs light
Ġs chool
Ġs adness
Ġs orry
Ġs ounds
Ġs cary
Ġs auce
Ġs chools
Ġs cien
Ġs crambling
Ġs cientific
Ġs loppy
Ġs nake
Ġs orority
Ġs chiz
it ras
it chell
Ġf ate
Ġf ut
Ġf lock
Ġf lat
Ġf lush
Ġf ascism
Ġf lights
Ġf lou
Ġf rau
Ġf allen
Ġf rightening
Ġc ant
Ġc lie
Ġc rop
Ġc redit
Ġc lick
Ġc uts
er se
er ad
er ror
er lin
ma re
ma th
ma id
ma gg
ma iled
ro b
ro l
ro s
ro me
ro of
ro ast
ro ber
ro val
ro pped
ro ads
ro gate
ro lls
ro gers
ro thschild
ro omed
ro sa
ro bin
ro scope
com pre
com petitive
com mander
ll ll
ll ite
Ġof fers
Ġin b
Ġin j
Ġin ce
Ġin tro
Ġin con
Ġin qu
Ġin do
Ġin sp
Ġin tru
Ġin ner
Ġin action
Ġin fect
Ġin spect
Ġin eli
Ġin vented
Ġin augu
fi d
fi e
fi ve
fi ance
fi gu
fi rew
he tor
he lls
nd id
nd iction
nd oc
ter y
ter ing
ter net
ter dis
20 38
20 27
20 34
20 64
20 53
20 04
20 93
20 92
20 76
20 35
20 39
20 82
20 42
20 79
20 51
20 114
20 136
20 920
13 18
13 30
13 26
13 38
13 99
13 55
13 68
13 08
13 76
13 46
13 77
13 110
13 62
13 115
13 106
13 164
13 104
13 250
13 129
13 9556
13 2774
fere ncing
Ġ] \
Ġ] ]]\
10 20
10 93
10 06
10 89
10 49
10 42
10 61
10 114
10 428
10 566
10 584
10 977
10 644
10 948
10 973
10 388
10 577
10 153
10 975
10 348
10 387
10 587
10 582
10 806
10 501
10 804
10 040
10 882
10 085
10 749
10 061
10 7863
10 56025
10 57393
Ġd u
Ġd un
Ġd ru
Ġd ub
Ġd ug
Ġd rip
Ġd rone
ne e
ne ck
ne tra
ne goti
ne apol
us c
us li
us news
us ations
us ale
us urp
us uf
us bands
Ġre da
Ġre source
Ġre side
Ġre sts
Ġre gs
Ġre lation
Ġre direct
Ġre action
Ġre negade
Ġre tweet
Ġre build
Ġre verse
Ġre tired
Ġre gener
Ġre brand
Ġre levance
Ġre aders
Ġre lating
Ġre actor
Ġre buttal
Ġre boot
Ġre ferencing
li o
li ch
li ps
li cts
li dation
li ffe
li cate
li bur
li fted
li lb
li via
li cates
as o
as p
as ses
as ks
as ner
as ked
as set
nT AR
nT ina
nT ech
nT weet
nT ick
nT OB
nT BA
nT rey
nT roops
nT WO
nT aint
nT ALKING
nT rent
nT itle
nT unnels
Ġe con
Ġe state
Ġe aster
Ġe vening
Ġh at
Ġh its
Ġh ats
Ġh umb
Ġh anging
Ġh ousing
Ġh usbands
nWh atever
ĠT N
ĠT OR
ĠT hen
ĠT am
ĠT ran
ĠT OW
ĠT arge
ĠT im
ĠT ina
ĠT SA
ĠT AIN
ĠT IP
ĠT ara
ĠT hr
ĠT ext
ĠT wo
ĠT rin
ĠT ale
ĠT rip
ĠT armac
ĠT rey
ĠT ony
ĠT EXT
ĠT ALK
ĠT AKING
ĠT rust
ĠT WO
ĠT erkel
ĠT esla
ĠT odd
ĠT ALING
ĠT exas
ĠT elecommunications
ĠT SUN
ĠC P
ĠC ru
ĠC all
ĠC ory
ĠC ast
ĠC ens
ĠC IV
ĠC os
ĠC lean
ĠC ORE
ĠC ari
ĠC BS
ĠC itiz
ĠC rame
ĠC ensorship
ĠC EASE
ĠC ENTER
ĠC aptain
ĠC uomo
ĠC ULTURE
ĠC ENTRAL
ĠC eci
ra m
ra mp
ra pp
ra ther
ra int
ra mon
ra ser
ra vel
ra ft
ra bility
ra cism
ra ises
ra cists
ra titude
ra dar
ĠS B
ĠS R
ĠS r
ĠS on
ĠS it
ĠS ub
ĠS ir
ĠS ea
ĠS hen
ĠS hi
ĠS ho
ĠS ol
ĠS im
ĠS ny
ĠS UR
ĠS hip
ĠS aw
ĠS ays
ĠS EX
ĠS ob
ĠS leep
ĠS her
ĠS EA
ĠS ale
ĠS ELL
ĠS OLD
ĠS car
ĠS word
ĠS py
ĠS ONS
ĠS QU
ĠS trike
ĠS AUD
ĠS AID
ĠS caramucci
ĠS UND
ĠS orry
ĠS qual
ĠS andra
ĠS nopes
ĠS perry
ĠS chools
ĠS pain
ĠS LEEP
ĠS laughter
ĠS cene
ĠS ACR
ĠS argent
ĠS cully
ĠS EARCH
ĠS aturday
ĠS pooked
Ġy es
Ġy all
Ġy ellow
ly ssa
18 20
18 12
18 24
18 70
18 60
18 22
18 04
18 08
18 06
18 75
18 35
18 39
18 41
18 71
18 130
18 280
18 350
18 286
18 370
18 975
18 223
18 210
18 040
18 1050
18 379
18 079
18 1208
18 58176
18 14421
Ġbe d
Ġbe side
Ġbe gging
Ġbe autiful
ed da
ed itor
ĠA K
ĠA c
ĠA ge
ĠA AG
ĠA NT
ĠA men
ĠA void
ĠA tom
ĠA dm
ĠA bde
ĠA nother
ĠA uth
ĠA rian
ĠA ugust
ĠA nswer
ĠA nita
ĠA venatti
ĠA UGUST
ĠA ppe
ĠA postolic
ĠA lyssa
Ġm ine
Ġm om
Ġm ul
Ġm ile
Ġm ins
Ġm ili
Ġm ix
Ġm sm
Ġm igration
Ġm onetary
Ġm iles
Ġm ountain
Ġm outhpiece
Ġm alicious
NC SW
NC LUS
ĠP P
ĠP S
ĠP ed
ĠP AT
ĠP ub
ĠP ate
ĠP ers
ĠP ure
ĠP ic
ĠP AS
ĠP OW
ĠP lea
ĠP OV
ĠP ILL
ĠP rest
ĠP ort
ĠP ret
ĠP UP
ĠP OLL
ĠP AST
ĠP ATTER
ĠP reet
ĠP orts
ĠP urpose
ĠP ASS
ĠP Cs
ĠP undit
ĠP osse
ĠP AWNS
ĠP ATRIOT
ĠP ERRY
ĠP ODESTA
ĠP ixel
ĠP ensacola
ĠP yong
12 30
12 37
12 94
12 11
12 87
12 99
12 93
12 39
12 40
12 51
12 113
12 126
12 898
12 568
12 116
12 226
12 288
12 1059
12 908
12 204
12 144
12 577
12 570
12 101
12 648
12 195
12 667
12 335
12 191
12 5704
12 9558
12 2327
12 18316
12 2294
res kes
res pionage
es R
es sing
es oth
16 13
16 18
16 16
16 90
16 28
16 38
16 94
16 57
16 70
16 67
16 04
16 93
16 08
16 73
16 95
16 21
16 47
16 05
16 72
16 63
16 51
16 288
16 936
16 978
16 840
16 378
16 998
16 939
16 282
16 5930
16 046
16 1589
16 5777
16 7418
file d
ot don
19 98
19 53
19 44
19 87
19 22
19 84
19 07
19 09
19 06
19 32
19 01
19 45
19 85
19 63
19 61
19 71
19 81
19 524
19 189
19 227
19 286
19 293
19 506
19 155
19 648
19 268
19 941
19 783
19 552
19 1559
19 2002
19 9447
en ough
en force
en tial
en ergy
en derson
en lightenment
17 10
17 38
17 29
17 68
17 07
17 32
17 40
17 89
17 05
17 02
17 31
17 45
17 62
17 49
17 79
17 41
17 148
17 910
17 224
17 006
17 983
17 846
17 233
17 648
17 847
17 848
17 3069
17 5603
17 18830
NCI ES
NCI LE
mp ire
mp ling
mp ering
mp hasis
VJ MEA
US AL
ct ru
ct ures
ct rin
vi an
vi ed
vi lle
vi cing
vi cious
vi ctor
sta l
sta t
sta ig
sta ffers
sta ceyda
14 37
14 60
14 55
14 68
14 09
14 03
14 75
14 85
14 82
14 113
14 194
14 280
14 915
14 122
14 201
14 946
14 162
14 008
14 371
14 641
14 073
14 095
14 486
14 191
14 8751
14 7450
14 3007
14 5408
14 6326
14 2639
la re
la ter
la bama
la bs
la vement
la Grace
la hren
la desh
ĠF l
ĠF red
ĠF AC
ĠF LE
ĠF ast
ĠF uture
ĠF UR
ĠF org
ĠF ace
ĠF RI
ĠF ATH
ĠF eed
ĠF lying
ĠF EB
ĠF ALLS
ĠF TC
ĠF ires
ĠF urious
ĠF ears
ĠF loyd
ĠF ASCISM
ĠF INALLY
ĠF ISH
ĠF aith
ĠF arrakhan
ĠF lorida
ĠF iddler
ĠF aren
ĠF reling
ĠF ouhy
Ġn ine
Ġn orth
Ġn ick
Ġn avy
ck e
ck less
ng th
ng ot
ng land
ng les
90 15
90 27
90 87
90 67
90 75
90 85
90 63
90 62
90 91
90 898
90 527
90 137
90 337
90 250
90 910
90 588
90 210
90 959
90 607
90 212
90 440
90 171
90 8034
90 4259
28 12
28 14
28 28
28 50
28 94
28 00
28 53
28 75
28 32
28 69
28 65
28 43
28 41
28 81
28 112
28 594
28 343
28 516
28 257
28 666
28 249
28 489
28 3468
nD es
nD ir
nD ef
nD one
nD IS
nD IG
nD EC
nD ID
nD ear
nD ange
nD ie
nD EM
nD AG
nD EP
nD ays
nD ream
nD econ
nD ise
nD omin
nD JT
nD aughter
nD WS
nD eath
nD ebate
nD arrell
nD EATH
RE LEASE
RE PUBLIC
30 90
30 28
30 30
30 27
30 96
30 57
30 70
30 60
30 87
30 66
30 84
30 78
30 03
30 65
30 2020
30 112
30 130
30 938
30 937
30 233
30 667
30 3720
wit nes
wit nesses
wit zer
Ġyou th
Ġyou tu
Ġyou nger
IN ED
IN ES
IN ESS
IN ARY
IN FILTRATION
IN FLUENCE
50 20
50 13
50 30
50 26
50 38
50 27
50 24
50 37
50 54
50 59
50 99
50 93
50 68
50 08
50 73
50 09
50 76
50 89
50 05
50 01
50 63
50 62
50 43
50 91
50 42
50 79
50 950
50 937
50 689
50 06358
97 96
97 00
97 66
97 99
97 84
97 95
97 21
97 05
97 72
97 85
97 82
97 43
97 42
97 119
97 147
97 636
97 192
97 203
97 123
97 686
97 448
97 19088
ĠD r
ĠD ra
ĠD IA
ĠD efine
ĠD ata
ĠD UE
ĠD IVE
ĠD ise
ĠD IE
ĠD RAIN
ĠD REAM
ĠD ISTRESS
ĠD AUGHT
ĠD orothe
26 14
26 90
26 57
26 64
26 59
26 22
26 74
26 78
26 95
26 77
26 47
26 86
26 01
26 45
26 42
26 41
26 164
26 280
26 138
26 302
26 644
26 600
26 464
26 740
26 9025
26 00020
26 13023
26 17554
26 5162
26 27990
ver green
ad ff
ad fc
ad min
ad bf
ad fd
ad vo
ad Per
ru te
ru it
ru ba
ru ses
ru ling
ru dge
ru iting
ru guay
ci v
ci vilian
ci felli
ld s
38 10
38 17
38 97
38 58
38 25
38 84
38 93
38 07
38 69
38 47
38 02
38 01
38 45
38 65
38 62
38 79
38 51
38 61
38 503
38 707
38 1653
38 8119
38 8211
27 10
27 16
27 30
27 26
27 94
27 29
27 80
27 67
27 92
27 06
27 03
27 48
27 77
27 89
27 85
27 43
27 697
27 930
27 206
27 703
27 848
27 265
24 56
24 94
24 88
24 87
24 22
24 80
24 33
24 76
24 03
24 75
24 32
24 21
24 89
24 41
24 1119
24 941
24 362
24 673
24 18364
56 10
56 19
56 30
56 50
56 26
56 37
56 98
56 57
56 59
56 23
56 87
56 99
56 55
56 08
56 06
56 40
56 02
56 31
56 01
56 62
56 104
56 527
56 914
56 913
56 7534
56 7294
56 3501
36 16
36 30
36 24
36 37
36 88
36 59
36 87
36 55
36 78
36 03
36 48
36 77
36 72
36 63
36 62
36 83
36 207
36 704
36 531
36 705
36 2816
36 0398
36 8470
36 7040
Ġ( \"
Ġ( +\
Ġ( -\
Ġ( +++
Ġ( ?)
37 17
37 56
37 58
37 88
37 11
37 44
37 25
37 84
37 03
37 47
37 05
37 31
37 85
37 42
37 79
37 71
37 979
37 516
37 987
37 561
lo st
lo is
lo ver
lo man
lo ose
lo sing
lo oney
lo cate
lo lse
lo cated
lo oked
lo bby
lo vak
lo oning
lo vian
nS K
nS Y
nS ER
nS ep
nS FO
nS um
nS ara
nS weet
nS UM
nS PE
nS URV
nS ymbo
nS ug
nS lush
nS py
nS afety
nS IGINT
nS outh
nS olution
nS ILENT
nS usan
nS ARA
nS tock
nS OTU
nS ignatures
nS tructure
nS JAH
nS unlight
94 15
94 20
94 36
94 58
94 98
94 54
94 29
94 84
94 67
94 52
94 07
94 06
94 69
94 89
94 02
94 65
94 62
94 49
94 000
94 126
94 590
94 237
94 524
94 568
94 550
94 363
94 139
94 786
94 591
94 3669
58 16
58 19
58 17
58 23
58 60
58 80
58 33
58 68
58 52
58 76
58 35
58 21
58 86
58 363
58 533
58 887
58 962
58 047
58 4356
58 36660
nP and
nP ic
nP AN
nP os
nP ause
nP sy
nP aid
nP BS
nP ushed
nP URE
nP ati
nP RESS
nP uzzle
nP uppet
nP ELOSI
nP hysical
nP OLITICAL
nP ACKAGE
nP AWNS
nP ATRIOT
nP ODESTA
nP ictures
Ġfor cing
Ġfor mative
Ġfor tune
ĠB S
ĠB an
ĠB al
ĠB AR
ĠB ran
ĠB all
ĠB ALL
ĠB AIL
ĠB ots
ĠB illion
ĠB OTH
ĠB RI
ĠB ox
ĠB ai
ĠB ena
ĠB attle
ĠB IB
ĠB ridge
ĠB udget
ĠB lue
ĠB ude
ĠB HO
ĠB oul
ĠB ATTLE
ĠB reitbart
ĠB achmann
ĠB owl
ĠB OUNDS
ĠB orger
ill man
98 26
98 36
98 37
98 98
98 99
98 84
98 04
98 92
98 75
98 40
98 21
98 01
98 114
98 247
98 308
98 337
98 977
98 208
98 223
98 185
98 169
98 4657
98 5856
98 5139
34 26
34 36
34 94
34 59
34 52
34 46
34 69
34 31
34 110
34 91
34 79
34 527
34 240
34 918
34 447
34 925
34 602
34 251
34 663
34 081
34 3080
34 0398
34 7070
34 2895
34 2747
AT W
AT f
AT US
AT HE
AT ORS
ĠW B
ĠW on
ĠW ing
ĠW as
ĠW AT
ĠW il
ĠW EC
ĠW atch
ĠW ol
ĠW ENT
ĠW ood
ĠW ag
ĠW ater
ĠW oman
ĠW AKING
ĠW hit
ĠW estern
ĠW AVES
ĠW ONDERFUL
ĠW MDs
Ġg g
Ġg ut
Ġg ay
Ġg ran
Ġg ym
Ġg ap
Ġg ree
Ġg ross
Ġg ag
Ġg reet
Ġg allows
Ġg atekeep
Ġg aming
Ġg onna
Ġg roomed
ER IFIED
ER ANG
ER MANY
96 10
96 17
96 28
96 70
96 87
96 66
96 80
96 74
96 52
96 92
96 08
96 32
96 39
96 89
96 01
96 45
96 82
96 62
96 81
96 146
96 350
96 958
96 657
96 508
96 165
96 006
96 443
96 9856
96 7030
96 9444
96 7224
96 6582
ĠM A
ĠM B
ĠM or
ĠM il
ĠM ig
ĠM OR
ĠM AS
ĠM OM
ĠM ind
ĠM ast
ĠM ason
ĠM AD
ĠM ap
ĠM other
ĠM AG
ĠM EX
ĠM ann
ĠM ari
ĠM eri
ĠM IST
ĠM eck
ĠM ASS
ĠM irror
ĠM OTHERS
ĠM anafort
ĠM ika
ĠM akes
ĠM IMIC
ĠM addow
ĠM ousta
ĠM itchell
ĠM usli
54 12
54 24
54 34
54 00
54 23
54 74
54 68
54 73
54 48
54 39
54 47
54 65
54 62
54 51
54 71
54 897
54 636
54 207
54 936
54 640
54 5559
Ġde mo
Ġde fer
Ġde gree
Ġde cent
Ġde tected
Ġde cade
Ġde crease
Ġde stin
Ġde tained
Ġde rived
Ġde tects
Ġde tectives
Ġde fiance
57 20
57 18
57 28
57 38
57 24
57 64
57 11
57 25
57 93
57 68
57 76
57 35
57 39
57 40
57 63
57 43
57 258
57 556
57 129
57 365
57 998
57 2030
57 5070
57 9774
ĠH as
ĠH od
ĠH ef
ĠH AR
ĠH ES
ĠH ong
ĠH AM
ĠH IM
ĠH EA
ĠH andler
ĠH ugh
ĠH unter
ĠH ALLS
ĠH onor
ĠH WOOD
ĠH uffington
ĠH oft
ĠH YP
ĠH ammer
ĠH ousing
ĠH assan
ĠH OSTAGE
ĠH anoi
ĠH inden
ĠH unted
Ġcon ference
Ġcon struction
Ġcon ces
Ġcon structions
Ġcon gress
Ġcon fig
Ġcon trast
Ġcon fede
Ġcon tents
Ġcon venient
nH A
nH I
nH K
nH S
nH W
nH a
nH er
nH ON
nH ome
nH AM
nH app
nH mm
nH old
nH air
nH allow
nH OME
nH ELL
nH aiti
nH ISTORY
nH usband
nH itler
nH anging
nH atred
nH OO
nH ilton
nH appened
nH ospital
nH OLY
OT ER
OT ION
00 19
00 96
00 74
00 52
00 95
00 69
00 05
00 02
00 83
00 91
00 127
00 544
00 200
00 256
00 533
00 538
00 2048
00 13813
00 40006
ur as
ur ant
ur bs
ur bing
nC a
nC al
nC ame
nC lo
nC AN
nC ity
nC all
nC ause
nC ARE
nC ONG
nC ARP
nC NBC
nC ell
nC ongressional
nC onstitutional
nC hatter
nC ENSOR
nC alls
nC ORSI
nC rowdStrike
nC eleb
nF a
nF our
nF ly
nF ore
nF ew
nF ive
nF und
nF ully
nF ace
nF rie
nF AIL
nF air
nF IND
nF UCK
nF rance
nF arms
nF luent
nF einstein
Ġ' \
Ġse es
Ġse am
Ġse dition
Ġse nds
Ġse lls
Ġse quence
be as
be ec
be ea
be cf
be aa
be gin
be comes
be lief
be cbcf
be kah
be respionage
ĠN one
ĠN EC
ĠN IGHT
ĠN UR
ĠN ICE
ĠN ick
ĠN ever
ĠN EG
ĠN eck
ĠN eo
ĠN WO
ĠN XIVM
ĠN etherlands
ĠN adler
ĠN unci
ĠI V
ĠI an
ĠI so
ĠI RS
ĠI rregular
ĠI ssa
ĠI CBM
ON ICALLY
der ly
der ange
pe st
pe red
pe ID
pe ctive
pe nds
pe arl
the is
the res
the news
the real
the rie
the ater
the ori
id ra
ke ting
ke yes
ke AF
HE ADS
HE gS
ws pd
88 15
88 18
88 14
88 94
88 44
88 04
88 03
88 46
88 75
88 21
88 31
88 01
88 61
88 143
88 516
88 557
88 253
88 083
88 642
88 5429
ss ss
64 24
64 98
64 96
64 64
64 29
64 11
64 53
64 92
64 07
64 09
64 01
64 65
64 43
64 61
64 250
64 387
64 262
64 2002
64 871
64 50689
out Out
out lining
29 15
29 28
29 30
29 94
29 98
29 57
29 23
29 21
29 337
29 944
29 9606
29 9228
Ġdo ctor
Ġdo ctors
Ġt v
Ġt or
Ġt one
Ġt ort
Ġt rau
Ġt weeting
nA lan
nA ssi
nA RC
nA cts
nA UR
nA cce
nA wan
nA dam
nA DD
nA lex
nA manda
nA gencies
nA vg
nA UTISTS
nA nna
nA DAM
nA RRESTS
nA dapt
nA lois
Ġwe st
Ġwe ars
Ġwe aring
Ġwe ather
Ġwe lfare
nThe me
di e
di ch
di ed
di vide
di ctions
di um
di fication
di dates
di aries
di plo
59 18
59 50
59 24
59 94
59 34
59 54
59 57
59 25
59 95
59 39
59 524
59 915
59 247
59 958
59 200
59 535
59 528
59 1057
59 2934
59 9714
59 2845
59 3959
]\ "
23 13
23 50
23 23
23 11
23 53
23 31
23 51
23 308
23 357
23 918
23 916
23 231
23 361
23 1746
23 3344
23 92766
23 11235
23 97147
ca m
ca p
ca ge
ca mp
ca ad
ca id
ca ca
ca mb
ca fb
ca bf
ca bca
ca ffa
ca sting
ca pital
ca tholic
nN ation
nN eg
nN ature
nN ELL
nN ECESSARY
nN ellie
nN etherlands
nN adler
nN ASA
nN umbers
ĠR A
ĠR M
ĠR AT
ĠR ub
ĠR ea
ĠR OD
ĠR ud
ĠR usse
ĠR ide
ĠR USS
ĠR OUT
ĠR edd
ĠR DB
ĠR udy
ĠR isk
ĠR OUTE
ĠR esponse
ĠR osa
ĠR ABB
11 175
11 1058
nI an
nI vy
nI llusion
nI nitial
il da
il ary
il han
op t
op tion
op ia
op rweb
53 12
53 19
53 34
53 29
53 23
53 55
53 93
53 95
53 32
53 113
53 114
53 280
53 950
53 228
53 206
53 178
53 125
53 291
53 9864
âĢ¦ \"
âĢ¦ .\"\
ĠG ay
ĠG ary
ĠG ord
ĠG et
ĠG ear
ĠG IVE
ĠG abe
ĠG rand
ĠG INA
ĠG irl
ĠG ail
ĠG ONE
ĠG MAIL
ĠG iuliani
ĠG HW
ĠG PD
ĠG ardens
ĠG REEN
ĠG ambia
ĠG ETS
ĠG ETTING
ĠG riffin
ĠG HIS
ĠG lory
ĠG ardner
ĠG ERMANY
âĢĻ ]
âĢĻ ).
ĠO p
ĠO nce
ĠO mb
ĠO ANN
ĠO riginal
ĠO HR
ĠO regon
ĠO reskes
Ġha cking
and me
and rom
and joy
Ġ- --
pa cer
pa wn
pa lestinians
44 50
44 00
44 29
44 78
44 73
44 06
44 75
44 32
44 77
44 40
44 47
44 02
44 110
44 79
44 71
44 584
44 503
44 850
44 605
44 820
44 017
44 841
44 1964
44 522496
70 16
70 19
70 98
70 57
70 64
70 60
70 33
70 48
70 72
70 82
70 43
70 91
70 79
70 108
70 208
70 135
70 1978
70 5938
70 5425
Ġpo inter
Ġpo ls
Ġpo cket
ate st
ate way
ate llite
Ġpro pa
Ġpro pri
Ġpro sper
Ġpro fess
Ġpro minent
Ġpro cure
Ġpro fessor
Ġpro fession
ut tle
nR i
nR ing
nR AT
nR od
nR AC
nR ick
nR ise
nR yan
nR DB
nR andom
nR ising
nR OTHS
nR eap
nR acist
nM H
nM an
nM od
nM ain
nM ust
nM AP
nM ag
nM ATTER
nM AGA
nM urder
nM UCH
nM GL
nM arkers
nM eet
nM ainstream
nM cK
nM assive
nM ika
nM eeting
nM outhpiece
ir repar
60 20
60 27
60 54
60 53
60 87
60 84
60 93
60 69
60 77
60 39
60 85
60 82
60 51
60 428
60 150
60 547
60 296
60 957
60 658
60 270
60 257
60 704
60 340
60 309
60 975
60 363
60 346
60 444
60 445
60 331
60 863
60 95979
Ġme ga
Ġme gaby
ig ault
[...]
