{"<s>":0,"<pad>":1,"</s>":2,"<unk>":3,"<mask>":4,"!":5,"\"":6,"#":7,"$":8,"%":9,"&":10,"'":11,"(":12,")":13,"*":14,"+":15,",":16,"-":17,".":18,"/":19,"0":20,"1":21,"2":22,"3":23,"4":24,"5":25,"6":26,"7":27,"8":28,"9":29,":":30,";":31,"<":32,"=":33,">":34,"?":35,"@":36,"A":37,"B":38,"C":39,"D":40,"E":41,"F":42,"G":43,"H":44,"I":45,"J":46,"K":47,"L":48,"M":49,"N":50,"O":51,"P":52,"Q":53,"R":54,"S":55,"T":56,"U":57,"V":58,"W":59,"X":60,"Y":61,"Z":62,"[":63,"\\":64,"]":65,"^":66,"_":67,"`":68,"a":69,"b":70,"c":71,"d":72,"e":73,"f":74,"g":75,"h":76,"i":77,"j":78,"k":79,"l":80,"m":81,"n":82,"o":83,"p":84,"q":85,"r":86,"s":87,"t":88,"u":89,"v":90,"w":91,"x":92,"y":93,"z":94,"{":95,"|":96,"}":97,"~":98,"¡":99,"¢":100,"£":101,"¤":102,"¥":103,"¦":104,"§":105,"¨":106,"©":107,"ª":108,"«":109,"¬":110,"®":111,"¯":112,"°":113,"±":114,"²":115,"³":116,"´":117,"µ":118,"¶":119,"·":120,"¸":121,"¹":122,"º":123,"»":124,"¼":125,"½":126,"¾":127,"¿":128,"À":129,"Á":130,"Â":131,"Ã":132,"Ä":133,"Å":134,"Æ":135,"Ç":136,"È":137,"É":138,"Ê":139,"Ë":140,"Ì":141,"Í":142,"Î":143,"Ï":144,"Ð":145,"Ñ":146,"Ò":147,"Ó":148,"Ô":149,"Õ":150,"Ö":151,"×":152,"Ø":153,"Ù":154,"Ú":155,"Û":156,"Ü":157,"Ý":158,"Þ":159,"ß":160,"à":161,"á":162,"â":163,"ã":164,"ä":165,"å":166,"æ":167,"ç":168,"è":169,"é":170,"ê":171,"ë":172,"ì":173,"í":174,"î":175,"ï":176,"ð":177,"ñ":178,"ò":179,"ó":180,"ô":181,"õ":182,"ö":183,"÷":184,"ø":185,"ù":186,"ú":187,"û":188,"ü":189,"ý":190,"þ":191,"ÿ":192,"Ā":193,"ā":194,"Ă":195,"ă":196,"Ą":197,"ą":198,"Ć":199,"ć":200,"Ĉ":201,"ĉ":202,"Ċ":203,"ċ":204,"Č":205,"č":206,"Ď":207,"ď":208,"Đ":209,"đ":210,"Ē":211,"ē":212,"Ĕ":213,"ĕ":214,"Ė":215,"ė":216,"Ę":217,"ę":218,"Ě":219,"ě":220,"Ĝ":221,"ĝ":222,"Ğ":223,"ğ":224,"Ġ":225,"ġ":226,"Ģ":227,"ģ":228,"Ĥ":229,"ĥ":230,"Ħ":231,"ħ":232,"Ĩ":233,"ĩ":234,"Ī":235,"ī":236,"Ĭ":237,"ĭ":238,"Į":239,"į":240,"İ":241,"ı":242,"Ĳ":243,"ĳ":244,"Ĵ":245,"ĵ":246,"Ķ":247,"ķ":248,"ĸ":249,"Ĺ":250,"ĺ":251,"Ļ":252,"ļ":253,"Ľ":254,"ľ":255,"Ŀ":256,"ŀ":257,"Ł":258,"ł":259,"Ń":260,"ĠĠ":261,"Ġ\"":262,"ĠĠĠĠ":263,"\":":264,"ĠĠĠ":265,"ĠĠĠĠĠ":266,"re":267,"\",":268,"te":269,"th":270,"ĠĠĠĠĠĠĠ":271,"Ġ{":272,"Ġ}":273,"in":274,"me":275,"ar":276,"Ġ},":277,"ta":278,"âĢ":279,"or":280,"ti":281,"ou":282,"on":283,"ce":284,".\\":285,"ch":286,"Ġa":287,"se":288,"st":289,"de":290,"âĢĤ":291,"Ġth":292,"co":293,"po":294,"le":295,"si":296,"ri":297,"ht":298,"Ġthe":299,"to":300,"da":301,"post":302,"an":303,"Ġw":304,"xt":305,"15":306,"text":307,"our":308,"ing":309,"bo":310,"?\\":311,"ve":312,"tri":313,"ard":314,"Ġ[":315,"arch":316,"time":317,"au":318,"rese":319,"is":320,"research":321,"qresearch":322,"board":323,"ource":324,"source":325,"al":326,"thor":327,"data":328,"site":329,"author":330,"Ġ\"/":331,"meta":332,"metadata":333,"nQ":334,"code":335,"trip":336,"fe":337,"Ġto":338,"tripcode":339,"Ġ\"!":340,"Ġ15":341,"Ġp":342,"Ġo":343,"ps":344,"htt":345,"//":346,">>":347,"ge":348,"Ġ\\":349,"nW":350,"nt":351,"Ġb":352,"at":353,"un":354,"https":355,"nce":356,"Ġ\">>":357,"Ġs":358,"it":359,"Ġf":360,"Ġc":361,"er":362,"ma":363,"ro":364,"com":365,"ll":366,"Ġof":367,"tion":368,"Ġin":369,"fi":370,"he":371,"nd":372,"ter":373,"20":374,"13":375,"ow":376,"fere":377,"Ġ]":378,"ference":379,"Ġ\"!!":380,"reference":381,"10":382,"Ġd":383,"ne":384,"us":385,"Ġre":386,"li":387,"as":388,"kun":389,"nT":390,":\\":391,"ww":392,"Ġe":393,"ame":394,"Ġh":395,"nWh":396,"ĠT":397,"//\\":398,"ĠC":399,"ra":400,"jp":401,"ĠS":402,"âĢĤâĢĤ":403,"Ġy":404,"Ġis":405,"ink":406,"Ġand":407,"ly":408,"18":409,"Ġbe":410,"ed":411,"ĠA":412,"://":413,"Ġm":414,"NC":415,"ĠP":416,"12":417,"res":418,"es":419,"name":420,"16":421,"file":422,"ot":423,"19":424,"jpg":425,"en":426,"17":427,"NCI":428,"mage":429,"mp":430,"VJ":431,"mG":432,"xZ":433,"VJxZ":434,"VJxZNCI":435,"US":436,"ct":437,"vi":438,"htm":439,"html":440,"sta":441,"ted":442,"14":443,"la":444,"ĠF":445,"Ġn":446,"ck":447,"image":448,"ng":449,"90":450,"images":451,"28":452,"nD":453,"RE":454,"30":455,"wit":456,"Ġyou":457,"IN":458,"50":459,"witter":460,"97":461,"posts":462,"ĠD":463,"26":464,"ver":465,"referenced":466,"ad":467,"Ġare":468,"ru":469,"ci":470,"nhttps":471,"ld":472,"38":473,"png":474,"27":475,"ĠĠĠĠĠĠĠĠĠ":476,"ĠĠĠĠĠĠĠĠĠĠĠ":477,"top":478,"24":479,"56":480,"36":481,"Ġ(":482,"link":483,"37":484,"lo":485,"nS":486,"94":487,"58":488,"nP":489,"Ġfor":490,"ĠB":491,"ill":492,"98":493,"34":494,"AT":495,"ĠW":496,"Ġg":497,"Hs":498,"jV":499,"Jq":500,"Ġon":501,"www":502,"ER":503,"96":504,"ĠM":505,"54":506,"Ġde":507,"ght":508,"57":509,"ĠH":510,"Ġcon":511,"ation":512,"nH":513,"OT":514,"00":515,"ur":516,"nC":517,"nF":518,"Ġ'":519,"Ġse":520,"be":521,"ĠN":522,"ĠI":523,"ntwitter":524,"ON":525,"Ġwh":526,"der":527,"tic":528,"tus":529,"pe":530,"status":531,"the":532,"id":533,"ment":534,"ke":535,"HE":536,"ws":537,"88":538,"ss":539,"64":540,"ĠâĢ":541,"out":542,"29":543,"Ġdo":544,"Ġt":545,"nA":546,"nWhat":547,"Ġwe":548,"nThe":549,"di":550,"59":551,"âĢĤâĢĤâĢĤâĢĤ":552,"]\\":553,"23":554,"ca":555,"nwww":556,"nN":557,"ĠR":558,"nWhy":559,"11":560,"nI":561,"ub":562,"il":563,"op":564,"Ġwas":565,"53":566,"âĢ¦":567,"ĠG":568,"ts":569,"âĢĻ":570,"ĠO":571,"Ġha":572,"and":573,"Ġ-":574,"Ġthis":575,"pa":576,"44":577,"70":578,"Ġpo":579,"ate":580,"Ġpro":581,"ut":582,"nR":583,"nM":584,"ir":585,"60":586,"ction":587,"Ġme":588,"ig":589,"ore":590,"nTh":591,"fa":592,"!!":593,"87":594,"22":595,"news":596,"ith":597,"Ġ],":598,"ED":599,"Ġthat":600,"OTUS":601,"up":602,"IT":603,"od":604,"Ġi":605,"Ġor":606,"Ġat":607,"66":608,"cc":609,"for":610,"80":611,"ye":612,"ba":613,"LL":614,"25":615,"33":616,"99":617,"ef":618,"now":619,"lic":620,"84":621,"74":622,"Ġco":623,"mo":624,"ĠL":625,"Ġan":626,"OR":627,"nB":628,"Ġwill":629,"cb":630,"ee":631,"ay":632,"Ġby":633,"triot":634,"ers":635,"ome":636,"AR":637,"ons":638,"ĠTHE":639,"Ġit":640,"Ġas":641,"55":642,"ure":643,"67":644,"ec":645,"Ġma":646,"ES":647,"Ġnot":648,"!\\":649,"ic":650,"art":651,"Ġhe":652,"ves":653,"ab":654,"fx":655,"04":656,"AN":657,"EN":658,"ublic":659,"\\\"":660,"ould":661,"Ġun":662,"tro":663,"go":664,"Ġne":665,"ea":666,"one":667,"93":668,"Ġsh":669,"UW":670,"yye":671,"ine":672,"fxo":673,"ople":674,"ep":675,"pp":676,"ue":677,"ther":678,"triots":679,"hen":680,"AS":681,"tive":682,"68":683,"OU":684,"Ġcom":685,"Ġch":686,"Ġall":687,"52":688,"ity":689,"day":690,"ary":691,"ally":692,"IC":693,"ak":694,"mb":695,"trol":696,"ff":697,"ĠE":698,"Ġhave":699,"IS":700,"eople":701,"tc":702,"92":703,"IG":704,"07":705,"nWho":706,"nE":707,"of":708,"dd":709,"Ġwith":710,"EC":711,"Ġ&":712,"'s":713,"Ġk":714,"am":715,"hi":716,"Ġle":717,"sed":718,"Ġgo":719,"fb":720,"Ġst":721,"Ġsta":722,"08":723,"78":724,"rom":725,"nL":726,"2018":727,"ING":728,"nWe":729,"Ġyour":730,"rump":731,"73":732,"led":733,"/\\":734,"cy":735,"ain":736,"ĠU":737,"vide":738,"09":739,"06":740,"76":741,"03":742,"ran":743,"side":744,"bb":745,"Ġdid":746,"litic":747,"Ġex":748,"nHow":749,"om":750,"ns":751,"Ġl":752,"nPOTUS":753,"ION":754,"nG":755,"rou":756,"ni":757,"Ġpeople":758,"95":759,"por":760,"FO":761,"OW":762,"eg":763,"Ġab":764,"ul":765,"AL":766,"Ġta":767,"nThink":768,"red":769,"ned":770,"int":771,"cd":772,"thing":773,"ms":774,"ong":775,"sion":776,"fight":777,"ĠJ":778,"all":779,"Ġv":780,"patriots":781,"ust":782,"patriotsfight":783,"46":784,"tes":785,"Ġlo":786,"Ġcontrol":787,"ant":788,"OM":789,"WG":790,"ous":791,"cide":792,"sel":793,"Ġthey":794,"very":795,"75":796,"Ġwho":797,"].\\":798,"Ġcan":799,"Ġfrom":800,"ist":801,"48":802,"Cb":803,"Zs":804,"nY":805,"jpeg":806,"âĢĤâĢĤâĢĤâĢĤâĢĤâĢĤâĢĤâĢĤ":807,"boFO":808,"atch":809,"tcZs":810,"CbboFO":811,"CbboFOtcZs":812,"AK":813,"fc":814,"nJ":815,"ĠOF":816,"AC":817,"arge":818,"cial":819,"eb":820,"ty":821,"ho":822,"pi":823,"ĠâĢĵ":824,"35":825,"32":826,"ord":827,"ID":828,"69":829,"77":830,"Ġfa":831,"oun":832,"ĠY":833,"nDo":834,"df":835,"39":836,"Ġso":837,"40":838,"lle":839,"ĠTO":840,"ac":841,"man":842,"Ġknow":843,"21":844,"Ġca":845,"89":846,"ory":847,"ank":848,"47":849,"LE":850,"ry":851,"ose":852,"VQ":853,"http":854,"ble":855,"ĠâĢĺ":856,"nRe":857,"Ġsi":858,").\\":859,"AA":860,"xow":861,"Ġno":862,"xowAT":863,"ok":864,"Ġli":865,"Ġpre":866,"BI":867,"bc":868,"ind":869,"et":870,"gh":871,"con":872,"nO":873,"pro":874,"cu":875,"Ġmo":876,"gain":877,"05":878,"Ġwor":879,"Ġla":880,"âĢĿ":881,"âĢ¦âĢ¦":882,"ire":883,"incide":884,"tack":885,"age":886,"Ġhas":887,"02":888,"tig":889,"VE":890,"lan":891,"nNo":892,")\\":893,"ated":894,"incidence":895,"31":896,"ĠIN":897,"min":898,"Ġal":899,"vestig":900,"TR":901,"af":902,"86":903,"lea":904,"Ġac":905,"ssi":906,"Ġ155":907,"Ġdoes":908,"TH":909,"ight":910,"ouse":911,"politic":912,"vent":913,"ae":914,"fo":915,"Ġj":916,"Ġwhat":917,"01":918,"ack":919,"port":920,"cted":921,"ĠUS":922,"Ġwhen":923,"ded":924,"Ġout":925,"Ġtheir":926,"gen":927,"ol":928,"ĠQ":929,"45":930,"ors":931,"Ġ/":932,"ĠK":933,"ations":934,"qu":935,"ount":936,"iz":937,"ĠV":938,"db":939,"Ġour":940,"Ġtime":941,"Ġ16":942,"Ġmore":943,"Ġar":944,"Ġup":945,"Ġabout":946,"110":947,"ew":948,"trump":949,"ast":950,"twitter":951,"Ġdis":952,"nYou":953,"ign":954,"Ġvi":955,"non":956,"ĠRE":957,"ments":958,"72":959,"85":960,"ason":961,"AKE":962,"Ġagain":963,"65":964,"own":965,"IA":966,"dc":967,"82":968,"sig":969,"ens":970,"politics":971,"den":972,"63":973,"we":974,"62":975,"Ġman":976,"49":977,"LAS":978,"Ġunder":979,"ening":980,"43":981,"cf":982,"im":983,"uch":984,"nU":985,"ull":986,"Ġ20":987,"pol":988,"Ġpublic":989,"Ġop":990,"dia":991,"Ġthink":992,"83":993,"SE":994,"bf":995,"Ġwould":996,"lie":997,"Ġimp":998,"ten":999,"IL":1000,"wer":1001,"ses":1002,"Ġpri":1003,"91":1004,"cl":1005,"arra":1006,"Ġattack":1007,"ich":1008,"ren":1009,"Ġen":1010,"Ġ1":1011,"mes":1012,"EW":1013,"mation":1014,"oll":1015,"read":1016,"Ġif":1017,"'t":1018,"OP":1019,"ive":1020,"Ġinvestig":1021,"here":1022,"mber":1023,"lection":1024,"arrative":1025,"gan":1026,"ĠPOTUS":1027,"self":1028,"orta":1029,"Ġtru":1030,"42":1031,"pt":1032,"reat":1033,".\\\"":1034,"tions":1035,"cess":1036,"Ġ159":1037,"Ġsa":1038,"ussi":1039,"Ġbeing":1040,"gov":1041,"ress":1042,"79":1043,"hq":1044,"og":1045,"temp":1046,".\"":1047,"Pb":1048,"]?\\":1049,"ear":1050,"ia":1051,"king":1052,"][":1053,"ild":1054,"je":1055,"Ġ\",":1056,"Ġthan":1057,"41":1058,"51":1059,"OJ":1060,"Ġus":1061,"qb":1062,"oh":1063,"ITPb":1064,"hqo":1065,"qbhqo":1066,"Ġsee":1067,"fd":1068,"Ġwere":1069,"bd":1070,"can":1071,"Ġri":1072,"Ġ=":1073,"reside":1074,"mon":1075,"Ġ153":1076,"cbts":1077,"ortant":1078,"Ġagainst":1079,"aa":1080,"Ġ+":1081,"ym":1082,"Ġu":1083,"ĠYOU":1084,"cre":1085,"ning":1086,"hat":1087,"tice":1088,"ser":1089,"ved":1090,"GE":1091,"tu":1092,"tra":1093,"racy":1094,"Ġtra":1095,"ily":1096,"mer":1097,"ark":1098,"Ġbelie":1099,"watch":1100,"Ġthem":1101,"RED":1102,"tell":1103,"ush":1104,"ĠST":1105,"61":1106,"ĠCh":1107,"nCo":1108,"!!!!":1109,"Ġ158":1110,"lay":1111,"nThey":1112,"AY":1113,"lev":1114,"Ġhapp":1115,"RC":1116,"Ġ154":1117,"are":1118,"anon":1119,"Ġone":1120,"inton":1121,"ollow":1122,"el":1123,"wak":1124,"Ġfe":1125,"âĢĶ":1126,"outu":1127,"WGA":1128,"youtu":1129,"Ġ_":1130,"Ġthose":1131,"ters":1132,"fox":1133,"Ġday":1134,"OV":1135,"way":1136,"ĠNEW":1137,"low":1138,"sh":1139,"âĢ¦.":1140,"wakening":1141,"HT":1142,"ST":1143,"ile":1144,"Ġover":1145,"Ġbeen":1146,"ISA":1147,"The":1148,"vern":1149,"formation":1150,"AD":1151,"Ġmedia":1152,"ENT":1153,"piracy":1154,"levant":1155,"113":1156,"ave":1157,"nWhen":1158,"ĠIS":1159,"gre":1160,".\\\"\\":1161,"Ġbelieve":1162,"nWH":1163,"ĠSta":1164,"AM":1165,"ings":1166,"Ġdro":1167,"ash":1168,"Ġnews":1169,"Ġpart":1170,"Ġhis":1171,"ller":1172,"ohn":1173,"do":1174,"ĠIn":1175,"ND":1176,"ueller":1177,"iti":1178,"so":1179,"ina":1180,"ood":1181,"Ġnow":1182,"ĠNEWS":1183,"ance":1184,"Anon":1185,"no":1186,"Ġcoincidence":1187,"ESS":1188,"spe":1189,"Ġsome":1190,"ĠTR":1191,"efine":1192,"foxnews":1193,"ger":1194,"nThis":1195,"Ġmany":1196,"gu":1197,"nWWG":1198,"ass":1199,"Ġany":1200,"IGHT":1201,"Ġspe":1202,"irect":1203,"du":1204,"youtube":1205,"ach":1206,"Ġ\\\"":1207,"nDefine":1208,"nMS":1209,"71":1210,"LD":1211,"OD":1212,"ber":1213,"ent":1214,"Ġ>":1215,"tain":1216,"ĠPa":1217,"Ġ1550":1218,"Ġcor":1219,"ĠâĢľ":1220,"81":1221,"ake":1222,"hy":1223,"Ġthere":1224,"erson":1225,"Ġbo":1226,"sts":1227,"ion":1228,"ige":1229,"ins":1230,"cts":1231,"ticle":1232,"ting":1233,"Ġke":1234,"Ġrelevant":1235,"ap":1236,"Ġ1588":1237,"ustice":1238,"Ġpower":1239,"uture":1240,"ussia":1241,"ex":1242,"wee":1243,"Ġnarrative":1244,"ata":1245,"ny":1246,"nTHE":1247,"ATION":1248,"meri":1249,"ness":1250,"lip":1251,"Ġevery":1252,"Ġmust":1253,"Ġaf":1254,"fic":1255,"ficial":1256,"lock":1257,"UR":1258,"fore":1259,"ral":1260,"ud":1261,"Ġ2":1262,"SA":1263,"leg":1264,"ĠTH":1265,"ational":1266,"resident":1267,"EL":1268,"sk":1269,"Ġother":1270,"Ġsup":1271,"Ġprovide":1272,"epublic":1273,"ymous":1274,"if":1275,"Ġback":1276,"fir":1277,"lace":1278,"come":1279,"mail":1280,"?\"":1281,"ILL":1282,"Ġ152":1283,"tellige":1284,"telligence":1285,"per":1286,"ys":1287,"fer":1288,"vil":1289,"Ġwhy":1290,"Anonymous":1291,"orm":1292,"onspiracy":1293,"gency":1294,"lis":1295,"qanon":1296,"ree":1297,"UST":1298,"ĠBank":1299,"reason":1300,"âĢľ":1301,"less":1302,"times":1303,"Ġho":1304,"ĠThe":1305,"Ġonly":1306,"moc":1307,"Ġthinking":1308,"fied":1309,"115":1310,"ald":1311,"Ġimportant":1312,"Image":1313,"ton":1314,"Ġad":1315,"Ġplan":1316,"nFBI":1317,"Clip":1318,"boardImage":1319,"Ġyourself":1320,"ClipboardImage":1321,"LY":1322,"ATE":1323,"ility":1324,"vernment":1325,"wor":1326,"ĠFI":1327,"UTH":1328,"nhttp":1329,"ĠCON":1330,"ange":1331,"Ġbut":1332,"107":1333,"nIt":1334,"Ġvo":1335,"Ġparty":1336,".âĢĿ":1337,"EOP":1338,"amp":1339,"ving":1340,"Ġte":1341,"get":1342,"Ġremo":1343,"ĠARE":1344,"Ġser":1345,"Ġcoming":1346,"ject":1347,"EOPLE":1348,"linton":1349,"tal":1350,"2017":1351,"100":1352,"ler":1353,"rity":1354,"Ġwhich":1355,"ganiz":1356,"mit":1357,"Ġdown":1358,"rap":1359,"AE":1360,"org":1361,"ound":1362,"Ġacc":1363,"ans":1364,"Ġwar":1365,"und":1366,"Ġcri":1367,"Ġelection":1368,"view":1369,"lease":1370,"ines":1371,"106":1372,"mpa":1373,"ders":1374,"UB":1375,"Ġpast":1376,"Ġprote":1377,"Ġattemp":1378,"Ġmade":1379,"ews":1380,"Ġcount":1381,"ĠWH":1382,"Ġim":1383,"Ġshould":1384,"titu":1385,"Ġtoday":1386,"greata":1387,"greatawakening":1388,"ies":1389,"!!!\\":1390,"Ġstate":1391,"Ġworld":1392,"IV":1393,"NIT":1394,"OL":1395,"ie":1396,"tein":1397,"als":1398,"ating":1399,"ĠALL":1400,"IM":1401,"Ġpush":1402,"row":1403,"Ġinto":1404,"Ġce":1405,"nIf":1406,"Ġhappens":1407,"âĢĶâĢĶ":1408,"onald":1409,"Ġhere":1410,"âĢĤâĢĤâĢĤâĢĤâĢĤâĢĤâĢĤâĢĤâĢĤâĢĤâĢĤâĢĤâĢĤâĢĤâĢĤâĢĤ":1411,"120":1412,"AIN":1413,"BC":1414,"nti":1415,"Ġmis":1416,"ĠFAKE":1417,"nSA":1418,"nIn":1419,"Ġgood":1420,"UE":1421,"by":1422,"sing":1423,"Ġthese":1424,"Ġ157":1425,"IF":1426,"cal":1427,"cus":1428,"ames":1429,"ĠPEOPLE":1430,"ilit":1431,"ctions":1432,"Ġ160":1433,"Ġpost":1434,"sions":1435,"Ġperson":1436,"new":1437,"Ġyear":1438,"omey":1439,"oney":1440,"Ġchild":1441,"med":1442,"2020":1443,"usse":1444,"Ġevent":1445,"ĠFOR":1446,"ilitary":1447,"EM":1448,"TION":1449,"nK":1450,"other":1451,"Ġinte":1452,"Ġstand":1453,"member":1454,"ĠDe":1455,"ĠWE":1456,"Ġjust":1457,"BE":1458,"VER":1459,"um":1460,"Ġra":1461,"fice":1462,"nHRC":1463,"Ġshow":1464,")?\\":1465,"nn":1466,"os":1467,"part":1468,"val":1469,"ĠSen":1470,"ĠPresident":1471,"nCon":1472,"OWER":1473,"OS":1474,"ven":1475,"Ġinter":1476,"Ġgu":1477,"EST":1478,"ical":1479,"AND":1480,"round":1481,"signed":1482,"ussein":1483,"EF":1484,"conspiracy":1485,"Ġcomp":1486,"nEx":1487,"vidence":1488,"ssible":1489,"Ġright":1490,"112":1491,"sp":1492,"nWE":1493,"Ġpolitic":1494,"igh":1495,"hip":1496,"ALL":1497,"ath":1498,"story":1499,"date":1500,"Ġetc":1501,"Ġtarge":1502,"pose":1503,"ĠAmeri":1504,"cking":1505,"ECLAS":1506,"ordin":1507,"sign":1508,"Ġinvestigation":1509,"Ġafter":1510,"mpaign":1511,"land":1512,"Ġter":1513,"ĠPR":1514,"vice":1515,"stand":1516,"nRR":1517,"nGod":1518,"114":1519,"Trump":1520,"ful":1521,"jo":1522,"not":1523,"Ġsuch":1524,"ross":1525,"assi":1526,"nCoincidence":1527,"real":1528,"Ġ1524":1529,"Ġindi":1530,"Ġdon":1531,"ĠFBI":1532,"000":1533,"epublican":1534,"Ġ\"[":1535,"ism":1536,"nFISA":1537,"ron":1538,"Ġau":1539,"lear":1540,"eral":1541,"Ġrece":1542,"ĠHouse":1543,"Ġcoincidences":1544,"ice":1545,"tor":1546,"ties":1547,"ought":1548,"ough":1549,"dation":1550,"Ġpur":1551,"hed":1552,"ney":1553,"lack":1554,"Ġtake":1555,"OC":1556,"cri":1557,"mun":1558,"pre":1559,"pri":1560,"Ġr":1561,"Ġact":1562,"900":1563,"nDOJ":1564,"ĠGo":1565,"Ġtruth":1566,"TER":1567,"Ġfam":1568,"2019":1569,"Ġread":1570,"uring":1571,"ĠNOT":1572,"each":1573,"nMSM":1574,"'.\\":1575,"act":1576,"Ġ1520":1577,"105":1578,"CH":1579,"We":1580,"gs":1581,"house":1582,"Ġ1518":1583,"Ġsame":1584,"nThese":1585,"rough":1586,"ongress":1587,"Ġmost":1588,"AG":1589,"IR":1590,"Re":1591,"ide":1592,"public":1593,"Ġro":1594,"ĠON":1595,"Ġef":1596,"ĠWe":1597,"Ġnew":1598,"Ġprevent":1599,"ĠFIRED":1600,"AP":1601,"EP":1602,"fy":1603,"yes":1604,"Ġap":1605,"Ġ1513":1606,"Ġins":1607,"ully":1608,"428":1609,"Ġcre":1610,"Ġofficial":1611,"Ġhow":1612,"119":1613,"app":1614,"Ġ4":1615,"vel":1616,"Ġob":1617,"ĠCo":1618,"ĠBE":1619,"nited":1620,"Ġpolitical":1621,"OG":1622,"[\\":1623,"gg":1624,"les":1625,"Ġreport":1626,"Ġvery":1627,"inter":1628,"Ġapp":1629,"Ġsu":1630,"Ġreal":1631,"Ġmoney":1632,"USS":1633,"nDid":1634,"Ġcare":1635,"Ġsafe":1636,"ashing":1637,"hot":1638,"vo":1639,"Ġqu":1640,"alse":1641,"Ġ1536":1642,"Ġfollow":1643,"Ġorder":1644,"nBO":1645,"rans":1646,"Ġprior":1647,"ks":1648,"Ġ1537":1649,"atter":1650,"ray":1651,"âĢĤâĢĤâĢĤ":1652,"oreign":1653,"NN":1654,"TS":1655,"ft":1656,"my":1657,"tin":1658,"Ġ@":1659,"Ġ1526":1660,"ĠComey":1661,"ression":1662,"deral":1663,"ACK":1664,"entral":1665,"pen":1666,"ring":1667,"stru":1668,"Ġ[\\":1669,"126":1670,"Ġnever":1671,"Ġlast":1672,"cor":1673,"article":1674,"Ġaw":1675,"Ġthrough":1676,"Ġwant":1677,"Ġshe":1678,"ĠTreason":1679,"Ġconne":1680,"Ġneed":1681,"Ġuse":1682,"UA":1683,"know":1684,"Ġ156":1685,"Ġinformation":1686,"Ġevil":1687,"ĠCentral":1688,"nNothing":1689,"590":1690,"Th":1691,"pR":1692,"rus":1693,"uman":1694,"that":1695,"sen":1696,"lect":1697,"Ġreason":1698,"ĠGod":1699,"Ġorganiz":1700,"rect":1701,"Ġway":1702,"ĠAND":1703,"lated":1704,"REED":1705,"loy":1706,"illary":1707,"Ġsex":1708,"illeg":1709,"Ġevents":1710,">\\":1711,"su":1712,"Ġsource":1713,"Ġplay":1714,"Ġcl":1715,"287":1716,"Ġlong":1717,"??":1718,"nge":1719,"with":1720,"arr":1721,"till":1722,"150":1723,"ause":1724,"ĠWILL":1725,"nThere":1726,"uber":1727,"nowden":1728,"hite":1729,"ĠUNIT":1730,"ways":1731,".âĢĿ\\":1732,"MER":1733,"ual":1734,"vol":1735,"rest":1736,"medi":1737,"Ġ1564":1738,"ntly":1739,"Ġdi":1740,"NCE":1741,"fbi":1742,"curity":1743,"Ġcorru":1744,"FOR":1745,"aw":1746,"cUA":1747,"lBE":1748,"Ġ1530":1749,"580":1750,"nAt":1751,"ĠRe":1752,"Ġfaith":1753,"Ġcampaign":1754,"pRcUA":1755,".\",":1756,"ech":1757,"gic":1758,"nan":1759,"rat":1760,"tru":1761,"ince":1762,"Ġsp":1763,"Ġhad":1764,"Ġwee":1765,"ounter":1766,"ĠTRUTH":1767,"bre":1768,"jor":1769,"nal":1770,"Ġ1534":1771,"Ġfund":1772,"ration":1773,"Ġbefore":1774,"bama":1775,"ĠChina":1776,"REEDOM":1777,"What":1778,"ict":1779,"Ġ1538":1780,"Ġmeet":1781,"ccur":1782,"ace":1783,"bility":1784,"tle":1785,"vate":1786,"aul":1787,"Ġdirect":1788,"ays":1789,"Ġsimp":1790,"CE":1791,"EX":1792,"IVE":1793,"ctive":1794,"fl":1795,"iden":1796,"nons":1797,"Ġname":1798,"alle":1799,"Ġsub":1800,"Ġevidence":1801,"Ġmuch":1802,"194":1803,"Ġgoing":1804,"ordinated":1805,"Donald":1806,"gy":1807,"pand":1808,"Ġend":1809,"ĠHe":1810,"ĠIM":1811,"year":1812,"Ġlike":1813,"ashington":1814,"),":1815,"118":1816,"LIC":1817,"Scre":1818,"fully":1819,"Ġget":1820,"orth":1821,"Ġoccur":1822,"nWas":1823,"main":1824,"nNK":1825,"Ġpop":1826,"AW":1827,"IP":1828,"POTUS":1829,"clo":1830,"ze":1831,"net":1832,"âĢ¦.\\":1833,"Ġlaw":1834,"ĠStates":1835,"MERIC":1836,"avi":1837,"bu":1838,"ara":1839,"Ġher":1840,"ĠCOM":1841,"ĠPOWER":1842,"IONS":1843,"istory":1844,"ounsel":1845,"Ġmove":1846,"Ġalways":1847,"898":1848,"CT":1849,"EAR":1850,"hill":1851,"nse":1852,"was":1853,"ort":1854,"point":1855,"daily":1856,"127":1857,"USSE":1858,"lation":1859,"nDe":1860,"ĠRussia":1861,"form":1862,"able":1863,"vided":1864,"testi":1865,"oundation":1866,"TROL":1867,"!!!!!!!!":1868,"Ġsomething":1869,"weet":1870,"torney":1871,"USSEIN":1872,"238":1873,"ian":1874,"over":1875,"ption":1876,"nts":1877,"rage":1878,"Ġbet":1879,"Ġmin":1880,"ĠDO":1881,"ĠMueller":1882,"Ġconfir":1883,"nFollow":1884,"Ġchange":1885,"Ġwork":1886,"Ġunderstand":1887,"ĠSenate":1888,"ARE":1889,"NOW":1890,"down":1891,"gin":1892,"ime":1893,"posed":1894,"Ġwit":1895,"ards":1896,"Ġsur":1897,"Ġclo":1898,"108":1899,"Ġduring":1900,"ĠTwitter":1901,"164":1902,"974":1903,"tics":1904,"Ġposi":1905,"Ġmean":1906,"Ġits":1907,"Ġwithin":1908,"Ġoper":1909,"Ġdays":1910,"yste":1911,"ample":1912,"++":1913,"594":1914,"DC":1915,"NT":1916,"UM":1917,"dis":1918,"ha":1919,"imp":1920,"na":1921,"ole":1922,"pdf":1923,"que":1924,"va":1925,"Ġam":1926,"Ġthreat":1927,"Ġ150":1928,"Ġba":1929,"its":1930,"Ġforce":1931,"LLER":1932,"ART":1933,"ICE":1934,"nJohn":1935,"Ġused":1936,"ĠPatriots":1937,"mocrat":1938,"Ġattempt":1939,"UELLER":1940,"joy":1941,"AVE":1942,"afe":1943,"dy":1944,"gra":1945,"ik":1946,"ili":1947,"rie":1948,"resent":1949,"nWhere":1950,"Ġbu":1951,"Ġfuture":1952,"130":1953,"ĠCH":1954,"304":1955,"380":1956,"nSome":1957,"\\\"\\":1958,"mbs":1959,"ween":1960,"Ġdrops":1961,"USSIA":1962,"SP":1963,"ror":1964,"Ġass":1965,"Ġ1515":1966,"Ġplace":1967,"104":1968,"Ġrep":1969,"ĠSH":1970,"nSta":1971,"Ġdefe":1972,"ĠNo":1973,"âĢ¦\\":1974,"mbers":1975,"nEn":1976,"Ġacti":1977,"rennan":1978,"ogical":1979,"Ġdrop":1980,"Ġsupport":1981,"Ġyears":1982,"Ġchildren":1983,"DonaldTrump":1984,"794":1985,"AIL":1986,"Why":1987,"lat":1988,"Ġthought":1989,"sis":1990,"2016":1991,"eneral":1992,"Ġanother":1993,"END":1994,"nJames":1995,"THER":1996,"Ġvote":1997,"eachment":1998,"ĠUNITED":1999,"237":2000,"ham":2001,"ream":2002,"Ġabo":2003,"book":2004,"Ġtop":2005,"Ġcould":2006,"essions":2007,"ĠDep":2008,"Ġmake":2009,"âĢ¦âĢ¦âĢ¦âĢ¦":2010,"realDonaldTrump":2011,"926":2012,"uk":2013,"ually":2014,"Ġthen":2015,"Ġwww":2016,"Ġ1529":2017,"Ġgame":2018,"547":2019,"urre":2020,"Ġasse":2021,"Ġallow":2022,"ĠPatriot":2023,"IVID":2024,"assified":2025,"Ġfamily":2026,"Ġofficials":2027,"296":2028,"697":2029,"Snowden":2030,"arter":2031,"onger":2032,"Ġ1523":2033,"Ġper":2034,"Ġoff":2035,"124":2036,"RES":2037,"277":2038,"ĠBL":2039,"ERS":2040,"Ġcontin":2041,"fort":2042,"video":2043,"GETHER":2044,"OVID":2045,"ĠState":2046,"iness":2047,"Ġcountry":2048,"ET":2049,"OST":2050,"mor":2051,"Ġ3":2052,"lean":2053,"Ġ1544":2054,"lling":2055,"ĠTrump":2056,"906":2057,"280":2058,"nDC":2059,"REAT":2060,"ĠHussein":2061,"ĠRepublican":2062,"ITY":2063,"ecu":2064,"Ġhel":2065,"ANIC":2066,"IGN":2067,"nLogical":2068,"Ġlonger":2069,"roup":2070,"ntial":2071,"518":2072,"524":2073,"897":2074,"ORE":2075,"hr":2076,"hic":2077,"Ġbig":2078,"Ġfir":2079,"136":2080,"Ġreve":2081,"lice":2082,"nTru":2083,"ĠCon":2084,"ĠCongress":2085,"rate":2086,"175":2087,"Ġgive":2088,"ĠGO":2089,"ates":2090,"Ġnext":2091,"Ġaccess":2092,"ities":2093,"Ġauthor":2094,"Ġweek":2095,"912":2096,"950":2097,"AF":2098,"cC":2099,"large":2100,"ures":2101,"ret":2102,"inion":2103,"Ġ1553":2104,"Ġow":2105,"138":2106,"ĠSC":2107,"ĠAMERIC":2108,"nHe":2109,"ĠâĢ¦":2110,"nIs":2111,"Ġpos":2112,"Ġpoint":2113,"nLo":2114,"ĠUnited":2115,"selves":2116,"clu":2117,"Ġenough":2118,"Ġhold":2119,"Ġpurpose":2120,"Ġques":2121,"Con":2122,"Clinton":2123,"UT":2124,"abe":2125,"ken":2126,"ls":2127,"line":2128,"rong":2129,"Ġ10":2130,"ths":2131,"comes":2132,"lected":2133,"Ġbless":2134,"Ġfight":2135,"Ġhim":2136,"187":2137,"ĠPo":2138,"174":2139,"INT":2140,"568":2141,"ĠWOR":2142,"tical":2143,"ssage":2144,"592":2145,"Ġcontrolled":2146,"Ġsig":2147,"Ġ1600":2148,"UBLIC":2149,"!\"":2150,"116":2151,"PE":2152,"aled":2153,"mi":2154,"war":2155,"ris":2156,"ingly":2157,"ged":2158,"Ġstill":2159,"ĠSEC":2160,"140":2161,"ĠDirect":2162,"nSC":2163,"nThank":2164,"ARR":2165,"mediate":2166,"nEnjoy":2167,"328":2168,"550":2169,"526":2170,"Do":2171,"UP":2172,"atriots":2173,"ick":2174,"ling":2175,"ming":2176,"mis":2177,"nch":2178,"you":2179,"Ġilleg":2180,"tee":2181,"information":2182,"che":2183,"Ġ1516":2184,"Ġfind":2185,"Ġforeign":2186,"ĠClinton":2187,"184":2188,"176":2189,"cific":2190,"nPro":2191,"nHave":2192,"ĠIran":2193,"uty":2194,"nThose":2195,"Ġlear":2196,"project":2197,"minal":2198,"ready":2199,"cessary":2200,"ESSIONS":2201,"lish":2202,"washington":2203,"yer":2204,"reed":2205,"intelligence":2206,"search":2207,"Ġ1590":2208,"nWill":2209,"itb":2210,"comms":2211,"ĠCom":2212,"Ġmon":2213,"ĠDOJ":2214,"Ġdeal":2215,"nFor":2216,"ĠGeneral":2217,"Ġcharge":2218,"Ġlea":2219,"Ġleak":2220,"ĠCONTROL":2221,"Ġprotect":2222,").":2223,"527":2224,"nV":2225,"sec":2226,"ish":2227,"alth":2228,"ators":2229,"Ġdone":2230,"Ġhigh":2231,"lations":2232,"Ġcolle":2233,"econ":2234,"about":2235,"ords":2236,"ĠYou":2237,"control":2238,"Ġeverything":2239,"ĠAmerica":2240,"itbart":2241,"915":2242,"DE":2243,"No":2244,"^^":2245,"mary":2246,"will":2247,"tel":2248,"men":2249,"Ġwatch":2250,"unes":2251,"Ġfalse":2252,"mag":2253,"ratic":2254,"ĠAT":2255,"147":2256,"law":2257,"ĠFIGHT":2258,"566":2259,"Ġdep":2260,"574":2261,"Ġstart":2262,"Ġexp":2263,"ult":2264,"Ġtal":2265,"Ġkey":2266,"Ġtarget":2267,"Ġbetween":2268,"/?":2269,"234":2270,"930":2271,"CLAS":2272,"De":2273,"Po":2274,"Ġ#":2275,"Ġdata":2276,"thers":2277,"onder":2278,"Ġ1512":2279,"Ġremember":2280,"Ġbecome":2281,"ĠFISA":2282,"374":2283,"ĠNO":2284,"ONG":2285,"pened":2286,"Ġtrans":2287,"eff":2288,"going":2289,"Ġcontrols":2290,"Ġalso":2291,"Ġopen":2292,"Ġattacks":2293,"nytimes":2294,"mails":2295,"mocratic":2296,"297":2297,"226":2298,"294":2299,"kes":2300,"vin":2301,"report":2302,"arm":2303,"Ġpict":2304,"109":2305,"Ġreally":2306,"Ġrelease":2307,"nTo":2308,"Ġhistory":2309,"189":2310,"190":2311,"177":2312,"Ġdesigned":2313,"oper":2314,"ECTION":2315,"world":2316,"ĠDirector":2317,"ag":2318,"cation":2319,"ired":2320,"justice":2321,"usion":2322,"Ġti":2323,"Ġtesti":2324,"sive":2325,"ourt":2326,"term":2327,"Ġrec":2328,"Ġrelea":2329,"198":2330,"stant":2331,"247":2332,"ĠOR":2333,"Ġlet":2334,"Ġgovernment":2335,"Ġthemselves":2336,"Ġkeep":2337,"Ġprovided":2338,"titution":2339,"jority":2340,"ĠWORLD":2341,"290":2342,"BO":2343,"SM":2344,"don":2345,"dcomms":2346,"how":2347,"ner":2348,"rand":2349,"think":2350,"cer":2351,"atters":2352,"Ġfin":2353,"Ġinsta":2354,"liti":2355,"nTR":2356,"ĠDECLAS":2357,"560":2358,"ĠNational":2359,"ĠEV":2360,"Ġlogic":2361,"Ġcase":2362,"ĠVOT":2363,"Ġfear":2364,"nExpand":2365,"Ġready":2366,"Ġmeeting":2367,"Ġsimply":2368,"projectdcomms":2369,"228":2370,"ever":2371,"from":2372,"ocus":2373,"son":2374,"uck":2375,"wers":2376,"ali":2377,"Ġbl":2378,"Ġsw":2379,"nes":2380,"Ġmy":2381,"state":2382,"276":2383,"Ġmessage":2384,"ARD":2385,"Ġnecessary":2386,"enshot":2387,"Ġenti":2388,"docu":2389,"Ġimmediate":2390,"breitbart":2391,"allenge":2392,"reedom":2393,"AB":2394,"CC":2395,"THE":2396,"tur":2397,"Âł":2398,"media":2399,"veri":2400,"Ġblack":2401,"matic":2402,"206":2403,"ots":2404,"170":2405,"504":2406,"979":2407,"567":2408,"pect":2409,"thehill":2410,"nIG":2411,"nImp":2412,"Ġcover":2413,"eep":2414,"nGood":2415,"ists":2416,"ACH":2417,"ountry":2418,"Ġarticle":2419,"nUK":2420,"Ġinvestigations":2421,"mony":2422,"Ġcarefully":2423,"IVIDED":2424,"..":2425,"313":2426,"934":2427,"Hillary":2428,"election":2429,"ground":2430,"his":2431,"hone":2432,"sy":2433,"ues":2434,"Ġ8":2435,"Ġ2018":2436,"investig":2437,"ley":2438,"rican":2439,"archive":2440,"Ġfull":2441,"nTra":2442,"ĠCOU":2443,"ĠAG":2444,"ĠAW":2445,"oting":2446,"173":2447,"143":2448,"nPre":2449,"ĠBIG":2450,"984":2451,"Ġset":2452,"force":2453,"Ġcome":2454,"Ġmay":2455,"Ġcommun":2456,"ĠEL":2457,"nstein":2458,"nior":2459,"ular":2460,"Ġactive":2461,"Ġassets":2462,"Ġpicture":2463,"NY":2464,"OB":2465,"nUS":2466,"russia":2467,"Ġ$":2468,"Ġru":2469,"chi":2470,"Ġaction":2471,"isa":2472,"Ġsay":2473,"Ġcru":2474,"late":2475,"288":2476,"267":2477,"cies":2478,"584":2479,"ĠWAR":2480,"ĠWAS":2481,"nFuture":2482,"ĠRo":2483,"utm":2484,"ECT":2485,"Ġvs":2486,"Ġlook":2487,"ĠINT":2488,"Ġview":2489,"locks":2490,"334":2491,"514":2492,"957":2493,"EG":2494,"OK":2495,"UN":2496,"XX":2497,"who":2498,"what":2499,"Ġgen":2500,"tep":2501,"take":2502,"any":2503,"ges":2504,"Ġfree":2505,"Ġclean":2506,"fil":2507,"Ġreg":2508,"Ġmilitary":2509,"148":2510,"308":2511,"ATES":2512,"Ġcons":2513,"Ġwhile":2514,"OUT":2515,"aking":2516,"ĠJohn":2517,"clinton":2518,"Ġremove":2519,"236":2520,"537":2521,"bile":2522,"ext":2523,"ked":2524,"sure":2525,"use":2526,"reme":2527,"tech":2528,"ann":2529,"Ġpray":2530,"gest":2531,"Ġbad":2532,"Ġinvol":2533,"137":2534,"light":2535,"Ġeach":2536,"Ġhand":2537,"ĠSessions":2538,"ĠSESSIONS":2539,"Ġbecomes":2540,"300":2541,"INA":2542,"adow":2543,"losi":2544,"ĠBrennan":2545,"direct":2546,"back":2547,"Ġcho":2548,"nDoes":2549,"Ġsaid":2550,"guard":2551,"Ġremoved":2552,"raphic":2553,"UBER":2554,"Ġintel":2555,"--":2556,"337":2557,"357":2558,"CON":2559,"PR":2560,"RR":2561,"SC":2562,"ife":2563,"nbc":2564,"national":2565,"ple":2566,"Ġda":2567,"cho":2568,"ched":2569,"154":2570,"verage":2571,"Ġput":2572,"ature":2573,"1059":2574,"Ġrequ":2575,"nTH":2576,"Ġbec":2577,"edia":2578,"ĠPL":2579,"904":2580,"nPo":2581,"Ġdepart":2582,"ĠHuber":2583,"Ġsecurity":2584,"nAll":2585,"nAsk":2586,"nEvery":2587,"Ġknew":2588,"Ġfact":2589,"Ġsoon":2590,"nRead":2591,"Ġaround":2592,"Ġ2016":2593,"Ġprivate":2594,"ogle":2595,"ĠAmerican":2596,"nTrust":2597,"ĠAMERICA":2598,"258":2599,"636":2600,"658":2601,"938":2602,"OVE":2603,"aid":2604,"big":2605,"ffe":2606,"gi":2607,"ise":2608,"mm":2609,"ob":2610,"plan":2611,"ying":2612,"reg":2613,"reate":2614,"orn":2615,"possible":2616,"leb":2617,"leep":2618,"gether":2619,"Ġbre":2620,"Ġoffice":2621,"nding":2622,"1098":2623,"Ġelected":2624,"ĠSTR":2625,"lynn":2626,"ĠAt":2627,"ĠAgency":2628,"146":2629,"908":2630,"cile":2631,"illion":2632,"548":2633,"Ġsec":2634,"ĠRUSSIA":2635,"Ġmen":2636,"Ġmembers":2637,"upid":2638,"ANT":2639,"ulti":2640,"Ġtac":2641,"Ġknown":2642,"nOn":2643,"AME":2644,"Ġhelp":2645,"$$":2646,"227":2647,"556":2648,"FL":2649,"In":2650,"OLL":2651,"ade":2652,"ater":2653,"old":2654,"par":2655,"ari":2656,"tial":2657,"Ġwhere":2658,"head":2659,"207":2660,"134":2661,"ower":2662,"ĠCLAS":2663,"Ġmight":2664,"Ġnon":2665,"907":2666,"977":2667,"544":2668,"Ġdesign":2669,"OTH":2670,"ĠID":2671,"dition":2672,"nNot":2673,"Ġcoll":2674,"nBe":2675,"Ġdidn":2676,"nGO":2677,"OCK":2678,"Ġrun":2679,"senate":2680,"Ġwitness":2681,"ystem":2682,"Ġreleased":2683,"250":2684,"BS":2685,"EY":2686,"Ex":2687,"FREEDOM":2688,"MUELLER":2689,"Sta":2690,"_\\":2691,"sup":2692,"ward":2693,"secu":2694,"power":2695,"nWatch":2696,"Ġhome":2697,"188":2698,"Ġbeh":2699,"vious":2700,"cia":2701,"386":2702,"ĠMcC":2703,"ĠHUSSEIN":2704,"nFAKE":2705,"nBut":2706,"pped":2707,"Ġleg":2708,"Ġalready":2709,"ganda":2710,"earn":2711,"jection":2712,"nWHY":2713,"Ġcens":2714,"âĢĶâĢĶâĢĶâĢĶ":2715,"ĠDemocrat":2716,"HillaryClinton":2717,"350":2718,"522":2719,"936":2720,"922":2721,"Ch":2722,"ding":2723,"ffi":2724,"gue":2725,"mand":2726,"van":2727,"oros":2728,"stro":2729,"cover":2730,"anti":2731,"Ġwin":2732,"Ġpic":2733,"Ġplat":2734,"Ġcall":2735,"ĠCL":2736,"ĠAS":2737,"128":2738,"246":2739,"947":2740,"Ġdeli":2741,"Ġselect":2742,"299":2743,"Ġwell":2744,"ĠOP":2745,"Ġcomes":2746,"Ġlight":2747,"Ġtrust":2748,"Ġabove":2749,"Ġchoice":2750,"-_":2751,"756":2752,"How":2753,"MENT":2754,"Pro":2755,"RI":2756,"iled":2757,"ars":2758,"orld":2759,"ounce":2760,"Ġage":2761,"stream":2762,"dea":2763,"sider":2764,"Ġtold":2765,"pstein":2766,"Ġclear":2767,"Ġcurre":2768,"Ġresp":2769,"Ġever":2770,"122":2771,"nDi":2772,"302":2773,"303":2774,"970":2775,"978":2776,"967":2777,"644":2778,"Ġpossible":2779,"ĠLIGHT":2780,"ARY":2781,"Ġchallenge":2782,"official":2783,"Ġstupid":2784,"ALSE":2785,"Ġviole":2786,"Ġtrue":2787,"AMP":2788,"filtra":2789,"Ġrespon":2790,"914":2791,"937":2792,"958":2793,"FAKE":2794,"cca":2795,"clear":2796,"lor":2797,"lcome":2798,"says":2799,"tr":2800,"wo":2801,"white":2802,"Ġtri":2803,"inted":2804,"storm":2805,"157":2806,"Ġrest":2807,"180":2808,"ĠPe":2809,"ess":2810,"197":2811,"286":2812,"INE":2813,"368":2814,"nSh":2815,"948":2816,"nPublic":2817,"Ġdeath":2818,"theory":2819,"880":2820,"640":2821,"cate":2822,"11113":2823,"paganda":2824,"Ġcomms":2825,"ĠEVER":2826,"ĠJustice":2827,"Ġfail":2828,"Ġsile":2829,"orship":2830,"nUn":2831,"ichae":2832,"ussian":2833,"cret":2834,"Ġspecific":2835,"Ġcomple":2836,"Ġawake":2837,"Screenshot":2838,"econcile":2839,"657":2840,"913":2841,"910":2842,"997":2843,"Co":2844,"DNC":2845,"OUS":2846,"cla":2847,"eri":2848,"has":2849,"lder":2850,"ump":2851,"udi":2852,"Ġ5":2853,"order":2854,"mas":2855,"Ġref":2856,"Ġremain":2857,"Ġext":2858,"Ġene":2859,"ĠCOVID":2860,"183":2861,"vision":2862,"Ġnu":2863,"263":2864,"270":2865,"240":2866,"944":2867,"588":2868,"nPeople":2869,"343":2870,"ĠWIT":2871,"540":2872,"ury":2873,"ARP":2874,"aker":2875,"Ġoutside":2876,"residential":2877,"fication":2878,"ront":2879,"Ġcreated":2880,"Ġcorrupt":2881,"ault":2882,"gram":2883,"PEACH":2884,"'\\":2885,"516":2886,"557":2887,"688":2888,"CQ":2889,"IRE":2890,"bri":2891,"cs":2892,"fin":2893,"ging":2894,"press":2895,"Ġboard":2896,"rit":2897,"anic":2898,"vered":2899,"Ġpay":2900,"Ġothers":2901,"Ġfun":2902,"200":2903,"202":2904,"Ġrepor":2905,"ĠCountry":2906,"ĠPeople":2907,"192":2908,"284":2909,"973":2910,"ĠDE":2911,"388":2912,"nSec":2913,"940":2914,"Ġformer":2915,"347":2916,"nCan":2917,"nCIA":2918,"Ġdomes":2919,"nReconcile":2920,"ssions":2921,"washingtonpost":2922,"secut":2923,"Ġdeploy":2924,"ĠAttorney":2925,"ichael":2926,"Ġdomestic":2927,"298":2928,"?\",":2929,"FF":2930,"News":2931,"acc":2932,"home":2933,"ions":2934,"ker":2935,"nmo":2936,"ppened":2937,"wik":2938,"Ġ7":2939,"Ġago":2940,"isten":2941,"Ġpar":2942,"ator":2943,"under":2944,"Ġsing":2945,"Ġcounter":2946,"178":2947,"508":2948,"260":2949,"370":2950,"ĠMr":2951,"urham":2952,"ĠNSA":2953,"ĠIT":2954,"Ġhappened":2955,"nMore":2956,"fare":2957,"abc":2958,"Ġstop":2959,"rants":2960,"Ġexpe":2961,"nia":2962,"Ġcannot":2963,"IDE":2964,"nControl":2965,"ALLY":2966,"Ġindict":2967,"known":2968,"Ġactivi":2969,"Ġcrumbs":2970,"257":2971,"513":2972,"613":2973,"OSE":2974,"Rep":2975,"ait":2976,"bill":2977,"est":2978,"mueller":2979,"rin":2980,"whi":2981,"Ġ19":2982,"this":2983,"âĢĵ":2984,"change":2985,"see":2986,"aud":2987,"Ġ1533":2988,"nWW":2989,"Ġfound":2990,"lly":2991,"nds":2992,"204":2993,"1036":2994,"usiness":2995,"Ġeng":2996,"Ġbegin":2997,"ĠAnons":2998,"ĠPro":2999,"ads":3000,"389":3001,"274":3002,"nSEC":3003,"293":3004,"Ġtry":3005,"593":3006,"uppe":3007,"Ġunlocks":3008,"government":3009,"Ġgov":3010,"nLearn":3011,"Ġnothing":3012,"Ġacross":3013,"ĠKNOW":3014,"Ġ2019":3015,"ĠIntelligence":3016,"USTICE":3017,"Ġteam":3018,"Ġservice":3019,"ĠGovernment":3020,"Ġeffe":3021,"Ġappro":3022,"Ġconnected":3023,"Ġclassified":3024,"Ġcorruption":3025,"Ġfunds":3026,"Ġclose":3027,"Ġmeaning":3028,"Ġposted":3029,"Ġimmediately":3030,"Ġbecause":3031,"596":3032,"768":3033,"927":3034,"924":3035,"==":3036,"SEC":3037,"UL":3038,"WH":3039,"blo":3040,"her":3041,"mps":3042,"nRE":3043,"ute":3044,"unt":3045,"Ġcode":3046,"rew":3047,"rests":3048,"til":3049,"sessions":3050,"def":3051,"Ġ1517":3052,"Ġcar":3053,"Ġcal":3054,"ushed":3055,"lim":3056,"nTO":3057,"nTime":3058,"Ġes":3059,"167":3060,"144":3061,"307":3062,"269":3063,"564":3064,"nPatriots":3065,"ĠBar":3066,"nAre":3067,"nNSA":3068,"ured":3069,"Ġmain":3070,"OWN":3071,"ized":3072,"Ġusing":3073,"Ġhappening":3074,"show":3075,"URV":3076,"Ġcriminal":3077,"FORM":3078,"CEO":3079,"nDemocratic":3080,"Ġgiven":3081,"517":3082,"EA":3083,"FBI":3084,"NBC":3085,"URE":3086,"You":3087,"nRED":3088,"aring":3089,"tis":3090,"ones":3091,"Ġagen":3092,"Ġagency":3093,"ani":3094,"anne":3095,"Ġtogether":3096,"nWould":3097,"attack":3098,"Ġinfl":3099,"terday":3100,"103":3101,"Ġdark":3102,"Ġdif":3103,"ĠSP":3104,"NCY":3105,"129":3106,"278":3107,"248":3108,"366":3109,"lood":3110,"Ġform":3111,"Ġgain":3112,"Ġongoing":3113,"577":3114,"ĠHUBER":3115,"ĠâĢĶ":3116,"704":3117,"EDIA":3118,"bab":3119,"OULD":3120,"Ġability":3121,"nYOU":3122,"ACT":3123,"Ġsick":3124,"minist":3125,"Ġtravel":3126,"ĠSTAND":3127,"âĢ¦..\\":3128,"Ġaccount":3129,"Ġinstitu":3130,"umanity":3131,"Ġpopu":3132,"Ġmovement":3133,"magine":3134,"ĠCOUN":3135,"ĠELECTION":3136,"117":3137,"217":3138,"600":3139,"IE":3140,"]]":3141,"air":3142,"eded":3143,"nunes":3144,"sub":3145,"Ġside":3146,"teri":3147,"inde":3148,"158":3149,"201":3150,"ferent":3151,"Ġres":3152,"Ġmid":3153,"Ġmatter":3154,"193":3155,"stab":3156,"306":3157,"INK":3158,"vers":3159,"377":3160,"340":3161,"ĠWIN":3162,"ĠWonder":3163,"nNews":3164,"535":3165,"ĠGu":3166,"nMis":3167,"irl":3168,"Ġmeans":3169,"face":3170,"ORT":3171,"ICAL":3172,"Ġstrong":3173,"Ġlarge":3174,"nRemember":3175,"VEY":3176,"tract":3177,"lower":3178,"ormal":3179,"Ġstatement":3180,"Ġeffort":3181,"Ġobtain":3182,"ARRAT":3183,"ĠSTRONG":3184,"nDivided":3185,"nTOGETHER":3186,"!\",":3187,"'?\\":3188,"918":3189,"?âĢĿ":3190,"Be":3191,"az":3192,"ale":3193,"ike":3194,"obama":3195,"pon":3196,"Ġ12":3197,"tent":3198,"cept":3199,"child":3200,"sible":3201,"152":3202,"Ġ1552":3203,"Ġbro":3204,"itor":3205,"coming":3206,"Ġintelligence":3207,"125":3208,"rested":3209,"160":3210,"166":3211,"384":3212,"367":3213,"570":3214,"ĠHE":3215,"Ġsent":3216,"thestorm":3217,"HERE":3218,"232":3219,"Ġprosecu":3220,"840":3221,"ĠLo":3222,"Ġanti":3223,"ENING":3224,"eace":3225,"nWelcome":3226,"Ġtaken":3227,"Ġlife":3228,"TRY":3229,"after":3230,"Ġdiscus":3231,"ĠSTATES":3232,"nWHO":3233,"special":3234,"duct":3235,"bert":3236,"nTHEY":3237,"ĠTHIS":3238,"Ġactors":3239,"struction":3240,"Ġaware":3241,"ĠIMPEACH":3242,"Ġown":3243,"nmobile":3244,"ARRATIVE":3245,")(":3246,"256":3247,"528":3248,"=.":3249,"II":3250,"IAL":3251,"Me":3252,"ada":3253,"ccess":3254,"ell":3255,"ffer":3256,"ip":3257,"ox":3258,"redd":3259,"arma":3260,"security":3261,"sile":3262,"ried":3263,"153":3264,"feb":3265,"Ġ1580":3266,"Ġsince":3267,"Ġcla":3268,"208":3269,"1066":3270,"Ġdue":3271,"Ġdist":3272,"ĠTo":3273,"ĠCIA":3274,"ĠSee":3275,"ĠAR":3276,"ĠAnd":3277,"ĠPUBLIC":3278,"168":3279,"196":3280,"vidu":3281,"stage":3282,"REE":3283,"cip":3284,"273":3285,"365":3286,"ĠBiden":3287,"980":3288,"344":3289,"542":3290,"OTS":3291,"nNO":3292,"708":3293,"nRepublican":3294,"licy":3295,"ĠLAW":3296,"Ġnet":3297,"IST":3298,"Ġexist":3299,"Ġland":3300,"Ġtax":3301,"Ġfacts":3302,"ssier":3303,"ssistant":3304,"ymbo":3305,"lished":3306,"Ġtermin":3307,"nStay":3308,"Ġfirst":3309,"Ġquestion":3310,"Conf":3311,"Ġillegal":3312,"Ġwatching":3313,"documents":3314,"nImportant":3315,"Ġinvolved":3316,"Ġtactics":3317,"nGOOG":3318,"stroy":3319,"ĠWonderland":3320,"+\\":3321,"750":3322,"UARD":3323,"Ġveri":3324,"reng":3325,"tail":3326,"table":3327,"organiz":3328,"Ġadd":3329,"des":3330,"Ġfi":3331,"Ġcame":3332,"1060":3333,"usa":3334,"Ġear":3335,"Ġestab":3336,"ĠChi":3337,"ĠSec":3338,"Ġmind":3339,"ĠFR":3340,"logy":3341,"986":3342,"960":3343,"543":3344,"Ġdeep":3345,"urther":3346,"nCh":3347,"Ġsen":3348,"Ġsenior":3349,"ilty":3350,"Ġcoordinated":3351,"uence":3352,"ASE":3353,"aks":3354,"Ġsocial":3355,"osenstein":3356,"Ġlaws":3357,"Ġfeel":3358,"nSometimes":3359,"ĠDeputy":3360,"retary":3361,"Ġleaders":3362,"Ġcollection":3363,"Ġtestimony":3364,"litico":3365,"investigation":3366,"nEverything":3367,"Ġbehind":3368,"224":3369,"788":3370,"AU":3371,"AIT":3372,"House":3373,"TACK":3374,"WAMP":3375,"bal":3376,"fit":3377,"mar":3378,"narrative":3379,"narchive":3380,"qI":3381,"yan":3382,"tect":3383,"right":3384,"vest":3385,"aunch":3386,"Ġinten":3387,"135":3388,"1064":3389,"rain":3390,"ĠAr":3391,"ĠAct":3392,"ĠAssistant":3393,"Ġmatters":3394,"ĠPRES":3395,"cked":3396,"976":3397,"266":3398,"382":3399,"378":3400,"943":3401,"585":3402,"ATRI":3403,"966":3404,"Ġdemon":3405,"nCF":3406,"nFind":3407,"ĠNAT":3408,"ĠIt":3409,"they":3410,"Ġtur":3411,"ĠRepublic":3412,"ĠGREAT":3413,"pace":3414,"447":3415,"Ġpowers":3416,"Ġproves":3417,"igin":3418,"878":3419,"baf":3420,"Ġlead":3421,"ledge":3422,"Ġlose":3423,"Ġpreside":3424,"ize":3425,"Ġ2020":3426,"arker":3427,"ADE":3428,"Ġinterest":3429,"ĠONE":3430,"Screen":3431,"ARTY":3432,"Ġconspiracy":3433,"reddit":3434,"Ġdemonst":3435,"'.":3436,"253":3437,"324":3438,"916":3439,"928":3440,"998":3441,"Ameri":3442,"DOJ":3443,"FLY":3444,"Who":3445,"cing":3446,"emp":3447,"ition":3448,"where":3449,"zz":3450,"ĠZ":3451,"Ġ11":3452,"Ġtell":3453,"set":3454,"sition":3455,"sight":3456,"156":3457,"Ġtoo":3458,"Ġblock":3459,"att":3460,"203":3461,"101":3462,"Ġemp":3463,"Ġhar":3464,"ĠTweet":3465,"ĠCA":3466,"ĠSURV":3467,"Ġyet":3468,"edd":3469,"ĠAf":3470,"142":3471,"nDECLAS":3472,"309":3473,"503":3474,"506":3475,"975":3476,"nPANIC":3477,"546":3478,"578":3479,"ĠNY":3480,"291":3481,"opinion":3482,"999":3483,"most":3484,"Ġmajority":3485,"Ġneeded":3486,"Ġshall":3487,"ĠUP":3488,"allow":3489,"fcf":3490,"hood":3491,"probe":3492,"ssive":3493,"Ġfederal":3494,"udge":3495,"Ġserver":3496,"Ġimpossible":3497,"Ġstatements":3498,"nKeep":3499,"Ġrecently":3500,"Ġappoint":3501,"Ġdivided":3502,"Ġspy":3503,"Ġlearn":3504,"Ġdeployed":3505,"ĠCOUNTRY":3506,",\\":3507,"229":3508,"EE":3509,"MS":3510,"ai":3511,"afx":3512,"dge":3513,"kers":3514,"nLL":3515,"nthehill":3516,"oter":3517,"oci":3518,"ph":3519,"raud":3520,"sho":3521,"uma":3522,"Ġ6":3523,"Ġ9":3524,"Ġ>>":3525,"Ġlink":3526,"Ġdate":3527,"remo":3528,"tence":3529,"ination":3530,"âĢĺ":3531,"desta":3532,"rious":3533,"resen":3534,"comp":3535,"hest":3536,"205":3537,"lies":3538,"Ġeven":3539,"ĠCO":3540,"raine":3541,"ĠSEN":3542,"esterday":3543,"nDark":3544,"ĠBR":3545,"ĠBY":3546,"ĠBarr":3547,"Ġgroup":3548,"ĠMUST":3549,"bec":3550,"ĠNOW":3551,"pared":3552,"706":3553,"ighest":3554,"onstitution":3555,"Ġmap":3556,"artment":3557,"ffb":3558,"Ġkill":3559,"Ġleft":3560,"nsur":3561,"ACE":3562,"holder":3563,"Ġ15537":3564,"Ġprimary":3565,"Ġ15354":3566,"NDER":3567,"itiz":3568,"speed":3569,"ĠThey":3570,"Ġtech":3571,"mittee":3572,"Ġrecent":3573,"pende":3574,"Ġ15626":3575,"XXafx":3576,"ministration":3577,"qIXXafx":3578,"qIXXafxCQ":3579,"-\\":3580,"..\\":3581,"218":3582,"737":3583,"850":3584,"BB":3585,"He":3586,"SH":3587,"eck":3588,"ims":3589,"more":3590,"person":3591,"tt":3592,"zok":3593,"ints":3594,"onavi":3595,"pointed":3596,"ric":3597,"ournal":3598,"federal":3599,"Ġ1509":3600,"Ġpass":3601,"nWorth":3602,"Ġsca":3603,"Ġsystem":3604,"Ġfront":3605,"erman":3606,"mate":3607,"Ġhard":3608,"ĠSe":3609,"165":3610,"ĠDo":3611,"ĠDAY":3612,"nST":3613,"nSee":3614,"987":3615,"ĠWar":3616,"ĠWorld":3617,"ĠMORE":3618,"ĠHRC":3619,"006":3620,"ĠNews":3621,"ĠNARRATIVE":3622,"ĠGOV":3623,"603":3624,"ORD":3625,"Ġcommon":3626,"Ġstru":3627,"oman":3628,"nOper":3629,"Ġworking":3630,"pture":3631,"Ġboth":3632,"weets":3633,"Ġserve":3634,"Ġcer":3635,"OSS":3636,"Ġindividu":3637,"ressional":3638,"Ġpositions":3639,"Ġbased":3640,"Ġrepresent":3641,"Ġdefend":3642,"Ġtopic":3643,"Ġcharges":3644,"BOOM":3645,"Ġlogically":3646,"matically":3647,"Ġsilence":3648,"759":3649,"825":3650,"933":3651,"DB":3652,"EO":3653,"IED":3654,"OF":3655,"WIT":3656,"Xs":3657,"].":3658,"ax":3659,"ail":3660,"bl":3661,"bur":3662,"dro":3663,"ida":3664,"ka":3665,"vy":3666,"Ġ30":3667,"reen":3668,"iner":3669,"ined":3670,"ories":3671,"ced":3672,"ria":3673,"reser":3674,"alf":3675,"may":3676,"123":3677,"163":3678,"ena":3679,"enate":3680,"ĠFoundation":3681,"REV":3682,"500":3683,"364":3684,"946":3685,"586":3686,"983":3687,"348":3688,"ĠWhite":3689,"Ġgraphic":3690,"964":3691,"ĠMSM":3692,"nHOW":3693,"nCNN":3694,"ĠObama":3695,"nMueller":3696,"876":3697,"Ġuntil":3698,"Ġsho":3699,"Ġwithout":3700,"night":3701,"Ġlocation":3702,"OME":3703,"Ġfake":3704,"conom":3705,"ĠVIP":3706,"Ġopinion":3707,"Ġattacked":3708,"Ġspeech":3709,"Ġremembering":3710,"Ġinstall":3711,"ĠEVIL":3712,"chedu":3713,"Ġviolence":3714,"Ġcomplete":3715,"FORMATION":3716,"Ġdifferent":3717,"ATRIOTS":3718,"onavirus":3719,"Ġcertain":3720,"'ve":3721,"464":3722,"917":3723,"925":3724,"AGE":3725,"Dec":3726,"EK":3727,"PORT":3728,"STR":3729,"ase":3730,"but":3731,"cnn":3732,"congress":3733,"emails":3734,"judi":3735,"spi":3736,"safe":3737,"tan":3738,"Ġaway":3739,"cope":3740,"poll":3741,"ries":3742,"today":3743,"dated":3744,"155":3745,"fense":3746,"Ġpresent":3747,"Ġbri":3748,"une":3749,"133":3750,"Ġretur":3751,"Ġyesterday":3752,"lag":3753,"ĠFAIL":3754,"nDO":3755,"305":3756,"383":3757,"387":3758,"244":3759,"565":3760,"569":3761,"Ġ(\\":3762,"nSo":3763,"985":3764,"545":3765,"573":3766,"nCom":3767,"nFB":3768,"Ġdoor":3769,"595":3770,"nNow":3771,"1119":3772,"ĠGOD":3773,"703":3774,"225":3775,"ORR":3776,"cbb":3777,"677":3778,"OUND":3779,"nEU":3780,"Ġlevel":3781,"Ġstates":3782,"ults":3783,"AKENING":3784,"political":3785,"Ġdisclo":3786,"Ġ2017":3787,"doj":3788,"Ġbackground":3789,"laceholder":3790,"work":3791,"nKnow":3792,"Ġappe":3793,"Ġsexual":3794,"!!!!!!!!!!!!!!!!":3795,"Ġrevealed":3796,"Ġtransfer":3797,"ĠVOTE":3798,"chiff":3799,"Ġgener":3800,"rength":3801,",âĢĿ":3802,"215":3803,"223":3804,"Cl":3805,"ELL":3806,"KE":3807,"NING":3808,"TO":3809,"business":3810,"gun":3811,"have":3812,"ite":3813,"kraine":3814,"lled":3815,"mig":3816,"some":3817,"uters":3818,"secret":3819,"Ġthank":3820,"sources":3821,"Ġ1574":3822,"Ġpushed":3823,"attle":3824,"Ġinfo":3825,"2013":3826,"usti":3827,"uslim":3828,"Ġreli":3829,"limin":3830,"american":3831,"ĠTAR":3832,"ĠCounsel":3833,"ĠShot":3834,"ĠPOST":3835,"162":3836,"ĠFor":3837,"ĠFALSE":3838,"903":3839,"289":3840,"363":3841,"ERY":3842,"ĠMay":3843,"Ġdeci":3844,"008":3845,"key":3846,"533":3847,"Ġproof":3848,"Ġmeant":3849,"874":3850,"Ġimagine":3851,"forms":3852,"former":3853,"803":3854,"nBig":3855,"google":3856,"935":3857,"Ġstated":3858,"ĠUNDER":3859,"rant":3860,"Ġexpo":3861,"Ġtaking":3862,"nJC":3863,"Ġfailed":3864,"ĠTOGETHER":3865,"nOP":3866,"Ġworth":3867,"Ġtimes":3868,"ĠRED":3869,"tention":3870,"tempt":3871,"GET":3872,"Ġspecial":3873,"Ġkept":3874,"uding":3875,"Ġaccord":3876,"IFA":3877,"This":3878,"Ġorganized":3879,"Ġsources":3880,"ĠHere":3881,"Ġbuild":3882,"ĠDepartment":3883,"Ġcontinue":3884,"Ġquestions":3885,"Ġtalking":3886,"operating":3887,"leblower":3888,"ĠMcCabe":3889,"Ġcurrently":3890,"Ġtaxpa":3891,"923":3892,"It":3893,"NG":3894,"OOD":3895,"Placeholder":3896,"bye":3897,"cra":3898,"eo":3899,"ey":3900,"ederal":3901,"gate":3902,"han":3903,"john":3904,"lse":3905,"mies":3906,"nIN":3907,"pr":3908,"used":3909,"Ġword":3910,"fed":3911,"fee":3912,"Ġfurther":3913,"maz":3914,"rother":3915,"ĠSWAMP":3916,"files":3917,"ĠFREEDOM":3918,"adb":3919,"ĠBe":3920,"ills":3921,"981":3922,"346":3923,"Ġonce":3924,"Ġdestroy":3925,"nCor":3926,"nFake":3927,"HEEP":3928,"nAS":3929,"1120":3930,"707":3931,"faf":3932,"Ġorigin":3933,"846":3934,"740":3935,"748":3936,"ORS":3937,"nBIG":3938,"Ġmateri":3939,"Ġhear":3940,"Ġnear":3941,"OUG":3942,"bbc":3943,"Ġval":3944,"IDEN":3945,"cond":3946,"Ġvisi":3947,"cluding":3948,"ĠYOUR":3949,"gree":3950,"Ġbook":3951,"firmed":3952,"Ġhope":3953,"Ġcritical":3954,"Ġinterview":3955,"Ġdonations":3956,"Ġfamili":3957,"Ġminor":3958,"impeachment":3959,"ecurity":3960,"ĠAWAKENING":3961,"ultiple":3962,"fficking":3963,"Ġengage":3964,"Ġinfluence":3965,"210":3966,"427":3967,"400":3968,"730":3969,"959":3970,"GER":3971,"IB":3972,"If":3973,"Un":3974,"bed":3975,"bcd":3976,"donald":3977,"fba":3978,"iv":3979,"ias":3980,"pass":3981,"rass":3982,"sur":3983,"wp":3984,"ĠEN":3985,"relea":3986,"tered":3987,"start":3988,"poena":3989,"texts":3990,"body":3991,"Ġ[+":3992,"Ġphone":3993,"Ġball":3994,"Ġfire":3995,"Ġcitiz":3996,"Ġinser":3997,"139":3998,"Ġresign":3999,"ĠAl":4000,"1256":4001,"ĠFEAR":4002,"507":4003,"ĠDC":4004,"veral":4005,"371":4006,"587":4007,"nPlan":4008,"ĠBO":4009,"ĠBo":4010,"Ġgreat":4011,"963":4012,"ĠMEDIA":4013,"bet":4014,"ĠIs":4015,"people":4016,"pecial":4017,"theguard":4018,"233":4019,"cated":4020,"nNew":4021,"111":4022,"pare":4023,"paren":4024,"ird":4025,"605":4026,"fornia":4027,"333":4028,"ĠLE":4029,"Ġans":4030,"ĠEX":4031,"786":4032,"ĠUK":4033,"omin":4034,"Ġlot":4035,"Ġable":4036,"THING":4037,"were":4038,"nComp":4039,"lowns":4040,"duce":4041,"Ġplanned":4042,"IMG":4043,"âĢĤâĢĤâĢĤâĢĤâĢĤâĢĤâĢĤâĢĤâĢĤâĢĤâĢĤâĢĤâĢĤâĢĤâĢĤâĢĤâĢĤâĢĤâĢĤâĢĤâĢĤâĢĤâĢĤâĢĤâĢĤâĢĤâĢĤâĢĤâĢĤâĢĤâĢĤâĢĤ":4044,"Ġguilty":4045,"EFT":4046,"Ġrally":4047,"APP":4048,"ggie":4049,"Ġfollowing":4050,"articles":4051,"Ġspread":4052,"Ġfunding":4053,"Ġdirectly":4054,"Ġoccurred":4055,"ĠCHINA":4056,"Ġreveal":4057,"filtration":4058,"ĠEVERY":4059,"ĠWITH":4060,"nSecretary":4061,"Ġsingle":4062,"ĠBarlow":4063,"index":4064,"ORRUP":4065,"theguardian":4066,"230":4067,"525":4068,"911":4069,"CA":4070,"Good":4071,"Justice":4072,"Know":4073,"OLD":4074,"SIS":4075,"Sample":4076,"WE":4077,"ati":4078,"ather":4079,"ared":4080,"acts":4081,"bca":4082,"biden":4083,"counsel":4084,"fda":4085,"mark":4086,"ug":4087,"vation":4088,"xx":4089,"cent":4090,"Ġalle":4091,"Ġahead":4092,"sites":4093,"feature":4094,"Ġ1586":4095,"Ġporn":4096,"Ġpeace":4097,"Ġfar":4098,"Ġfall":4099,"Ġcau":4100,"rose":4101,"2009":4102,"Ġdire":4103,"using":4104,"Ġreque":4105,"Ġequ":4106,"Ġemails":4107,"Ġeconom":4108,"ĠTh":4109,"ĠThis":4110,"ĠCAN":4111,"185":4112,"Ġbene":4113,"edb":4114,"ĠAL":4115,"ĠPM":4116,"121":4117,"179":4118,"905":4119,"281":4120,"nDis":4121,"IND":4122,"cie":4123,"563":4124,"Ġforward":4125,"ĠWOULD":4126,"ĠMe":4127,"Ġdevice":4128,"576":4129,"ĠHAVE":4130,"Ġconf":4131,"them":4132,"thematically":4133,"643":4134,"648":4135,"nAl":4136,"nAr":4137,"Ġweak":4138,"âĢĤâĢĤâĢĤâĢĤâĢĤâĢĤâĢĤ":4139,"ĠRussian":4140,"ĠGreat":4141,"ĠOhr":4142,"Ġhaving":4143,"608":4144,"omen":4145,"Ġexposed":4146,"rous":4147,"Ġlist":4148,"nOne":4149,"Ġdoesn":4150,"denti":4151,"They":4152,"nWHAT":4153,"ĠCONF":4154,"Ġaccoun":4155,"rowd":4156,"Ġterror":4157,"void":4158,"Ġconfirmation":4159,"NTIFA":4160,"Ġallowed":4161,"Ġauthority":4162,"Ġsigni":4163,"Ġletter":4164,"nTRUST":4165,"annity":4166,"trzok":4167,"Ġeffective":4168,"Ġcalled":4169,"\"\\":4170,"At":4171,"Dm":4172,"EVER":4173,"NESS":4174,"Page":4175,"Se":4176,"St":4177,"_.":4178,"aiti":4179,"cti":4180,"cce":4181,"cour":4182,"cli":4183,"ece":4184,"military":4185,"ution":4186,"uen":4187,"uff":4188,"wan":4189,"orge":4190,"tists":4191,"charge":4192,"china":4193,"stri":4194,"dec":4195,"depart":4196,"position":4197,"ancial":4198,"tribu":4199,"Ġpain":4200,"Ġpull":4201,"Ġpaid":4202,"Ġspi":4203,"Ġcash":4204,"hel":4205,"live":4206,"Ġelse":4207,"ĠCounter":4208,"ĠSt":4209,"186":4210,"ĠPage":4211,"141":4212,"145":4213,"285":4214,"nDIVIDED":4215,"505":4216,"268":4217,"ciary":4218,"cially":4219,"loor":4220,"988":4221,"349":4222,"ĠWhi":4223,"Ġdetail":4224,"Ġconta":4225,"nHussein":4226,"urch":4227,"Ġsense":4228,"647":4229,"292":4230,"Ġdocu":4231,"nAG":4232,"239":4233,"campaign":4234,"531":4235,"ĠGR":4236,"446":4237,"Ġpropaganda":4238,"604":4239,"Ġann":4240,"ĠTHEY":4241,"Ġmass":4242,"Ġcommit":4243,"Ġcheck":4244,"ĠEx":4245,"Ġlost":4246,"nYour":4247,"Ġ15538":4248,"Ġvirus":4249,"ĠREAL":4250,"tempts":4251,"week":4252,"ĠTHAT":4253,"ift":4254,"lism":4255,"lert":4256,"appro":4257,"coronavirus":4258,"Ġposition":4259,"Ġentity":4260,"OBER":4261,"Ġviewpoint":4262,"nTHIS":4263,"Projection":4264,"ĠPelosi":4265,"OUSE":4266,"secutor":4267,"Ġbeginning":4268,"Ġmaterial":4269,"216":4270,"310":4271,"424":4272,"820":4273,"896":4274,"BA":4275,"MIN":4276,"MOV":4277,"Mueller":4278,"RAN":4279,"UC":4280,"],":4281,"aeb":4282,"bfb":4283,"car":4284,"did":4285,"eef":4286,"ffice":4287,"gon":4288,"hand":4289,"jec":4290,"pb":4291,"play":4292,"rally":4293,"uly":4294,"would":4295,"wood":4296,"Ġz":4297,"Ġtrip":4298,"Ġer":4299,"meet":4300,"ondon":4301,"Ġactions":4302,"stone":4303,"coll":4304,"rip":4305,"anta":4306,"Ġwon":4307,"159":4308,"Ġ1519":4309,"Ġ1528":4310,"Ġ1522":4311,"Ġ15113":4312,"Ġodd":4313,"Ġbill":4314,"Ġbring":4315,"ats":4316,"Ġsce":4317,"Ġsays":4318,"itz":4319,"Ġci":4320,"Ġcour":4321,"Ġcause":4322,"room":4323,"lls":4324,"2014":4325,"1096":4326,"1000":4327,"Ġreach":4328,"Ġrelated":4329,"ĠCEO":4330,"ĠAwakening":4331,"Ġmar":4332,"1666":4333,"stall":4334,"ĠDIVIDED":4335,"385":4336,"nSe":4337,"941":4338,"582":4339,"345":4340,"ATED":4341,"Ġground":4342,"ĠMar":4343,"ĠMore":4344,"Ġdelay":4345,"nCA":4346,"nCON":4347,"nFocus":4348,"Ġseveral":4349,"ket":4350,"887":4351,"ĠRight":4352,"âĢĻ.\\":4353,"page":4354,"Ġproble":4355,"orea":4356,"nThreat":4357,"fact":4358,"ITICAL":4359,"ĠLord":4360,"cbd":4361,"ecd":4362,"Ġmassive":4363,"686":4364,"ICK":4365,"ISC":4366,"nLet":4367,"Ġyours":4368,"cdf":4369,"Ġlove":4370,"ACY":4371,"arget":4372,"Ġjusti":4373,"Ġarrested":4374,"ograp":4375,"][\\":4376,"Ġrisk":4377,"mergency":4378,"ĠSTATE":4379,"nCoordinated":4380,"ATIONS":4381,"Ġsupp":4382,"Ġremoval":4383,"Ġprotected":4384,"ĠWHAT":4385,"Ġpursu":4386,"Ġrole":4387,"nBOOM":4388,"Ġconnection":4389,"trumps":4390,"Ġsimple":4391,"avid":4392,"Ġwitnes":4393,"disclo":4394,"Ġamong":4395,"Ġactiv":4396,"morrow":4397,"ecutive":4398,"Ġtiming":4399,"ĠINTEL":4400,"State":4401,"Ġlegal":4402,"Ġcensor":4403,"Ġplatforms":4404,"Ġenemies":4405,"Ġagencies":4406,"Ġawareness":4407,"armac":4408,"ymbolism":4409,"REVENT":4410,"+\"":4411,"436":4412,"458":4413,"895":4414,"<<":4415,"BL":4416,"HRC":4417,"NSA":4418,"There":4419,"Ws":4420,"__":4421,"cle":4422,"cda":4423,"call":4424,"cism":4425,"efe":4426,"free":4427,"mid":4428,"nES":4429,"ock":4430,"presidential":4431,"uses":4432,"wAA":4433,"Ġposts":4434,"rec":4435,"review":4436,"test":4437,"tation":4438,"ork":4439,"oud":4440,"onight":4441,"Ġthings":4442,"politico":4443,"sia":4444,"sic":4445,"ridge":4446,"Ġtook":4447,"Ġpub":4448,"Ġpuppe":4449,"Ġste":4450,"Ġfrie":4451,"erry":4452,"Ġinclu":4453,"Ġdra":4454,"nemy":4455,"Ġrefer":4456,"Ġemail":4457,"ĠTER":4458,"ĠCor":4459,"ĠSo":4460,"ĠSuch":4461,"ĠSAF":4462,"195":4463,"USH":4464,"ckdown":4465,"2617":4466,"ruce":4467,"362":4468,"nSt":4469,"nPower":4470,"Ġgirl":4471,"ĠMo":4472,"ĠMIL":4473,"Ġdecl":4474,"579":4475,"Ġconvi":4476,"Ġconduct":4477,"OTE":4478,"nConspiracy":4479,"bel":4480,"295":4481,"Ġty":4482,"nAnd":4483,"599":4484,"ĠRosenstein":4485,"nIT":4486,"807":4487,"993":4488,"843":4489,"847":4490,"848":4491,"nBo":4492,"ically":4493,"Ġheld":4494,"inese":4495,"682":4496,"063":4497,"nGOD":4498,"ongressional":4499,"ACTS":4500,"hoto":4501,"nOr":4502,"mination":4503,"ĠVERY":4504,"Ġarrests":4505,"nUse":4506,"Ġimpeachment":4507,"Ġhappen":4508,"Ġdropped":4509,"Ġanyone":4510,"exp":4511,"sked":4512,"lers":4513,"Ġattempting":4514,"ĠWHO":4515,"Ġpersonal":4516,"Ġrights":4517,"Ġtargeted":4518,"Ġterm":4519,"4280":4520,"struct":4521,"acebook":4522,"Ġforces":4523,"ĠATTACK":4524,"Ġentire":4525,"brief":4526,"Ġpopulation":4527,"pendent":4528,"rotherhood":4529,"ĠCounterintelligence":4530,"ography":4531,"'ll":4532,"220":4533,"476":4534,"538":4535,"598":4536,"720":4537,"753":4538,"899":4539,"And":4540,"CF":4541,"CIA":4542,"FK":4543,"FU":4544,"Jack":4545,"Pa":4546,"VEST":4547,"bla":4548,"bad":4549,"cdd":4550,"fca":4551,"fisa":4552,"lf":4553,"oe":4554,"sus":4555,"why":4556,"za":4557,"Ġresearch":4558,"repor":4559,"related":4560,"Ġacts":4561,"rist":4562,"daf":4563,"dam":4564,"Ġwhe":4565,"veill":4566,"audi":4567,"iss":4568,"fef":4569,"Ġ1589":4570,"Ġperi":4571,"Ġold":4572,"Ġfoundation":4573,"1097":4574,"Ġdir":4575,"nTwitter":4576,"Ġhighest":4577,"ĠSoros":4578,"ĠSecurity":4579,"ĠAn":4580,"ĠPOL":4581,"ĠPARTY":4582,"161":4583,"ĠFB":4584,"264":4585,"rupt":4586,"376":4587,"945":4588,"989":4589,"ATH":4590,"Ġgot":4591,"965":4592,"968":4593,"ĠMUELLER":4594,"nHUM":4595,"001":4596,"007":4597,"urance":4598,"ursing":4599,"ĠNew":4600,"641":4601,"Ġtwo":4602,"nAs":4603,"nAUS":4604,"nALL":4605,"nAnons":4606,"nAlice":4607,"231":4608,"235":4609,"ĠRyan":4610,"nID":4611,"ĠOUR":4612,"irst":4613,"fac":4614,"fae":4615,"666":4616,"255":4617,"339":4618,"747":4619,"ĠLEFT":4620,"Ġassi":4621,"673":4622,"ENS":4623,"Ġunde":4624,"AST":4625,"689":4626,"Ġchar":4627,"521":4628,"ĠEpstein":4629,"Ġstar":4630,"nListen":4631,"739":4632,"cdb":4633,"cdc":4634,"ĠJames":4635,"Ġknows":4636,"nOpen":4637,"âĢ¦âĢ¦.\\":4638,"nNote":4639,"Ġalone":4640,"ĠKnow":4641,"ĠREP":4642,"well":4643,"serve":4644,"Ġtrain":4645,"Ġtrack":4646,"Ġsomeone":4647,"gers":4648,"nypost":4649,"Ġplane":4650,"Ġtest":4651,"nInformation":4652,"IFIED":4653,"nConne":4654,"nGodspeed":4655,"prevent":4656,"Ġactually":4657,"appy":4658,"illegal":4659,"nAttack":4660,"true":4661,"Ġabolish":4662,"Ġbiggest":4663,"mission":4664,"Ġcharged":4665,"ĠAGAIN":4666,"ARPA":4667,"Ġsentence":4668,"ĠTARGET":4669,"Ġtaxpayer":4670,"veillance":4671,"'re":4672,"017":4673,"409":4674,"AI":4675,"AV":4676,"BD":4677,"BF":4678,"Bre":4679,"Dep":4680,"For":4681,"Hussein":4682,"NO":4683,"OY":4684,"To":4685,"Wo":4686,"]?":4687,"amber":4688,"cis":4689,"court":4690,"ele":4691,"eed":4692,"human":4693,"pers":4694,"president":4695,"sol":4696,"vis":4697,"words":4698,"ĠX":4699,"Ġge":4700,"ĠEND":4701,"Ġ\"\\\"":4702,"rey":4703,"reve":4704,"reuters":4705,"tage":4706,"tally":4707,"Ġthing":4708,"tom":4709,"dal":4710,"ang":4711,"Ġwal":4712,"Ġwait":4713,"Ġtomorrow":4714,"Ġph":4715,"Ġprin":4716,"Ġsm":4717,"Ġfocus":4718,"rop":4719,"Ġinde":4720,"Ġinside":4721,"fire":4722,"lied":4723,"Ġent":4724,"Ġharm":4725,"ĠCORRUP":4726,"ĠFREE":4727,"502":4728,"ruption":4729,"369":4730,"nSnow":4731,"949":4732,"ĠBaker":4733,"ATTER":4734,"ERAL":4735,"nFED":4736,"beb":4737,"ĠIII":4738,"ONE":4739,"Ġtonight":4740,"diction":4741,"ĠGUARD":4742,"past":4743,"444":4744,"Ġpolicy":4745,"nRed":4746,"nMa":4747,"nMo":4748,"607":4749,"father":4750,"877":4751,"221":4752,"667":4753,"forts":4754,"806":4755,"Ġcoverage":4756,"Ġitself":4757,"Ġshut":4758,"ASON":4759,"Ġcomb":4760,"073":4761,"history":4762,"083":4763,"ĠUkraine":4764,"ĠJUSTICE":4765,"acri":4766,"nUNIT":4767,"Ġpublicly":4768,"Ġsave":4769,"Ġ15890":4770,"ADOW":4771,"nology":4772,"ĠTRUST":4773,"Ġcorrect":4774,"udy":4775,"ĠTHREAT":4776,"Ġsuppor":4777,"Ġwarfare":4778,"ield":4779,"IME":4780,"Ġmissile":4781,"Ġreceive":4782,"90014":4783,"Ġappointed":4784,"Ġcreate":4785,"rusted":4786,"Ġorganization":4787,"Ġorganizations":4788,"loyment":4789,"Ġconfirm":4790,"Ġclosed":4791,"mocrats":4792,"nLook":4793,"controlled":4794,"Ġinstalled":4795,"Ġblind":4796,"----":4797,"Ġcollusion":4798,"Ġplatform":4799,"officials":4800,"Ġresponsible":4801,"IRECT":4802,"WITTER":4803,"Ġexposure":4804,"parency":4805,"Ġannounce":4806,"Ġodds":4807,"VESTIG":4808,"212":4809,"330":4810,"426":4811,"457":4812,"::":4813,"DD":4814,"DV":4815,"Dk":4816,"DECLAS":4817,"FE":4818,"IES":4819,"JC":4820,"Let":4821,"NS":4822,"PS":4823,"Qanon":4824,"RAIN":4825,"Up":4826,"VAA":4827,"ah":4828,"ban":4829,"dce":4830,"dde":4831,"dcc":4832,"dcb":4833,"evidence":4834,"ffa":4835,"fall":4836,"ga":4837,"gged":4838,"har":4839,"jeff":4840,"lines":4841,"nc":4842,"rame":4843,"Ġran":4844,"mend":4845,"lex":4846,"sitive":4847,"dab":4848,"dan":4849,"1504":4850,"velo":4851,"aly":4852,"Ġspo":4853,"Ġscope":4854,"Ġcra":4855,"Ġcut":4856,"Ġcatch":4857,"Ġcoun":4858,"Ġcross":4859,"comments":4860,"commun":4861,"fili":4862,"1058":4863,"1068":4864,"Ġreview":4865,"like":4866,"aster":4867,"raham":4868,"lying":4869,"edf":4870,"ĠAnti":4871,"ĠACC":4872,"199":4873,"last":4874,"501":4875,"243":4876,"nPS":4877,"nPOWER":4878,"ĠBill":4879,"969":4880,"ĠMEM":4881,"ĠMedia":4882,"Ġdele":4883,"Ġdead":4884,"Ġdecide":4885,"ĠHuma":4886,"ĠHOUSE":4887,"Ġcontribu":4888,"Ġsealed":4889,"being":4890,"ĠIG":4891,"peti":4892,"888":4893,"Ġweb":4894,"dic":4895,"nNY":4896,"ĠOIG":4897,"andler":4898,"445":4899,"705":4900,"Ġpromo":4901,"Ġprocess":4902,"Ġmember":4903,"804":4904,"252":4905,"335":4906,"Ġcooperating":4907,"ARK":4908,"Ġhead":4909,"pping":4910,"him":4911,"Ġstory":4912,"Ġstage":4913,"bbd":4914,"Ġexample":4915,"Ġsit":4916,"Ġlive":4917,"Ġ1603":4918,"Ġdisco":4919,"Ġseeking":4920,"vernments":4921,"nMSNBC":4922,"berate":4923,"Ġadvan":4924,"works":4925,"Ġmissing":4926,"EMY":4927,"actly":4928,"Ġrogue":4929,"Ġefforts":4930,"Think":4931,"????":4932,"ĠCOMM":4933,"Ġchanged":4934,"Ġhimself":4935,"INTON":4936,"teele":4937,"Ġmonth":4938,"Ġmonths":4939,"Ġleaks":4940,"adows":4941,"nbcnews":4942,"FLINE":4943,"Ġspecifically":4944,"facebook":4945,"ĠSENATE":4946,"Ġcitizens":4947,"Ġpornography":4948,"Ġprincip":4949,"acrifice":4950,"754":4951,"700":4952,"894":4953,"?]\\":4954,"Huber":4955,"IOR":4956,"Ro":4957,"Some":4958,"Tru":4959,"Test":4960,"United":4961,"aca":4962,"action":4963,"bly":4964,"cAA":4965,"dda":4966,"ives":4967,"lta":4968,"mil":4969,"ops":4970,"rs":4971,"rings":4972,"she":4973,"trans":4974,"uli":4975,"web":4976,"yria":4977,"zed":4978,"Ġdaily":4979,"release":4980,"tead":4981,"then":4982,"thod":4983,"intel":4984,"arded":4985,"ond":4986,"ceed":4987,"Ġawakening":4988,"stood":4989,"lead":4990,"dates":4991,"Ġwomen":4992,"ours":4993,"Ġ1593":4994,"Ġ1576":4995,"Ġ15114":4996,"Ġpress":4997,"Ġslow":4998,"Ġsleep":4999,"Ġcounsel":5000,"neg":5001,"Ġemb":5002,"Ġhuman":5003,"ĠSIGN":5004,"Ġbetra":5005,"ressive":5006,"1969":5007,"stamp":5008,"Ġnight":5009,"Ġnational":5010,"283":5011,"nDon":5012,"301":5013,"ĠDNC":5014,"version":5015,"272":5016,"279":5017,"2798":5018,"360":5019,"373":5020,"log":5021,"lobal":5022,"5449":5023,"ĠHumanity":5024,"ĠHaiti":5025,"Ġcontract":5026,"nHappy":5027,"nFIGHT":5028,"Ġserious":5029,"Ġwent":5030,"dies":5031,"440":5032,"nMI":5033,"879":5034,"Ġorgs":5035,"Ġanons":5036,"Ġasked":5037,"679":5038,"040":5039,"931":5040,"Ġshort":5041,"9213":5042,"nEO":5043,"office":5044,"783":5045,"032":5046,"Ġexchange":5047,"75164":5048,"nJust":5049,"hold":5050,"351":5051,"Ġface":5052,"Ġprevious":5053,"Ġ155380":5054,"Ġjo":5055,"Ġarmor":5056,"Ġupon":5057,"Ġdisc":5058,"iming":5059,"session":5060,"Ġenter":5061,"Ġinvestigate":5062,"Ġseek":5063,"ENTS":5064,"social":5065,"apse":5066,"Ġ158844":5067,"Ġvoter":5068,"Ġcrime":5069,"vention":5070,"ĠCOMING":5071,"Ġconfirmed":5072,"ĠControl":5073,"Ġtestify":5074,"ĠVOTER":5075,"Ġdeparture":5076,"OTHER":5077,"essage":5078,"Ġactivist":5079,"Ġactivities":5080,"Ġaccounts":5081,"nMission":5082,"ĠFROM":5083,"rassley":5084,"department":5085,"nHUMA":5086,"velop":5087,")?":5088,"070":5089,"356":5090,"459":5091,"512":5092,"726":5093,"796":5094,"826":5095,"892":5096,"920":5097,"BRE":5098,"CB":5099,"Comey":5100,"Dr":5101,"EZ":5102,"FT":5103,"FARE":5104,"Imp":5105,"John":5106,"LU":5107,"Mar":5108,"MAIL":5109,"NI":5110,"Twitter":5111,"VIL":5112,"afc":5113,"again":5114,"bs":5115,"bt":5116,"bor":5117,"bes":5118,"cult":5119,"ede":5120,"eter":5121,"foundation":5122,"got":5123,"group":5124,"hack":5125,"icide":5126,"ky":5127,"million":5128,"michael":5129,"nly":5130,"nEN":5131,"omber":5132,"pl":5133,"px":5134,"place":5135,"stic":5136,"say":5137,"vance":5138,"wn":5139,"wing":5140,"yers":5141,"Ġties":5142,"Ġ\"âĢľ":5143,"tend":5144,"tability":5145,"ouble":5146,"sent":5147,"devin":5148,"rica":5149,"anded":5150,"Ġblood":5151,"Ġsus":5152,"ittle":5153,"Ġcr":5154,"robert":5155,"llow":5156,"132":5157,"Ġhide":5158,"ĠThat":5159,"ĠCR":5160,"ĠCan":5161,"ĠCourt":5162,"ĠSch":5163,"ĠAB":5164,"ĠAM":5165,"ĠPUSH":5166,"1259":5167,"171":5168,"vie":5169,"ĠFran":5170,"ĠFVEY":5171,"ĠDID":5172,"ĠDEF":5173,"adc":5174,"381":5175,"561":5176,"Ġ(/":5177,"583":5178,"982":5179,"342":5180,"ATCH":5181,"Ġgrand":5182,"ĠMon":5183,"Ġdesi":5184,"ĠHAS":5185,"ĠHapp":5186,"002":5187,"nCri":5188,"nCLAS":5189,"bea":5190,"ĠIns":5191,"idUS":5192,"646":5193,"Ġdoing":5194,"Ġtran":5195,"Ġtweet":5196,"ands":5197,"Ġprovi":5198,"nMe":5199,"irs":5200,"ored":5201,"872":5202,"ITAL":5203,"ĠLaw":5204,"ORY":5205,"cbc":5206,"ĠTHEM":5207,"552":5208,"555":5209,"671":5210,"Ġmaking":5211,"Ġmathematically":5212,"ability":5213,"good":5214,"939":5215,"Ġcommand":5216,"fff":5217,"fbb":5218,"Ġstaff":5219,"091":5220,"095":5221,"Ġlaunch":5222,"Ġlocal":5223,"ebf":5224,"acarter":5225,"8920":5226,"Ġlives":5227,"Ġprepared":5228,"cuse":5229,"Ġworks":5230,"Ġalong":5231,"Ġjustice":5232,"ques":5233,"SEL":5234,"Ġenforce":5235,"Ġseem":5236,"ileaks":5237,"ĠInter":5238,"ĠIntel":5239,"Ġanything":5240,"achel":5241,"foreign":5242,"udget":5243,"ĠTHOSE":5244,"Ġplanes":5245,"ĠFIRE":5246,"Ġvoice":5247,"ĠWHIT":5248,"Ġcent":5249,"called":5250,"Ġrace":5251,"ordination":5252,"nGodfather":5253,"munition":5254,"interview":5255,"Ġsuccess":5256,"Thank":5257,"nAttempts":5258,"Ġ15096":5259,"Ġfirm":5260,"Ġpossession":5261,"UPID":5262,"ĠCommittee":5263,"litici":5264,"Ġcommunity":5265,"ĠWARFARE":5266,"ĠPLAY":5267,"ĠAmericans":5268,"Ġbreak":5269,"ultimate":5270,"nOnly":5271,"Ġpics":5272,"Ġenemy":5273,"homenews":5274,"Ġindictment":5275,"Ġindictments":5276,"Ġtrying":5277,"====":5278,"unting":5279,"Ġdarkness":5280,"Ġprosecution":5281,"Ġestablished":5282,"Ġpresident":5283,"resented":5284,"chedule":5285,"releases":5286,"omberg":5287,"'m":5288,"736":5289,"854":5290,"860":5291,"954":5292,"AJ":5293,"Carter":5294,"Fox":5295,"HA":5296,"IKE":5297,"Lo":5298,"Mr":5299,"MSM":5300,"NOT":5301,"OOK":5302,"PP":5303,"Patriots":5304,"ROP":5305,"WAA":5306,"[[":5307,"afa":5308,"avy":5309,"ball":5310,"eca":5311,"email":5312,"gop":5313,"high":5314,"lt":5315,"ped":5316,"ste":5317,"scri":5318,"treason":5319,"ugh":5320,"umer":5321,"vSA":5322,"vince":5323,"wall":5324,"your":5325,"Ġ18":5326,"Ġultimate":5327,"ony":5328,"sex":5329,"senior":5330,"Ġthreate":5331,"151":5332,"augh":5333,"fect":5334,"Ġopp":5335,"nWHERE":5336,"Ġbread":5337,"unter":5338,"Ġstep":5339,"Ġincluding":5340,"hell":5341,"health":5342,"owdy":5343,"102":5344,"Ġdri":5345,"Ġdump":5346,"Ġretain":5347,"Ġens":5348,"ĠTra":5349,"ĠTIME":5350,"ĠCLE":5351,"ĠSup":5352,"ĠStrzok":5353,"Ġissu":5354,"182":5355,"ĠAUTH":5356,"ĠACT":5357,"ĠPlan":5358,"1284":5359,"1268":5360,"stance":5361,"ĠFight":5362,"2804":5363,"ĠDEM":5364,"ĠDurham":5365,"ĠDOWN":5366,"271":5367,"los":5368,"nPri":5369,"nPray":5370,"Ġforms":5371,"ĠBut":5372,"ĠBACK":5373,"ATT":5374,"ERT":5375,"961":5376,"962":5377,"ĠMilitary":5378,"ĠMOST":5379,"ĠHAPP":5380,"nHas":5381,"nHouse":5382,"Ġsecond":5383,"belie":5384,"ticular":5385,"882":5386,"Ġweap":5387,"nNext":5388,"nISIS":5389,"Ġwasn":5390,"539":5391,"443":5392,"448":5393,"702":5394,"709":5395,"nRo":5396,"nMilitary":5397,"nMessage":5398,"Ġidenti":5399,"665":5400,"ccd":5401,"992":5402,"849":5403,"ĠLi":5404,"ĠLOG":5405,"cbf":5406,"omestic":5407,"arty":5408,"ably":5409,"ANY":5410,"eaf":5411,"Ġkind":5412,"Ġstrength":5413,"ĠUN":5414,"bbf":5415,"nsa":5416,"roud":5417,"463":5418,"486":5419,"ĠOFFLINE":5420,"VEL":5421,"Ġ15536":5422,"Ġjury":5423,"Ġimpact":5424,"candal":5425,"Ġtracking":5426,"ĠSTART":5427,"Ġprotection":5428,"Ġattempts":5429,"Ġmistake":5430,"nConfirmed":5431,"priate":5432,"ĠGov":5433,"internet":5434,"Ġsuffer":5435,"USSS":5436,"knowingly":5437,"truth":5438,"EXT":5439,"araacarter":5440,"Ġthreats":5441,"OREIGN":5442,"ĠGOOD":5443,"thschild":5444,"Ġlearned":5445,"Ġarticles":5446,"ĠWASH":5447,"EGAL":5448,"Ġregard":5449,"Ġsecure":5450,"Ġrunning":5451,"Ġcensorship":5452,"China":5453,"Ġrestri":5454,"103661":5455,"Ġinstitutions":5456,"Ġdemonstrate":5457,"liminate":5458,"OUGH":5459,"nCompare":5460,"rosenstein":5461,"Ġproblems":5462,"Breaking":5463,"519":5464,"597":5465,"694":5466,"680":5467,"755":5468,"814":5469,"857":5470,"9175":5471,"AX":5472,"Anons":5473,"BG":5474,"Dz":5475,"DAY":5476,"EED":5477,"ENCE":5478,"Freedom":5479,"God":5480,"PL":5481,"Senate":5482,"Tho":5483,"TEST":5484,"UK":5485,"]_":5486,"apo":5487,"aec":5488,"aae":5489,"bdf":5490,"bia":5491,"block":5492,"dm":5493,"eld":5494,"eba":5495,"every":5496,"eorge":5497,"future":5498,"flynn":5499,"had":5500,"ita":5501,"ised":5502,"iving":5503,"mic":5504,"nthe":5505,"north":5506,"nnypost":5507,"word":5508,"Ġx":5509,"Ġvideo":5510,"reet":5511,"inte":5512,"info":5513,"arl":5514,"aries":5515,"orts":5516,"cec":5517,"cee":5518,"chan":5519,"Ġavoid":5520,"dep":5521,"colle":5522,"coordinated":5523,"vere":5524,"vement":5525,"ality":5526,"Ġ1514":5527,"Ġ1532":5528,"Ġpers":5529,"Ġsal":5530,"Ġsche":5531,"Ġsacrifice":5532,"iting":5533,"Ġfo":5534,"Ġfil":5535,"Ġfully":5536,"Ġcir":5537,"ero":5538,"ery":5539,"209":5540,"Ġdig":5541,"never":5542,"ĠThere":5543,"ĠConstitution":5544,"ĠSEE":5545,"ĠAN":5546,"ĠPANIC":5547,"1677":5548,"191":5549,"laws":5550,"ĠFL":5551,"ĠFlynn":5552,"902":5553,"509":5554,"ĠDay":5555,"ĠDec":5556,"ĠDES":5557,"241":5558,"242":5559,"249":5560,"load":5561,"lomon":5562,"nPR":5563,"Ġforget":5564,"ĠWW":5565,"ĠMa":5566,"ĠHar":5567,"urp":5568,"nCross":5569,"Ġseen":5570,"ĠName":5571,"peace":5572,"Ġtre":5573,"nAnon":5574,"2310":5575,"case":5576,"ĠRIGHT":5577,"Ġproject":5578,"Ġmethod":5579,"873":5580,"Ġattorney":5581,"802":5582,"7489":5583,"Ġask":5584,"abb":5585,"042":5586,"\\\">":5587,"ffc":5588,"ISM":5589,"Ġgoes":5590,"Ġstring":5591,"Ġstrate":5592,"085":5593,"782":5594,"789":5595,"Ġline":5596,"951":5597,"Ġcandi":5598,"AKER":5599,"ĠOFF":5600,"321":5601,"Ġsocie":5602,"protect":5603,"Ġmode":5604,"Ġlate":5605,"TROLL":5606,"Ġaccept":5607,"Ġ15515":5608,"Ġargu":5609,"ensorship":5610,"Ġattacking":5611,"jects":5612,"Ġtrade":5613,"Ġeverywhere":5614,"ĠTHAN":5615,"Ġwarrant":5616,"Ġcrimes":5617,"ĠWEEK":5618,"pril":5619,"AGA":5620,"IRACY":5621,"Ġcredi":5622,"ggle":5623,"Ġsurround":5624,"Ġpositive":5625,"SPIRACY":5626,"ĠBLESS":5627,"Ġleader":5628,"Ġrecord":5629,"Ġswallow":5630,"Ġrequire":5631,"Ġrequired":5632,"planned":5633,"ĠIDEN":5634,"Example":5635,"whitehouse":5636,"Ġparticular":5637,"blogs":5638,"tism":5639,"ĠHERE":5640,"America":5641,"employment":5642,"Ġreturn":5643,"migrants":5644,"Ġoriginal":5645,"strike":5646,"Ġstarted":5647,"TROLLED":5648,"097":5649,"054":5650,"053":5651,"314":5652,"392":5653,"420":5654,"450":5655,"467":5656,"403":5657,"530":5658,"620":5659,"710":5660,"838":5661,"856":5662,"Ar":5663,"Bo":5664,"Cal":5665,"CBS":5666,"DF":5667,"EB":5668,"FC":5669,"Facts":5670,"GEST":5671,"KY":5672,"NEW":5673,"PT":5674,"PNG":5675,"Red":5676,"Sh":5677,"Sup":5678,"Sara":5679,"UU":5680,"When":5681,"Xg":5682,"aded":5683,"bro":5684,"black":5685,"cons":5686,"curre":5687,"event":5688,"elosi":5689,"fun":5690,"iet":5691,"just":5692,"kill":5693,"lush":5694,"much":5695,"nUSSS":5696,"ware":5697,"wide":5698,"xs":5699,"ynch":5700,"Ġimage":5701,"Ġ\"_":5702,"insider":5703,"tah":5704,"channe":5705,"Ġalert":5706,"stleblower":5707,"dest":5708,"death":5709,"democrats":5710,"Ġtheory":5711,"dae":5712,"Ġwonder":5713,"ister":5714,"Ġtotal":5715,"Ġpen":5716,"Ġpage":5717,"Ġplease":5718,"Ġpati":5719,"Ġproud":5720,"gent":5721,"Ġban":5722,"Ġbattle":5723,"Ġsure":5724,"majority":5725,"makers":5726,"rolling":5727,"Ġiniti":5728,"terms":5729,"2015":5730,"1086":5731,"1082":5732,"1063":5733,"nel":5734,"need":5735,"Ġrelations":5736,"Ġeyes":5737,"Ġhouse":5738,"ĠSpi":5739,"ĠSAP":5740,"ĠSyria":5741,"ĠAnon":5742,"Ġmarker":5743,"ĠPATRIOTS":5744,"1260":5745,"1249":5746,"eng":5747,"172":5748,"1480":5749,"ĠForeign":5750,"Ġnormal":5751,"nDate":5752,"nDirect":5753,"ĠDEC":5754,"262":5755,"add":5756,"cil":5757,"cious":5758,"275":5759,"245":5760,"nSH":5761,"5866":5762,"nPlease":5763,"nPanic":5764,"Ġformed":5765,"ĠBrotherhood":5766,"Ġgra":5767,"571":5768,"572":5769,"ĠHillary":5770,"ĠHannity":5771,"Ġconside":5772,"Ġconcer":5773,"nCS":5774,"nFin":5775,"nFOR":5776,"been":5777,"ĠNation":5778,"ĠNEVER":5779,"tican":5780,"HEN":5781,"886":5782,"Ġdog":5783,"dical":5784,"âĢĤâĢĤâĢĤâĢĤâĢĤ":5785,"1116":5786,"5327":5787,"ĠGL":5788,"ĠGAME":5789,"ĠOr":5790,"ĠOUT":5791,"ĠOffice":5792,"701":5793,"Ġpoints":5794,"Ġprogram":5795,"fam":5796,"Ġide":5797,"746":5798,"749":5799,"ĠLe":5800,"Ġanaly":5801,"nBu":5802,"nBack":5803,"nBarr":5804,"ĠTHEIR":5805,"Ġheads":5806,"pper":5807,"ffd":5808,"nEnd":5809,"nEyes":5810,"hips":5811,"082":5812,"765":5813,"ranted":5814,"oms":5815,"nGo":5816,"roups":5817,"Ġabsol":5818,"redit":5819,"nYes":5820,"ACC":5821,"ebd":5822,"Ġfast":5823,"dfd":5824,"Ġcapa":5825,"891666":5826,"472":5827,"Ġsize":5828,"Ġlimit":5829,"BIL":5830,"ĠINVESTIG":5831,"Ġalter":5832,"leaders":5833,"ĠKorea":5834,"Ġ1602":5835,"astle":5836,"Ġvio":5837,"Ġprison":5838,"classified":5839,"Ġ15997":5840,"serva":5841,"Ġtrafficking":5842,"Ġfew":5843,"sha":5844,"spect":5845,"Ġaffili":5846,"Ġelections":5847,"Ġinterference":5848,"Ġguys":5849,"spy":5850,"ALLS":5851,"ĠPROT":5852,"ĠGovernments":5853,"CHINA":5854,"ĠONLY":5855,"ggression":5856,"NNAN":5857,"ngerous":5858,"Ġsubpoena":5859,"ĠCOME":5860,"Ġammunition":5861,"Ġ15098":5862,"2964":5863,"RESS":5864,"ĠBLOCK":5865,"Ġ15446":5866,"ĠPodesta":5867,"Ġsign":5868,"Ġhighly":5869,"^^^^":5870,"mental":5871,"nTRUTH":5872,"document":5873,"technology":5874,"Ġcollapse":5875,"deaef":5876,"Ġcurrent":5877,"abcfb":5878,"Ġdiscussed":5879,"organizations":5880,"Ġestablish":5881,"ĠChief":5882,"Ġturn":5883,"American":5884,"Ġappointment":5885,"shooting":5886,"Ġindividuals":5887,"PORTANT":5888,"americans":5889,"ĠEVERYTHING":5890,"Ġeconomic":5891,"Ġcontact":5892,"blair":5893,"Ġperiod":5894,"Ġassist":5895,"9001411":5896,"Ġsitting":5897,"Ġprinciples":5898,"ĠHappiness":5899,"idUSK":5900,"Ġabsolute":5901,"#\\":5902,"055":5903,"214":5904,"211":5905,"319":5906,"413":5907,"717":5908,"797":5909,"764":5910,"729":5911,"744":5912,"725":5913,"816":5914,"819":5915,"955":5916,";\\":5917,"AZ":5918,"All":5919,"ANCE":5920,"Da":5921,"Di":5922,"FB":5923,"FD":5924,"KNOW":5925,"Matter":5926,"NED":5927,"Narrative":5928,"PK":5929,"PANIC":5930,"SIFIED":5931,"UD":5932,"UNT":5933,"XY":5934,"[-":5935,"]:\\":5936,"band":5937,"bfa":5938,"bcb":5939,"cde":5940,"cto":5941,"cfa":5942,"dca":5943,"dbc":5944,"fcc":5945,"find":5946,"fits":5947,"gif":5948,"ited":5949,"lue":5950,"mcca":5951,"py":5952,"pit":5953,"sper":5954,"target":5955,"uc":5956,"uary":5957,"washing":5958,"Ġ0":5959,"Ġ13":5960,"Ġ90":5961,"Ġtexts":5962,"Ġ\"#":5963,"Ġ\"@":5964,"rets":5965,"threate":5966,"Ġair":5967,"poses":5968,"dad":5969,"dacted":5970,"Ġwan":5971,"ison":5972,"isted":5973,"Ġplea":5974,"Ġpatter":5975,"Ġpsy":5976,">>>":5977,">>\\":5978,"Ġbrou":5979,"attempt":5980,"Ġfla":5981,"Ġclock":5982,"erridge":5983,"make":5984,"hes":5985,"1050":5986,"Ġrecom":5987,"Ġrepe":5988,"Ġregain":5989,"ĠSICK":5990,"181":5991,"edc":5992,"ĠAID":5993,"Ġmank":5994,"Ġmultiple":5995,"ĠPut":5996,"1934":5997,"mpeo":5998,"nDNC":5999,"nDEF":6000,"READ":6001,"REASON":6002,"265":6003,"administration":6004,"ldren":6005,"local":6006,"nSpe":6007,"nPer":6008,"ĠWhat":6009,"Ġgrow":6010,"ĠME":6011,"ĠMS":6012,"541":6013,"Ġdestruction":6014,"ĠHow":6015,"nHuber":6016,"urpose":6017,"nFull":6018,"Ġsend":6019,"bee":6020,"ĠIRAN":6021,"theories":6022,"884":6023,"Ġdocs":6024,"Ġdossier":6025,"nThen":6026,"cab":6027,"cae":6028,"care":6029,"ĠRep":6030,"nInsur":6031,"532":6032,"ĠOVER":6033,"ĠOCT":6034,"Ġpossi":6035,"Ġpolitici":6036,"nMIL":6037,"606":6038,"newsweek":6039,"805":6040,"809":6041,"bac":6042,"efd":6043,"motion":6044,"moves":6045,"molle":6046,"ĠLife":6047,"ORITY":6048,"nBill":6049,"eeb":6050,"Ġbypass":6051,"ANG":6052,"ANSP":6053,"932":6054,"Ġshills":6055,"Ġshift":6056,"Ġchamber":6057,"ĠEyes":6058,"078":6059,"ddb":6060,"aminer":6061,"Ġstable":6062,"nLOVE":6063,"7354":6064,"ALK":6065,"465":6066,"Ġlogs":6067,"489":6068,"nJFK":6069,"IDENT":6070,"Ġcapture":6071,"nRelevant":6072,"Ġsitu":6073,"Ġnotice":6074,"Ġliber":6075,"content":6076,"prosecutor":6077,"cused":6078,"lang":6079,"afd":6080,"Ġjob":6081,"ĠVITAL":6082,"Ġmandate":6083,"Ġunderstood":6084,"Ġinvestigating":6085,"Ġ15327":6086,"sert":6087,"Ġtradition":6088,"Ġ15866":6089,"ĠStand":6090,"ĠTRUE":6091,"ify":6092,"Ġ15230":6093,"tony":6094,"Ġadmin":6095,"LYNN":6096,"mitted":6097,"Ġattempted":6098,"ĠWHY":6099,"titute":6100,"Ġ15766":6101,"Ġtargeting":6102,"IRM":6103,"Ġinsur":6104,"Ġinstead":6105,"Ġneeds":6106,"58013":6107,"ĠReserve":6108,"Ġmeetings":6109,"Ġnames":6110,"ĠHead":6111,"Ġlikely":6112,"ĠDOES":6113,"Ġoperations":6114,"afety":6115,"rience":6116,"Ġassoci":6117,"ĠBLM":6118,"Ġcontinually":6119,"Ġauthorities":6120,"Ġ155313":6121,"ĠAMERICAN":6122,"Ġholds":6123,"lawyer":6124,"alifornia":6125,"Ġblame":6126,"Ġblackmail":6127,"nTrack":6128,"forced":6129,"NYT":6130,"Ġrule":6131,"Ġgeneral":6132,"nTHINK":6133,"ĠDemocrats":6134,"Ġagents":6135,"Ġreports":6136,"Ġexperience":6137,"airman":6138,"Ġdistri":6139,"ĠSecrets":6140,"ĠAfrican":6141,"Ġstruggle":6142,"idance":6143,"judiciary":6144,"nKnowledge":6145,"Ġfamiliar":6146,"7307489":6147,"Ġresignations":6148,"nPlanned":6149,"ĠBOOM":6150,"Ġaccountability":6151,"Ġspiri":6152,"MOVED":6153,"collusion":6154,"Ġdirty":6155,"ĠPOLITICAL":6156,"nAttacks":6157,"ĠAntifa":6158,"Ġproviding":6159,"CarterDC":6160,"Ġoppone":6161,"FactsMatter":6162,"SaraCarterDC":6163,"ĠSpirit":6164,"Ġbrought":6165,"Ġmankind":6166,"ĠOCTOBER":6167,"))":6168,"088":6169,"080":6170,"312":6171,"316":6172,"354":6173,"325":6174,"497":6175,"456":6176,"434":6177,"468":6178,"612":6179,"617":6180,"626":6181,"718":6182,"824":6183,"800":6184,"829":6185,"CED":6186,"Com":6187,"Eb":6188,"Follow":6189,"FISA":6190,"GOOD":6191,"HUSSEIN":6192,"Herridge":6193,"IZ":6194,"INCI":6195,"ILE":6196,"Russia":6197,"So":6198,"Tra":6199,"TIC":6200,"That":6201,"TAIN":6202,"Vs":6203,"Ww":6204,"WWG":6205,"]\"":6206,"]]\\":6207,"aad":6208,"br":6209,"bde":6210,"cru":6211,"city":6212,"dle":6213,"dba":6214,"dfb":6215,"dfc":6216,"ema":6217,"fce":6218,"fad":6219,"fbe":6220,"fdb":6221,"grity":6222,"ix":6223,"js":6224,"mith":6225,"off":6226,"pg":6227,"pts":6228,"run":6229,"sm":6230,"ship":6231,"ude":6232,"vC":6233,"win":6234,"when":6235,"xaminer":6236,"yond":6237,"yxs":6238,"Ġ*":6239,"Ġve":6240,"Ġsite":6241,"Ġ17":6242,"Ġtemp":6243,"into":6244,"indi":6245,"infl":6246,"tages":6247,"tagon":6248,"tified":6249,"onor":6250,"sting":6251,"deb":6252,"dee":6253,"pop":6254,"ane":6255,"Ġwrong":6256,"Ġwords":6257,"Ġwife":6258,"fec":6259,"Ġ1510":6260,"Ġ1535":6261,"Ġ1577":6262,"Ġ1563":6263,"Ġpl":6264,"nWL":6265,"nWAR":6266,"Ġspace":6267,"Ġfle":6268,"Ġfore":6269,"Ġfired":6270,"Ġfreedom":6271,"Ġoften":6272,"Ġduty":6273,"Ġreduce":6274,"life":6275,"lief":6276,"Ġecho":6277,"america":6278,"Ġhumanity":6279,"nWhich":6280,"ĠCl":6281,"rated":6282,"ĠSh":6283,"ĠSnowden":6284,"ĠAll":6285,"ĠAss":6286,"ĠPublic":6287,"ĠPresidential":6288,"respon":6289,"1991":6290,"enti":6291,"1764":6292,"USA":6293,"149":6294,"lain":6295,"ĠFederal":6296,"ĠFloor":6297,"Ġnation":6298,"901":6299,"9000":6300,"282":6301,"ĠDEP":6302,"ĠDavid":6303,"Ġareas":6304,"cist":6305,"nSR":6306,"942":6307,"ĠBEL":6308,"ATS":6309,"ĠWho":6310,"ĠWashington":6311,"Ġgave":6312,"ĠMIS":6313,"ĠMike":6314,"ĠMANY":6315,"549":6316,"5476":6317,"Ġdedi":6318,"Ġconclu":6319,"nHUSSEIN":6320,"urs":6321,"urder":6322,"nCL":6323,"nFight":6324,"Ġsecret":6325,"Ġself":6326,"ĠNATION":6327,"ONA":6328,"their":6329,"645":6330,"caa":6331,"cago":6332,"ĠRich":6333,"nIran":6334,"ĠGood":6335,"ĠOn":6336,"ĠOLD":6337,"andy":6338,"449":6339,"Ġpromi":6340,"nRef":6341,"601":6342,"609":6343,"faa":6344,"ccb":6345,"formed":6346,"mos":6347,"nBL":6348,"omed":6349,"ARM":6350,"678":6351,"Ġmas":6352,"Ġmakes":6353,"045":6354,"049":6355,"ANGE":6356,"Ġunemployment":6357,"ealed":6358,"eagan":6359,"Ġshare":6360,"921":6361,"076":6362,"amily":6363,"Ġless":6364,"fbc":6365,"fbd":6366,"735":6367,"Ġlines":6368,"Ġlisten":6369,"Ġlittle":6370,"route":6371,"Ġvali":6372,"Ġvoting":6373,"Ġlog":6374,"7515":6375,"Ġsole":6376,"LEASE":6377,"proof":6378,"Ġlabel":6379,"âĢĿ\\":6380,"agement":6381,"nNotice":6382,"general":6383,"ĠKen":6384,"Ġvia":6385,"Ġvig":6386,"ĠREC":6387,"signs":6388,"Ġ15913":6389,"Ġriots":6390,"Ġ15356":6391,"sers":6392,"tual":6393,"ĠSTUPID":6394,"els":6395,"nMSDNC":6396,"instein":6397,"ficult":6398,"Ġprovides":6399,"firm":6400,"Ġcounts":6401,"Ġmission":6402,"Ġguard":6403,"Ġguide":6404,"assification":6405,"criminal":6406,"Ġtruths":6407,"Real":6408,"Ġobvious":6409,"voter":6410,"Ġ15627":6411,"Ġdivision":6412,"Ġdirector":6413,"Ġworked":6414,"vacy":6415,"vasion":6416,"Ġbasis":6417,"Ġforced":6418,"ilid":6419,"nSomething":6420,"ĠCongressman":6421,"ĠPost":6422,"Ġleaked":6423,"Ġcollective":6424,"Nov":6425,"Ġkeywords":6426,"Ġfinancial":6427,"Ġcommuni":6428,"Ġcommunic":6429,"Ġactively":6430,"chool":6431,"ĠPLAN":6432,"Ġdepartures":6433,"$$$$":6434,"Ġwitnessing":6435,"support":6436,"Ġdeliberate":6437,"Ġviolent":6438,"Ġextreme":6439,"ĠWITNESS":6440,"Ġreported":6441,"ĠDEAL":6442,"secutors":6443,"wiki":6444,"IDENCY":6445,"which":6446,"default":6447,"Ġcarried":6448,"Ġesse":6449,"Ġagenda":6450,"ĠSPY":6451,"Ġresults":6452,"Ġlargest":6453,"?âĢĿ\\":6454,"Ġclaims":6455,"Ġterminated":6456,"Ġverify":6457,"Ġearly":6458,"Ġintended":6459,"nSTAY":6460,"nOperators":6461,"Ġindividual":6462,"Ġdecision":6463,"better":6464,"Knowingly":6465,"Ġbenefits":6466,"uenza":6467,"Ġerror":6468,"Ġbillions":6469,"Ġcourse":6470,"record":6471,"Ġpublished":6472,"Ġinclude":6473,"Ġtyp":6474,"nNYT":6475,"ĠABOUT":6476,"Ġcentral":6477,"Ġregarding":6478,"Ġpatient":6479,"servative":6480,"PKia":6481,"mollett":6482,"ANSPARE":6483,"emailid":6484,"yxsPKia":6485,"((":6486,"/#":6487,"/\",":6488,"015":6489,"066":6490,"219":6491,"259":6492,"397":6493,"394":6494,"398":6495,"329":6496,"410":6497,"418":6498,"417":6499,"430":6500,"487":6501,"407":6502,"495":6503,"655":6504,"716":6505,"714":6506,"728":6507,"758":6508,"766":6509,"795":6510,"813":6511,"822":6512,"As":6513,"Bill":6514,"CD":6515,"CR":6516,"Ca":6517,"DW":6518,"EV":6519,"Eh":6520,"Free":6521,"FALSE":6522,"Go":6523,"Is":6524,"IOUS":6525,"Le":6526,"Log":6527,"Mis":6528,"NAT":6529,"Pg":6530,"SOUT":6531,"Wk":6532,"Xk":6533,"YOU":6534,"aco":6535,"aff":6536,"acd":6537,"atican":6538,"barr":6539,"bili":6540,"cnbc":6541,"dra":6542,"dff":6543,"eda":6544,"emergency":6545,"fdd":6546,"fdf":6547,"false":6548,"ggest":6549,"half":6550,"hunter":6551,"journal":6552,"kins":6553,"lter":6554,"nter":6555,"ntally":6556,"put":6557,"pund":6558,"pression":6559,"sue":6560,"two":6561,"uge":6562,"umb":6563,"utes":6564,"uclear":6565,"utah":6566,"xy":6567,"xim":6568,"ya":6569,"yb":6570,"yal":6571,"zy":6572,"ref":6573,"reci":6574,"mear":6575,"taker":6576,"ortion":6577,"orow":6578,"orders":6579,"tima":6580,"Ġalive":6581,"stop":6582,"dence":6583,"Ġthrow":6584,"policy":6585,"level":6586,"left":6587,"sibility":6588,"rior":6589,"rich":6590,"riving":6591,"ana":6592,"Ġwa":6593,"Ġwoman":6594,"ington":6595,"tries":6596,"istan":6597,"Ġpreser":6598,"Ġbatt":6599,"Ġfig":6600,"Ġfraud":6601,"Ġframe":6602,"Ġcourt":6603,"mains":6604,"road":6605,"Ġinf":6606,"ndict":6607,"1067":6608,"1077":6609,"list":6610,"lier":6611,"asy":6612,"asons":6613,"nTarge":6614,"nTreason":6615,"ĠCongressional":6616,"ĠCalifornia":6617,"raq":6618,"Ġisn":6619,"Ġbest":6620,"Ġbeyond":6621,"ĠAD":6622,"ĠApp":6623,"ĠABC":6624,"ĠANTIFA":6625,"ĠPRE":6626,"ĠPREVENT":6627,"1215":6628,"1258":6629,"1255":6630,"1790":6631,"USE":6632,"cture":6633,"ĠFU":6634,"ĠFOREIGN":6635,"909":6636,"ĠDIS":6637,"ĠDIR":6638,"261":6639,"Ġ(+":6640,"3733":6641,"loads":6642,"nSAT":6643,"nSenate":6644,"nSHEEP":6645,"ATER":6646,"ĠWANT":6647,"ĠWATCH":6648,"Ġgranted":6649,"Ġdelta":6650,"ĠHo":6651,"ĠHUM":6652,"ĠHUNT":6653,"Ġconstant":6654,"nHAVE":6655,"nChe":6656,"nCOR":6657,"nCould":6658,"nCOM":6659,"nFanta":6660,"before":6661,"ĠIF":6662,"ONS":6663,"pected":6664,"idden":6665,"881":6666,"642":6667,"nABC":6668,"caf":6669,"nNAT":6670,"open":6671,"Ġ-\\":6672,"Ġpolice":6673,"Ġproba":6674,"nRussia":6675,"irls":6676,"602":6677,"fake":6678,"ITS":6679,"ITARY":6680,"Ġatta":6681,"ccc":6682,"331":6683,"841":6684,"845":6685,"745":6686,"nBC":6687,"Ġhealth":6688,"ANITY":6689,"eaa":6690,"Ġshot":6691,"ASH":6692,"Ġchi":6693,"ĠElection":6694,"IGINT":6695,"nEVIL":6696,"ddc":6697,"Ġleave":6698,"Ġgover":6699,"086":6700,"732":6701,"Ġtasked":6702,"intons":6703,"ĠJan":6704,"AKING":6705,"nJA":6706,"nJUSTICE":6707,"ĠYork":6708,"4094":6709,"acf":6710,"891":6711,"479":6712,"oks":6713,"nOur":6714,"Ġlater":6715,"ĠUSA":6716,"ounty":6717,"Ġdisse":6718,"ILD":6719,"Ġsale":6720,"Ġ15357":6721,"crets":6722,"ĠChurch":6723,"Ġ15413":6724,"Ġ15414":6725,"Ġ15436":6726,"elta":6727,"speech":6728,"specific":6729,"specially":6730,"Ġcorpor":6731,"ficant":6732,"rallies":6733,"Ġ15238":6734,"Ġadded":6735,"Ġdownfall":6736,"Ġprotests":6737,"Ġpushing":6738,"IFIC":6739,"cali":6740,"Ġrather":6741,"nExpect":6742,"lands":6743,"ĠPROVID":6744,"Ġindicted":6745,"AGSOUT":6746,"ĠBEING":6747,"Ġsafeguard":6748,"Ġ15634":6749,"Ġclass":6750,"years":6751,"mainstream":6752,"testimony":6753,"Ġoperation":6754,"important":6755,"impression":6756,"quence":6757,"Ġreplace":6758,"âĢ¦âĢ¦âĢ¦âĢ¦âĢ¦âĢ¦":6759,"Ġbigger":6760,"nTruth":6761,"clusive":6762,"Ġfighting":6763,"Ġexplo":6764,"Ġtalk":6765,"Politic":6766,"Ġrecords":6767,"nTrace":6768,"ĠRogers":6769,"directly":6770,"Ġmention":6771,"FLAGSOUT":6772,"Ġtried":6773,"nShall":6774,"Ġfailure":6775,"Ġfunded":6776,"wikileaks":6777,"Ġeffect":6778,"Ġcarry":6779,"Ġmaintain":6780,"Ġsides":6781,"ipedia":6782,"ISTORY":6783,"Ġaddress":6784,"ĠNYT":6785,"Ġ>>>":6786,"removal":6787,"ĠMayor":6788,"nBigger":6789,"Ġaccordingly":6790,"mazon":6791,"mazing":6792,"Ġvisit":6793,"Ġanswer":6794,"Ġcauses":6795,"Ġrequest":6796,"rowdstrike":6797,"Ġdocuments":6798,"jected":6799,"meeting":6800,"Ġpursuing":6801,"Ġwitnessed":6802,"ATHER":6803,"Ġunderage":6804,"Ġdiscredit":6805,"apore":6806,"Ġstringer":6807,"Ġcredibility":6808,"BILITY":6809,"ctober":6810,"ucci":6811,"ĠMSDNC":6812,"INCIDE":6813,"nCORONA":6814,"'?":6815,"']":6816,")]":6817,")\",":6818,".?\\":6819,"050":6820,"058":6821,"034":6822,"358":6823,"416":6824,"437":6825,"496":6826,"474":6827,"610":6828,"687":6829,"713":6830,"798":6831,"757":6832,"815":6833,"830":6834,"919":6835,"956":6836,"?)\\":6837,"ABC":6838,"But":6839,"Dl":6840,"Did":6841,"DARPA":6842,"Future":6843,"IO":6844,"Not":6845,"OX":6846,"Of":6847,"SS":6848,"TA":6849,"Tu":6850,"Time":6851,"UTION":6852,"UCH":6853,"UCT":6854,"World":6855,"_/":6856,"aaf":6857,"actions":6858,"bdd":6859,"dcd":6860,"emb":6861,"evin":6862,"jul":6863,"mine":6864,"ncy":6865,"ping":6866,"pter":6867,"pub":6868,"rone":6869,"sw":6870,"tv":6871,"tone":6872,"ught":6873,"ulation":6874,"uish":6875,"utists":6876,"yle":6877,"Ġ%":6878,"Ġreference":6879,"Ġ100":6880,"reach":6881,"tected":6882,"thy":6883,"threat":6884,"throw":6885,"tap":6886,"tate":6887,"tives":6888,"timi":6889,"outh":6890,"online":6891,"ceb":6892,"ces":6893,"cens":6894,"cha":6895,"chinese":6896,"Ġaud":6897,"Ġagree":6898,"seal":6899,"select":6900,"copter":6901,"posing":6902,"Ġwave":6903,"fen":6904,"Ġ15126":6905,"Ġ15288":6906,"Ġpas":6907,"Ġpresented":6908,"nWith":6909,"Ġson":6910,"Ġscre":6911,"Ġsyste":6912,"itors":6913,"Ġfit":6914,"Ġflag":6915,"Ġcust":6916,"ergy":6917,"macy":6918,"Ġinform":6919,"1317":6920,"1306":6921,"1095":6922,"1072":6923,"Ġdie":6924,"Ġregu":6925,"Ġremains":6926,"liz":6927,"ligh":6928,"licopter":6929,"ascism":6930,"nTiming":6931,"Ġespecially":6932,"Ġhours":6933,"ĠTime":6934,"ĠCar":6935,"ĠClowns":6936,"ĠSO":6937,"ĠSpecial":6938,"Ġiso":6939,"Ġbegan":6940,"ĠAd":6941,"ĠAra":6942,"ĠPre":6943,"ĠPen":6944,"ĠPru":6945,"ĠPUR":6946,"ĠPaul":6947,"ĠParty":6948,"1228":6949,"ressed":6950,"1774":6951,"cting":6952,"vid":6953,"ĠFOUND":6954,"ĠFACTS":6955,"ĠFacebook":6956,"ĠFLYNN":6957,"ĠDi":6958,"2434":6959,"Ġ(&":6960,"Ġ(âĢĺ":6961,"nShe":6962,"nSessions":6963,"nStep":6964,"9496":6965,"nPa":6966,"nPurpose":6967,"ĠBlack":6968,"ĠWR":6969,"96697":6970,"ĠMuslim":6971,"ĠMATTER":6972,"Ġdevil":6973,"ĠHIG":6974,"Ġcondu":6975,"nHo":6976,"nHOT":6977,"nHistory":6978,"nCH":6979,"Ġselling":6980,"ĠNK":6981,"ĠNOV":6982,"ĠNorth":6983,"OND":6984,"Ġwhist":6985,"Ġdoc":6986,"Ġtreat":6987,"nAMERIC":6988,"nANTIFA":6989,"cac":6990,"nNarrative":6991,"1113":6992,"1110":6993,"nIF":6994,"Ġproven":6995,"fairs":6996,"ccf":6997,"332":6998,"Ġcosts":6999,"Ġcolor":7000,"ARS":7001,"Ġheave":7002,"ANS":7003,"gogue":7004,"Ġshit":7005,"Ġshared":7006,"Ġshield":7007,"inet":7008,"5224":7009,"IGENCE":7010,"ECESS":7011,"Ġleast":7012,"Ġleverage":7013,"Ġstay":7014,"785":7015,"nLisa":7016,"731":7017,"065":7018,"bbb":7019,"Ġexten":7020,"Ġexactly":7021,"ulk":7022,"Ġtaught":7023,"ĠJeff":7024,"Ġvari":7025,"7536":7026,"hoo":7027,"777":7028,"391":7029,"Ġsol":7030,"acti":7031,"nRemo":7032,"nReview":7033,"Ġnotes":7034,"nOhr":7035,"Ġmoment":7036,"Ġmovie":7037,"Ġalmost":7038,"ounts":7039,"1106":7040,"ĠREAD":7041,"851":7042,"Ġunderway":7043,"nUnited":7044,"Ġ2015":7045,"Ġoptics":7046,"ĠChrist":7047,"STE":7048,"Ġoversight":7049,"ances":7050,"nother":7051,"Ġspeed":7052,"berg":7053,"Ġtherefore":7054,"udges":7055,"Ġsupposed":7056,"first":7057,"Ġ15228":7058,"raph":7059,"IMARY":7060,"ĠDefense":7061,"OSED":7062,"Ġtargets":7063,"ĠPRO":7064,"Ġroad":7065,"Ġsafety":7066,"structions":7067,"structive":7068,"FORCED":7069,"Ġsubject":7070,"Ġends":7071,"Ġbetter":7072,"Ġminutes":7073,"++++":7074,"haps":7075,"nagogue":7076,"Ġ15099":7077,"grams":7078,"Ġassault":7079,"latte":7080,"IVIDE":7081,"Ġillegally":7082,"aging":7083,"Ġsaying":7084,"Ġlooking":7085,"Ġpraying":7086,"Ġprayers":7087,"director":7088,"105919":7089,"States":7090,"âĢĶâĢĶâĢĶâĢĶâĢĶâĢĶ":7091,"Ġcalls":7092,"ĠCLINTON":7093,"Ġdeliver":7094,"Ġdelivered":7095,"nShould":7096,"Ġdeaths":7097,"Ġnumbers":7098,"ĠDEEP":7099,"wikipedia":7100,"Ġparti":7101,"Ġcountermoves":7102,"103696697":7103,"Ġapproved":7104,"Ġmainstream":7105,"Ġinstitute":7106,"Ġpopulations":7107,"IEVE":7108,"Ġnetworks":7109,"usatoday":7110,"nChina":7111,"ĠActing":7112,"ĠPRESIDENT":7113,"ĠPRESIDENCY":7114,"Ġleading":7115,"remove":7116,"Ġscare":7117,"burgh":7118,"Ġbrief":7119,"Ġlevels":7120,"ELLIGENCE":7121,"Ġproofs":7122,"Ġaccording":7123,"craft":7124,"Ġbooks":7125,"Ġfamilies":7126,"Ġminority":7127,"Ġrequests":7128,"Ġequal":7129,"Ġscenes":7130,"Ġcivil":7131,"Ġjustification":7132,"Ġactivity":7133,"Ġpuppet":7134,"reported":7135,"ĠREPUBLIC":7136,"Ġsentenced":7137,"Ġwalk":7138,"ĠCORRUPTION":7139,"Ġdeleted":7140,"petition":7141,"Ġadvantages":7142,"milar":7143,"negade":7144,"against":7145,"ĠMonday":7146,"ĠCLEAR":7147,"Ġweapons":7148,"ĠLiber":7149,"10366119":7150,"Ġschemes":7151,"Ġsociety":7152,"Ġargument":7153,"Ġrelationship":7154,"Ġconsidered":7155,"ĠPROTECT":7156,"washingtone":7157,"Ġpleaded":7158,"Ġpossibly":7159,"Ġspiritual":7160,"ĠBELIEVE":7161,"orowitz":7162,"nFantasy":7163,"ECESSARY":7164,"washingtonexaminer":7165,"'d":7166,".,":7167,"026":7168,"038":7169,"056":7170,"254":7171,"317":7172,"322":7173,"438":7174,"466":7175,"499":7176,"478":7177,"520":7178,"536":7179,"523":7180,"624":7181,"634":7182,"659":7183,"684":7184,"774":7185,"767":7186,"858":7187,"953":7188,"BR":7189,"Censorship":7190,"DA":7191,"FA":7192,"FIRE":7193,"GA":7194,"JP":7195,"Mon":7196,"McC":7197,"MEDIA":7198,"Non":7199,"New":7200,"Obama":7201,"OICE":7202,"PM":7203,"Public":7204,"PARTY":7205,"QU":7206,"RUSSIA":7207,"Rosenstein":7208,"SD":7209,"SUR":7210,"TC":7211,"UY":7212,"UwAA":7213,"Vo":7214,"Was":7215,"White":7216,"WALLS":7217,"asi":7218,"ative":7219,"bing":7220,"bbe":7221,"bba":7222,"bdc":7223,"bans":7224,"dfa":7225,"dog":7226,"epstein":7227,"full":7228,"fund":7229,"frie":7230,"fraud":7231,"gn":7232,"gation":7233,"gni":7234,"gion":7235,"ij":7236,"ier":7237,"ires":7238,"ital":7239,"lin":7240,"nation":7241,"photo":7242,"rc":7243,"rd":7244,"ras":7245,"sa":7246,"sal":7247,"tweet":7248,"uri":7249,"uro":7250,"ued":7251,"ulated":7252,"wr":7253,"wal":7254,"woman":7255,"Ġ24":7256,"Ġur":7257,"Ġ25":7258,"rection":7259,"really":7260,"than":7261,"thood":7262,"ino":7263,"install":7264,"insert":7265,"orists":7266,"oudest":7267,"cef":7268,"chive":7269,"Ġaka":7270,"stor":7271,"dered":7272,"Ġthous":7273,"Ġthough":7274,"points":7275,"let":7276,"leman":7277,"dac":7278,"anies":7279,"Ġwins":7280,"Ġwish":7281,"ingapore":7282,"inguish":7283,"Ġ1556":7284,"Ġ1587":7285,"Ġpe":7286,"Ġpra":7287,"Ġbra":7288,"Ġbank":7289,"Ġbias":7290,"atures":7291,"uni":7292,"Ġsk":7293,"Ġsum":7294,"Ġfour":7295,"Ġflow":7296,"Ġcab":7297,"Ġcities":7298,"common":7299,"lla":7300,"Ġinv":7301,"Ġincre":7302,"Ġinfiltra":7303,"termin":7304,"2011":7305,"131":7306,"1012":7307,"Ġdic":7308,"usual":7309,"Ġresigned":7310,"lict":7311,"asing":7312,"Ġele":7313,"Ġhit":7314,"ĠTi":7315,"ĠTur":7316,"ĠTech":7317,"ĠCF":7318,"raid":7319,"rates":7320,"ĠSer":7321,"ĠSER":7322,"ĠSING":7323,"ĠStein":7324,"ĠSafety":7325,"ĠAF":7326,"ĠANY":7327,"NCLU":7328,"ĠPAY":7329,"ĠPUT":7330,"ĠPries":7331,"1276":7332,"1600":7333,"otus":7334,"ctory":7335,"viation":7336,"lake":7337,"ĠFED":7338,"ĠForm":7339,"ĠFreedom":7340,"ĠFACT":7341,"ĠFISC":7342,"Ġnature":7343,"cks":7344,"9090":7345,"nDif":7346,"3093":7347,"5094":7348,"971":7349,"9730":7350,"ĠDAT":7351,"ĠDEL":7352,"ĠDIRECT":7353,"adf":7354,"ady":7355,"adness":7356,"cipa":7357,"2773":7358,"562":7359,"372":7360,"375":7361,"lose":7362,"nSymbolism":7363,"589":7364,"nPATRIOTS":7365,"ĠBri":7366,"ĠBRE":7367,"ĠBARR":7368,"ĠWhy":7369,"Ġgirls":7370,"ERN":7371,"ĠMON":7372,"ĠMAJ":7373,"Ġdef":7374,"Ġdefin":7375,"Ġdestructive":7376,"ĠHOW":7377,"nHigh":7378,"nCl":7379,"nCBS":7380,"nFEAR":7381,"nFirst":7382,"beast":7383,"tically":7384,"thedaily":7385,"889":7386,"649":7387,"Ġtrusted":7388,"nTheir":7389,"5930":7390,"nNG":7391,"nNormal":7392,"ĠRed":7393,"ilant":7394,"ĠGerman":7395,"tsburgh":7396,"Ġ->":7397,"442":7398,"nRUSSIA":7399,"nMoney":7400,"875":7401,"222":7402,"Ġidea":7403,"Ġorders":7404,"Ġattention":7405,"base":7406,"ĠLOVE":7407,"Ġanon":7408,"eek":7409,"Ġasleep":7410,"551":7411,"676":7412,"Ġmajor":7413,"Ġheard":7414,"vested":7415,"046":7416,"Ġcomm":7417,"Ġcomments":7418,"days":7419,"071":7420,"Ġstock":7421,"Ġstrings":7422,"069":7423,"769":7424,"Ġexpand":7425,"Ġexists":7426,"Ġabuse":7427,"Ġabuses":7428,"Ġtakes":7429,"ĠJr":7430,"ĠJudge":7431,"Ġloc":7432,"Ġloss":7433,"ouncil":7434,"Ġsold":7435,"Ġcast":7436,"bcf":7437,"conne":7438,"contin":7439,"TRUTH":7440,"Ġacce":7441,"Ġ15526":7442,"follow":7443,"Ġjudge":7444,"Ġjournal":7445,"olve":7446,"ĠKEY":7447,"ization":7448,"izards":7449,"Ġarrest":7450,"11067":7451,"Ġdisinformation":7452,"Ġdiscover":7453,"Ġvital":7454,"wear":7455,"Ġimpeach":7456,"tential":7457,"olly":7458,"Ġtruck":7459,"Ġ15328":7460,"ĠSTRE":7461,"ĠChris":7462,"Ġ15416":7463,"green":7464,"docs":7465,"dossier":7466,"assination":7467,"Ġboy":7468,"Ġpowerful":7469,"atan":7470,"Ġeveryone":7471,"udden":7472,"fers":7473,"mocracy":7474,"Ġadministration":7475,"ĠFIR":7476,"ĠCONTROLLED":7477,"Ġvotes":7478,"Ġ15767":7479,"Ġ16027":7480,"Ġstandard":7481,"Ġinternet":7482,"Ġguy":7483,"Ġpolitics":7484,"Ġauth":7485,"OCT":7486,"crime":7487,"ĠWest":7488,"internal":7489,"Ġreality":7490,"vote":7491,"Ġsheep":7492,"Ġorganizing":7493,"Ġplayers":7494,"ĠIMPORTANT":7495,"Ġsurv":7496,"Ġoperated":7497,"Ġplaced":7498,"Ġdefeat":7499,"54764":7500,"Ġcontinues":7501,"ĠGOOG":7502,"ĠâĢ¦âĢ¦âĢ¦":7503,"Ġholding":7504,"INTEL":7505,"ĠSECUR":7506,"nFormer":7507,"Decide":7508,"nToday":7509,"uckle":7510,"Ġsword":7511,"statements":7512,"Ġmessages":7513,"nGoodbye":7514,"synagogue":7515,"EGUARD":7516,"announce":7517,"Ġdangerous":7518,"Ġtactic":7519,"ĠOPEN":7520,"ĠPeter":7521,"Ġsilent":7522,"nUnknown":7523,"Ġextra":7524,"Ġnumber":7525,"Ġexpend":7526,"Ġgains":7527,"ĠELECTIONS":7528,"aleed":7529,"Ġtermination":7530,"Ġfix":7531,"Ġfires":7532,"Ġintensi":7533,"resenta":7534,"XsAA":7535,"judicial":7536,"nComms":7537,"Ġdisclosure":7538,"!!!!!!!!!!!!!!!!!!!!!!!!!!!!!!!!":7539,"something":7540,"Ġbuilding":7541,"Ġvalue":7542,"Ġdirection":7543,"Ġdevices":7544,"Ġterrorism":7545,"Ġsignificant":7546,"Ġmarket":7547,"Ġfriend":7548,"Ġfriends":7549,"ĠTERM":7550,"nStart":7551,"Ġconvicted":7552,"nConnect":7553,"ĠAGAINST":7554,"reveal":7555,"Ġindeed":7556,"nUNITED":7557,"ĠACCESS":7558,"Ġcontractors":7559,"Ġshortly":7560,"Ġjoin":7561,"SELF":7562,"ĠWHITE":7563,"ĠMaggie":7564,"current":7565,"Ġwonderful":7566,"pittsburgh":7567,"Ġpoliticians":7568,"Ġsituation":7569,"Ġvigilant":7570,"Ġessential":7571,"ĠWATCHING":7572,"Ġprobability":7573,"Ġcorporations":7574,"california":7575,"timidation":7576,"Ġwhistleblower":7577,"ĠPriestap":7578,"thedailybeast":7579,"(\\":7580,"/\"":7581,"059":7582,"033":7583,"315":7584,"395":7585,"419":7586,"460":7587,"493":7588,"439":7589,"690":7590,"628":7591,"650":7592,"674":7593,"693":7594,"799":7595,"810":7596,"817":7597,"890":7598,"827":7599,"855":7600,"839":7601,"Aggression":7602,"Bar":7603,"Big":7604,"Barr":7605,"CS":7606,"Can":7607,"CTION":7608,"DT":7609,"Dog":7610,"Durham":7611,"Fire":7612,"Fascism":7613,"Gu":7614,"Har":7615,"IATE":7616,"Li":7617,"LES":7618,"My":7619,"May":7620,"MIL":7621,"Oct":7622,"OAB":7623,"PARE":7624,"QAnon":7625,"SO":7626,"Sen":7627,"TT":7628,"TUR":7629,"Trip":7630,"WOR":7631,"Watch":7632,"Worth":7633,"WOOD":7634,"XQ":7635,"YES":7636,"acb":7637,"bcc":7638,"bff":7639,"bject":7640,"born":7641,"cau":7642,"cfc":7643,"dbe":7644,"ecb":7645,"etc":7646,"gor":7647,"give":7648,"gress":7649,"ib":7650,"iction":7651,"ious":7652,"imed":7653,"launch":7654,"nursing":7655,"ptop":7656,"rince":7657,"spo":7658,"sca":7659,"tU":7660,"uit":7661,"vor":7662,"waleed":7663,"Ġ|":7664,"ĠOTHER":7665,"thought":7666,"thony":7667,"insta":7668,"inction":7669,"met":7670,"arcis":7671,"orse":7672,"orning":7673,"ordan":7674,"tiz":7675,"title":7676,"onage":7677,"chris":7678,"sets":7679,"Ġthread":7680,"Ġthree":7681,"podesta":7682,"potism":7683,"simp":7684,"ansion":7685,"anel":7686,"Ġwire":7687,"Ġwake":7688,"?\\\"\\":7689,"vember":7690,"Ġ[#":7691,"feed":7692,"Ġtool":7693,"Ġ1591":7694,"Ġ1541":7695,"Ġpie":7696,"Ġpanic":7697,"Ġphoto":7698,"Ġopened":7699,"gents":7700,"nty":7701,"Ġbillion":7702,"unday":7703,"Ġscandal":7704,"Ġsudden":7705,"Ġfought":7706,"mask":7707,"roll":7708,"rows":7709,"Ġinfiltration":7710,"fig":7711,"fired":7712,"field":7713,"tern":7714,"2012":7715,"1316":7716,"1080":7717,"usband":7718,"Ġreq":7719,"Ġrepa":7720,"lick":7721,"Ġelimin":7722,"Ġevince":7723,"Ġeasi":7724,"ĠTake":7725,"ĠTEST":7726,"ĠCross":7727,"rable":7728,"ĠSile":7729,"ĠSPE":7730,"ĠSHEEP":7731,"edded":7732,"edition":7733,"Ġmillion":7734,"ĠPress":7735,"ĠPlay":7736,"1270":7737,"1247":7738,"espon":7739,"espotism":7740,"169":7741,"1776":7742,"1413":7743,"lained":7744,"ĠFD":7745,"ĠFox":7746,"Ġnursing":7747,"9046":7748,"3025":7749,"INFORMATION":7750,"9712":7751,"ĠDOM":7752,"ĠDROP":7753,"ĠDespotism":7754,"vert":7755,"rust":7756,"rugs":7757,"3815":7758,"Ġ('":7759,"3764":7760,"nSS":7761,"nSay":7762,"nPain":7763,"nPeter":7764,"Ġforgot":7765,"341":7766,"ATTACK":7767,"Ġgone":7768,"Ġgather":7769,"ERR":7770,"ĠMarch":7771,"ĠMark":7772,"ĠMAGA":7773,"Ġdee":7774,"Ġdeals":7775,"Ġdemand":7776,"Ġdeviation":7777,"575":7778,"5704":7779,"ĠHISTORY":7780,"ĠHorowitz":7781,"Ġconsider":7782,"ural":7783,"nFlynn":7784,"nFVEY":7785,"Ġsepar":7786,"bell":7787,"ĠNAME":7788,"these":7789,"ids":7790,"HEST":7791,"883":7792,"8825":7793,"2950":7794,"Ġdoll":7795,"nAF":7796,"nApp":7797,"nActions":7798,"âĢĤâĢĤâĢĤâĢĤâĢĤâĢĤ":7799,"nNon":7800,"ĠRi":7801,"nIm":7802,"opes":7803,"ĠOne":7804,"ĠObject":7805,"Ġprove":7806,"utside":7807,"nRep":7808,"nMZ":7809,"nMay":7810,"nMany":7811,"60291":7812,"fab":7813,"!!\\":7814,"801":7815,"bach":7816,"efb":7817,"licit":7818,"842":7819,"7436":7820,"ĠLight":7821,"ĠLIF":7822,"nBad":7823,"nBlack":7824,"nBuckle":7825,"cbs":7826,"eec":7827,"ĠTHEN":7828,"672":7829,"Ġmail":7830,"Ġhell":7831,"Ġhearing":7832,"ANK":7833,"goti":7834,"ASK":7835,"ASS":7836,"685":7837,"5219":7838,"5230":7839,"ĠEU":7840,"ddd":7841,"20180":7842,"061":7843,"062":7844,"range":7845,"Ġexisted":7846,"Ġloudest":7847,"Ġvol":7848,"Ġlockdown":7849,"cident":7850,"7510":7851,"7526":7852,"pired":7853,"pionage":7854,"771":7855,"Ġsimilar":7856,"indow":7857,"Ġmobile":7858,"Ġlaying":7859,"ĠINFO":7860,"ĠINFORMATION":7861,"Ġ15516":7862,"Ġ15525":7863,"ackage":7864,"ĠKILL":7865,"dbd":7866,"Ġupdate":7867,"Ġvictory":7868,"ĠREMOVED":7869,"651":7870,"cfd":7871,"Ġopposition":7872,"8358":7873,"Ġprivacy":7874,"Ġenergy":7875,"reading":7876,"Ġ15950":7877,"Ġ15998":7878,"Ġusurp":7879,"month":7880,"server":7881,"Ġ15897":7882,"Ġ15892":7883,"These":7884,"ADS":7885,"assment":7886,"Ġbodies":7887,"insurance":7888,"ralia":7889,"legal":7890,"ĠTHINK":7891,"Ġ15227":7892,"Ġhostage":7893,"Ġaddition":7894,"Ġadvance":7895,"Ġaccu":7896,"derson":7897,"NITY":7898,"nInfiltration":7899,"IFY":7900,"Ġ16033":7901,"VERY":7902,"ĠSenator":7903,"ĠPRIOR":7904,"Ġdonated":7905,"private":7906,"EPT":7907,"Ġsuffe":7908,"Ġsafegu":7909,"correct":7910,"Ġconnections":7911,"Ġevils":7912,"15056":7913,"trust":7914,"naly":7915,"Ġsubversion":7916,"Ġgetting":7917,"EARN":7918,"Ġsurveillance":7919,"Ġbuck":7920,"IGNED":7921,"Ġowns":7922,"ĠâĢ¦.":7923,"warning":7924,"Ġlearning":7925,"Ġprotecting":7926,"ĠATT":7927,"ĠFIGHTING":7928,"Ġtalks":7929,"Ġfinally":7930,"ucker":7931,"turley":7932,"verified":7933,"ĠAWAKE":7934,"chief":7935,"Ġcleaning":7936,"lights":7937,"Ġdaugh":7938,"nPossible":7939,"nReady":7940,"regular":7941,"reatest":7942,"ariably":7943,"antifa":7944,"Ġchallenged":7945,"nUnder":7946,"while":7947,"Ġengine":7948,"blog":7949,"bloomberg":7950,"attacks":7951,"ĠSPEC":7952,"ĠGuards":7953,"azi":7954,"ellow":7955,"Ġclaim":7956,"ĠARTIC":7957,"ĠAndrew":7958,"Ġfiction":7959,"rights":7960,"Ġpresidential":7961,"cheduled":7962,"Ġappear":7963,"surveillance":7964,"ĠLEVEL":7965,"Ġanswers":7966,"Goodbye":7967,"Ġbenefit":7968,"clips":7969,"Ġpaint":7970,"ĠStorm":7971,"ĠWhile":7972,"UCK":7973,"jective":7974,"Ġpursuit":7975,"Ġwitnesses":7976,"Ġpuppets":7977,"4280189":7978,"briefings":7979,"FULL":7980,"Ġwhenever":7981,"nIDEN":7982,"nMoves":7983,"mendment":7984,"ĠCOMMAND":7985,"Truth":7986,"Important":7987,"nMemes":7988,"question":7989,"Ġenforcement":7990,"Ġensure":7991,"ĠSupreme":7992,"Ġissues":7993,"ĠLOGIC":7994,"Suppression":7995,"funded":7996,"ĠOrder":7997,"family":7998,"nBackground":7999,"ACCESS":8000,"ĠBLOCKADE":8001,"Ġpattern":8002,"Ġdistribu":8003,"Ġvehic":8004,"Ġcommunicate":8005,"Ġpatients":8006,"ximity":8007,"ndictments":8008,"ĠHUMANITY":8009,"INCIDENCE":8010,"Tube":8011,"Ġaudits":8012,"Ġconducted":8013,"nAMERICA":8014,"urope":8015,"Ġinvariably":8016,"nDifficult":8017,"ĠFIRST":8018,"Dogma":8019,"arcissi":8020,"Ġevinces":8021,"ĠLIFE":8022,"Ġusurpations":8023,")\"":8024,")).\\":8025,"+\",":8026,"020":8027,"019":8028,"036":8029,"094":8030,"096":8031,"060":8032,"327":8033,"336":8034,"359":8035,"415":8036,"412":8037,"429":8038,"484":8039,"455":8040,"406":8041,"529":8042,"618":8043,"619":8044,"627":8045,"629":8046,"695":8047,"724":8048,"770":8049,"787":8050,"784":8051,"792":8052,"818":8053,"859":8054,"811":8055,"<\\":8056,"AUS":8057,"Ask":8058,"BN":8059,"BER":8060,"BIG":8061,"CN":8062,"COV":8063,"CNN":8064,"DL":8065,"DP":8066,"Db":8067,"FIL":8068,"Foreign":8069,"JT":8070,"James":8071,"Man":8072,"Mid":8073,"OH":8074,"President":8075,"Panic":8076,"QR":8077,"RS":8078,"UcAA":8079,"WAR":8080,"Where":8081,"away":8082,"bda":8083,"cou":8084,"could":8085,"cfb":8086,"cating":8087,"country":8088,"dfe":8089,"ence":8090,"end":8091,"ebe":8092,"ets":8093,"eab":8094,"fde":8095,"ffic":8096,"gins":8097,"grassley":8098,"io":8099,"jack":8100,"jury":8101,"las":8102,"nX":8103,"nj":8104,"nv":8105,"nre":8106,"nder":8107,"nwikileaks":8108,"oo":8109,"others":8110,"pat":8111,"pted":8112,"paul":8113,"rating":8114,"same":8115,"sla":8116,"sum":8117,"ua":8118,"ume":8119,"uts":8120,"uris":8121,"vated":8122,"wea":8123,"Ġ~":8124,"Ġhttps":8125,"Ġ50":8126,"Ġrap":8127,"republic":8128,"team":8129,"teous":8130,"terest":8131,"inside":8132,"invol":8133,"inions":8134,"tax":8135,"tali":8136,"only":8137,"Ġagg":8138,"seen":8139,"star":8140,"ston":8141,"dem":8142,"decl":8143,"col":8144,"sient":8145,"rising":8146,"Ġtherap":8147,"Ġwater":8148,"1559":8149,"1503":8150,"1505":8151,"trio":8152,"trike":8153,"arches":8154,"isk":8155,"alleg":8156,"Ġ15174":8157,"Ġ15170":8158,"Ġpure":8159,"Ġpaw":8160,"Ġpick":8161,"Ġops":8162,"nWin":8163,"Ġbur":8164,"Ġborder":8165,"Ġbusiness":8166,"Ġbrain":8167,"attorney":8168,"unker":8169,"Ġsla":8170,"Ġsymbo":8171,"Ġslush":8172,"Ġscheduled":8173,"itch":8174,"Ġfile":8175,"Ġcou":8176,"ering":8177,"roops":8178,"Ġintimidation":8179,"fiable":8180,"hearing":8181,"ternal":8182,"terror":8183,"2010":8184,"1056":8185,"1099":8186,"1001":8187,"usal":8188,"Ġred":8189,"Ġresources":8190,"Ġreasons":8191,"lia":8192,"asters":8193,"aspx":8194,"nTri":8195,"Ġelder":8196,"Ġeasy":8197,"ĠTest":8198,"ĠTweets":8199,"ĠCri":8200,"raction":8201,"ĠShe":8202,"ĠSome":8203,"ĠSchiff":8204,"Ġissue":8205,"Ġbegun":8206,"ĠAsia":8207,"Ġmurder":8208,"1274":8209,"respect":8210,"results":8211,"1646":8212,"1973":8213,"1718":8214,"1714":8215,"1723":8216,"vised":8217,"views":8218,"1434":8219,"1444":8220,"1448":8221,"ĠFF":8222,"ĠFake":8223,"Ġnomin":8224,"9057":8225,"nDec":8226,"3058":8227,"ĠDON":8228,"2634":8229,"citiz":8230,"2779":8231,"5628":8232,"361":8233,"379":8234,"3778":8235,"5801":8236,"nPUBLIC":8237,"Ġforth":8238,"ĠWAY":8239,"Ġglobal":8240,"Ġgiving":8241,"Ġgreatest":8242,"ERO":8243,"ĠMid":8244,"ĠHal":8245,"ĠHON":8246,"ĠHome":8247,"Ġcontext":8248,"Ġcontain":8249,"nHillary":8250,"nFear":8251,"nFalse":8252,"ĠIP":8253,"ĠIf":8254,"ĠILL":8255,"ĠInsur":8256,"ONSTR":8257,"pel":8258,"pet":8259,"thema":8260,"kend":8261,"keep":8262,"HEL":8263,"wsj":8264,"outs":8265,"Ġtreason":8266,"nAM":8267,"nAP":8268,"nAny":8269,"nAnother":8270,"Ġwealth":8271,"dio":8272,"5996":8273,"nNever":8274,"ĠRU":8275,"ĠRIS":8276,"ĠReagan":8277,"1112":8278,"11192":8279,"nImagine":8280,"ĠGowdy":8281,"âĢĻ\\":8282,"ĠOctober":8283,"Ġhath":8284,"andom":8285,"Ġprograms":8286,"Ġproximity":8287,"nReg":8288,"nMar":8289,"nMake":8290,"nMichael":8291,"irror":8292,"Ġmet":8293,"Ġmeas":8294,"nThat":8295,"!!\"":8296,"8720":8297,"8736":8298,"ITZ":8299,"Ġattend":8300,"662":8301,"baa":8302,"251":8303,"991":8304,"995":8305,"efc":8306,"ĠLa":8307,"ĠLondon":8308,"ĠLOOK":8309,"nBruce":8310,"Ġasking":8311,"Ġassigned":8312,"Ġmach":8313,"ics":8314,"abuse":8315,"047":8316,"govern":8317,"eam":8318,"683":8319,"OURC":8320,"Ġallies":8321,"5258":8322,"nEvil":8323,"ddf":8324,"Ġgold":8325,"Ġstreet":8326,"Ġstakes":8327,"7863":8328,"nLOG":8329,"INGLY":8330,"nWell":8331,"ĠUBL":8332,"litical":8333,"nsy":8334,"Ġlan":8335,"nGame":8336,"nGraphic":8337,"9556":8338,"msnbc":8339,"ĠJon":8340,"ĠJudi":8341,"ustomed":8342,"461":8343,"istor":8344,"nJo":8345,"nJim":8346,"nJustice":8347,"IDGE":8348,"772":8349,"401":8350,"ĠTODAY":8351,"Ġcapt":8352,"oked":8353,"ghteous":8354,"propaganda":8355,"Ġmole":8356,"865":8357,"Ġ15518":8358,"ĠUSSS":8359,"ĠKim":8360,"ĠVatican":8361,"ĠVOICE":8362,"Ġtimeline":8363,"Ġarm":8364,"Ġarri":8365,"Ġupdated":8366,"11070":8367,"Ġdisposed":8368,"Ġdiscer":8369,"ĠREL":8370,"ĠRES":8371,"nUp":8372,"Ġopposing":8373,"SETS":8374,"Ġinvestigators":8375,"Ġtruly":8376,"4256":8377,"Ġ15937":8378,"Ġrigged":8379,"Ġrighteous":8380,"Ġ15330":8381,"GENCY":8382,"trast":8383,"ĠChinese":8384,"ĠChandler":8385,"Ġ15437":8386,"Ġ15467":8387,"Ġfeet":8388,"shadow":8389,"ĠStaff":8390,"itimacy":8391,"ĠTRANSPARE":8392,"ODY":8393,"Ġbox":8394,"Ġboss":8395,"ATEG":8396,"Ġserved":8397,"10016":8398,"Ġaccustomed":8399,"Ġwarned":8400,"Ġ15764":8401,"Ġ16020":8402,"Ġstanding":8403,"ĠDemocratic":8404,"ĠWEAK":8405,"Ġrate":8406,"party":8407,"Ġinternal":8408,"ĠPRIMARY":8409,"vices":8410,"realclear":8411,"primary":8412,"Ġactor":8413,"Ġactual":8414,"ĠGoogle":8415,"TERM":8416,"Ġ15207":8417,"Ġ152070":8418,"10597":8419,"Repost":8420,"Ġhowever":8421,"ĠComp":8422,"ĠColeman":8423,"Ġreporting":8424,"Ġsuggest":8425,"ransparency":8426,"Ġshewn":8427,"Ġplaying":8428,"Ġdied":8429,"FORT":8430,"Ġweeks":8431,"break":8432,"Ġnamed":8433,"ĠIMM":8434,"Ġoccurring":8435,"oversight":8436,"10864":8437,"Ġmeanings":8438,"UMP":8439,"hair":8440,"Ġbase":8441,"Ġburied":8442,"SPECT":8443,"Ġ151590":8444,"Ġ151538":8445,"ĠSHOW":8446,"ĠSHADOW":8447,"nState":8448,"nStand":8449,"ĠNov":8450,"Ġ1544658":8451,"Ġhelps":8452,"nHere":8453,"nLockdown":8454,"Ġsigned":8455,"icki":8456,"Ġfindings":8457,"nProof":8458,"econom":8459,"Ġtransparency":8460,"operation":8461,"Ġfinance":8462,"Ġswamp":8463,"THEY":8464,"uesday":8465,"nPrevent":8466,"Ġrulers":8467,"Ġcrumb":8468,"Ġconstitution":8469,"CONSPIRACY":8470,"nPost":8471,"giance":8472,"plans":8473,"Ġbreach":8474,"Ġdesignated":8475,"OTHERS":8476,"ĠMcCain":8477,"ffici":8478,"MENTS":8479,"Ġagent":8480,"Ġtrig":8481,"umption":8482,"ritten":8483,"Ġpayment":8484,"Ġpayments":8485,"IDENCE":8486,"Reports":8487,"whistleblower":8488,"uppets":8489,"]]?":8490,"independent":8491,"Ġresolve":8492,"adam":8493,"Ġearth":8494,"Ġturned":8495,"eddit":8496,"php":8497,"onstitutional":8498,"blue":8499,"burg":8500,"migration":8501,"Ġreligi":8502,"OUGHT":8503,"ĠYOURSELF":8504,"IBLE":8505,"bedin":8506,"Ġballots":8507,"Ġinsert":8508,"Ġinserted":8509,"ĠAlwaleed":8510,"125666":8511,"Ġspreading":8512,"Ġallegiance":8513,"Ġdirected":8514,"courage":8515,"uffington":8516,"charged":8517,"Ġzone":8518,"Ġjustify":8519,"Ġactivated":8520,"ĠTERMIN":8521,"ĠSAFEGUARD":8522,"explo":8523,"Ġabolishing":8524,"Dept":8525,"Ġgets":8526,"Ġwaiting":8527,"Ġphones":8528,"dictionary":8529,"nUNITY":8530,"Ġreceived":8531,"Letter":8532,"Ġcontributions":8533,"dictable":8534,"Ġdiscovery":8535,"Ġdiscovered":8536,"transcri":8537,"nENEMY":8538,"Ġcrash":8539,"ĠDEFEND":8540,"Ġdesired":8541,"nCritical":8542,"Ġtransient":8543,"Ġthreatened":8544,"Ġpersons":8545,"ĠTherefore":8546,"ĠFLAG":8547,"nPROM":8548,"Ġcandidate":8549,"channel":8550,"ĠINVESTIGATION":8551,"Ġpsyche":8552,"7354957":8553,"Ġopponents":8554,"Ġflesh":8555,"ĠAssoci":8556,"ĠWITNESSED":8557,"Capture":8558,"ĠFULL":8559,"Ġchief":8560,"Ġdissemination":8561,"Politics":8562,"ĠPrudence":8563,"STEIN":8564,"Ġprac":8565,"Ġdictate":8566,"ĠSteinbach":8567,"ĠDATA":8568,"ollywood":8569,"OCTOBER":8570,"Ġintensify":8571,"Ġsufferable":8572,"Ġelderly":8573,"ĠJudiciary":8574,"Ġdiscern":8575,"):\\":8576,")]\\":8577,".[":8578,"013":8579,"014":8580,"024":8581,"023":8582,"011":8583,"067":8584,"092":8585,"2287":8586,"390":8587,"498":8588,"454":8589,"425":8590,"404":8591,"452":8592,"421":8593,"510":8594,"554":8595,"630":8596,"638":8597,"656":8598,"696":8599,"664":8600,"633":8601,"631":8602,"790":8603,"793":8604,"836":8605,"853":8606,"844":8607,"994":8608,"996":8609,"929":8610,"??\"":8611,"Are":8612,"CK":8613,"CL":8614,"Coll":8615,"Dc":8616,"EEP":8617,"GL":8618,"GO":8619,"GS":8620,"Green":8621,"Kim":8622,"MC":8623,"Ma":8624,"Now":8625,"Nunes":8626,"OINT":8627,"People":8628,"POWER":8629,"Pelosi":8630,"RT":8631,"SY":8632,"Schiff":8633,"TIN":8634,"TOP":8635,"Tech":8636,"WO":8637,"Whi":8638,"Wel":8639,"WHERE":8640,"YZ":8641,"_[":8642,"aee":8643,"amb":8644,"afb":8645,"bi":8646,"bar":8647,"bce":8648,"bfe":8649,"bus":8650,"bfc":8651,"bird":8652,"cr":8653,"counter":8654,"ds":8655,"dbb":8656,"dom":8657,"dnc":8658,"fman":8659,"fdc":8660,"game":8661,"hard":8662,"hur":8663,"hate":8664,"hillary":8665,"ico":8666,"ien":8667,"ises":8668,"jso":8669,"james":8670,"ki":8671,"lu":8672,"lau":8673,"long":8674,"london":8675,"mod":8676,"must":8677,"mind":8678,"muslim":8679,"nZ":8680,"nq":8681,"nas":8682,"nger":8683,"nari":8684,"normal":8685,"olic":8686,"present":8687,"plate":8688,"rr":8689,"russian":8690,"sn":8691,"sch":8692,"ships":8693,"tre":8694,"tly":8695,"tty":8696,"treat":8697,"tweets":8698,"trusted":8699,"uke":8700,"uties":8701,"uzz":8702,"ufact":8703,"vous":8704,"wa":8705,"won":8706,"wards":8707,"wise":8708,"water":8709,"Ġill":8710,"Ġ44":8711,"ĠEST":8712,"Ġround":8713,"rem":8714,"rely":8715,"rected":8716,"reater":8717,"though":8718,"including":8719,"message":8720,"menia":8721,"arrested":8722,"tance":8723,"orida":8724,"tire":8725,"tian":8726,"oug":8727,"cea":8728,"chie":8729,"Ġaid":8730,"Ġachie":8731,"style":8732,"deal":8733,"deli":8734,"cogni":8735,"leak":8736,"size":8737,"rigin":8738,"dance":8739,"Ġwall":8740,"Ġwritten":8741,"Ġ[&":8742,"nQues":8743,"fected":8744,"Ġ1573":8745,"Ġ1562":8746,"Ġ155866":8747,"Ġpath":8748,"Ġplead":8749,"Ġprone":8750,"Ġpackage":8751,"Ġoath":8752,"nWHEN":8753,"Ġbran":8754,"Ġborn":8755,"Ġbudget":8756,"Ġsan":8757,"Ġsun":8758,"Ġsway":8759,"itt":8760,"Ġfre":8761,"Ġfive":8762,"Ġcy":8763,"erke":8764,"ervous":8765,"mass":8766,"maggie":8767,"rote":8768,"robor":8769,"Ġinformed":8770,"fiden":8771,"1324":8772,"1391":8773,"fered":8774,"1028":8775,"1034":8776,"1039":8777,"Ġrecuse":8778,"licies":8779,"nTrolling":8780,"Ġelect":8781,"Ġemotion":8782,"Ġhor":8783,"Ġhunting":8784,"Ġhistor":8785,"ĠTho":8786,"rael":8787,"ĠSteele":8788,"ĠSatan":8789,"1803":8790,"Ġbelief":8791,"ĠAs":8792,"ĠAdam":8793,"ĠAbedin":8794,"Ġmarches":8795,"ĠPOS":8796,"1267":8797,"1248":8798,"12566":8799,"resses":8800,"1950":8801,"ency":8802,"viole":8803,"lapper":8804,"ĠFalse":8805,"Ġnorm":8806,"9014":8807,"90997":8808,"2817":8809,"2827":8810,"nDep":8811,"nDRAIN":8812,"REG":8813,"REM":8814,"ĠDa":8815,"ĠDon":8816,"ĠDIVIDE":8817,"ador":8818,"Ġaren":8819,"ruz":8820,"3814":8821,"3823":8822,"3873":8823,"2770":8824,"5674":8825,"3737":8826,"loss":8827,"nSu":8828,"nSen":8829,"nSub":8830,"nSally":8831,"nSafe":8832,"nSoros":8833,"nSealed":8834,"9470":8835,"5807":8836,"nPast":8837,"nPush":8838,"nPlay":8839,"nPEOPLE":8840,"nPAIN":8841,"ĠBy":8842,"ĠBILL":8843,"ĠWill":8844,"ĠWith":8845,"ĠWAVE":8846,"Ġglor":8847,"Ġones":8848,"ĠMI":8849,"ĠMc":8850,"ĠMID":8851,"ĠMAP":8852,"Ġden":8853,"Ġdece":8854,"Ġdepe":8855,"Ġdeni":8856,"Ġdeser":8857,"Ġdecla":8858,"Ġdebt":8859,"ĠHunting":8860,"Ġconse":8861,"Ġcontent":8862,"Ġconsent":8863,"nHun":8864,"nChi":8865,"nClowns":8866,"nFee":8867,"nFire":8868,"nFamily":8869,"Ġsearch":8870,"Ġseries":8871,"ĠNunes":8872,"ĠII":8873,"ONLY":8874,"pelosi":8875,"theorists":8876,"Ġdomin":8877,"nAW":8878,"nAdm":8879,"dif":8880,"digi":8881,"591":8882,"5926":8883,"2326":8884,"cade":8885,"nNP":8886,"ĠRIG":8887,"illed":8888,"ophi":8889,"ĠGeorge":8890,"âĢĻ?":8891,"patriot":8892,"441":8893,"Ġpotential":8894,"Ġprosecutor":8895,"nRT":8896,"nMB":8897,"nMon":8898,"iran":8899,"iring":8900,"Ġmemo":8901,"igration":8902,"facts":8903,"!!!\",":8904,"8743":8905,"uploads":8906,"ITION":8907,"ody":8908,"Ġatten":8909,"661":8910,"668":8911,"bait":8912,"eft":8913,"effort":8914,"742":8915,"Ġcovered":8916,"Ġcoordination":8917,"ĠLea":8918,"ĠLOSE":8919,"ĠLIB":8920,"ĠLynch":8921,"eefe":8922,"!\\\"\\":8923,"Ġheart":8924,"abf":8925,"048":8926,"ANGER":8927,"Ġuni":8928,"Ġunless":8929,"trolling":8930,"troduce":8931,"eae":8932,"uel":8933,"ASED":8934,"Ġchain":8935,"5257":8936,"ICT":8937,"ĠEd":8938,"ISS":8939,"ISTS":8940,"077":8941,"079":8942,"nElection":8943,"oft":8944,"ECH":8945,"Ġstri":8946,"Ġstatu":8947,"romised":8948,"nLea":8949,"nLight":8950,"201804":8951,"039":8952,"rang":8953,"nsaraacarter":8954,"nGu":8955,"nie":8956,"niffer":8957,"FORE":8958,"Ġabroad":8959,"ĠJack":8960,"ĠJoe":8961,"Ġlosing":8962,"482":8963,"âĢĤâĢĤâĢĤâĢĤâĢĤâĢĤâĢĤâĢĤâĢĤâĢĤâĢĤâĢĤâĢĤâĢĤâĢĤ":8964,"nJK":8965,"nJeff":8966,"pital":8967,"691":8968,"6958":8969,"ĠYour":8970,"ĠYates":8971,"402":8972,"llect":8973,"active":8974,"access":8975,"mann":8976,"Ġknowing":8977,"Ġprev":8978,"nOp":8979,"proves":8980,"0511":8981,"âĢ¦âĢ¦\\":8982,"nNobody":8983,"Ġ15524":8984,"Ġ15529":8985,"Ġoutcome":8986,"451":8987,"ĠKe":8988,"ĠKorta":8989,"Ġarrows":8990,"ĠREG":8991,"ĠREM":8992,"ĠRELEASE":8993,"8220":8994,"Ġwouldn":8995,"cloud":8996,"ortance":8997,"Ġ15918":8998,"Ġ15930":8999,"early":9000,"5119":9001,"5117":9002,"months":9003,"Ġ15390":9004,"Ġ15324":9005,"aaa":9006,"creenshot":9007,"trafficking":9008,"arkers":9009,"ĠChairman":9010,"Ġ15899":9011,"Ġ15418":9012,"waypund":9013,"shut":9014,"shore":9015,"ĠISIS":9016,"doing":9017,"Ġsometimes":9018,"berts":9019,"entry":9020,"Ġbomb":9021,"igest":9022,"exclusive":9023,"Ġbacked":9024,"Ġbackup":9025,"Ġ15294":9026,"listen":9027,"reets":9028,"Ġhole":9029,"Ġadop":9030,"Ġplans":9031,"worthy":9032,"10770":9033,"answer":9034,"Ġwarrants":9035,"Ġcounty":9036,"Ġimmigrants":9037,"IMIN":9038,"âĢĤâĢĤâĢĤâĢĤâĢĤâĢĤâĢĤâĢĤâĢĤâĢĤâĢĤâĢĤâĢĤâĢĤâĢĤâĢĤâĢĤâĢĤâĢĤâĢĤâĢĤâĢĤâĢĤâĢĤ":9039,"Ġinterests":9040,"Ġracism":9041,"ĠSenators":9042,"Ġcompany":9043,"ckingbird":9044,"Ġterms":9045,"joe":9046,"Ġautists":9047,"OCR":9048,"Ġring":9049,"Ġreading":9050,"Ġreadiness":9051,"Ġinstill":9052,"Ġcreation":9053,"1197":9054,"gging":9055,"Ġapplied":9056,"Ġappreci":9057,"Ġrealms":9058,"Ġcareful":9059,"Ġpriority":9060,"corn":9061,"Ġshelter":9062,"Ġconnect":9063,"Ġplayed":9064,"ĠUNITE":9065,"FORCE":9066,"echo":9067,"breaking":9068,"florida":9069,"ĠIMP":9070,"washed":9071,"Ġminute":9072,"ginia":9073,"Ġsurpri":9074,"disappro":9075,"hase":9076,"naz":9077,"Ġbail":9078,"ĠCHANGE":9079,"SPY":9080,"Ġassassination":9081,"nStage":9082,"6976":9083,"Ġfiring":9084,"nLocation":9085,"Ġillegals":9086,"ĠCommand":9087,"Ġmonitor":9088,"Ġexpanded":9089,"Ġkeystone":9090,"Ġ151284":9091,"agle":9092,"Ġrecru":9093,"Ġreleases":9094,"ĠORIG":9095,"Ġfinal":9096,"ĠEVENTS":9097,"ARDS":9098,"nTracking":9099,"OBAL":9100,"latest":9101,"ECTED":9102,"14815":9103,"SCI":9104,"Ġbecame":9105,"ĠPLACE":9106,"nPolitico":9107,"regard":9108,"Ġmental":9109,"Ġhelping":9110,"OLLOW":9111,"ĠCLASSIFIED":9112,"Ġbehalf":9113,"âĢĶâĢĶâĢĶâĢĶâĢĶâĢĶâĢĶâĢĶâĢĶâĢĶ":9114,"Ġwinning":9115,"Ġresponse":9116,"9378":9117,"claim":9118,"claims":9119,"Ġnuclear":9120,"Ġappropriate":9121,"Ġesca":9122,"OWNS":9123,"bably":9124,"Ġmiddle":9125,"ĠWINS":9126,"Ġbrother":9127,"Ġdiscussion":9128,"Ġnetwork":9129,"Ġcamera":9130,"Ġearlier":9131,"Ġleadership":9132,"AUD":9133,"market":9134,"ĠArmy":9135,"ĠRepublicans":9136,"Ġharvest":9137,"ĠAffairs":9138,"shooter":9139,"ĠBRING":9140,"nOperation":9141,"drop":9142,"reservation":9143,"8763764":9144,"Ġshooter":9145,"spied":9146,"ĠFAILED":9147,"nComing":9148,"businessinsider":9149,"Ġreligion":9150,"Ġdecisions":9151,"gatewaypund":9152,"nINFORMATION":9153,"Ġhearings":9154,"Ġinterviewed":9155,"Ġresignation":9156,"between":9157,"ĠEXP":9158,"Ġeconomy":9159,"nDisinformation":9160,"Ġaccountable":9161,"Ġsignifi":9162,"Ġeffectively":9163,"Ġ1553806":9164,"ĠRights":9165,"WsAA":9166,"Ġsteps":9167,"Papa":9168,"Ġgeo":9169,"ĠCORRUPT":9170,"--------":9171,"Ġannounced":9172,"Ġannouncement":9173,"Ġcountries":9174,"uliani":9175,"thentic":9176,"Ġembedded":9177,"Ġbetrays":9178,"9213294":9179,"ĠFrance":9180,"ĠInspect":9181,"========":9182,"Ġultimately":9183,"Those":9184,"lomonReports":9185,"Ġmethods":9186,"nFinally":9187,"leadership":9188,"idUSKBN":9189,"Ġflaming":9190,"nDEFCON":9191,"Ġgrowth":9192,"ILENCE":9193,"brary":9194,"Ġdedicated":9195,"Ġtypically":9196,"ĠApple":9197,"Ġgoverned":9198,"Ġmentioned":9199,"ĠArabia":9200,"ĠFOUNDATION":9201,"ĠDivision":9202,"Ġheavenly":9203,"Ġextension":9204,"ĠREADY":9205,"ĠLiberty":9206,"McCabe":9207,"friend":9208,"Ġelements":9209,"Ġlocations":9210,"ĠSECURITY":9211,"Ġforgotten":9212,"urisdiction":9213,"11192107":9214,"Ġrighteousness":9215,"realclearpolitics":9216,"Ġreligious":9217,"nPROMOTE":9218,"Techno":9219,"Welcome":9220,"jsolomonReports":9221,"fidential":9222,"ĠKortan":9223,"gatewaypundit":9224,"')":9225,")/":9226,"*\\":9227,"-[":9228,"/-":9229,"012":9230,"090":9231,"057":9232,"338":9233,"355":9234,"470":9235,"480":9236,"433":9237,"431":9238,"654":9239,"660":9240,"652":9241,"692":9242,"738":9243,"711":9244,"760":9245,"722":9246,"869":9247,"952":9248,"AH":9249,"Ad":9250,"AID":9251,"BY":9252,"Brennan":9253,"BIDEN":9254,"Cor":9255,"Chi":9256,"COM":9257,"COME":9258,"DY":9259,"Du":9260,"Every":9261,"Eric":9262,"Fake":9263,"Focus":9264,"FUL":9265,"FVEY":9266,"GW":9267,"Great":9268,"George":9269,"HS":9270,"HY":9271,"Hv":9272,"Iran":9273,"Jordan":9274,"Key":9275,"NK":9276,"Pre":9277,"PRES":9278,"Republic":9279,"ROUGH":9280,"RBG":9281,"SJ":9282,"Ste":9283,"Spe":9284,"TE":9285,"Tv":9286,"Tarmac":9287,"Uw":9288,"With":9289,"WAY":9290,"XU":9291,"aed":9292,"aba":9293,"aac":9294,"aide":9295,"agree":9296,"bin":9297,"bra":9298,"bank":9299,"bdb":9300,"cad":9301,"cbe":9302,"cut":9303,"cff":9304,"coun":9305,"cry":9306,"cash":9307,"cross":9308,"congressional":9309,"eps":9310,"even":9311,"fly":9312,"fted":9313,"gressional":9314,"hit":9315,"hani":9316,"huffington":9317,"ior":9318,"ipe":9319,"ided":9320,"ium":9321,"iuliani":9322,"lb":9323,"lind":9324,"lders":9325,"mal":9326,"mory":9327,"money":9328,"mXs":9329,"nx":9330,"nam":9331,"ology":9332,"pf":9333,"pm":9334,"plo":9335,"prom":9336,"push":9337,"phone":9338,"rt":9339,"sted":9340,"ssion":9341,"stitution":9342,"step":9343,"saraacarter":9344,"tw":9345,"tary":9346,"uthor":9347,"uter":9348,"vity":9349,"xW":9350,"york":9351,"ðŁ":9352,"Ġ.":9353,"Ġ:":9354,"Ġ29":9355,"Ġ22":9356,"relation":9357,"tees":9358,"tection":9359,"tember":9360,"tending":9361,"intention":9362,"arre":9363,"arat":9364,"arret":9365,"oring":9366,"ority":9367,"challenge":9368,"chlor":9369,"Ġali":9370,"Ġamendment":9371,"sey":9372,"sess":9373,"str":9374,"dead":9375,"deep":9376,"design":9377,"dels":9378,"covery":9379,"covered":9380,"police":9381,"riday":9382,"anons":9383,"1544":9384,"1506":9385,"bombs":9386,"bowers":9387,"trick":9388,"Ġ['":9389,"archives":9390,"isla":9391,"ished":9392,"also":9393,"fear":9394,"fess":9395,"Ġ1599":9396,"Ġ1595":9397,"Ġ1549":9398,"Ġ15194":9399,"Ġpit":9400,"Ġphi":9401,"Ġpap":9402,">>>\\":9403,"george":9404,"Ġbird":9405,"atthe":9406,"Ġschedule":9407,"Ġflood":9408,"Ġcam":9409,"Ġcult":9410,"era":9411,"made":9412,"making":9413,"major":9414,"rod":9415,"llo":9416,"Ġoffer":9417,"Ġinvest":9418,"Ġinvasion":9419,"Ġinstructions":9420,"fires":9421,"hear":9422,"terally":9423,"2005":9424,"2002":9425,"1057":9426,"1023":9427,"1048":9428,"1035":9429,"Ġdou":9430,"nell":9431,"Ġrespect":9432,"nTarmac":9433,"Ġeye":9434,"ameron":9435,"americ":9436,"nWhile":9437,"ĠTAKE":9438,"ĠCir":9439,"ĠColl":9440,"ĠCOV":9441,"ĠCOLL":9442,"ĠCounty":9443,"ĠCouncil":9444,"ĠSpe":9445,"ĠSCH":9446,"ĠSUP":9447,"ĠSmollett":9448,"lynch":9449,"1828":9450,"Ġbelt":9451,"edu":9452,"ĠAir":9453,"ĠAust":9454,"ĠAlex":9455,"ĠACTION":9456,"Ġmill":9457,"Ġmod":9458,"ĠPE":9459,"ĠPreside":9460,"ĠPART":9461,"1220":9462,"1264":9463,"ested":9464,"1697":9465,"ottom":9466,"1918":9467,"enter":9468,"1715":9469,"1748":9470,"USION":9471,"ctor":9472,"vile":9473,"viser":9474,"1419":9475,"1488":9476,"lates":9477,"ĠFe":9478,"ĠFeb":9479,"ĠFriday":9480,"Ġnervous":9481,"9096":9482,"9040":9483,"nDist":9484,"nDIRECT":9485,"RENT":9486,"3050":9487,"3040":9488,"witness":9489,"5056":9490,"972":9491,"9750":9492,"9773":9493,"ĠDL":9494,"ĠDir":9495,"ĠDiv":9496,"2693":9497,"versi":9498,"cists":9499,"3883":9500,"2714":9501,"2784":9502,"3669":9503,"loomberg":9504,"nShow":9505,"9437":9506,"581":9507,"nPRE":9508,"ĠBEN":9509,"ĠBrand":9510,"ĠBAIT":9511,"ĠBIDEN":9512,"9833":9513,"3480":9514,"ATING":9515,"ĠWhen":9516,"Ġgroups":9517,"9606":9518,"ĠMan":9519,"5458":9520,"Ġdeb":9521,"Ġdevelop":9522,"Ġdescri":9523,"ĠHis":9524,"ĠHOR":9525,"ĠHEAR":9526,"Ġcongressional":9527,"nHUBER":9528,"nCM":9529,"nCR":9530,"nFREEDOM":9531,"Ġsell":9532,"Ġsecrets":9533,"ĠNow":9534,"ĠNON":9535,"ĠNECESSARY":9536,"peat":9537,"there":9538,"outside":9539,"2926":9540,"Ġdoors":9541,"Ġtroops":9542,"nAn":9543,"nAmeri":9544,"nAnaly":9545,"Ġweight":9546,"nNOT":9547,"nNone":9548,"nNet":9549,"nNBC":9550,"nNOB":9551,"ĠRUN":9552,"ĠRachel":9553,"ĠRyb":9554,"ilot":9555,"oph":9556,"5328":9557,"ĠGJ":9558,"ĠGreen":9559,"ĠGPS":9560,"ĠGraham":9561,"âĢĻ.":9562,"ĠOper":9563,"Ġhack":9564,"path":9565,"7074":9566,"Ġprobe":9567,"Ġprosecutors":9568,"Ġprobably":9569,"nMike":9570,"nMarker":9571,"nMOAB":9572,"Ġmemes":9573,"Ġmemory":9574,"orean":9575,"facc":9576,"871":9577,"8764":9578,"8735":9579,"8762":9580,"663":9581,"669":9582,"yet":9583,"bae":9584,"2520":9585,"9999":9586,"lical":9587,"Ġcoer":9588,"ĠLau":9589,"ĠLARP":9590,"nBar":9591,"nBorder":9592,"ership":9593,"675":9594,"6794":9595,"ecf":9596,"artin":9597,"aby":9598,"0423":9599,"ANN":9600,"ENATE":9601,"Ġneg":9602,"Ġnegoti":9603,"onetary":9604,"9326":9605,"Ġshill":9606,"OUD":9607,"OUNT":9608,"Ġcomment":9609,"Ġchess":9610,"ICIAL":9611,"ĠEF":9612,"ĠEO":9613,"nEVERY":9614,"amucci":9615,"histor":9616,"Ġgovern":9617,"Ġgospe":9618,"fbf":9619,"Ġstream":9620,"Ġstories":9621,"Ġstreets":9622,"081":9623,"781":9624,"nLast":9625,"nLaw":9626,"0600":9627,"031":9628,"035":9629,"Ġexpose":9630,"nson":9631,"Ġlow":9632,"nGive":9633,"nick":9634,"OWITZ":9635,"ulled":9636,"ALE":9637,"Ġtap":9638,"ĠJUST":9639,"ĠJuly":9640,"Ġlocate":9641,"ously":9642,"7527":9643,"Ġwhole":9644,"AKS":9645,"nJB":9646,"argeted":9647,"ounder":9648,"manda":9649,"Ġcamp":9650,"Ġcases":9651,"nRemain":9652,"Ġnobody":9653,"oking":9654,"Ġlie":9655,"Ġpreci":9656,"Ġpredi":9657,"conf":9658,"concer":9659,"conduct":9660,"nOver":9661,"process":9662,"Ġmoves":9663,"Ġlabe":9664,"863":9665,"leader":9666,"leared":9667,"fold":9668,"Ġjudges":9669,"gencies":9670,"olton":9671,"olution":9672,"ĠKing":9673,"ĠKEEP":9674,"query":9675,"ĠVir":9676,"dbf":9677,"Ġtimestamp":9678,"Ġupdates":9679,"11090":9680,"11084":9681,"astplate":9682,"Ġdisap":9683,"Ġdismis":9684,"Ġvicti":9685,"8536":9686,"signing":9687,"west":9688,"Ġmanip":9689,"immigrants":9690,"ILENT":9691,"Ġinvestigated":9692,"Ġ15952":9693,"ohnson":9694,"fdca":9695,"Ġrise":9696,"Ġ15359":9697,"Ġ15355":9698,"hatter":9699,"trate":9700,"ĠChuck":9701,"Ġ15864":9702,"Ġ15893":9703,"Ġ158906":9704,"Ġ15415":9705,"should":9706,"Ġoverthrow":9707,"Ġdropping":9708,"guage":9709,"guidance":9710,"Ġspent":9711,"Ġspeak":9712,"Ġthereafter":9713,"Ġbody":9714,"Ġbombs":9715,"Ġkeeps":9716,"apter":9717,"weeted":9718,"nTHERE":9719,"Ġafraid":9720,"locked":9721,"URRENT":9722,"leground":9723,"legraph":9724,"Ġserves":9725,"Ġwarning":9726,"Ġcrisis":9727,"10613":9728,"titude":9729,"IFF":9730,"caller":9731,"Ġ16013":9732,"Ġ16029":9733,"ĠFORCE":9734,"nKey":9735,"umps":9736,"Ġinternational":9737,"EFITS":9738,"Ġcompromised":9739,"Ġterri":9740,"standing":9741,"assify":9742,"Ġpurposes":9743,"prelim":9744,"prior":9745,"Ġrandom":9746,"acting":9747,"Read":9748,"Ġroll":9749,"Ġappare":9750,"Ġ151372":9751,"Ġ470":9752,"Ġobstruction":9753,"ĠCoC":9754,"Ġrealize":9755,"Ġquick":9756,"corrupt":9757,"Ġthroughout":9758,"loyed":9759,"Ġclassification":9760,"nTherefore":9761,"medium":9762,"Ġweekend":9763,"avily":9764,"8981413":9765,"dailycaller":9766,"Ġunderstanding":9767,"download":9768,"Ġoperate":9769,"Ġbuy":9770,"âĢ¦âĢ¦âĢ¦âĢ¦âĢ¦âĢ¦âĢ¦âĢ¦":9771,"ĠBLACK":9772,"ERSON":9773,"Ġcontinued":9774,"ETT":9775,"Ġhelmet":9776,"Ġauthorized":9777,"ĠPompeo":9778,"Ġ160027":9779,"Ġ160088":9780,"Ġ151667":9781,"nProjection":9782,"washingtontimes":9783,"ĠCommission":9784,"nVOTE":9785,"ĠYouTube":9786,"Ġexpansion":9787,"Ġ151244":9788,"Ġopenly":9789,"agate":9790,"Ġticking":9791,"Ġtitle":9792,"Ġletters":9793,"ĠEVENT":9794,"ĠEVIDENCE":9795,"nesses":9796,"turn":9797,"nImpeachment":9798,"ricane":9799,"ĠBIGGEST":9800,"Ġruling":9801,"ĠRobert":9802,"UNES":9803,"XXmXs":9804,"Ġregards":9805,"Ġprayer":9806,"CONF":9807,"nationalreview":9808,"Ġrequested":9809,"nPolitical":9810,"Ġbreastplate":9811,"Ġsecured":9812,"$$$":9813,"Ġmighty":9814,"ĠCLOSED":9815,"Ġclearly":9816,"Ġchallenges":9817,"nUnity":9818,"Ġextinguish":9819,"5573":9820,"Ġfunction":9821,"nControlled":9822,"Ġapproach":9823,"Ġapproval":9824,"Ġcodename":9825,"shows":9826,"Ġinfluenza":9827,"ĠWINNING":9828,"Ġbroken":9829,"Ġprosecute":9830,"Memo":9831,"ĠARM":9832,"Ġterminate":9833,"organization":9834,"ĠChildren":9835,"Ġsensitive":9836,"AITORS":9837,"Ġdemonstrates":9838,"zzfeed":9839,"Ġempha":9840,"phones":9841,"ĠBRIDGE":9842,"pendence":9843,"ĠWarfare":9844,"ĠGOVERN":9845,"Ġstructure":9846,"OSSIBLE":9847,"drops":9848,"Ġgenerals":9849,"Ġdestroyed":9850,"Ġengaged":9851,"Unknown":9852,"ĠENEMY":9853,"released":9854,"roseanne":9855,"cience":9856,"Ġterrorist":9857,"Storm":9858,"courts":9859,"uential":9860,"charges":9861,"ĠWhitaker":9862,"Ġdetails":9863,"Ġcontacts":9864,"Ġdocument":9865,"appropriate":9866,"caramucci":9867,"Ġscenari":9868,"Ġcivi":9869,"Ġcourage":9870,"ĠCEOs":9871,"nCONTROL":9872,"Ġsuppression":9873,"disclosure":9874,"8951677":9875,"calls":9876,"ĠSAFE":9877,"nOrganiz":9878,"briefing":9879,"Ġwhether":9880,"ĠAnthony":9881,"Ġcharac":9882,"persons":9883,"Ġentry":9884,"Ġcombat":9885,"Ġcombination":9886,"Ġsupporters":9887,"VAAA":9888,"gative":9889,"jeffrey":9890,"Ġpromote":9891,"Ġpressure":9892,"logical":9893,"Ġpreviously":9894,"BRENNAN":9895,"Impeachment":9896,"ĠSchumer":9897,"ĠInstitute":9898,"Ġtransition":9899,"ĠInternet":9900,"Look":9901,"PPOINT":9902,"ballot":9903,"Ġrestrictions":9904,"Thomas":9905,"Ġsalvation":9906,"Ġfocused":9907,"Ġfiling":9908,"Ġstrategic":9909,"Ġstrategy":9910,"events":9911,"nSHADOW":9912,"nGoogle":9913,"Ġcapacity":9914,"Ġlimits":9915,"Ġaffiliation":9916,"XYAA":9917,"Ġrecommend":9918,"nPerhaps":9919,"Ġassociated":9920,"WwAE":9921,"jsTv":9922,"Ġpromise":9923,"Ġlistening":9924,"timated":9925,"anafort":9926,"Ġwaist":9927,"Ġfigure":9928,"nTargets":9929,"nCOMM":9930,"Ġfitted":9931,"Ġisolated":9932,"nRemoval":9933,"JPG":9934,"ĠSERVER":9935,"ĠAFTER":9936,"NCLUDE":9937,"cipated":9938,"ĠMAJORITY":9939,"Ġdefined":9940,"ĠGermany":9941,"WORK":9942,"iblical":9943,"lickbait":9944,"ĠSilent":9945,"nApply":9946,"Ġbuckled":9947,"Ġdaughter":9948,"arcissists":9949,"ĠHONOR":9950,"Ġmeasures":9951,"Ġlanguage":9952,"Ġconstitutional":9953,"fficient":9954,"Ġpractice":9955,"uzzle":9956,"erkel":9957,"nFeel":9958,"digital":9959,"Ġstrike":9960,"GeorgePapa":9961,"huffingtonpost":9962,"aratus":9963,"Ġphilos":9964,"americas":9965,"ĠBENEFITS":9966,"ĠHOROWITZ":9967,"nNOBODY":9968,"ĠRybicki":9969,"Ġgospel":9970,"jsTvXXmXs":9971,"%]\\":9972,")-":9973,",\\\"":9974,".)":9975,"/?\\":9976,"016":9977,"028":9978,"037":9979,"064":9980,"029":9981,"044":9982,"068":9983,"052":9984,"320":9985,"318":9986,"396":9987,"353":9988,"399":9989,"352":9990,"414":9991,"490":9992,"453":9993,"422":9994,"475":9995,"615":9996,"616":9997,"637":9998,"670":9999,"622":10000,"6127":10001,"6154":10002,"719":10003,"773":10004,"7174":10005,"828":10006,"837":10007,"864":10008,"990":10009,"9184":10010,"?__":10011,"AQ":10012,"An":10013,"AAR":10014,"Anti":10015,"Black":10016,"BACK":10017,"Biden":10018,"CO":10019,"Cit":10020,"Castle":10021,"Chair":10022,"DO":10023,"DX":10024,"Dj":10025,"DIS":10026,"EJ":10027,"Ed":10028,"EAL":10029,"Fog":10030,"FREE":10031,"Federal":10032,"Fsur":10033,"HO":10034,"Insur":10035,"JB":10036,"Jan":10037,"Keep":10038,"Lisa":10039,"Mo":10040,"Michael":10041,"Madness":10042,"NR":10043,"Never":10044,"Next":10045,"On":10046,"OOM":10047,"Past":10048,"Power":10049,"POSE":10050,"PREVENT":10051,"Qu":10052,"Ref":10053,"Rachel":10054,"Sch":10055,"Sec":10056,"SING":10057,"Strzok":10058,"TWITTER":10059,"UND":10060,"UILD":10061,"WW":10062,"Wake":10063,"XcAA":10064,"]-":10065,"^\\":10066,"av":10067,"aea":10068,"bM":10069,"bias":10070,"brotherhood":10071,"bulk":10072,"card":10073,"ctic":10074,"cba":10075,"clean":10076,"dr":10077,"dar":10078,"due":10079,"domestic":10080,"em":10081,"ene":10082,"efa":10083,"eye":10084,"ebb":10085,"elected":10086,"fk":10087,"fter":10088,"fla":10089,"girl":10090,"hind":10091,"ians":10092,"ios":10093,"iric":10094,"jm":10095,"jv":10096,"mk":10097,"mt":10098,"nm":10099,"nore":10100,"nvideo":10101,"npr":10102,"omo":10103,"oqu":10104,"pas":10105,"pull":10106,"qft":10107,"ster":10108,"system":10109,"schiff":10110,"school":10111,"tx":10112,"tlight":10113,"ttom":10114,"uth":10115,"user":10116,"uhan":10117,"vard":10118,"vable":10119,"voting":10120,"zing":10121,"Ġ,":10122,"Ġtext":10123,"Ġmetadata":10124,"Ġ14":10125,"Ġrou":10126,"Ġ21":10127,"ģ\\":10128,"ĵģ\\":10129,"Ġ\"(":10130,"rella":10131,"tegrity":10132,"thank":10133,"thread":10134,"inal":10135,"mean":10136,"aris":10137,"arlie":10138,"taking":10139,"tampa":10140,"orry":10141,"tish":10142,"oulos":10143,"onus":10144,"cen":10145,"cedc":10146,"ceeefe":10147,"Ġang":10148,"Ġaims":10149,"second":10150,"defe":10151,"dens":10152,"deni":10153,"dems":10154,"delay":10155,"democratic":10156,"dependence":10157,"core":10158,"cott":10159,"covid":10160,"poch":10161,"lets":10162,"rict":10163,"riots":10164,"another":10165,"Ġwri":10166,"Ġwrote":10167,"15748":10168,"inger":10169,"bove":10170,"trix":10171,"aust":10172,"iso":10173,"ising":10174,"authorized":10175,"fede":10176,"Ġ1521":10177,"Ġ1543":10178,"Ġ15287":10179,"Ġ151000":10180,"Ġple":10181,"Ġpare":10182,"Ġocca":10183,"nWILL":10184,"Ġblow":10185,"Ġbrie":10186,"Ġborders":10187,"unning":10188,"Ġswee":10189,"Ġsymbolism":10190,"Ġsmear":10191,"itler":10192,"itude":10193,"Ġfly":10194,"Ġfloor":10195,"Ġcro":10196,"erri":10197,"rogue":10198,"Ġinc":10199,"Ġincoming":10200,"held":10201,"2048":10202,"1337":10203,"1398":10204,"owned":10205,"1037":10206,"1033":10207,"1074":10208,"1007":10209,"1008":10210,"Ġduly":10211,"Ġduties":10212,"near":10213,"usk":10214,"usan":10215,"Ġrespe":10216,"Ġreject":10217,"Ġredacted":10218,"lian":10219,"lize":10220,"asure":10221,"nTake":10222,"nTarget":10223,"nTWITTER":10224,"Ġhot":10225,"Ġhalf":10226,"Ġhonor":10227,"Ġhusband":10228,"ĠTELL":10229,"ĠTWITTER":10230,"ĠTREASON":10231,"ĠCa":10232,"ĠCy":10233,"ĠCau":10234,"ĠCHE":10235,"ĠCity":10236,"ĠCALL":10237,"ĠCameron":10238,"rai":10239,"ĠSal":10240,"ĠSam":10241,"ĠSUB":10242,"ĠSara":10243,"ĠSET":10244,"ĠSOURC":10245,"1840":10246,"Ġbelow":10247,"ĠAmb":10248,"ĠAlice":10249,"ĠABO":10250,"ĠAwan":10251,"ĠApril":10252,"Ġmatch":10253,"ĠPri":10254,"ĠPer":10255,"ĠPak":10256,"ĠPower":10257,"ĠPDB":10258,"ĠPerry":10259,"ĠPotus":10260,"ĠPERSON":10261,"1210":10262,"1226":10263,"1224":10264,"esper":10265,"named":10266,"1915":10267,"1946":10268,"via":10269,"visi":10270,"viron":10271,"visible":10272,"station":10273,"states":10274,"1428":10275,"1408":10276,"1439":10277,"laim":10278,"ĠFUN":10279,"ĠFlag":10280,"ĠFather":10281,"ĠFOX":10282,"Ġnull":10283,"Ġnice":10284,"cket":10285,"ngraham":10286,"9012":10287,"9050":10288,"9024":10289,"2805":10290,"nDig":10291,"nData":10292,"nDurham":10293,"nDouble":10294,"REST":10295,"3080":10296,"3099":10297,"INATION":10298,"5069":10299,"9744":10300,"9760":10301,"ĠDan":10302,"ĠDonald":10303,"ĠDNI":10304,"ĠDelta":10305,"2688":10306,"adop":10307,"adviser":10308,"ruary":10309,"cili":10310,"3888":10311,"2736":10312,"2740":10313,"2423":10314,"5658":10315,"3754":10316,"3759":10317,"look":10318,"nSpi":10319,"nSleep":10320,"nSpecial":10321,"9488":10322,"9464":10323,"9468":10324,"9478":10325,"9447":10326,"5800":10327,"5839":10328,"nPut":10329,"Ġformation":10330,"ĠBen":10331,"ĠBAD":10332,"ĠBruce":10333,"9812":10334,"9824":10335,"9860":10336,"3488":10337,"3495":10338,"Ġgreater":10339,"9669":10340,"9665":10341,"ĠMin":10342,"ĠMen":10343,"ĠMATER":10344,"5488":10345,"Ġdesper":10346,"ĠHigh":10347,"ĠHOLD":10348,"Ġconce":10349,"Ġconservative":10350,"nHuff":10351,"009":10352,"urn":10353,"nCO":10354,"nClinton":10355,"nComey":10356,"nCOVID":10357,"nFact":10358,"nFreedom":10359,"nFIRE":10360,"Ġseven":10361,"Ġseize":10362,"bey":10363,"behind":10364,"ĠIndictments":10365,"dern":10366,"thegatewaypundit":10367,"8802":10368,"2956":10369,"2934":10370,"Ġtw":10371,"Ġtun":10372,"Ġtwitter":10373,"Ġtrou":10374,"Ġtree":10375,"Ġtweets":10376,"nAN":10377,"nAdd":10378,"nAmazing":10379,"nNight":10380,"nNEW":10381,"ĠRR":10382,"ĠRes":10383,"nIR":10384,"optics":10385,"5336":10386,"âĢ¦\"":10387,"ĠGroup":10388,"âĢĻ)":10389,"ĠOW":10390,"4416":10391,"Ġpoor":10392,"Ġpose":10393,"Ġpointed":10394,"Ġprodu":10395,"Ġprojection":10396,"Ġproceed":10397,"nRBG":10398,"nRisk":10399,"nMr":10400,"!!!":10401,"8719":10402,"8725":10403,"8751":10404,"2216":10405,"2290":10406,"EDGE":10407,"Ġorg":10408,"Ġordered":10409,"forbes":10410,"2516":10411,"2538":10412,"3398":10413,"741":10414,"moon":10415,"movement":10416,"ĠLog":10417,"ĠLOS":10418,"ĠLOST":10419,"ĠLAST":10420,"ORIOUS":10421,"nBy":10422,"nBrennan":10423,"nBob":10424,"nBloomberg":10425,"eet":10426,"5550":10427,"55206":10428,"Ġmask":10429,"041":10430,"ANON":10431,"\\\".":10432,"Ġunrest":10433,"gold":10434,"Ġnegative":10435,"eac":10436,"east":10437,"onest":10438,"9310":10439,"9394":10440,"Ġsha":10441,"Ġshadow":10442,"Ġshadows":10443,"OUN":10444,"Ġcompetition":10445,"Ġhaven":10446,"9228":10447,"9253":10448,"075":10449,"nEX":10450,"nEvidence":10451,"nEnemy":10452,"Ġking":10453,"Ġkick":10454,"Ġlevers":10455,"Ġstake":10456,"Ġstatis":10457,"089":10458,"nLARP":10459,"nLike":10460,"7356":10461,"7359":10462,"73584":10463,"aint":10464,"ainstream":10465,"ĠUp":10466,"ĠUran":10467,"ĠUni":10468,"rank":10469,"Ġexpen":10470,"Ġexecu":10471,"egal":10472,"nedy":10473,"cdceed":10474,"cidentally":10475,"751":10476,"7514":10477,"7557":10478,"481":10479,"nJason":10480,"holders":10481,"pizz":10482,"Ġsovere":10483,"many":10484,"Ġknowledge":10485,"471":10486,"LEAD":10487,"rying":10488,"nResearch":10489,"Ġliterally":10490,"Ġprevention":10491,"program":10492,"profit":10493,"cum":10494,"051":10495,"Ġworse":10496,"Ġlaptop":10497,"âĢ¦âĢ¦..\\":10498,"aged":10499,"Ġhasn":10500,"0223":10501,"minder":10502,"Ġalgor":10503,"TROY":10504,"Ġ15519":10505,"ĠUSED":10506,"ĠQAnon":10507,"ĠVS":10508,"ĠVeter":10509,"Ġ1604":10510,"Ġ16000":10511,"11088":10512,"11068":10513,"ignal":10514,"Ġviews":10515,"7214":10516,"6257":10517,"Ġmanufact":10518,"bfd":10519,"Ġprice":10520,"9112":10521,"Ġ15912":10522,"Ġ15936":10523,"Ġsaw":10524,"Ġuser":10525,"crease":10526,"Ġtraffic":10527,"Ġbelieved":10528,"ĠSTAKE":10529,"ĠSTOP":10530,"Ġ158974":10531,"Ġ15438":10532,"Ġ15499":10533,"Ġ15468":10534,"lowers":10535,"STIT":10536,"iles":10537,"AMER":10538,"AMIL":10539,"soon":10540,"ODAY":10541,"Ġcorps":10542,"apan":10543,"exposed":10544,"execu":10545,"executive":10546,"ĠTHOUGHT":10547,"ELOS":10548,"ELCOME":10549,"Ġotherwise":10550,"firmation":10551,"Ġ15250":10552,"Ġhotel":10553,"working":10554,"10756":10555,"undred":10556,"Ġcrimin":10557,"10650":10558,"mpact":10559,"IVIS":10560,"IVATE":10561,"BCEA":10562,"Ġmiss":10563,"Ġposting":10564,"nKevin":10565,"Ġintellect":10566,"Ġshowed":10567,"value":10568,"OSURE":10569,"ESTIC":10570,"Ġcompanies":10571,"span":10572,"joint":10573,"Ġindicate":10574,"Ġdonor":10575,"ronger":10576,"crisis":10577,"critical":10578,"munity":10579,"Ġacting":10580,"TERS":10581,"publicly":10582,"Ġinsurance":10583,"Ġobjective":10584,"ĠCode":10585,"interval":10586,"Ġsucce":10587,"Ġsuicide":10588,"Ġfollowers":10589,"Ġ153740":10590,"senators":10591,"???":10592,"???\\":10593,"within":10594,"arrassment":10595,"ĠUNITY":10596,"Ġdivi":10597,"58015":10598,"nAttempt":10599,"Ġfaithfully":10600,"ĠIMAG":10601,"nett":10602,"build":10603,"Ġhero":10604,"8982":10605,"hilltv":10606,"dailymail":10607,"Ġsurvi":10608,"Ġcloser":10609,"ystems":10610,"+++":10611,"+++\\":10612,"ĠCHAIN":10613,"SPEC":10614,"Ġassured":10615,"Ġassumption":10616,"ĠSHOULD":10617,"7943":10618,"54766":10619,"Ġallows":10620,"Ġrevelation":10621,"ĠSCIF":10622,"nLoss":10623,"Ġ101":10624,"warned":10625,"DoD":10626,"Ġleaving":10627,"^^\\":10628,"Ġexplain":10629,"Devin":10630,"Post":10631,"2949":10632,"2282":10633,"Ġblitz":10634,"Ġswing":10635,"....":10636,"elections":10637,"ĠBIGGER":10638,"nUSA":10639,"nUSE":10640,"ĠWARS":10641,"ĠRothschild":10642,"Ġviewpoints":10643,"Ġfreely":10644,"Ġcleaned":10645,"Ġregion":10646,"OUTE":10647,"PRO":10648,"chological":10649,"105918":10650,"Ġrequires":10651,"mmigration":10652,"OTHS":10653,"OTHING":10654,"nGOOD":10655,"OCKWORK":10656,"Ġruns":10657,"Expand":10658,"supreme":10659,"secution":10660,"Ġhomes":10661,"vanaugh":10662,"stroying":10663,"ĠASS":10664,"Ġclearance":10665,"8801840":10666,"erified":10667,"Ġreporter":10668,"Report":10669,"uppet":10670,"ULT":10671,"ULAR":10672,"herald":10673,"Ġcalm":10674,"nTimestamp":10675,"Ġtraveling":10676,"aircraft":10677,"subpoena":10678,"children":10679,"Ġbroke":10680,"Ġdiscuss":10681,"Ġclaimed":10682,"ĠAROUND":10683,"Ġverified":10684,"Ġverification":10685,"tails":10686,"organized":10687,"ĠChicago":10688,"ĠFRAUD":10689,"Ġfeeling":10690,"Ġinteresting":10691,"Ġinterestingly":10692,"ĠZucker":10693,"Ġtelling":10694,"Ġempiric":10695,"Ġharms":10696,"ĠNYC":10697,"aii":10698,"Ġlinks":10699,"personnel":10700,"Ġscared":10701,"ĠSection":10702,"ĠWarlocks":10703,"ORDERS":10704,"82516":10705,"axwell":10706,"droxy":10707,"spies":10708,"nSocial":10709,"Ġdisclosed":10710,"Ġappeal":10711,"Ġappears":10712,"ĠFormer":10713,"Ġexposing":10714,"NGTH":10715,"nCorrection":10716,"Ġvalid":10717,"Ġvisitor":10718,"Ġballot":10719,"marks":10720,"Ġfalls":10721,"ĠCANNOT":10722,"ĠALWAY":10723,"Ġconflict":10724,"nAlso":10725,"nArchive":10726,"Ġpulls":10727,"helter":10728,"nThreats":10729,"disclosed":10730,"records":10731,"Ġdraft":10732,"ĠMILITARY":10733,"nAndrew":10734,"explained":10735,"structure":10736,"suspect":10737,"ĠAnderson":10738,"ENSOR":10739,"Former":10740,"Ġphra":10741,"nMajority":10742,"DVT":10743,"Ġcraving":10744,"communic":10745,"ĠMEMES":10746,"Ġ160330":10747,"Ġadvantage":10748,"Sometimes":10749,"ĠSIGNERS":10750,"7516458":10751,"FTNR":10752,"ĠCanada":10753,"ĠWHITAKER":10754,"scribd":10755,"Ġissued":10756,"ĠDEMONSTR":10757,"nPrimary":10758,"believe":10759,"Ġkinds":10760,"Ġrestrict":10761,"itative":10762,"ĠDESIGNED":10763,"peaceful":10764,"Ġtrend":10765,"Ġsurrounds":10766,"0531391":10767,"NEWS":10768,"PTFTNR":10769,"Shall":10770,"Ġinitiated":10771,"Ġdogma":10772,"ĠGLORIOUS":10773,"Ġideology":10774,"Ġanalysis":10775,"Ġaffiliated":10776,"documentcloud":10777,"idUSKCN":10778,"Daily":10779,"mccain":10780,"Ġwanted":10781,"Ġrecommen":10782,"Ġrepeated":10783,"193423":10784,"Ġliberal":10785,"Ġinsurgency":10786,"VsAA":10787,"Ġforever":10788,"9000594":10789,"ursday":10790,"nCLINTON":10791,"ĠNATIONAL":10792,"Ġmasters":10793,"ĠSPYING":10794,"Ġbattles":10795,"ĠHUNTED":10796,"nCheck":10797,"Ġattach":10798,"minent":10799,"Ġregulations":10800,"lization":10801,"lighted":10802,"nSheep":10803,"ĠWRAY":10804,"Ġvarious":10805,"Ġparticip":10806,"Ġbriefing":10807,"QUAL":10808,"VoAA":10809,"Ġthousands":10810,"Ġpending":10811,"Ġbrave":10812,"Ġskin":10813,"ĠPUTIN":10814,"ĠBRENNAN":10815,"ĠMONEY":10816,"resentative":10817,"judicialwatch":10818,"Ġpiece":10819,"Ġeliminated":10820,"esponse":10821,"ĠDOMESTIC":10822,"nImpossible":10823,"Ġaccurate":10824,"Ġsafeguarded":10825,"ĠARTICLES":10826,"teresting":10827,"involved":10828,"Ġaggressive":10829,"citizens":10830,"ĠHalper":10831,"ĠHomeland":10832,"thematical":10833,"ĠRELIG":10834,"ATEGIC":10835,"ĠIMMED":10836,"ĠAssociate":10837,"Ġbranch":10838,"maggieNYT":10839,"ĠThomas":10840,"9099795":10841,"uthority":10842,"ðŁĵģ\\":10843,"intentionally":10844,"chloroqu":10845,"hearings":10846,"Ġmillions":10847,"nAnalyze":10848,"ophical":10849,"ĠEFFORT":10850,"Ġquickly":10851,"Ġphilosophical":10852,"Fsurv":10853,"WakeUp":10854,"Ġbriefed":10855,"ĠABOVE":10856,"ĠMATERIAL":10857,"Ġdesperate":10858,"nHuffPo":10859,"ĠUranium":10860,"pizzagate":10861,"Ġalgorith":10862,"ELOSI":10863,"BCEAO":10864,"Ġintellectual":10865,"DevinNunes":10866,"Ġempiricism":10867,"droxychloroqu":10868,"ĠALWAYS":10869,"%]":10870,"084":10871,"021":10872,"213":10873,"2142":10874,"311":10875,"3189":10876,"31066":10877,"473":10878,"477":10879,"515":10880,"558":10881,"534":10882,"559":10883,"553":10884,"611":10885,"699":10886,"734":10887,"723":10888,"780":10889,"776":10890,"7966":10891,"812":10892,"867":10893,"831":10894,"9194":10895,">[":10896,"?[":10897,"Ass":10898,"Awakening":10899,"Any":10900,"AUTH":10901,"Bri":10902,"Back":10903,"Cri":10904,"CUS":10905,"Conspiracy":10906,"Chatter":10907,"DR":10908,"DS":10909,"Dg":10910,"Dan":10911,"Dis":10912,"DEN":10913,"DEF":10914,"EU":10915,"Ea":10916,"End":10917,"Election":10918,"GOD":10919,"General":10920,"GANG":10921,"HIC":10922,"HOLD":10923,"IER":10924,"IATION":10925,"June":10926,"Juli":10927,"JDVT":10928,"KV":10929,"KILL":10930,"LER":10931,"Life":10932,"MJ":10933,"Mc":10934,"Military":10935,"Media":10936,"Master":10937,"One":10938,"Our":10939,"OIA":10940,"PH":10941,"PAC":10942,"PAIN":10943,"Rod":10944,"SU":10945,"Spo":10946,"See":10947,"Shot":10948,"Sessions":10949,"Soros":10950,"Special":10951,"Singapore":10952,"TM":10953,"TV":10954,"Tom":10955,"Treason":10956,"UES":10957,"UAA":10958,"UALLY":10959,"VOTE":10960,"War":10961,"WwAA":10962,"XW":10963,"YP":10964,"](":10965,"]:":10966,"_^":10967,"aq":10968,"ader":10969,"aire":10970,"aPo":10971,"amazon":10972,"cm":10973,"carter":10974,"curs":10975,"constitutional":10976,"dw":10977,"dri":10978,"dark":10979,"during":10980,"dfaf":10981,"ead":10982,"ecc":10983,"eliminate":10984,"epoch":10985,"far":10986,"gar":10987,"gch":10988,"gal":10989,"gations":10990,"hou":10991,"hid":10992,"happ":10993,"iat":10994,"iam":10995,"impact":10996,"kim":10997,"might":10998,"multiple":10999,"nw":11000,"nor":11001,"nda":11002,"ntime":11003,"nVJ":11004,"nad":11005,"nAT":11006,"nand":11007,"nate":11008,"nded":11009,"nwas":11010,"nONLY":11011,"ote":11012,"pres":11013,"pushed":11014,"rors":11015,"rror":11016,"sti":11017,"san":11018,"sun":11019,"shi":11020,"still":11021,"soros":11022,"steele":11023,"scandal":11024,"screenshot":11025,"tz":11026,"uh":11027,"uce":11028,"uded":11029,"ulate":11030,"want":11031,"wire":11032,"yy":11033,"zra":11034,"Ġ!":11035,"Ġ?":11036,"Ġmeta":11037,"Ġ28":11038,"Ġ27":11039,"Ġ05":11040,"Ġ31":11041,"Ġign":11042,"Ġ187":11043,"Ġvested":11044,"ĠERR":11045,"resign":11046,"redacted":11047,"tened":11048,"those":11049,"three":11050,"through":11051,"inten":11052,"inning":11053,"initi":11054,"inclu":11055,"invest":11056,"menti":11057,"arn":11058,"aration":11059,"arles":11060,"tant":11061,"takes":11062,"oral":11063,"orary":11064,"ortra":11065,"orance":11066,"origin":11067,"tips":11068,"ouch":11069,"ongoing":11070,"celle":11071,"Ġaboard":11072,"Ġamp":11073,"Ġamazing":11074,"seas":11075,"stin":11076,"strate":11077,"study":11078,"del":11079,"decla":11080,"defense":11081,"lent":11082,"leaks":11083,"siders":11084,"siles":11085,"sistance":11086,"Ġtheater":11087,"tool":11088,"dations":11089,"dactions":11090,"ander":11091,"anging":11092,"Ġwindow":11093,"1588":11094,"1589":11095,"1502":11096,"trib":11097,"alware":11098,"authority":11099,"features":11100,"Ġ1525":11101,"Ġ151116":11102,"Ġpill":11103,"Ġpulled":11104,"Ġportra":11105,"Ġoil":11106,"psy":11107,"gery":11108,"nWar":11109,"nWELCOME":11110,"Ġbit":11111,"Ġbul":11112,"atred":11113,"atnick":11114,"unk":11115,"unned":11116,"unish":11117,"unusual":11118,"Ġfine":11119,"Ġcard":11120,"Ġcreat":11121,"ert":11122,"map":11123,"mates":11124,"massive":11125,"commit":11126,"Ġoffl":11127,"Ġoffen":11128,"Ġoffered":11129,"Ġinfe":11130,"Ġinstruct":11131,"Ġintroduce":11132,"Ġinappropriate":11133,"fiE":11134,"fix":11135,"fies":11136,"ficially":11137,"ndy":11138,"2050":11139,"2000":11140,"2022":11141,"2062":11142,"1314":11143,"1370":11144,"1360":11145,"1393":11146,"1309":11147,"1017":11148,"1030":11149,"1038":11150,"1046":11151,"1065":11152,"109496":11153,"Ġdream":11154,"Ġdouble":11155,"Ġdigest":11156,"nen":11157,"neys":11158,"Ġreci":11159,"Ġrecon":11160,"Ġrevol":11161,"liber":11162,"library":11163,"ask":11164,"nTop":11165,"nTransparency":11166,"Ġem":11167,"amend":11168,"Ġhon":11169,"Ġhur":11170,"Ġhanded":11171,"Ġhidden":11172,"Ġhonest":11173,"ĠTX":11174,"ĠTUR":11175,"ĠTASK":11176,"ĠTuesday":11177,"ĠCamp":11178,"ĠCAMP":11179,"ĠClines":11180,"race":11181,"raise":11182,"ĠSA":11183,"ĠSex":11184,"ĠSOME":11185,"ĠSKY":11186,"ĠSIGINT":11187,"1814":11188,"1838":11189,"1825":11190,"1807":11191,"1846":11192,"Ġbelong":11193,"ĠAcc":11194,"ĠAlle":11195,"ĠAgain":11196,"ĠAlert":11197,"ĠABILITY":11198,"ĠAuthority":11199,"Ġmirror":11200,"Ġmalware":11201,"ĠPH":11202,"ĠPh":11203,"ĠPAIN":11204,"1238":11205,"1236":11206,"1285":11207,"1283":11208,"esti":11209,"esla":11210,"1696":11211,"1635":11212,"1916":11213,"1927":11214,"1978":11215,"1947":11216,"enry":11217,"1703":11218,"1785":11219,"virus":11220,"staff":11221,"stanti":11222,"1458":11223,"1476":11224,"1432":11225,"1445":11226,"1472":11227,"laved":11228,"lacal":11229,"lady":11230,"ĠFALL":11231,"ĠFIND":11232,"ĠFEED":11233,"ĠFlake":11234,"ĠFUCK":11235,"Ġnor":11236,"ngine":11237,"9056":11238,"9054":11239,"9074":11240,"9008":11241,"2820":11242,"2819":11243,"2836":11244,"2896":11245,"2854":11246,"2867":11247,"nDates":11248,"nDARPA":11249,"nDrop":11250,"REAM":11251,"3094":11252,"3069":11253,"INER":11254,"5029":11255,"9714":11256,"9729":11257,"9780":11258,"9735":11259,"ĠDea":11260,"ĠDist":11261,"ĠDISC":11262,"2630":11263,"verse":11264,"versight":11265,"rue":11266,"rug":11267,"rumbs":11268,"3812":11269,"3804":11270,"2774":11271,"2705":11272,"2741":11273,"2438":11274,"2439":11275,"5696":11276,"3611":11277,"3675":11278,"3720":11279,"3700":11280,"loaded":11281,"nSp":11282,"nSer":11283,"nSet":11284,"nSlow":11285,"nSile":11286,"nSNOW":11287,"nSESSIONS":11288,"nSEPT":11289,"nStrate":11290,"9428":11291,"9456":11292,"5820":11293,"5826":11294,"5824":11295,"5858":11296,"nPart":11297,"nPelosi":11298,"ĠBC":11299,"ĠBig":11300,"ĠBEC":11301,"ĠBless":11302,"ĠBIR":11303,"ĠBias":11304,"9818":11305,"9856":11306,"9834":11307,"3496":11308,"3468":11309,"ATIC":11310,"ĠWWG":11311,"ĠWHERE":11312,"Ġgun":11313,"9637":11314,"ĠMO":11315,"ĠMZ":11316,"ĠMee":11317,"ĠMOD":11318,"ĠMichael":11319,"ĠMUCH":11320,"ĠMartin":11321,"ĠMonetary":11322,"5464":11323,"5466":11324,"Ġdev":11325,"Ġderiving":11326,"ĠHill":11327,"ĠHab":11328,"ĠHea":11329,"ĠHCQ":11330,"Ġcondi":11331,"Ġconfidential":11332,"nHis":11333,"nHand":11334,"nHint":11335,"nCar":11336,"nCounter":11337,"nFast":11338,"nFired":11339,"nFederal":11340,"nFacebook":11341,"nFOIA":11342,"Ġseat":11343,"best":11344,"beat":11345,"ĠNon":11346,"ĠNarrative":11347,"ĠNEXT":11348,"ĠNazi":11349,"ĠNUNES":11350,"ĠIraq":11351,"Ġwhom":11352,"Ġwhite":11353,"pey":11354,"theepoch":11355,"Ġtough":11356,"nAnti":11357,"nAbility":11358,"nApril":11359,"Ġwear":11360,"Ġwelcome":11361,"5938":11362,"2320":11363,"23119":11364,"cast":11365,"capa":11366,"cates":11367,"cabal":11368,"nNOTHING":11369,"ĠRC":11370,"ĠRay":11371,"ĠROS":11372,"ĠRACE":11373,"ĠReddit":11374,"1114":11375,"nIron":11376,"nIRAN":11377,"ils":11378,"opinions":11379,"5324":11380,"53978":11381,"ĠGEN":11382,"ĠGIV":11383,"ĠGreg":11384,"ĠGlacal":11385,"âĢĻ?\\":11386,"ĠOB":11387,"ĠOS":11388,"pay":11389,"pack":11390,"7030":11391,"Ġpolls":11392,"Ġproper":11393,"Ġprofit":11394,"nRace":11395,"nRandy":11396,"nMarch":11397,"nMedia":11398,"orest":11399,"fast":11400,"fair":11401,"8722":11402,"2298":11403,"ITE":11404,"Ġite":11405,"Ġorig":11406,"6637":11407,"ccffb":11408,"ford":11409,"forman":11410,"808":11411,"8083":11412,"LLC":11413,"efore":11414,"lication":11415,"8463":11416,"7450":11417,"Ġcoincide":11418,"moted":11419,"ORM":11420,"nBottom":11421,"Ġwilling":11422,"eea":11423,"eee":11424,"ĠTHERE":11425,"5594":11426,"ureau":11427,"!\\\"":11428,"Ġheavy":11429,"Ġhelicopter":11430,"043":11431,"Ġuncover":11432,"Ġunited":11433,"Ġunfold":11434,"eaed":11435,"9395":11436,"Ġshown":11437,"Ġshunned":11438,"ASC":11439,"6896":11440,"OUP":11441,"OUR":11442,"Ġchose":11443,"5237":11444,"ĠEn":11445,"ĠEIGHT":11446,"ĠEvil":11447,"ĠEmergency":11448,"ĠEnemy":11449,"ĠEagle":11450,"ISIS":11451,"9212":11452,"9238":11453,"0727":11454,"nEYES":11455,"nError":11456,"Ġgoal":11457,"Ġgoals":11458,"fbcdb":11459,"Ġstood":11460,"Ġstation":11461,"Ġstating":11462,"7866":11463,"nLV":11464,"nLong":11465,"nList":11466,"nLEARN":11467,"73550":11468,"vident":11469,"videos":11470,"7600":11471,"rance":11472,"bby":11473,"Ġexec":11474,"Ġexecutive":11475,"omney":11476,"nGreen":11477,"nius":11478,"9558":11479,"portion":11480,"Ġtable":11481,"ongrat":11482,"ĠJAIL":11483,"ĠJohnson":11484,"4659":11485,"Ġlocked":11486,"7556":11487,"7537":11488,"485":11489,"âĢĤâĢĤâĢĤâĢĤâĢĤâĢĤâĢĤâĢĤâĢĤâĢĤâĢĤ":11490,"ebc":11491,"hole":11492,"ounded":11493,"ĠYET":11494,"3916":11495,"3957":11496,"ĠTOP":11497,"8956":11498,"4736":11499,"LEFT":11500,"nRelations":11501,"Ġsix":11502,"Ġnote":11503,"Ġprep":11504,"nOther":11505,"nOutside":11506,"promo":11507,"provide":11508,"Ġmother":11509,"Ġmoving":11510,"0523":11511,"âĢ¦âĢ¦.":11512,"âĢ¦âĢ¦âĢ¦":11513,"agent":11514,"ĠINIT":11515,"TRUST":11516,"862":11517,"leave":11518,"Ġaccomp":11519,"Ġaccidentally":11520,"Ġ15517":11521,"Ġ15528":11522,"Ġ155287":11523,"Ġjail":11524,"Ġjurisdiction":11525,"olin":11526,"olved":11527,"qual":11528,"ĠVI":11529,"Ġourselves":11530,"Ġarti":11531,"Ġupcoming":11532,"Ġdisruption":11533,"ĠREASON":11534,"ĠRETUR":11535,"491":11536,"cfde":11537,"Ġ2013":11538,"Ġopening":11539,"renthood":11540,"Ġentered":11541,"OPER":11542,"ussions":11543,"5120":11544,"cance":11545,"!!!!!\\":11546,"Ġ15894":11547,"Ġ15419":11548,"Ġfeed":11549,"Ġoversee":11550,"TheJustice":11551,"doc":11552,"ĠInvestig":11553,"nothing":11554,"ĠTRACK":11555,"ĠTRAVE":11556,"Ġ15508":11557,"Ġcorrobor":11558,"hysi":11559,"apps":11560,"Ġ158830":11561,"legally":11562,"ĠTHROUGH":11563,"Ġsuppress":11564,"Ġbackchannel":11565,"comey":11566,"ILLEGAL":11567,"pert":11568,"Ġhost":11569,"ĠThese":11570,"ĠTheir":11571,"1150":11572,"Ġadmit":11573,"1071991":11574,"Ġvoters":11575,"Ġserving":11576,"10618":11577,"10684":11578,"IMPEACH":11579,"Ġcease":11580,"12030":11581,"12029":11582,"nInter":11583,"Ġgoods":11584,"Ġ15757":11585,"Ġ15753":11586,"IFT":11587,"cusal":11588,"EMPT":11589,"EMBER":11590,"Ġstands":11591,"Ġrape":11592,"Ġrates":11593,"Ġradical":11594,"Ġracist":11595,"Ġshows":11596,"nnoun":11597,"ĠSenior":11598,"Ġintercept":11599,"Ġguards":11600,"nExact":11601,"athan":11602,"Ġtakeover":11603,"OCUS":11604,"crimination":11605,"actually":11606,"Ġ152035":11607,"10596":11608,"105970":11609,"Remember":11610,"ideo":11611,"Ġroom":11612,"ĠWeiner":11613,"Ġprevents":11614,"fying":11615,"yesterday":11616,"Ġ151387":11617,"Ġobjects":11618,"ĠCoincidence":11619,"intercept":11620,"Ġapply":11621,"Ġapparatus":11622,"voat":11623,"Ġquality":11624,"Ġ153670":11625,"pentagon":11626,"corded":11627,"corruption":11628,"Ġuseful":11629,"knowledge":11630,"sensitive":11631,"Ġreasoning":11632,"sures":11633,"Ġplaybook":11634,"medic":11635,"Ġ156450":11636,"aware":11637,"ĠRemember":11638,"identified":11639,"Ġsubsi":11640,"Ġoccurs":11641,"closed":11642,"ĠCOMP":11643,"ARENESS":11644,"10838":11645,"Ġoperators":11646,"++\\":11647,"discus":11648,"Ġamount":11649,"Ġbasic":11650,"iki":11651,"ĠSHIFT":11652,"Ġdefense":11653,"Ġdefends":11654,"ENDING":11655,"Ġasset":11656,"Ġpercent":11657,"Ġperfect":11658,"ETING":11659,"morning":11660,"IGNATION":11661,"8976":11662,"Ġowl":11663,"Control":11664,"INTELLIGENCE":11665,"5503":11666,"nPropaganda":11667,"controllers":11668,"Nothing":11669,"Ġfalsehood":11670,"lawmakers":11671,"Ġtalked":11672,"/?__":11673,"termine":11674,"BOX":11675,"thinking":11676,"27614":11677,"nTraitor":11678,"ĠAWAN":11679,"nPrepare":11680,"Ġrules":11681,"ĠINTO":11682,"ĠINTELLIGENCE":11683,"Ġhands":11684,"Ġhandling":11685,"CONTROL":11686,"65855206":11687,"5569":11688,"ĠCLASS":11689,"super":11690,"35007":11691,"ĠASSETS":11692,"ĠOPP":11693,"7560523":11694,"nShadow":11695,"Ġcompleted":11696,"Ġrefute":11697,"Ġremaining":11698,"Ġextinction":11699,"financial":11700,"account":11701,"abcnews":11702,"Ġexperi":11703,"aiting":11704,"ĠProof":11705,"ĠProtect":11706,"Ġgovt":11707,"ĠKNOWN":11708,"Ġ151707":11709,"NBCNews":11710,"Ġinstituted":11711,"versation":11712,"nMissing":11713,"Ġ155217":11714,"Ġprosecuted":11715,"ĠLove":11716,"ellie":11717,"10668220":11718,"ĠPUBLICLY":11719,"Ġdeeper":11720,"Ġfeelings":11721,"Ġharder":11722,"allows":11723,"removed":11724,"company":11725,"ĠCOORD":11726,"because":11727,"ĠDossier":11728,"nOperations":11729,"OSSIER":11730,"Ġtopics":11731,"Ġsilenced":11732,"axios":11733,"blank":11734,"reserve":11735,"mayor":11736,"Ġgraphics":11737,"tanic":11738,"gunship":11739,"gunships":11740,"Ġreliable":11741,"nBiggest":11742,"Ġtaxpayers":11743,"nCorruption":11744,"ĠENOUGH":11745,"ĠIsland":11746,"Ġrevealing":11747,"Ġallegations":11748,"featured":11749,"Ġfalling":11750,"nAlways":11751,"Start":11752,"help":11753,"Ġcommittees":11754,"ĠExecutive":11755,"MOVAL":11756,"Ġzones":11757,"Ġzero":11758,"Ġreached":11759,"Ġmarried":11760,"Ġgrounds":11761,"Ġproblem":11762,"68630":11763,"Ġcensoring":11764,"4369669":11765,"<<<\\":11766,"efec":11767,"midt":11768,"Ġpublish":11769,"ĠSolomon":11770,"ĠMockingbird":11771,"Ġtype":11772,"Andrew":11773,"Patriot":11774,"audio":11775,"ASTLE":11776,"Ġcharging":11777,"Ġtracks":11778,"Ġtesting":11779,"nConnected":11780,"WoAA":11781,"elec":11782,"visor":11783,"Ġindependent":11784,"Ġentren":11785,"nMathematically":11786,"Ġshutdown":11787,"Ġsupported":11788,"RAINE":11789,"Ġspoke":11790,"Ġcrossing":11791,"communities":11792,"Ġreviewing":11793,"Ġdeadly":11794,"Ġdecided":11795,"petitive":11796,"ddac":11797,"sheep":11798,"Ġsleeping":11799,"Ġentering":11800,"Ġtestifying":11801,"culture":11802,"ĠFrancis":11803,"Ġlaunched":11804,"questions":11805,"FoxNews":11806,"WAAA":11807,"Ġenslaved":11808,"ĠACTIVE":11809,"ĠDEMOCR":11810,"nPrivate":11811,"blocking":11812,"interest":11813,"collective":11814,"Ġ151406":11815,"Ġ153256":11816,"ĠANOTHER":11817,"channels":11818,"rollingstone":11819,"ĠSAPs":11820,"124915":11821,"Ġconcerns":11822,"ĠGLOBAL":11823,"nBuild":11824,"Ġviolations":11825,"Ġviolate":11826,"KNOWN":11827,"KNOWINGLY":11828,"finds":11829,"sperry":11830,"Ġwants":11831,"ĠAIDS":11832,"ĠPutin":11833,"ĠReport":11834,"nInsurgency":11835,"ĠLifeLog":11836,"indict":11837,"Ġ151046":11838,"ĠClown":11839,"ĠClintons":11840,"Ġconclusions":11841,"ĠGoodlatte":11842,"Ġlogical":11843,"ĠRECORD":11844,"Ġcommunication":11845,"$$$$$$$$":11846,"ĠDEALS":11847,"(((":11848,"015141":11849,"bilities":11850,"yahoo":11851,"ĠHoly":11852,"Ġattached":11853,"specifically":11854,"quences":11855,"threats":11856,"censorship":11857,"Ġagreement":11858,"Ġpassed":11859,"ĠPURPOSE":11860,"ĠHIGH":11861,"ĠHIGHEST":11862,"Ġsolution":11863,"ĠChristmas":11864,"dogmatic":11865,"Ġcabinet":11866,"Ġinfiltrate":11867,"ĠSINGLE":11868,"ĠDELTA":11869,"Ġjournalists":11870,"ĠSTRENGTH":11871,"Ġfixed":11872,"tUfiE":11873,"simply":11874,"Ġsuddenly":11875,"Ġeasily":11876,"Ġdeemed":11877,"Ġseparate":11878,"Ġdollars":11879,"Ġsimilarities":11880,"FULLY":11881,"Ġdistribution":11882,"QRV":11883,"WARNING":11884,"paulsperry":11885,"republican":11886,"triotism":11887,"Ġcouple":11888,"nTrisha":11889,"Ġnominee":11890,"ĠILLEGAL":11891,"ĠRULE":11892,"nLOGICAL":11893,"nJosh":11894,"Ġmolesting":11895,"ĠTRANSPARENT":11896,"economy":11897,"Ġtrigger":11898,"transcripts":11899,"leaked":11900,"nQuestion":11901,"Ġcycle":11902,"ĠPOSIT":11903,"violence":11904,"nHunters":11905,"Ġdominance":11906,"nAWAN":11907,"different":11908,"ĠIMPLIC":11909,"Ġbailout":11910,"Ġsignificance":11911,"brams":11912,"arrett":11913,"Ġpaper":11914,"ĠSCHIFF":11915,"lynching":11916,"ĠAustralia":11917,"ĠPresidency":11918,"nPREPARE":11919,"ĠHEARD":11920,"ĠRUNS":11921,"679435":11922,"historic":11923,"nGiven":11924,"ĠGOVERNMENT":11925,"nOrganized":11926,"noredirect":11927,"denies":11928,"Ġparents":11929,"Ġoccasions":11930,"ĠCaucus":11931,"Ġnullify":11932,"cilities":11933,"nSpider":11934,"Ġmanufacturing":11935,"STITUTION":11936,"AMERIC":11937,"IVISION":11938,"droxychloroquine":11939,"cursor":11940,"gchq":11941,"iaturi":11942,"cellent":11943,"Ġportray":11944,"Ġoffline":11945,"ĠTURNS":11946,"ĠCampbell":11947,"ĠClinesmith":11948,"ĠAllen":11949,"ĠDistrict":11950,"ĠHaberman":11951,"Ġconditions":11952,"theepochtimes":11953,"ĠGlacalone":11954,"ccffbce":11955,"7355098":11956,"TheJusticeDept":11957,"ĠTRAVEL":11958,"Ġfalsehoods":11959,"658552061001":11960,"')\\":11961,"('":11962,")_":11963,",$$$":11964,"010":11965,"018":11966,"098":11967,"0287":11968,"326":11969,"393":11970,"488":11971,"492":11972,"432":11973,"4138":11974,"4804":11975,"5176":11976,"623":11977,"653":11978,"625":11979,"621":11980,"6566":11981,"715":11982,"733":11983,"778":11984,"7547":11985,"7560":11986,"7643":11987,"870":11988,"866":11989,"868":11990,"8246":11991,"?]":11992,"?].\\":11993,"Am":11994,"Act":11995,"AAL":11996,"Ange":11997,"AIGN":11998,"BZ":11999,"Bay":12000,"BERS":12001,"CM":12002,"Cr":12003,"COD":12004,"Congress":12005,"CAP":12006,"Clowns":12007,"DU":12008,"Dp":12009,"Ds":12010,"Don":12011,"DNY":12012,"DNI":12013,"Doug":12014,"Ek":12015,"Epstein":12016,"Enemy":12017,"From":12018,"Full":12019,"FAIL":12020,"GU":12021,"GV":12022,"Ga":12023,"GES":12024,"GUST":12025,"Grassley":12026,"Giuliani":12027,"HH":12028,"HW":12029,"His":12030,"HOM":12031,"Huma":12032,"Ins":12033,"Just":12034,"Jim":12035,"Joh":12036,"Jeff":12037,"JUSTICE":12038,"July":12039,"KD":12040,"KK":12041,"Ke":12042,"KEY":12043,"Karl":12044,"Lynch":12045,"MK":12046,"MM":12047,"MP":12048,"Mil":12049,"MAS":12050,"MBS":12051,"Marker":12052,"Matt":12053,"Musk":12054,"Mainstream":12055,"Night":12056,"OO":12057,"Ob":12058,"OOR":12059,"OID":12060,"OFF":12061,"Office":12062,"Only":12063,"PD":12064,"PER":12065,"Pain":12066,"PAY":12067,"PEOPLE":12068,"Please":12069,"Paul":12070,"POST":12071,"PUBLIC":12072,"Phone":12073,"PPR":12074,"RAM":12075,"Russian":12076,"Rudy":12077,"ROTHS":12078,"Sm":12079,"SAT":12080,"Sub":12081,"Sep":12082,"SIG":12083,"Side":12084,"Step":12085,"SWAMP":12086,"Shell":12087,"Sealed":12088,"SIGINT":12089,"Strike":12090,"SENATE":12091,"Scaramucci":12092,"Shelter":12093,"TY":12094,"Ti":12095,"Ty":12096,"Tweet":12097,"UNITY":12098,"VES":12099,"VOID":12100,"WY":12101,"Would":12102,"Wall":12103,"Winning":12104,"Xc":12105,"XIV":12106,"YEAR":12107,"ZZ":12108,"[[\\":12109,"]'":12110,"]/":12111,"aj":12112,"aab":12113,"ased":12114,"ailed":12115,"ahoo":12116,"brennan":12117,"border":12118,"cK":12119,"cat":12120,"cas":12121,"came":12122,"cur":12123,"cure":12124,"ccer":12125,"dni":12126,"doll":12127,"dism":12128,"durham":12129,"domin":12130,"eu":12131,"eli":12132,"ether":12133,"evil":12134,"europe":12135,"evident":12136,"fas":12137,"fcb":12138,"found":12139,"gas":12140,"gave":12141,"grand":12142,"gowdy":12143,"hon":12144,"huma":12145,"iers":12146,"ible":12147,"ipt":12148,"iance":12149,"icking":12150,"iraq":12151,"ja":12152,"jw":12153,"jan":12154,"jones":12155,"ko":12156,"kow":12157,"kind":12158,"knew":12159,"korea":12160,"lk":12161,"lr":12162,"lv":12163,"lon":12164,"lvan":12165,"mg":12166,"mul":12167,"mmer":12168,"nat":12169,"nnews":12170,"nEND":12171,"njust":12172,"nabcnews":12173,"oc":12174,"ov":12175,"opo":12176,"oters":12177,"omas":12178,"pk":12179,"pink":12180,"pic":12181,"rg":12182,"rregular":12183,"sam":12184,"slow":12185,"save":12186,"said":12187,"scru":12188,"smollett":12189,"tweeted":12190,"ula":12191,"umon":12192,"urious":12193,"usic":12194,"vk":12195,"vs":12196,"wK":12197,"wh":12198,"wl":12199,"wild":12200,"xhtml":12201,"ynn":12202,"zo":12203,"zer":12204,"Ġ?\\":12205,"Ġreferenced":12206,"Ġ00":12207,"Ġ23":12208,"Ġ40":12209,"Ġ01":12210,"Ġque":12211,"Ġarchive":12212,"Ġroute":12213,"Ġrallies":12214,"ĠOTHERS":12215,"Ġ\">":12216,"rep":12217,"rece":12218,"repar":12219,"replace":12220,"refers":12221,"repeat":12222,"tests":12223,"thed":12224,"ining":12225,"merous":12226,"arms":12227,"around":12228,"arian":12229,"taken":12230,"ora":12231,"orig":12232,"orrow":12233,"tially":12234,"tired":12235,"oul":12236,"ouaz":12237,"celeb":12238,"cepts":12239,"center":12240,"chle":12241,"chamber":12242,"chapter":12243,"Ġaggression":12244,"sep":12245,"sealed":12246,"serious":12247,"secrets":12248,"dele":12249,"designed":12250,"degree":12251,"delta":12252,"demic":12253,"Ġthus":12254,"cohen":12255,"coincidence":12256,"pompeo":12257,"lenn":12258,"sick":12259,"rian":12260,"rish":12261,"Ġtheme":12262,"too":12263,"daa":12264,"daaf":12265,"ants":12266,"ancy":12267,"ania":12268,"andemic":12269,"Ġwik":12270,"Ġwaking":12271,"xtreme":12272,"1580":12273,"1584":12274,"ourne":12275,"vey":12276,"ardian":12277,"auhar":12278,"istic":12279,"alm":12280,"aling":12281,"Ġ1592":12282,"Ġ1585":12283,"Ġpa":12284,"Ġportion":12285,"Ġpilot":12286,"Ġpuzzle":12287,">>>>":12288,"genius":12289,"nWIN":12290,"nWizards":12291,"nWSJ":12292,"Ġbia":12293,"Ġbulk":12294,"Ġsqu":12295,"Ġswear":12296,"Ġfame":12297,"Ġfuck":12298,"Ġfuel":12299,"Ġfinger":12300,"Ġcur":12301,"Ġcity":12302,"male":12303,"maher":12304,"masked":12305,"roberts":12306,"comb":12307,"comple":12308,"committee":12309,"llion":12310,"llions":12311,"Ġinvi":12312,"Ġincident":12313,"filing":12314,"heres":12315,"heavy":12316,"2030":12317,"2036":12318,"2058":12319,"2054":12320,"2057":12321,"2075":12322,"20078":12323,"1344":12324,"1383":12325,"13526":12326,"owed":12327,"owns":12328,"1024":12329,"1025":12330,"1084":12331,"1009":12332,"1076":12333,"103733":12334,"Ġdrugs":12335,"next":12336,"neso":12337,"neumon":12338,"uscode":12339,"uska":12340,"ushes":12341,"Ġrelay":12342,"Ġreven":12343,"Ġrecused":12344,"Ġrecogni":12345,"Ġresigning":12346,"lives":12347,"ashed":12348,"nTash":12349,"nText":12350,"nTeam":12351,"nTODAY":12352,"Ġeith":12353,"Ġedu":12354,"Ġeval":12355,"Ġeliminate":12356,"Ġhun":12357,"Ġhunt":12358,"ĠTV":12359,"ĠTer":12360,"ĠTop":12361,"ĠTAX":12362,"ĠTECH":12363,"ĠChe":12364,"ĠCOR":12365,"ĠCol":12366,"ĠCreat":12367,"ĠCath":12368,"ĠCarter":12369,"ĠCASE":12370,"ĠCastle":12371,"ĠCURRENT":12372,"ract":12373,"ĠSL":12374,"ĠSw":12375,"ĠSte":12376,"ĠSAT":12377,"ĠSIM":12378,"ĠSAVE":12379,"ĠShow":12380,"ĠStep":12381,"ĠSAME":12382,"ĠSaudi":12383,"ĠSmith":12384,"ĠSunday":12385,"ĠSALE":12386,"Ġisland":12387,"1857":12388,"1823":12389,"1867":12390,"Ġbear":12391,"ĠADV":12392,"ĠAbrams":12393,"ĠAPPR":12394,"ĠAVOID":12395,"Ġmig":12396,"Ġmorning":12397,"NCES":12398,"ĠPat":12399,"ĠPAC":12400,"ĠPast":12401,"ĠPrince":12402,"ĠPOSSIBLE":12403,"ĠPELOSI":12404,"1217":12405,"1214":12406,"1257":12407,"1273":12408,"1269":12409,"estern":12410,"espionage":12411,"1653":12412,"1644":12413,"1633":12414,"1917":12415,"1996":12416,"1964":12417,"1976":12418,"1939":12419,"1940":12420,"1986":12421,"1949":12422,"enable":12423,"1797":12424,"1736":12425,"1704":12426,"1763":12427,"17644":12428,"ctuary":12429,"stan":12430,"stay":12431,"stantly":12432,"1438":12433,"1436":12434,"1494":12435,"lacing":12436,"ĠFin":12437,"ĠFive":12438,"ĠFATHER":12439,"ĠFAMIL":12440,"Ġnarcissists":12441,"ngle":12442,"9013":12443,"9098":12444,"9060":12445,"9025":12446,"9033":12447,"9089":12448,"9031":12449,"90114":12450,"2816":12451,"2809":12452,"2848":12453,"2835":12454,"2889":12455,"nDavid":12456,"nDARK":12457,"nDesper":12458,"REN":12459,"3007":12460,"3048":12461,"Ġyoung":12462,"INS":12463,"INVESTIG":12464,"5088":12465,"9726":12466,"9759":12467,"ĠDR":12468,"ĠDS":12469,"ĠDis":12470,"ĠDig":12471,"ĠDAM":12472,"ĠDAG":12473,"ĠDomestic":12474,"2610":12475,"2628":12476,"2627":12477,"2656":12478,"2633":12479,"2692":12480,"advice":12481,"cite":12482,"cion":12483,"cienti":12484,"3819":12485,"3853":12486,"3806":12487,"3832":12488,"2797":12489,"2787":12490,"2745":12491,"topic":12492,"2415":12493,"2410":12494,"2416":12495,"2437":12496,"2425":12497,"5620":12498,"5614":12499,"5624":12500,"5666":12501,"5680":12502,"5669":12503,"3673":12504,"linked":12505,"3730":12506,"3776":12507,"3746":12508,"love":12509,"loye":12510,"location":12511,"nSm":12512,"nSource":12513,"nSame":12514,"nSho":12515,"nSound":12516,"nSimp":12517,"nSKY":12518,"9450":12519,"9443":12520,"94124":12521,"5853":12522,"5804":12523,"nProm":12524,"nPeace":12525,"nPuppets":12526,"Ġforum":12527,"ĠBin":12528,"ĠBur":12529,"ĠBart":12530,"ĠBUT":12531,"ĠBASED":12532,"ĠBORDERS":12533,"ĠBourne":12534,"illing":12535,"9830":12536,"9857":12537,"9864":12538,"9867":12539,"9872":12540,"3424":12541,"3498":12542,"3404":12543,"ATFORM":12544,"ĠWo":12545,"ĠWed":12546,"ĠWHEN":12547,"ĠWALK":12548,"ĠWeek":12549,"ĠWien":12550,"Ġgla":12551,"Ġgreen":12552,"Ġgives":12553,"Ġonline":12554,"9615":12555,"9616":12556,"9696":12557,"9605":12558,"ĠMY":12559,"ĠMs":12560,"ĠMary":12561,"ĠMatters":12562,"ĠMOVE":12563,"ĠMADE":12564,"ĠMerkel":12565,"5422":12566,"Ġdevo":12567,"Ġdetermin":12568,"ĠHK":12569,"ĠHIT":12570,"ĠHitler":12571,"Ġcontra":12572,"Ġcondition":12573,"Ġconvince":12574,"003":12575,"0000":12576,"0066":12577,"0007":12578,"0076":12579,"nClickbait":12580,"nCrumbs":12581,"nFail":12582,"nFacts":12583,"nFiction":12584,"Ġsets":12585,"Ġsection":12586,"Ġsending":12587,"Ġsevere":12588,"ĠNat":12589,"ĠNot":12590,"ĠNSC":12591,"ĠNEED":12592,"ĠInd":12593,"ĠImp":12594,"ONT":12595,"HED":12596,"8899":12597,"8876":12598,"8848":12599,"6457":12600,"6400":12601,"6405":12602,"6481":12603,"2913":12604,"2918":12605,"2912":12606,"2953":12607,"2999":12608,"2955":12609,"2995":12610,"nAd":12611,"nARE":12612,"nAccess":12613,"Ġweren":12614,"dim":12615,"dicted":12616,"dified":12617,"didate":12618,"distri":12619,"5992":12620,"2327":12621,"2324":12622,"2325":12623,"2321":12624,"caaf":12625,"nName":12626,"nNOW":12627,"nNEVER":12628,"ĠRod":12629,"ĠRomney":12630,"11112":12631,"11130":12632,"11136":12633,"nIdenti":12634,"nImmigration":12635,"ilar":12636,"opa":12637,"5317":12638,"5350":12639,"5326":12640,"âĢ¦\\\"\\":12641,"ĠGame":12642,"ĠGauhar":12643,"âĢĻ).\\":12644,"âĢĻ),":12645,"ĠOf":12646,"andra":12647,"Ġ--":12648,"paid":12649,"payer":12650,"7029":12651,"Ġpool":12652,"Ġpolicies":12653,"atemal":12654,"Ġprog":12655,"uting":12656,"nResponse":12657,"nMON":12658,"nMOV":12659,"nMEM":12660,"nMORE":12661,"nMatters":12662,"nMitt":12663,"6083":12664,"Ġmeme":12665,"Ġmedical":12666,"Ġmerely":12667,"igan":12668,"8724":12669,"8753":12670,"8748":12671,"2219":12672,"2297":12673,"2254":12674,"Ġorgan":12675,"Ġorche":12676,"8019":12677,"8082":12678,"LLA":12679,"2597":12680,"3330":12681,"33237":12682,"8466":12683,"mom":12684,"move":12685,"moved":12686,"models":12687,"ĠLet":12688,"ĠLOCK":12689,"ĠLINE":12690,"Ġanim":12691,"ORN":12692,"nBring":12693,"5536":12694,"Ġmagn":12695,"Ġheavily":12696,"abor":12697,"abed":12698,"ANNITY":12699,"ENED":12700,"\\\"\"":12701,"\\\"âĢ¦":12702,"Ġunali":12703,"Ġunmask":12704,"Ġunverified":12705,"goes":12706,"Ġsharing":12707,"ppy":12708,"ueen":12709,"thern":12710,"681":12711,"Ġcommittee":12712,"Ġchatter":12713,"Ġchanne":12714,"5228":12715,"5226":12716,"5234":12717,"akers":12718,"mbling":12719,"mbrella":12720,"ĠEACH":12721,"ĠEFF":12722,"ĠETC":12723,"ĠEQUAL":12724,"9290":12725,"nEach":12726,"nEpstein":12727,"Ġwithdra":12728,"Ġkilled":12729,"ami":12730,"among":12731,"hib":12732,"Ġsto":12733,"Ġstress":12734,"Ġstorm":12735,"Ġstreng":12736,"Ġstages":12737,"nLP":12738,"nLess":12739,"nLeft":12740,"7352":12741,"7353978":12742,"ĠUn":12743,"7638":12744,"0398":12745,"ranking":12746,"ranny":12747,"Ġexpect":12748,"omination":12749,"Ġlau":12750,"nGot":12751,"routes":12752,"ulating":12753,"ALS":12754,"ĠJen":12755,"ĠJournal":12756,"ĠJune":12757,"alls":12758,"4657":12759,"Ġlock":12760,"Ġloves":12761,"Ġlocated":12762,"4821":12763,"âĢĤâĢĤâĢĤâĢĤâĢĤâĢĤâĢĤâĢĤâĢĤ":12764,"âĢĤâĢĤâĢĤâĢĤâĢĤâĢĤâĢĤâĢĤâĢĤâĢĤâĢĤâĢĤ":12765,"atching":12766,"fcfa":12767,"nJP":12768,"nJan":12769,"nJoe":12770,"host":12771,"hops":12772,"holly":12773,"pire":12774,"ording":12775,"6910":12776,"69544":12777,"Ġfather":12778,"Ġfavor":12779,"ountain":12780,"ĠYEAR":12781,"4093":12782,"acted":12783,"mander":12784,"manual":12785,"Ġknowingly":12786,"Ġcap":12787,"anks":12788,"nRetain":12789,"nRefer":12790,"nRelease":12791,"Ġsir":12792,"AAB":12793,"AAG":12794,"Ġnotified":12795,"oker":12796,"okes":12797,"Ġliving":12798,"Ġprepare":12799,"Ġpretty":12800,"conference":12801,"condition":12802,"contract":12803,"config":12804,"nOnce":12805,"nOld":12806,"nOIG":12807,"proper":12808,"prosecutors":12809,"progress":12810,"Ġmobili":12811,"Ġworship":12812,"agen":12813,"0237":12814,"lander":12815,"ĠINS":12816,"ĠINV":12817,"ĠINSC":12818,"minating":12819,"Ġalarm":12820,"TRATION":12821,"8625":12822,"Ġ155174":12823,"THINK":12824,"Ġjump":12825,"0113":12826,"ĠUSE":12827,"gener":12828,"olas":12829,"older":12830,"ĠQanon":12831,"ĠKey":12832,"quate":12833,"izing":12834,"Ġarmed":12835,"ĠREQ":12836,"ĠREALLY":12837,"ĠRETAIN":12838,"dcf":12839,"4330":12840,"Ġthinks":12841,"Ġimportance":12842,"tenment":12843,"Ġprivile":12844,"Ġenjoy":12845,"Ġencourage":12846,"Ġenviron":12847,"4226":12848,"Ġ15920":12849,"Ġ15910":12850,"Ġ159906":12851,"Ġ159374":12852,"Ġsaving":12853,"ears":12854,"5115":12855,"OJECTION":12856,"Ġusually":12857,"Ġseeing":12858,"Ġ+/-":12859,"Ġusers":12860,"tudy":12861,"track":12862,"mers":12863,"!!!!\\":12864,"Ġfellow":12865,"Ġfemale":12866,"âĢĶâĢĵ":12867,"OVAL":12868,"shit":12869,"shot":12870,"âĢ¦..":12871,"STEM":12872,"STAND":12873,"ENTION":12874,"Ġpartn":12875,"note":12876,"nochle":12877,"ĠTRUMP":12878,"guide":12879,"guilty":12880,"Ġspeaking":12881,"Ġspending":12882,"tained":12883,"tainment":12884,"ĠParenthood":12885,"insur":12886,"expose":12887,"exposes":12888,"expected":12889,"exico":12890,"Ġ15258":12891,"Ġ152280":12892,"ĠCONN":12893,"ĠCONSTITUTION":12894,"Ġtend":12895,"talk":12896,"talking":12897,"lerts":12898,"ounds":12899,"Ġcritically":12900,"106188":12901,"Ġimmigration":12902,"Ġimminent":12903,"OLUTION":12904,"ĠALLOW":12905,"ĠALLEG":12906,"IMIT":12907,"IMATE":12908,"Ġcenter":12909,"âĢĤâĢĤâĢĤâĢĤâĢĤâĢĤâĢĤâĢĤâĢĤâĢĤâĢĤâĢĤâĢĤâĢĤâĢĤâĢĤâĢĤâĢĤâĢĤâĢĤâĢĤâĢĤâĢĤ":12910,"ntially":12911,"Ġmissed":12912,"Ġmisconduct":12913,"nInteresting":12914,"Ġ15775":12915,"Ġ16015":12916,"Ġintent":12917,"Ġintegrity":12918,"ĠDeal":12919,"ĠDemoted":12920,"Ġshowing":12921,"osa":12922,"nConf":12923,"OWERS":12924,"vented":12925,"Ġguidance":12926,"ANDID":12927,"Ġcompone":12928,"Ġcomputer":12929,"nExcellent":12930,"1123":12931,"job":12932,"Ġdonate":12933,"ronfman":12934,"Ġauthentic":12935,"learn":12936,"learance":12937,"Ġreceiving":12938,"torneys":12939,"prev":12940,"prepared":12941,"Ġfamous":12942,"CHQ":12943,"Ġ151805":12944,"Ġ151392":12945,"42806":12946,"42802":12947,"119629":12948,"Ġobli":12949,"ĠCohen":12950,"ĠCooperating":12951,"ĠBEEN":12952,"ĠBEFORE":12953,"votes":12954,"Ġ15360":12955,"Ġfollowed":12956,"structed":12957,"knowing":12958,"Ġways":12959,"loyd":12960,"Ġsexism":12961,"Ġcloud":12962,"???\"":12963,"volution":12964,"Ġ156402":12965,"awaii":12966,"Ġspying":12967,"Ġ153428":12968,"Ġ153437":12969,"alleged":12970,"Ġendowed":12971,"11803":12972,"AWAY":12973,"close":12974,"nDead":12975,"2382":12976,"Ġconfirming":12977,"Ġoperational":12978,"Ġoperator":12979,"5943":12980,"5949":12981,"disasters":12982,"impeach":12983,"namo":12984,"quest":12985,"Ġ15093":12986,"iliti":12987,"38064":12988,"Ġ15153":12989,"ĠNothing":12990,"ĠNovember":12991,"latform":12992,"sisted":12993,"ĠDept":12994,"ukes":12995,"Ġassemb":12996,"Ġoffshore":12997,"52487":12998,"hrs":12999,"ĠContrast":13000,"Ġweekly":13001,"Ġowned":13002,"nHence":13003,"ĠâĢ¦âĢ¦":13004,"ĠâĢ¦..\\":13005,"Ġpossess":13006,"nLocked":13007,"Conne":13008,"ĠPope":13009,"5508":13010,"Doc":13011,"missions":13012,"check":13013,"Ġ151633":13014,"17627":13015,"nVerified":13016,"secure":13017,"Ġhighlight":13018,"Ġhighlighted":13019,"Ġcollect":13020,"mented":13021,"Ġdeputy":13022,"Ġstarting":13023,"19836":13024,"ĠORG":13025,"everal":13026,"alition":13027,"statement":13028,"nImpressive":13029,"honest":13030,"investigations":13031,"nPredictable":13032,"Ġsetting":13033,"chicago":13034,"9576":13035,"extreme":13036,"Ġinvolve":13037,"Ġinvolvement":13038,"Ġhandler":13039,"backs":13040,"Ġdare":13041,"Ġdepartment":13042,"nEveryone":13043,"Ġfactual":13044,"Ġfactually":13045,"region":13046,"Ġbreaking":13047,"Ġofficer":13048,"1098294":13049,"22794":13050,"FLUE":13051,"Intelligence":13052,"OLLETT":13053,"heads":13054,"OCKADE":13055,"suppor":13056,"supposed":13057,"Ġhomeland":13058,"Ġlegis":13059,"antitrust":13060,"Ġtrustworthy":13061,"Protect":13062,"Ġresponsibility":13063,"Ġtribal":13064,"Ġrestore":13065,"88024":13066,"Coincidence":13067,"masking":13068,"Ġrefuse":13069,"18316":13070,"Ġnumerous":13071,"final":13072,"ritory":13073,"Ġreporters":13074,"homes":13075,"Ġservices":13076,"WHO":13077,"WHY":13078,"WHAT":13079,"nTimeline":13080,"Ġestima":13081,"ĠBarack":13082,"anium":13083,"ĠâĢĶ-":13084,"nYOUR":13085,"Ġresort":13086,"Ġmidterms":13087,"faces":13088,"Ġlarger":13089,"alerie":13090,"ĠHEADS":13091,"ĠLost":13092,"Ġanticipated":13093,"ffers":13094,"Ġverifiable":13095,"Ġminds":13096,"ĠArticle":13097,"ĠPRESENT":13098,"Ġturning":13099,"Ġblockade":13100,"ĠUPD":13101,"MSDNC":13102,"Ġlinked":13103,"ĠCOINCIDENCE":13104,"ĠSENIOR":13105,"Ġstruct":13106,"kavanaugh":13107,"Ġshooting":13108,"Ġcompletely":13109,"STRUCT":13110,"spital":13111,"safety":13112,"safeguard":13113,"Ġbribes":13114,"Ġreturned":13115,"Ġreturning":13116,"Ġdisclose":13117,"nKnowing":13118,"Ġtransferred":13119,"Ġgeneration":13120,"ĠCounselor":13121,"print":13122,"11202282":13123,"Ġvisiting":13124,"Ġminorities":13125,"starting":13126,"ĠBoard":13127,"ĠBooker":13128,"ĠIsrael":13129,"parenthood":13130,"ĠLEAD":13131,"ominator":13132,"ĠEVERYWHERE":13133,"atives":13134,"Ġalleged":13135,"Ġcaught":13136,"Ġequate":13137,"ĠThink":13138,"ĠMemes":13139,"ĠCONFLIC":13140,"Ġsignify":13141,"Attack":13142,"cliffe":13143,"Ġspider":13144,"ĠWhistleblower":13145,"Ġcommitted":13146,"meetings":13147,"antanamo":13148,"Ġ151900":13149,"Ġreaching":13150,"nSeth":13151,"nSelect":13152,"ĠMarine":13153,"ĠMaria":13154,"disclose":13155,"Ġincluded":13156,"2617682":13157,"ĠMoyer":13158,"Ġdeclassified":13159,"Ġdeclined":13160,"Ġconviction":13161,"ĠATTACKS":13162,"Andy":13163,"CFR":13164,"reporter":13165,"issa":13166,"ĠREPRES":13167,"Today":13168,"elenochle":13169,"visory":13170,"Ġwalking":13171,"Ġsmu":13172,"Ġsmart":13173,"Updated":13174,"Ġspotlight":13175,"Ġcrazy":13176,"Ġcontribution":13177,"dicta":13178,"leading":13179,"Ġembarrassment":13180,"velopment":13181,"BRELLA":13182,"Maria":13183,"hacked":13184,"Ġvoices":13185,"HAHA":13186,"pedophi":13187,"steps":13188,"yourself":13189,"aughter":13190,"Ġdrive":13191,"ĠTracking":13192,"ĠCLEAN":13193,"ĠSuper":13194,"ĠACTIV":13195,"ĠPlane":13196,"ATTLE":13197,"ĠHAPPENING":13198,"Ġseconds":13199,"believable":13200,"Ġweapon":13201,"nRothschild":13202,"Ġidentity":13203,"103661190":13204,"micro":13205,"integ":13206,"Ġsacrifices":13207,"Ġdigging":13208,"ĠDESTROY":13209,"ĠOFFICE":13210,"ĠOFFICIAL":13211,"Ġmodel":13212,"Ġsurrounding":13213,"Called":13214,"Reduce":13215,"XgAA":13216,"deaths":13217,"spector":13218,"AZON":13219,"threatens":13220,"threatening":13221,"Ġflags":13222,"Ġrepeat":13223,"nInsurance":13224,"Ġjobs":13225,"Ġ1586658":13226,"IRMAN":13227,"Ġinsurgencies":13228,"Ġopponent":13229,"Coming":13230,"IZE":13231,"Soccer":13232,"Traitor":13233,"Ġtemple":13234,"influence":13235,"influential":13236,"response":13237,"ĠDEPL":13238,"Ġdedicate":13239,"ĠRichard":13240,"Ġpromises":13241,"Ġmasses":13242,"Ġvalidation":13243,"Ġvalidated":13244,"Realism":13245,"Ġcollectively":13246,"Ġcommunications":13247,"recording":13248,"Ġpreserve":13249,"Ġpreserving":13250,"Ġbattleground":13251,"Ġinflow":13252,"nTargeted":13253,"ĠADMIN":13254,"ĠPROVIDE":13255,"Ġexploit":13256,"swamp":13257,"sealing":13258,"Ġsystematic":13259,"lightenment":13260,"ĠAdministration":13261,"ĠPrevention":13262,"ĠPentagon":13263,"ĠMATTERS":13264,"Ġtreating":13265,"FIREWALLS":13266,"SDNY":13267,"SURANCE":13268,"SURGENCY":13269,"WhiteHouse":13270,"Ġsummary":13271,"Ġincreasing":13272,"Ġinfiltrated":13273,"ĠFACTUALLY":13274,"nClown":13275,"Ġaccessible":13276,"Ġjudgement":13277,"announcement":13278,"XQAA":13279,"caught":13280,"instagram":13281,"8825205":13282,"ĠRiders":13283,"cbsnews":13284,"Ġvehicle":13285,"Ġvehicles":13286,"FILTRATION":13287,"Mandate":13288,"OHN":13289,"ndering":13290,"summit":13291,"150559":13292,"Ġpawns":13293,"Ġslavery":13294,"ĠSomething":13295,"Ġmachines":13296,"governor":13297,"nsylvan":13298,"ĠRESIGNATION":13299,"nUpdate":13300,"Ġfinanced":13301,"Collins":13302,"barack":13303,"crash":13304,"wont":13305,"Ġachieve":13306,"deliberate":13307,"riginal":13308,"Ġbeliefs":13309,"Ġnormally":13310,"ĠMIDTERM":13311,"Ġdenominator":13312,"Ġdeniability":13313,"Ġdeserts":13314,"Ġconsequences":13315,"nChildren":13316,"nMonth":13317,"nOptics":13318,"ĠKeith":13319,"ĠREMOVE":13320,"disapproval":13321,"Ġmonitoring":13322,"Ġescape":13323,"marketwatch":13324,"ĠBRINGS":13325,"ĠInspectors":13326,"Steve":13327,"strzok":13328,"bombshell":13329,"fessor":13330,"Ġdoubt":13331,"ĠSUPPORT":13332,"Ġmods":13333,"nAmerica":13334,"8762904":13335,"nLawmakers":13336,"ĠVirginia":13337,"Ġvictims":13338,"Ġapparent":13339,"Ġcharacter":13340,"Ġangry":13341,"Ġsweep":13342,"ĠPakistan":13343,"adopoulos":13344,"ĠLOSING":13345,"LEADING":13346,"ĠVeterans":13347,"Ġcriminals":13348,"ĠIMAGINE":13349,"ĠASSIST":13350,"Ġphrases":13351,"ĠDEMONSTRATE":13352,"Ġparticipating":13353,"ĠIMMEDIATE":13354,"Ġalgorithm":13355,"tribune":13356,"ĠCAMPAIGN":13357,"estimony":13358,"ĠFALLING":13359,"nStrategic":13360,"ĠBIRD":13361,"nHandle":13362,"ĠGENERAL":13363,"ĠGIVEN":13364,"formance":13365,"Ġcoincidentally":13366,"ASCISM":13367,"Ġchosen":13368,"ĠINITIATE":13369,"Ġaccomplish":13370,"hysical":13371,"10597058":13372,"ĠIMPLICATES":13373,"CODE":13374,"Karluska":13375,"PAYER":13376,"XIVM":13377,"etherlands":13378,"Ġbiased":13379,"nesota":13380,"neumonia":13381,"nTashina":13382,"Ġeither":13383,"ĠCreator":13384,"ĠCatholic":13385,"9412412":13386,"ĠWiener":13387,"nMOVIE":13388,"Ġmagnitude":13389,"Ġunalienable":13390,"Ġstrengths":13391,"hollywood":13392,"ĠINSCOM":13393,"ĠCONSTITUTIONAL":13394,"Ġestimates":13395,"nsylvania":13396,"KarluskaP":13397,"',":13398,")].\\":13399,".'":13400,".-":13401,".)\\":13402,".'\\":13403,"087":13404,"0206":13405,"0125":13406,"3106":13407,"3204":13408,"4140":13409,"4943":13410,"4874":13411,"5105":13412,"5974":13413,"5973":13414,"614":13415,"698":13416,"632":13417,"639":13418,"6146":13419,"712":13420,"775":13421,"721":13422,"823":13423,"833":13424,"832":13425,"8113":13426,"8277":13427,"Al":13428,"Add":13429,"ARED":13430,"ABE":13431,"Acti":13432,"Adam":13433,"Angle":13434,"Bj":13435,"Bu":13436,"By":13437,"Bob":13438,"Blue":13439,"Cv":13440,"Car":13441,"CAN":13442,"Cross":13443,"CONG":13444,"Civ":13445,"CUSE":13446,"Cruz":13447,"COUN":13448,"Colin":13449,"DI":13450,"DQ":13451,"DZ":13452,"Df":13453,"DER":13454,"Day":13455,"DES":13456,"DEL":13457,"DEM":13458,"DAG":13459,"DIR":13460,"DIVIDED":13461,"DOWN":13462,"David":13463,"Drop":13464,"Ele":13465,"EAM":13466,"Elf":13467,"Eliminate":13468,"FR":13469,"FW":13470,"Fin":13471,"Feb":13472,"Fight":13473,"Fund":13474,"FACT":13475,"FISC":13476,"FACTS":13477,"Facebook":13478,"First":13479,"GH":13480,"Gr":13481,"Gen":13482,"GING":13483,"Group":13484,"Graphic":13485,"HG":13486,"HJ":13487,"HOW":13488,"Have":13489,"High":13490,"IAN":13491,"IEF":13492,"Ingraham":13493,"JI":13494,"JW":13495,"Jc":13496,"Jong":13497,"JFK":13498,"Joe":13499,"JOY":13500,"KI":13501,"LB":13502,"LT":13503,"Lea":13504,"Last":13505,"LESS":13506,"LAND":13507,"Logical":13508,"Like":13509,"LEDGE":13510,"MR":13511,"MW":13512,"Min":13513,"March":13514,"MAA":13515,"Mark":13516,"MAGA":13517,"Meet":13518,"NL":13519,"NEXT":13520,"Og":13521,"Oq":13522,"Ohr":13523,"Pc":13524,"Pri":13525,"Plan":13526,"Pap":13527,"PUT":13528,"Psy":13529,"Presidential":13530,"QQ":13531,"RG":13532,"Rec":13533,"Republican":13534,"Role":13535,"RDP":13536,"ROUTE":13537,"Sca":13538,"Shi":13539,"Set":13540,"SESSIONS":13541,"SURV":13542,"Space":13543,"Symbolism":13544,"Steele":13545,"Systems":13546,"Skow":13547,"Tw":13548,"Text":13549,"Tweets":13550,"TREASON":13551,"Team":13552,"UQ":13553,"UNIT":13554,"Ukraine":13555,"VL":13556,"VY":13557,"Vc":13558,"Vi":13559,"Vr":13560,"Vz":13561,"WS":13562,"WV":13563,"WER":13564,"WAP":13565,"WASH":13566,"Yh":13567,"Yz":13568,"[+":13569,"[]\\":13570,"]âĢĻ":13571,"]].\\":13572,"aS":13573,"aef":13574,"aving":13575,"aadb":13576,"afaf":13577,"asia":13578,"above":13579,"biz":13580,"brand":13581,"brain":13582,"bdab":13583,"cary":13584,"cfef":13585,"county":13586,"crowdstrike":13587,"dor":13588,"drew":13589,"eL":13590,"ej":13591,"eal":13592,"emer":13593,"emen":13594,"enemy":13595,"four":13596,"fis":13597,"fran":13598,"fcd":13599,"freedom":13600,"further":13601,"flag":13602,"gab":13603,"gae":13604,"great":13605,"grow":13606,"games":13607,"gges":13608,"global":13609,"groups":13610,"graph":13611,"hY":13612,"hm":13613,"hu":13614,"hv":13615,"harm":13616,"hidden":13617,"ii":13618,"ito":13619,"ivil":13620,"jci":13621,"judge":13622,"lot":13623,"lash":13624,"lass":13625,"mn":13626,"miti":13627,"matter":13628,"mnly":13629,"nh":13630,"nto":13631,"ncon":13632,"nwe":13633,"nap":13634,"ncing":13635,"nopes":13636,"oJ":13637,"otes":13638,"oval":13639,"ova":13640,"pU":13641,"pd":13642,"pj":13643,"pur":13644,"phi":13645,"panic":13646,"prin":13647,"preservation":13648,"qq":13649,"rX":13650,"rZ":13651,"rn":13652,"sar":13653,"squ":13654,"such":13655,"sses":13656,"sking":13657,"saw":13658,"since":13659,"sort":13660,"sleep":13661,"scope":13662,"science":13663,"tts":13664,"tue":13665,"tEliminate":13666,"ux":13667,"uing":13668,"ums":13669,"umber":13670,"ucking":13671,"ulations":13672,"vg":13673,"vors":13674,"vault":13675,"wd":13676,"wi":13677,"wind":13678,"wash":13679,"xg":13680,"xie":13681,"yL":13682,"yz":13683,"zl":13684,"zen":13685,"Ġ70":13686,"ĠES":13687,"Ġ/\\":13688,"Ġsites":13689,"Ġversion":13690,"Ġreservation":13691,"requ":13692,"refer":13693,"remember":13694,"remain":13695,"resources":13696,"resigns":13697,"tex":13698,"thes":13699,"thia":13700,"inas":13701,"infiltra":13702,"infiltration":13703,"insiders":13704,"memo":13705,"members":13706,"aran":13707,"arts":13708,"argu":13709,"arrow":13710,"army":13711,"arify":13712,"ardens":13713,"tab":13714,"tapped":13715,"orker":13716,"ordance":13717,"tiss":13718,"tiff":13719,"ouhani":13720,"oufla":13721,"ona":13722,"once":13723,"ceo":13724,"ception":13725,"chel":13726,"church":13727,"chandler":13728,"chilling":13729,"Ġade":13730,"Ġapo":13731,"Ġada":13732,"Ġaide":13733,"Ġaverage":13734,"semiti":13735,"stination":13736,"strength":13737,"strated":13738,"democrat":13739,"destroy":13740,"Ġthird":13741,"coordination":13742,"positive":13743,"lehold":13744,"riff":13745,"riam":13746,"rived":13747,"risk":13748,"dangerous":13749,"ano":13750,"1510":13751,"1514":13752,"1537":13753,"1570":13754,"1509":13755,"1582":13756,"1542":13757,"botage":13758,"?\\\"":13759,"archy":13760,"auce":13761,"resence":13762,"istered":13763,"ala":13764,"Ġ\"/\\":13765,"nQu":13766,"fetal":13767,"feinstein":13768,"fession":13769,"Ġtowards":13770,"Ġ1545":13771,"Ġ1582":13772,"Ġ15900":13773,"Ġ15127":13774,"Ġ15906":13775,"Ġ15116":13776,"Ġ15286":13777,"Ġ15270":13778,"Ġped":13779,"Ġpatriots":13780,"Ġplain":13781,"Ġphase":13782,"Ġpipe":13783,"Ġpushes":13784,"Ġok":13785,"Ġowe":13786,"gence":13787,"gend":13788,"nWR":13789,"nWAS":13790,"Ġbin":13791,"Ġbal":13792,"Ġbrand":13793,"Ġbury":13794,"Ġbaker":13795,"Ġblast":13796,"Ġbrings":13797,"atar":13798,"atlan":13799,"attorneys":13800,"uns":13801,"unte":13802,"unless":13803,"Ġsin":13804,"itaries":13805,"Ġfal":13806,"Ġflo":13807,"Ġfill":13808,"Ġful":13809,"Ġflight":13810,"Ġclip":13811,"Ġcleared":13812,"max":13813,"maps":13814,"mative":13815,"magin":13816,"rops":13817,"rogation":13818,"robby":13819,"lli":13820,"Ġinsider":13821,"Ġinstruction":13822,"Ġinput":13823,"Ġinmates":13824,"fill":13825,"ndis":13826,"ndous":13827,"2099":13828,"2084":13829,"1320":13830,"1394":13831,"1388":13832,"1304":13833,"13913":13834,"1014":13835,"1044":13836,"1070":13837,"1055":13838,"1075":13839,"1040":13840,"1047":13841,"1031":13842,"1043":13843,"10974":13844,"10567":13845,"Ġdumps":13846,"necessary":13847,"usy":13848,"uster":13849,"uscourts":13850,"Ġrepublic":13851,"Ġretake":13852,"Ġrecover":13853,"Ġretali":13854,"Ġredactions":13855,"Ġrecusal":13856,"Ġrecorded":13857,"lite":13858,"limit":13859,"livest":13860,"ligence":13861,"aspel":13862,"nTe":13863,"nTi":13864,"nTed":13865,"nTrump":13866,"nTom":13867,"nTwo":13868,"nTest":13869,"Ġevasion":13870,"Ġhire":13871,"Ġhum":13872,"Ġhundred":13873,"Ġhatred":13874,"ĠCab":13875,"ĠCNN":13876,"ĠCARE":13877,"ĠCDC":13878,"ĠCarl":13879,"ĠClapper":13880,"ĠClearance":13881,"rait":13882,"ractions":13883,"ĠSY":13884,"ĠSa":13885,"ĠSu":13886,"ĠSHE":13887,"ĠSil":13888,"ĠSIT":13889,"ĠSIG":13890,"ĠSum":13891,"ĠSUM":13892,"ĠSystem":13893,"ĠSARS":13894,"ĠSingapore":13895,"ĠSDNY":13896,"1810":13897,"1826":13898,"1898":13899,"1800":13900,"1866":13901,"18227":13902,"Ġbegins":13903,"ĠAZ":13904,"ĠAutists":13905,"ĠAPPOINT":13906,"Ġmic":13907,"Ġmarkers":13908,"NCH":13909,"ĠPD":13910,"ĠPi":13911,"ĠPER":13912,"ĠPol":13913,"ĠPOP":13914,"ĠPerman":13915,"ĠPrior":13916,"ĠPuppet":13917,"ĠPENDING":13918,"1213":13919,"1212":13920,"1216":13921,"1250":13922,"1254":13923,"1278":13924,"1242":13925,"1281":13926,"12567":13927,"resh":13928,"resolution":13929,"esse":13930,"esus":13931,"espe":13932,"esson":13933,"1664":13934,"1659":13935,"1623":13936,"1699":13937,"1648":13938,"1643":13939,"1997":13940,"1957":13941,"1960":13942,"1904":13943,"19157":13944,"ental":13945,"1713":13946,"1727":13947,"1724":13948,"1794":13949,"1754":13950,"1760":13951,"1766":13952,"1767":13953,"1708":13954,"1778":13955,"1746":13956,"vities":13957,"static":13958,"1416":13959,"1478":13960,"laine":13961,"latimes":13962,"label":13963,"ĠFun":13964,"ĠFire":13965,"ĠFile":13966,"ĠFree":13967,"ĠFREED":13968,"ĠFired":13969,"ĠFirst":13970,"ĠFOLLOW":13971,"ĠForest":13972,"Ġnone":13973,"Ġnations":13974,"Ġnavi":13975,"Ġnomination":13976,"cki":13977,"cknow":13978,"9094":13979,"9029":13980,"9059":13981,"9076":13982,"9095":13983,"9032":13984,"9082":13985,"90246":13986,"90503":13987,"2826":13988,"2825":13989,"2807":13990,"2876":13991,"2847":13992,"2845":13993,"2849":13994,"nDES":13995,"nDue":13996,"nDrops":13997,"REL":13998,"REEN":13999,"REAL":14000,"REMOVED":14001,"3074":14002,"3008":14003,"3076":14004,"3085":14005,"3042":14006,"INFO":14007,"INTS":14008,"INALLY":14009,"INATED":14010,"INSTEIN":14011,"INSURANCE":14012,"5018":14013,"5097":14014,"5034":14015,"5070":14016,"5080":14017,"5048":14018,"9724":14019,"9734":14020,"9764":14021,"9774":14022,"9778":14023,"9776":14024,"9732":14025,"9702":14026,"9745":14027,"9783":14028,"97120":14029,"ĠDEN":14030,"ĠDown":14031,"ĠDark":14032,"ĠDian":14033,"ĠDeep":14034,"ĠDONE":14035,"ĠDARK":14036,"ĠDANGER":14037,"2615":14038,"2613":14039,"2616":14040,"2600":14041,"2660":14042,"2608":14043,"2635":14044,"2682":14045,"26287":14046,"26177":14047,"verted":14048,"adian":14049,"Ġarea":14050,"ruth":14051,"cias":14052,"3820":14053,"3818":14054,"3837":14055,"3864":14056,"3899":14057,"3809":14058,"3842":14059,"2724":14060,"2700":14061,"2744":14062,"2735":14063,"2769":14064,"2749":14065,"2417":14066,"2457":14067,"2470":14068,"2448":14069,"5615":14070,"5612":14071,"5660":14072,"5632":14073,"5647":14074,"3619":14075,"3626":14076,"3658":14077,"3606":14078,"3713":14079,"3750":14080,"3724":14081,"3752":14082,"3786":14083,"3772":14084,"logo":14085,"loved":14086,"nSP":14087,"nSw":14088,"nSpo":14089,"nSal":14090,"nSur":14091,"nSup":14092,"nSIS":14093,"nSIG":14094,"nSam":14095,"nSTR":14096,"nSince":14097,"nSold":14098,"nSystem":14099,"nStr":14100,"nSaudi":14101,"nSILENCE":14102,"nSignal":14103,"nStudy":14104,"nSeveral":14105,"9494":14106,"9444":14107,"9473":14108,"9439":14109,"9440":14110,"9482":14111,"5810":14112,"5890":14113,"5836":14114,"5825":14115,"5899":14116,"5874":14117,"5892":14118,"5877":14119,"5841":14120,"nPg":14121,"Ġforming":14122,"ĠBro":14123,"ĠBra":14124,"ĠBad":14125,"ĠBay":14126,"ĠBAN":14127,"ĠBOM":14128,"ĠBack":14129,"ĠBLAS":14130,"ĠBush":14131,"ĠBel":14132,"ĠBob":14133,"ĠBURE":14134,"ĠBlood":14135,"ĠBANK":14136,"9887":14137,"9873":14138,"9848":14139,"3430":14140,"3497":14141,"3464":14142,"3429":14143,"3433":14144,"3407":14145,"3406":14146,"3421":14147,"3447":14148,"ĠWL":14149,"ĠWuhan":14150,"Ġgan":14151,"Ġgas":14152,"Ġgrie":14153,"Ġgrew":14154,"Ġgrant":14155,"Ġonboard":14156,"9612":14157,"9624":14158,"9667":14159,"9683":14160,"9691":14161,"ĠMX":14162,"ĠMy":14163,"ĠMur":14164,"ĠMack":14165,"ĠMich":14166,"ĠMaster":14167,"ĠMARK":14168,"ĠMAX":14169,"ĠMatthe":14170,"ĠMexico":14171,"5408":14172,"5485":14173,"5463":14174,"Ġdeta":14175,"Ġdeter":14176,"Ġdeny":14177,"Ġdependent":14178,"Ġdeserve":14179,"Ġdemocracy":14180,"Ġdestination":14181,"5727":14182,"5744":14183,"5777":14184,"5762":14185,"ĠHER":14186,"ĠHOP":14187,"ĠHATE":14188,"ĠHAND":14189,"ĠHollywood":14190,"ĠHawaii":14191,"Ġconso":14192,"Ġcontest":14193,"Ġconvention":14194,"Ġcontrolling":14195,"Ġconversation":14196,"Ġconstantly":14197,"nHE":14198,"nHar":14199,"nHard":14200,"nHighest":14201,"nHannity":14202,"nHANNITY":14203,"0094":14204,"url":14205,"uranium":14206,"nCare":14207,"nCongrat":14208,"nFF":14209,"nFR":14210,"nForeign":14211,"nFOREIGN":14212,"nFOLLOW":14213,"Ġseason":14214,"bef":14215,"become":14216,"ĠNor":14217,"ĠNuclear":14218,"ĠNuke":14219,"ĠNancy":14220,"pend":14221,"peter":14222,"petu":14223,"theatlan":14224,"kets":14225,"8890":14226,"8850":14227,"6473":14228,"2938":14229,"2925":14230,"2932":14231,"2939":14232,"292310":14233,"Ġtrump":14234,"Ġtarmac":14235,"nACC":14236,"nAvoid":14237,"nAutists":14238,"dict":14239,"dible":14240,"5927":14241,"5936":14242,"5929":14243,"5935":14244,"5932":14245,"2356":14246,"2336":14247,"2358":14248,"2398":14249,"2334":14250,"2352":14251,"2395":14252,"23118":14253,"cain":14254,"cades":14255,"capture":14256,"nNational":14257,"nNice":14258,"ĠRu":14259,"ĠRome":14260,"ĠRAC":14261,"ĠRice":14262,"ĠROOM":14263,"ĠRouhani":14264,"ilt":14265,"ilton":14266,"opposition":14267,"5313":14268,"5314":14269,"âĢ¦\",":14270,"âĢ¦.\"":14271,"ĠGOW":14272,"ĠGrassley":14273,"âĢĻ]\\":14274,"ĠOpen":14275,"ĠOutside":14276,"Ġhacked":14277,"pati":14278,"papers":14279,"4484":14280,"4467":14281,"4495":14282,"4448":14283,"4486":14284,"7070":14285,"7086":14286,"70768":14287,"Ġproto":14288,"Ġproduct":14289,"Ġprojected":14290,"Ġprostitution":14291,"nRub":14292,"nMid":14293,"nMary":14294,"nMAKE":14295,"nMax":14296,"nMuslim":14297,"nMultiple":14298,"nMorning":14299,"irth":14300,"6059":14301,"6048":14302,"6032":14303,"60267":14304,"60244":14305,"Ġmer":14306,"Ġmess":14307,"Ġmerit":14308,"!!!\"":14309,"8794":14310,"8758":14311,"8763":14312,"87526":14313,"2213":14314,"2222":14315,"2221":14316,"22984":14317,"update":14318,"ITT":14319,"ITAKER":14320,"Ġattending":14321,"6613":14322,"6630":14323,"6626":14324,"6600":14325,"6665":14326,"ccbe":14327,"ccup":14328,"forum":14329,"8028":14330,"8037":14331,"8092":14332,"based":14333,"bafc":14334,"LLARS":14335,"2559":14336,"3327":14337,"3394":14338,"lications":14339,"liciting":14340,"8470":14341,"743":14342,"74223":14343,"Ġcost":14344,"Ġcoord":14345,"Ġcooperation":14346,"motions":14347,"moving":14348,"ĠLew":14349,"ĠLast":14350,"ĠLOC":14351,"ĠLIVE":14352,"ĠLIKE":14353,"ĠLEARN":14354,"ĠLegal":14355,"nBE":14356,"nBR":14357,"nBet":14358,"nBIDEN":14359,"nBlue":14360,"nBDT":14361,"nBlind":14362,"nBUILD":14363,"nBusy":14364,"omerang":14365,"ARA":14366,"Ġassign":14367,"5528":14368,"5529":14369,"6798":14370,"ecause":14371,"Ġmatrix":14372,"Ġnoting":14373,"artz":14374,"abd":14375,"abuses":14376,"abortion":14377,"0477":14378,"ENGE":14379,"Ġunlock":14380,"Ġunite":14381,"Ġunrelated":14382,"Ġundisclosed":14383,"Ġunredacted":14384,"eafee":14385,"9397":14386,"9398":14387,"9399":14388,"93948":14389,"Ġshap":14390,"Ġche":14391,"Ġchurch":14392,"Ġalliance":14393,"ICES":14394,"ĠEar":14395,"ĠEMAIL":14396,"ĠEurope":14397,"ĠEngine":14398,"Ġhavens":14399,"ISH":14400,"9298":14401,"IGHEST":14402,"072":14403,"nWhoever":14404,"nEvent":14405,"offen":14406,"Ġkid":14407,"amid":14408,"ammer":14409,"hide":14410,"Ġled":14411,"Ġstra":14412,"Ġstronger":14413,"0866":14414,"7844":14415,"nLe":14416,"nLi":14417,"nLink":14418,"nLay":14419,"nLEFT":14420,"73593":14421,"cyber":14422,"aints":14423,"0664":14424,"06304":14425,"761":14426,"762":14427,"7637":14428,"ranging":14429,"Ġexh":14430,"Ġextend":14431,"Ġexcuse":14432,"omar":14433,"Ġlis":14434,"Ġluck":14435,"nGS":14436,"rounded":14437,"nica":14438,"9517":14439,"9511":14440,"Ġabor":14441,"ultra":14442,"ALYZ":14443,"intru":14444,"msn":14445,"ĠJA":14446,"ĠJust":14447,"ĠJudges":14448,"4617":14449,"4624":14450,"tested":14451,"Ġloyal":14452,"antled":14453,"ousing":14454,"75276":14455,"fcca":14456,"ACTION":14457,"ebbe":14458,"pient":14459,"3224":14460,"IDER":14461,"6924":14462,"6956":14463,"6959":14464,"7771":14465,"779057":14466,"Ġfair":14467,"oundations":14468,"3928":14469,"3998":14470,"3959":14471,"Ġsoliciting":14472,"4029":14473,"ĠTOOK":14474,"2114":14475,"8954":14476,"8923":14477,"anka":14478,"anking":14479,"4758":14480,"4788":14481,"LEAR":14482,"LEVEL":14483,"nRetur":14484,"Ġsimul":14485,"Ġnoted":14486,"Ġlies":14487,"Ġlimi":14488,"Ġliability":14489,"Ġprey":14490,"Ġpreten":14491,"etting":14492,"conclu":14493,"confirmed":14494,"conservative":14495,"nOf":14496,"protest":14497,"protected":14498,"protests":14499,"culated":14500,"culation":14501,"cuomo":14502,"Ġmob":14503,"Ġmoved":14504,"âĢ¦âĢ¦âĢ¦.\\":14505,"âĢ¦âĢ¦âĢ¦..\\":14506,"ager":14507,"ages":14508,"agents":14509,"023048":14510,"3116":14511,"31134":14512,"ĠIND":14513,"ĠINSPECT":14514,"TRIP":14515,"affili":14516,"8600":14517,"Ġ155112":14518,"Ġ155164":14519,"Ġ155267":14520,"THIS":14521,"foia":14522,"focus":14523,"portrait":14524,"Ġoutrage":14525,"gender":14526,"olf":14527,"ĠQueen":14528,"quiet":14529,"izon":14530,"ĠVeg":14531,"ĠVoter":14532,"Ġarms":14533,"1107":14534,"1109":14535,"110700":14536,"110450":14537,"Ġdisgu":14538,"Ġdischarge":14539,"Ġdishonest":14540,"ignitaries":14541,"Ġvid":14542,"ĠREV":14543,"ĠREPORT":14544,"ĠRESPECT":14545,"7220":14546,"7226":14547,"6518":14548,"8210":14549,"6326":14550,"wenty":14551,"6210":14552,"6214":14553,"Ġmanagement":14554,"4913":14555,"4916":14556,"4911":14557,"immediate":14558,"immigration":14559,"nUni":14560,"Ġ2012":14561,"Ġ2011":14562,"Ġ2001":14563,"Ġoption":14564,"Ġoppose":14565,"Ġopposed":14566,"8313":14567,"8357":14568,"Ġimple":14569,"Ġimpris":14570,"tentially":14571,"Ġprimar":14572,"clintons":14573,"icholas":14574,"Ġenab":14575,"Ġenrich":14576,"olls":14577,"ived":14578,".\\\"\"":14579,"Ġ15914":14580,"Ġ15924":14581,"ussie":14582,"ogue":14583,"iah":14584,"4115":14585,"4119":14586,"ohr":14587,"Ġseems":14588,"cannot":14589,"canada":14590,"Ġ153270":14591,"ymore":14592,"Ġuti":14593,"Ġunt":14594,"GETS":14595,"trail":14596,"Ġtrace":14597,"Ġtraitor":14598,"merriam":14599,"ushner":14600,"ĠSTEAL":14601,"nComb":14602,"Ġ15868":14603,"levance":14604,"Ġ15453":14605,"Ġ154196":14606,"else":14607,"âĢĶ-":14608,"âĢĶ\\":14609,"âĢĶ-\\":14610,"âĢ¦..\\\"\\":14611,"âĢ¦..?\\":14612,"Ġoverall":14613,"Ġoverseas":14614,"1132":14615,"ĠInc":14616,"ĠIntegrity":14617,"ESSAGE":14618,"spelling":14619,"assador":14620,"Ġspend":14621,"ducation":14622,"Ġ155038":14623,"Ġ155044":14624,"Ġ155078":14625,"Ġ155085":14626,"Ġ1550428":14627,"Ġcorp":14628,"Ġcoronavirus":14629,"Ġcorrelation":14630,"8119":14631,"ersonal":14632,"Ġboat":14633,"Ġbots":14634,"Ġbottom":14635,"institute":14636,"insane":14637,"insburg":14638,"appe":14639,"appened":14640,"Ġ1588447":14641,"Ġpowerless":14642,"expert":14643,"nymag":14644,"ATIONAL":14645,"Ġaffirm":14646,"ELAND":14647,"ski":14648,"Ġsuper":14649,"Ġsuppose":14650,"firms":14651,"Ġ152287":14652,"Ġ152304":14653,"perry":14654,"ormous":14655,"Ġadmitted":14656,"worked":14657,"ĠCONSPIRACY":14658,"10724":14659,"107567":14660,"amples":14661,"Ġtens":14662,"Ġteach":14663,"Ġtests":14664,"Ġtelegraph":14665,"Ġremote":14666,"Ġremoving":14667,"10015":14668,"10010":14669,"AEE":14670,"Ġaccus":14671,"Ġwars":14672,"inesses":14673,"10619":14674,"mpath":14675,"Ġprotest":14676,"Ġimmunity":14677,"Ġceleb":14678,"âĢĤâĢĤâĢĤâĢĤâĢĤâĢĤâĢĤâĢĤâĢĤâĢĤâĢĤâĢĤâĢĤâĢĤâĢĤâĢĤâĢĤâĢĤâĢĤâĢĤâĢĤâĢĤ":14679,"1208":14680,"Ġmistakes":14681,"nInvestig":14682,"nIntel":14683,"nIncorrect":14684,"Ġ15798":14685,"Ġ16026":14686,"Ġ160270":14687,"Ġpersonnel":14688,"nKILL":14689,"Ġracists":14690,"partner":14691,"Ġinterviews":14692,"Ġguerri":14693,"ANDAL":14694,"Ġcomply":14695,"Ġcomplicit":14696,"nExactly":14697,"spread":14698,"ALLENGE":14699,"ordinate":14700,"ordinary":14701,"Ġterritory":14702,"ĠPROG":14703,"standard":14704,"assive":14705,"Ġ152433":14706,"Ġindicating":14707,"Ġauto":14708,"Ġreceipt":14709,"torch":14710,"OCIAL":14711,"criminating":14712,"prison":14713,"TERMIN":14714,"Ġ15187":14715,"Ġ151867":14716,"IRAN":14717,"Review":14718,"Ġrotation":14719,"Ġapps":14720,"Ġ151330":14721,"Ġinsulated":14722,"Ġobstruct":14723,"ĠColle":14724,"international":14725,"interrogation":14726,"Ġsufficient":14727,"Ġ153757":14728,"tiny":14729,"ACKMAIL":14730,"12620":14731,"12693":14732,"Ġ15628":14733,"Threat":14734,"thats":14735,"sentence":14736,"success":14737,"15068":14738,"Ġ15644":14739,"Ġ15304":14740,"Ġ153006":14741,"58016":14742,"ĠRead":14743,"ĠReady":14744,"icture":14745,"Ġ153809":14746,"Ġsubjects":14747,"1180":14748,"Ġpopular":14749,"Ġpopcorn":14750,"Ġlawyer":14751,"buzzfeed":14752,"8980":14753,"8988":14754,"pointing":14755,"2384":14756,"ĠDOOR":14757,"ĠDOLLARS":14758,"Ġchanges":14759,"Ġworkers":14760,"Ġsurface":14761,"Ġsurgery":14762,"UMENT":14763,"disinformation":14764,"haha":14765,"quered":14766,"quently":14767,"vail":14768,"ika":14769,"Ġbuys":14770,"Ġbuying":14771,"ĠCHIEF":14772,"Ġrepresented":14773,"ĠSHIT":14774,"Ġactivate":14775,"7942423":14776,"ENDED":14777,"Ġ152910":14778,"Ġ152936":14779,"urrent":14780,"Ġallowing":14781,"29644":14782,"ETY":14783,"51887":14784,"5248":14785,"52479":14786,"8978":14787,"91236":14788,"Ġ155338":14789,"ĠSCANDAL":14790,"nHelicopter":14791,"nHello":14792,"ĠâĢ¦âĢ¦.\\":14793,"UTISTS":14794,"ĠWORK":14795,"Ġ160028":14796,"warfare":14797,"warrants":14798,"ĠSECOND":14799,"nThanks":14800,"Docu":14801,"ickle":14802,"missing":14803,"missile":14804,"Ġillegitimacy":14805,"chell":14806,"Ġ151640":14807,"nProvide":14808,"nProtect":14809,"ĠComm":14810,"nForce":14811,"nForced":14812,"Ġleaking":14813,"nVi":14814,"nVIP":14815,"nVery":14816,"Ġhigher":14817,"DEEP":14818,"Note":14819,"william":14820,"mentation":14821,"magaz":14822,"lawful":14823,"Ġexpressed":14824,"ultz":14825,"Defense":14826,"Democrats":14827,"vino":14828,"Ġpictures":14829,"nTogether":14830,"Ġtied":14831,"Ġreclaim":14832,"BOOK":14833,"donations":14834,"thinkprogress":14835,"nTRAITORS":14836,"22862":14837,"Ġswift":14838,"Ġentities":14839,"Ġcovertly":14840,"hislaine":14841,"nPrevious":14842,"Ġmayor":14843,"ĠELSE":14844,"ĠRoth":14845,"ECTIVE":14846,"ĠINTENDED":14847,"3344":14848,"33408":14849,"51413":14850,"EGADE":14851,"Ġregime":14852,"Ġregister":14853,"236296":14854,"remendous":14855,"Ġchoose":14856,"3571":14857,"PRK":14858,"Ġdamage":14859,"Ġdanger":14860,"Ġprivately":14861,"6583":14862,"plane":14863,"Ġwhereby":14864,"Ġdesignators":14865,"25016":14866,"Stand":14867,"supp":14868,"powerful":14869,"Ġlegally":14870,"Ġlegitimacy":14871,"5221":14872,"ffili":14873,"Ġcalling":14874,"ĠCLOCKWORK":14875,"ĠASIA":14876,"Ġdelivery":14877,"ĠOPs":14878,"ĠOPER":14879,"nDivision":14880,"88026":14881,"640293":14882,"1111370":14883,"1111368":14884,"Ġfails":14885,"Ġfailing":14886,"Ġcomplex":14887,"CoV":14888,"Code":14889,"Cooper":14890,"Coats":14891,"clamation":14892,"Ġremained":14893,"nSecured":14894,"accused":14895,"Ġparties":14896,"Ġsingular":14897,"RepDoug":14898,"RepAdam":14899,"seek":14900,"ĠProject":14901,"Ġgovs":14902,"Ġclosely":14903,"92766":14904,"ULK":14905,"nRETUR":14906,"tility":14907,"Ġcarpet":14908,"tisan":14909,"Ġformally":14910,"6004":14911,"subreddit":14912,"terior":14913,"Ġresult":14914,"Ġmidterm":14915,"alex":14916,"16060":14917,"ĠLogan":14918,"ĠLoaded":14919,"ĠIMPEACHMENT":14920,"III":14921,"ĠTotal":14922,"7509735":14923,"Ġaddressed":14924,"106088":14925,"ĠSecretary":14926,"Ġmindset":14927,"nChange":14928,"Ġsocials":14929,"Ġlawsuit":14930,"fitz":14931,"marine":14932,"9282949":14933,"FLYNN":14934,"FLYROTHS":14935,"ĠZeal":14936,"Ġemploye":14937,"aires":14938,"companies":14939,"ĠCONCLUDE":14940,"ĠBRAVE":14941,"Ġtechn":14942,"Ġ1562634":14943,"7370113":14944,"Here":14945,"SHIP":14946,"Ġscam":14947,"Ġscale":14948,"ĠSean":14949,"82515":14950,"8251197":14951,"OFS":14952,"Ġshoes":14953,"Ġshock":14954,"46405":14955,"Ġpresenting":14956,"Ġbribe":14957,"nCommon":14958,"Ġdisclosures":14959,"Ġgenerate":14960,"Ġgenerates":14961,"Clown":14962,"secretly":14963,"secretary":14964,"Ġthanks":14965,"ĠTARGETS":14966,"johnroberts":14967,"nINSURGENCY":14968,"feeder":14969,"ĠBelie":14970,
[...]
